<s>
<pad>
</s>
<unk>
indevida
!
"
#
$
%
&
'
(
)
*
+
,
-
.
/
0
1
2
3
4
5
6
7
8
9
:
;
<
=
>
?
@
A
B
C
D
E
F
G
H
I
J
K
L
M
N
O
P
Q
R
S
T
U
V
W
X
Y
Z
[
\
]
^
_
`
a
b
c
d
e
f
g
h
i
j
k
l
m
n
o
p
q
r
s
t
u
v
w
x
y
z
{
|
}
~
¡
¢
£
¤
¥
¦
§
¨
©
ª
«
¬
®
¯
°
±
²
³
´
µ
¶
·
¸
¹
º
»
¼
½
¾
¿
À
Á
Â
Ã
Ä
Å
Æ
Ç
È
É
Ê
Ë
Ì
Í
Î
Ï
Ð
Ñ
Ò
Ó
Ô
Õ
Ö
×
Ø
Ù
Ú
Û
Ü
Ý
Þ
ß
à
á
â
ã
ä
å
æ
ç
è
é
ê
ë
ì
í
î
ï
ð
ñ
ò
ó
ô
õ
ö
÷
ø
ù
ú
û
ü
ý
þ
ÿ
Ā
ā
Ă
ă
Ą
ą
Ć
ć
Ĉ
ĉ
Ċ
ċ
Č
č
Ď
ď
Đ
đ
Ē
ē
Ĕ
ĕ
Ė
ė
Ę
ę
Ě
ě
Ĝ
ĝ
Ğ
ğ
Ġ
ġ
Ģ
ģ
Ĥ
ĥ
Ħ
ħ
Ĩ
ĩ
Ī
ī
Ĭ
ĭ
Į
į
İ
ı
Ĳ
ĳ
Ĵ
ĵ
Ķ
ķ
ĸ
Ĺ
ĺ
Ļ
ļ
Ľ
ľ
Ŀ
ŀ
Ł
ł
Ń
Ġd
Ġa
nt
Ġde
re
Ġp
Ġe
ra
os
Ã£
Ã£o
Ġc
ri
ad
ent
ci
Ġn
Ã§
Ġs
st
al
or
Ġo
qu
Ġco
in
er
Ġre
Ġdo
Ġda
Ã§Ã£o
es
Ġqu
ment
id
en
ĠD
ĠA
as
ro
Ġque
la
Ġt
it
ar
is
ic
Ã¡
Ġf
ĠC
do
on
Ġm
ĠR
ĠS
ĠP
Ġem
mento
ĠT
ÃŃ
Ġcon
Ġse
Ġin
ĠÃ
Ġ1
20
ado
aÃ§Ã£o
cu
ist
to
ma
el
ti
ĠE
Ġv
Ġcom
ĠM
un
nte
ĠI
ju
de
Ġno
cia
ade
Ġ(
Ã³
so
Ġpro
im
ĠnÃ£o
se
res
di
Ġju
Ãª
an
RA
ada
Ġex
Ã©
ncia
ĠDE
ta
Ġpa
da
le
ria
idade
ĠN
ST
te
sp
Ġ2
sÃ£o
vo
Ãªncia
ĠF
Ġao
NT
Ġpor
ei
Ġar
ica
Ġsu
ĠL
va
Âº
ut
em
gra
201
Ãĥ
ÃĥO
mente
Ġna
Ġpre
ela
Ġcont
Ġap
ĠO
il
RI
ĠRE
Ġ-
ĠÃł
sta
eri
ga
Ġh
Ġpara
gu
Ãº
iz
CI
sa
Ãµ
rio
rib
ido
Ġas
ce
Ġos
go
âĢ
Ġdi
ito
Ġtra
RE
ces
itu
Ġdos
Ãĩ
ral
cur
Ġser
Ãµes
AD
Ġi
ente
ĠJ
AL
cial
OS
Ġpar
pos
pre
Ġ3
Ġso
mo
inist
cion
Ġrec
Ġpel
Ġb
Ã§a
ribun
vi
Ġart
ados
ĠTribun
us
stitu
ĠTribunal
Ġou
RO
ĠRe
tu
ENT
OR
ÃĩÃĥO
ou
ĠSu
curso
Ġdeci
ĠÃ©
Ġl
am
ve
ON
Ġpelo
fe
alh
ir
lic
Ġ8
Ġim
raÃ§Ã£o
ais
ando
ĠV
Ġpo
Ġcontra
ul
Ġ4
balh
ede
00
ca
bil
Ã§Ãµes
ĠâĢ
um
nto
Ġob
he
co
200
ida
ID
Ġ5
ru
Ġjul
ia
Ã¡rio
Ġent
IN
Ġca
Ġpela
io
Â§
Ġle
..
Ġcomo
ER
endo
ĠDA
orm
ur
erm
ĠFede
spe
EN
).
Ġnos
Ġne
ĠLei
Ġdis
ĠDO
cional
Ġrecurso
ĠMinist
ES
ÃŃci
iÃ§Ã£o
ĠÂ§
Ġdas
ĠdecisÃ£o
ista
ĠFederal
Ġ:
Ġac
Ġint
sti
MENT
ĠB
Ġsob
orre
at
AR
gi
cess
Ġimp
Ġen
Ãºb
gravo
Ã¡ria
Ġdes
ver
UR
vel
era
bilidade
Ġmo
ed
LA
ĠAG
Ġfo
Ġaut
Ġ"
Ġ7
Ġad
Ġfun
tiv
Ġconf
Ġest
gamento
Ġtrabalh
IC
orma
dÃ£o
et
si
ĠIN
ros
Ġrela
Ã³r
Ġsegu
Ġcomp
Ġcas
Ġan
ula
fic
VO
Ġau
tiva
Ġper
ĠG
SO
aliz
Ã³rdÃ£o
raz
Ġqual
ĠCon
pa
ĠJu
Ġpres
Ġinter
cl
IST
Ãģ
dÃªncia
ĠnÂº
TO
Ġass
gado
feri
Ġpos
ĠTur
Ġparte
Ġdec
ĠREC
),
sid
pres
dic
vid
Ġfa
Ġat
ĠSupre
cumento
CIA
ĠTurma
Ġdire
EI
ĠAD
mentos
Ġsent
itos
Ã¢
IL
ha
Ġ9
Ãºm
Ġto
Ġu
Ġal
lo
den
ntes
con
tor
Ġ6
ig
Ġpri
no
Ġsua
ÃŃcio
rios
dos
orte
ici
entes
ĠRela
ĠSupremo
Ġsub
anto
Ġcaso
ns
vista
ĠMinistro
lica
gos
ĠâĢĵ
Ġauto
AÃĩÃĥO
adas
Ġ0
MENTO
Ġfoi
Ġarti
Ġautos
Ġfunda
dade
ADO
ĠPRO
Ġma
ef
ja
peri
Ġesta
Ġaos
tra
ĠEM
NCIA
tivo
po
21
Ã¡t
Ġterm
AS
99
Ġtermos
PC
ADE
Ġagravo
stitucional
LT
ina
Ġtem
posto
que
ĠCO
Ã§o
rÃ©
Ãºmula
ĠAGRA
rov
perior
Ġval
du
ÃĬ
ĠII
stiÃ§a
ram
ED
ĠDJ
Ġraz
Ġrecla
heci
ÃŃn
IS
Ġespe
Ġ13
ss
Ġefe
ced
Ġleg
Ġg
Ġresp
URSO
AN
iv
tÃ³
Ġjuri
bar
ÃĬNCIA
cesso
Ġadm
Ġaplic
EL
ĠH
ĠCorte
vimento
Ġpode
UN
ix
Ġben
DO
Ãī
orme
Ġte
end
ras
ico
rado
Ã©m
Ġartigo
01
Ġmes
ĠCLT
Ġj
SP
Ġrespon
je
dimento
ĠTra
su
Ġsobre
ocumento
rig
IDADE
Ġtrans
ĠSuperior
ĠRelator
ador
Ġuma
Ġseu
Ġha
IV
Ġ.
ese
Ãºblic
ĠacÃ³rdÃ£o
ho
mp
Ġbenef
ÃģRI
ual
Ãį
IT
ĠCo
tos
Ġinci
03
erc
ĠST
66
Ġdesta
ĠTST
man
ĠRECURSO
rim
eira
ĠSÃºmula
idos
Ãºblica
ex
Ġempre
ĠCON
enÃ§a
Ġsegui
Ġprovimento
Ġservi
Ġinst
ran
stituiÃ§Ã£o
02
riz
ĠJustiÃ§a
QU
ÃŃvel
MP
Ġforma
Ġout
ele
08
Ã³di
pÃ³
Ġes
Ġconforme
Ġjulgamento
DA
US
spru
por
âĢĿ
Ãļ
Ġenten
rÃŃ
2001
onal
EG
laÃ§Ã£o
MA
Ġrevista
iro
96
din
11
Ġdef
clu
Ġprev
ĠâĢľ
ez
ĠDJe
Ã³digo
quer
Ã´
Ġprov
2017
ĠIn
Ġdecla
UL
ĠDe
ĠMIN
ĠCPC
Ġdireito
gn
Ġsentido
cÃŃ
ĠjurÃŃ
Ġresponsa
Ġsem
mb
alizaÃ§Ã£o
Ġjurispru
Ã¡rios
cre
Ġ11
Ġdeve
Ġ10
Ã¡l
Ã¡g
fere
Âª
ĠhÃ¡
ĠAGRAVO
Ãºblico
Ġpen
Ġaf
Ġman
Ġvo
2015
ita
ser
Ġum
Ã¡vel
Ġextra
ordin
Ġrecon
ĠEX
ERA
Ġprova
Ġquando
Ġativ
05
Ġla
Ġembar
ĠTe
Ġcar
eral
Ġ24
Ġpr
Ãĵ
inda
IO
04
fica
Ġagra
ĠAc
ribu
ĠNo
Ġ20
ĠSe
Ġregi
Ġinte
Ġ12
ĠAgravo
Ġinf
enta
dica
ww
aut
ĠPRE
esse
AT
das
Ġentendimento
enci
Ġ,
Â°
ste
Ã§os
sal
nta
gun
93
cer
ne
Ġpagamento
Ġdev
Ġseja
autent
Ġprest
Ġrep
ĠEm
ĠMin
ĠConstituiÃ§Ã£o
Ġdet
ÃŃz
isc
Ġreg
cri
Ġrequ
Ġfin
Ġgra
ĠRel
ĠTrabalh
AB
Ġ/
Ã¢ncia
DI
Ġentre
12
pri
Ġver
ecu
Ġjulgado
...
orri
be
LIC
ĠjÃ¡
istas
ĠPÃ¡g
cus
ndo
ase
ber
Ġinstru
enha
Ġmon
mon
ĠAcÃ³rdÃ£o
Ġainda
Ġespecial
Ġconsid
ĠPROC
Ġnecess
Ġresponsabilidade
almente
Ġcum
Ġhi
ĠbenefÃŃcio
ĠSTF
Ġsal
UT
Ġfisc
NTE
der
Ġele
istÃªncia
Ġprocess
Ġvalor
iti
ĠTrabalho
10
Ġcau
ĠPÃ¡gina
Ġconden
Ġrecur
Ġpes
sibilidade
orrente
ame
Ġempres
Ġante
Ġquanto
Ġmat
ante
ĠRegi
nci
Ġautora
tado
Ġquest
Ġtrabalho
ĠperÃŃ
ĠDocumento
Ġreclam
izaÃ§Ã£o
Ġconheci
06
irm
ten
taÃ§Ã£o
Ġvio
ĠserviÃ§os
Ġoc
ĠNO
Ġcu
rar
Ġale
Ġfix
ub
art
mis
ĠÃī
tal
rias
Ġme
monst
Ã¡tica
ET
za
mental
ĠjurisprudÃªncia
Ġdemonst
Ġjudi
ÃŃzo
ĠmatÃ©
67
Ġped
tanto
ite
ĠPor
Ã³p
Ġatu
Ġcontrato
ĠaÃ§Ã£o
ĠEx
ĠrelaÃ§Ã£o
Ġprocesso
inado
ciais
inistraÃ§Ã£o
Ġab
Ġbem
SS
Ġdeterm
len
2019
CIAL
nteiro
Ġparti
amento
Ġobje
ĠrazÃ£o
Ġsendo
ĠAd
Ġqualquer
tÃ³rio
ÃŃl
Ġmen
lu
pÃ³t
ĠTeor
ĠaplicaÃ§Ã£o
Ġun
ÃģRIO
Ġapres
Ġlim
Ġcondi
Ġvez
RT
ĠPA
Ġconstitucional
Ġmais
25
Ġorig
cussÃ£o
09
Ġobser
ades
ĠRecurso
VI
pl
Ġtam
Ġcorre
ĠPro
Ġmesmo
bo
Ġcer
ĠINT
RIA
Ġlei
ĠmatÃ©ria
bele
eiro
ĠhipÃ³t
cul
ĠInteiro
ĠmÃ©
Ġpresente
Ġdispos
cÃŃp
Ġinstrumento
Ġconsidera
Ġembargos
cont
Ġsubsid
Ġ19
ordinÃ¡rio
ncÃŃp
gR
Ġref
SÃĥO
gaÃ§Ãµes
ĠsentenÃ§a
ĠAdm
ERAL
BLIC
Ġcor
Ġter
ĠPre
pe
199
ĠperÃŃo
gar
icar
rada
mante
inar
19
Ġexecu
Ġobri
fici
tada
ssim
Ġpesso
enas
entado
Ġrecorri
ONAL
Ġcumpri
oc
ĠprÃ³p
ĠÃłs
git
ĠMINIST
ILIDADE
Ġconsta
cla
Ġdiver
RAN
Ġpedido
vada
Ġatividade
bÃ©m
22
ĠpÃºblico
Ġtrabalhistas
Ġnas
2014
Ġof
rito
Ġ16
ĠNÃ£o
ĠprincÃŃp
Ġ896
Ġpois
ĠdeclaraÃ§Ã£o
Ġinde
Ġcomprov
2018
VA
clus
Ġrespe
Ġinca
paci
ise
Ġcausa
TE
vante
Ġtese
ĠSU
idas
Ġempresa
Ġ14
Ġ15
Ġ18
Ġassim
ĠCÃ³digo
atÃ³
Ġapenas
mentaÃ§Ã£o
ĠquestÃ£o
sos
ĠEst
Ġproferi
li
constitucional
Ġlegal
Ġrequis
ĠQU
Ġres
ĠÃ³
ĠNa
Ġreferi
Ã¡lise
Ġexpres
Ġfor
Ġfato
Ġor
ĠDI
Ġnatu
ĠAdministraÃ§Ã£o
Ġexig
nus
ÃŃcios
ĠLEI
RR
Ġcul
cessÃ£o
2016
ĠPÃºblica
ls
IZ
inistra
91
gou
Ġdata
ÃĩA
ĠanÃ¡lise
reza
ĠtambÃ©m
PRE
Ġperi
gula
mais
rior
31
Ġdocumento
Ġexame
ĠJU
IG
ĠÃ´
Ġsubsidi
tific
ADA
ĠperÃŃodo
Ġlegis
Ġvoto
EC
88
ĠsÃ£o
om
ncias
ivil
endÃªncia
Ġpraz
ĠÃ´nus
Ġconclu
ĠNÂº
Ġfundamentos
ĠREG
Ġestabele
Ġmas
Ġreconheci
ĠconcessÃ£o
Ġpas
anc
Ġdigit
ISTA
duz
ĠIII
ĠjurÃŃdica
via
LAT
Ġaus
Ġreclamante
imento
cedentes
ens
reÃ§o
MIN
ni
VID
JT
SC
Ġgeral
ĠestÃ¡
07
indo
udo
Ġregimental
dem
eio
ĠviolaÃ§Ã£o
idades
tivos
ime
2020
ĠEXT
car
Ġfe
tar
Ãµe
ĠAC
clusi
Ġprazo
sÃŃvel
gados
Ġnatureza
val
posiÃ§Ã£o
Ġnorma
ÃļBLIC
RU
CIONAL
Ġveri
ĠatÃ©
Ġautor
Ġpartir
ercussÃ£o
ĠNA
Ġtempo
Ġterc
17
ĠPo
videnci
icial
Ġmonet
Ġcap
igu
pacidade
Ġdesp
ĠAssim
Ġrem
ĠrazÃµes
Ġfal
ĠSr
ugn
ĠMP
....
ĠRegional
cendÃªncia
ĠcorreÃ§Ã£o
15
creto
ĠMa
ULA
Ġtendo
ĠREV
rem
Ġado
ĠINTER
ĠNÃĥO
ĠART
Ġmed
Ġende
Ġorigem
ĠPa
vent
Ã©r
Ġrecorrente
Ġapresent
ĠDEJT
ĠmonetÃ¡ria
Ġcons
EIRA
gada
ĠÃº
ĠendereÃ§o
ĠhipÃ³tese
Ġtal
ĠfiscalizaÃ§Ã£o
ITU
95
Ã´m
Ġrealiz
Ġjuros
MO
Ġanos
Ġbase
...)
Ġadministra
Ġmodo
Ġvig
ĠTUR
imidade
Ġafa
ĠjurÃŃdic
Ġjudicial
br
Ġdisp
iu
ublic
TA
ĠobrigaÃ§Ãµes
itivo
jus
REI
Documento
ĠÃŃn
lh
ĠDi
iste
gaÃ§Ã£o
Ġapos
ĠTURMA
ĠausÃªncia
Ġ17
ĠPÃļBLIC
enh
ĠtranscendÃªncia
ĠCOR
ĠEST
Ġassinado
postos
isto
Ġpena
alidade
veis
ĠsubsidiÃ¡ria
Ġfim
ensa
Ġconte
Ġacess
ulta
edade
ĠIMP
ĠU
.(
Ġinad
fo
Ġho
Ġecon
tt
Ġcri
SI
Ġdeman
Ġhon
na
Ġpart
24
Ġfaz
Ġag
):
ĠSO
DE
HO
Ġ28
Ġobserv
Ġsegun
//
ata
ĠMA
ĠcÃ³digo
ttp
ch
ĠcondenaÃ§Ã£o
ridade
://
STITU
uais
Ġcumprimento
Ġvin
Ã³s
til
www
resid
ĠPROCES
Ġexerc
Ġconstitu
Ġhttp
DF
II
Ġrest
35
ĠprestaÃ§Ã£o
ĠÃŃndic
asp
ife
Ġcrim
Ġsenha
cao
ĠexistÃªncia
tados
ĠMINISTRO
Ġmant
Ġargu
Ġinciso
qui
portal
Ġeste
segu
stf
94
Ġacessado
ĠX
icacao
autenticacao
autenticar
autenticarDocumento
Ġseus
Ġportanto
ores
Ġpreten
Ġdever
ĠREVISTA
ĠrÃ©
dicional
orÃ¡rios
Ġga
Ġdigitalmente
Ġindic
elo
ARG
ĠEXTRA
Ġsitu
ĠRep
ĠESP
culo
ĠEspe
me
nico
ĠprincÃŃpio
rial
Ġculpa
Ġmanife
Ġapre
".
jo
Ġintegra
73
ĠMinistros
ĠAP
Ġtodos
entadoria
ĠEstado
Ġagravada
ĠNesse
tora
467
Ġimpugn
ĠREGI
ribuiÃ§Ã£o
Ġprim
Ġexpressa
ĠextraordinÃ¡rio
CO
Ġporque
Ġacor
Ġconhe
Ġreclamada
RIO
Ġhou
ĠAL
itaÃ§Ã£o
pÃ³s
Ġmora
esa
Ġta
Ġform
Ġtercei
Ġprocessual
Ġaco
STO
NO
enÃ§Ã£o
Ġvista
Ġseguintes
Ġinterposto
ende
Ġprovido
Qu
Ġcompet
xa
ira
cedente
Ġforam
Ġencont
Ġexposto
ĠCONT
Ġregula
Ġrece
tas
ranÃ§a
Ġverb
Ġrev
ĠCivil
Ġnega
Ġis
gador
2021
666
ĠPlen
ĠCom
ĠrepercussÃ£o
ĠEMB
ĠexecuÃ§Ã£o
ORA
istos
Ġgara
ĠCOM
Ġpelos
ĠTR
ĠRELAT
60
ĠADVO
cionais
Ġadmis
Ġefeito
EX
Ġato
menta
79
Ġsa
18
ENTE
ĠhonorÃ¡rios
ĠDOS
ĠARE
Ġempregado
tica
Ġincapacidade
criÃ§Ã£o
Ġaposentadoria
Ġ25
Ġpressu
imo
Ġfat
ERI
rÃ©d
Ġtrata
Ġutil
Ġdeste
Ġmeio
Ġfundamento
ICA
Ġacer
Ġdecorre
IA
rg
ĠapÃ³s
SU
Ã©rio
URA
vida
Ġvi
Ġseguimento
Ġpe
ĠCA
eraÃ§Ã£o
Ġsido
Ġanal
vol
Ġface
RIB
tela
ĠProcesso
Ġdesde
ĠSEG
Ġobjeto
DIN
ĠIV
14
84
missÃ£o
Ġente
adora
HE
Ġins
Ġsomente
Ġsim
batÃ³
ÃŃlia
RAT
cel
Ġregime
Ġora
ĠcrÃ©d
Ġrequisitos
Ġquais
osa
97
Ġconhecido
Ġevent
Ġinterpre
ÃģRIA
gÃªncia
Ġsocial
ĠjuÃŃzo
ĠPÃºblico
ge
essa
ĠeconÃ´m
STJ
Ġtema
ĠESPE
ĠmÃ©rito
Ġadvo
Ġ(...)
rou
Ġdel
Ġrefere
Ġremun
34
ĠSP
Ġred
stion
ĠQu
ĠINST
ĠcondiÃ§Ãµes
rizaÃ§Ã£o
Ġdisposto
Ġinicial
Ġindi
Ġdefin
ĠSTJ
Ã¡rias
Ġinterno
essÃ£o
Ġreconhe
rovÃ©r
Ġdemanda
Ġpreju
ĠESPECIAL
Ġdetermin
nos
ĠSegun
."
ĠserviÃ§o
Ġagravante
sÃµes
EM
ĠFED
Ġanterior
Ġcole
clusive
Ġregra
Ġfirm
AG
sia
âĢĻ
Ġseguinte
Ġid
Ġsegurado
Ġrecursal
2013
ceu
Ġdocu
ĠPrim
ĠcontrovÃ©r
ĠADVOG
Ġaci
Ġoutro
Ġdu
Ġunan
MULA
jam
ĠPRI
Ġgarant
Ġunanimidade
ento
gais
ĠMAR
quanto
Ġinden
Ġtr
bora
enda
RES
ĠLu
rt
xto
Ġmedida
ĠlegislaÃ§Ã£o
tivas
Ġinclusive
ero
ĠFEDERAL
Ġsegundo
UNDA
Ġregist
Ġesp
iÃ§Ãµes
ĠPrimeira
ĠcontrovÃ©rsia
ĠPresid
74
isÃ£o
mou
Ġsup
ĠincidÃªncia
Ġfatos
Ġinconstitucional
ĠLe
rente
posta
Ġdiscu
DINÃģRIO
PO
33
tura
diÃ§Ã£o
ĠPOR
ERC
ĠpossÃŃvel
ĠRO
ĠâĢĺ
Ġordem
ĠexercÃŃcio
ÃļMULA
Ġalte
Ġregional
Ġlegais
Ġtom
ĠPoder
luÃ§Ã£o
vido
Ġvalores
Ġmate
Ġadmissibilidade
ĠEspecial
met
Ġconhecimento
Ġconfigu
dor
Ġ30
Ġaju
AgR
ĠINSTRU
54
Ġade
orn
cimento
Ġnorm
anÃ§a
Ġit
cho
sign
dencial
ĠW
pro
Ġinadim
ĠMinistra
izada
END
pon
ĠADI
Ġaqu
ĠQUE
ĠAgR
GT
orr
ĠsÃ³
gist
Ġcab
rac
IVA
lid
Ġpoder
IÃĩÃĥO
edi
lÃŃ
Ġarts
Ġpublic
vendo
EF
Ġ22
64
Ġsufici
Ġcaput
Ġrecorrido
ABILIDADE
exo
ULO
Ġinteres
ĠSÃļMULA
Ġprovas
Ġir
Ġ200
GTS
AMENTO
ter
ĠESTADO
ĠEMBARG
entaÃ§Ã£o
Ġoutros
13
ĠADV
ĠAGR
Ġdist
Ġacerca
Ġparcial
Ġjuris
inu
ELA
Ġapreci
ADOS
STI
ÃŃlio
ĠOs
Ġcertific
Ġdefesa
Ġhouve
Ġmulta
Ġress
",
Ġdecidi
ĠCIV
Ġefeitos
riamente
ĠInt
AI
2011
inha
dente
Ãªs
Ġconta
Ġ71
ĠrelatÃ³rio
ÃŃtu
2012
ĠFGTS
ULG
ĠINSS
Ġapo
ĠcompetÃªncia
Ġproferida
RAÃĩÃĥO
rece
Ġpartes
entemente
ĠCIVIL
ĠSo
ĠBras
ĠsituaÃ§Ã£o
ĠÃĢ
Ġprevidenci
Ġatividades
Ġve
ĠjurÃŃdico
98
Ġcir
ANT
Ġafast
Ġdispositivo
tÃ³ria
Ġaux
ĠÃ³b
ĠINSTRUMENTO
Ġrecorrida
lemento
Ġsuas
cula
ĠpÃºblica
BILIDADE
tivamente
mas
ÃŃdo
Ġpossu
Ġdireta
ĠÃŃndice
ĠLU
ĠRepÃºblica
ĠSegunda
Ġrepres
tual
23
Ã¡tico
Ġmedi
Ġcondu
ĠRes
ĠCar
27
Ġacordo
pend
RD
rante
Ġdias
Ġdano
ĠmÃŃn
Ġ21
IVO
stru
Ġhoras
ĠAgra
fls
Ġvia
Ġofensa
Ġproce
HECI
Ġencontra
Ġseria
ant
tÃ³rios
Ġcrit
Ġprevista
nst
ĠAUS
ĠTRA
ĠEXTRAOR
Ġdevida
Ġjusti
Ġcertificado
Ġlhe
Ġli
ME
Ġtenha
ba
ĠSEN
âĢĿ.
SID
Ġcada
ĠRELATOR
tin
ios
ĠPÃļBLICO
Ġcust
Ġempregados
Ġdeix
Ã¡ter
ĠredaÃ§Ã£o
Ġinex
ĠVo
Ġrespeito
ICO
cido
Ġ26
ĠOUT
cumb
ĠinterpretaÃ§Ã£o
MINIST
itiv
85
ĠfundamentaÃ§Ã£o
ĠUni
ĠcarÃ¡ter
tiÃ§Ã£o
ÃĵRD
ÃĵRDÃĥO
lex
ĠAUSÃĬNCIA
ĠTRIB
ĠED
Ġconso
Ġcircu
Ġessa
83
ĠprÃ©
MENTAL
Ġinfra
Ġconsign
Ġreconhecimento
ĠADC
ĠSite
ĠpretensÃ£o
Ġconse
Ġconduta
Ã¢ncias
Ġmediante
ĠÃ¢
AND
Ġdia
Ġnormas
eses
Ġcasos
Ã¡gra
BAL
Ġrecursos
form
batÃ³rio
Ã³ria
Ġeventual
Ġartigos
Ġreferido
Ġperman
riedade
emb
Ġverific
ĠCF
Ġtre
ĠEXTRAORDINÃģRIO
question
ĠAO
ice
Ġcl
icas
Ġgratu
BER
plemento
Ġesse
cip
berto
pera
ocr
gem
ĠAl
adores
Ġrequeri
Ġru
ÃŃtulo
ÃŃs
cin
26
ĠÃĵ
Ġocorre
racte
ĠTRABAL
ĠauxÃŃlio
and
ĠespecÃŃ
Ġela
Ġpaci
Ġinc
ess
Ġprevisto
ĠPO
ĠAN
itar
Ġtrabalhador
Ġ[
ĠDECI
irmou
ĠREGIMENTAL
Ġdireitos
ĠPrecedentes
ĠprÃ³pria
Ġnecessidade
ris
ĠdÃ©
ĠRecla
Ġadequ
Ġva
ĠSER
ĠserÃ¡
Ġdemais
orrÃªncia
Ġpossibilidade
Ġressal
16
015
ĠFa
Ġfls
ONS
EIRO
Ãªncias
Ġconcreto
VIMENTO
Ġfinanc
Ġpessoa
fl
mos
Ġfam
LI
ĠACÃĵRDÃĥO
Ġprequestion
vor
Ġcircunst
SIBILIDADE
ĠTrata
Ġmaio
ELO
Ġ331
Ġcontr
Ġnegou
AC
Ġfase
REITO
Ġmesma
Ã§as
Ġperm
Ġmanifest
enho
Ġapelo
Ġsust
Ġrea
ĠÃ¢mb
90
ili
ĠpolÃŃ
ĠalÃ©m
uz
Ġjurisprudencial
Ġ27
ĠMar
Ġadvoca
ĠÃ¢mbito
Ġnova
Ġdeferi
ensÃ£o
Ġencar
Ġsusp
icos
fa
Ġinconstitucionalidade
iva
tÃŃcios
ĠTo
enal
voc
mentar
ĠcondiÃ§Ã£o
tou
Ġdene
Ġprof
ĠprÃ³prio
cep
87
ĠPAR
ĠDis
Ġacima
Ġteor
issi
ĠCont
Ġanalis
VIDO
nun
ĠsalÃ¡rio
Ġlaudo
HOR
Ġisso
Ġmonocr
STITUCIONAL
tando
ĠÃ³rg
ĠDire
biliz
itivos
tante
ĠRESP
ĠcomprovaÃ§Ã£o
inal
ĠfunÃ§Ã£o
ĠJULG
Ãºde
cessa
Ġpelas
vos
duÃ§Ã£o
ĠdepÃ³s
ĠomissÃ£o
ĠadvocatÃŃcios
ud
rados
ĠCOMP
ĠRelatora
Ġpressupostos
Ġcla
AGRA
SUAL
mar
ĠADMINIST
Ġdiscut
ĠLuiz
55
Ġimpro
lhe
nica
Ġdifere
Ġfeito
Ġdanos
dici
ĠNEG
Ġnem
ĠHC
ĠTRAN
ĠcÃ¡l
Ġrespec
gia
ĠDEC
ĠSENHOR
Ġobrig
AGRAVO
PCA
pus
ĠVoto
Ġdest
aÃ§Ãµes
Ġautoriz
ĠatualizaÃ§Ã£o
ĠparÃ¡gra
Ġ199
beas
ĠData
Ġdiante
........
REG
ĠseguranÃ§a
Ġ23
CID
Ġ29
dio
Ġconv
Ġadministrativo
)(
Ġori
ĠinÃŃcio
.âĢĿ
Ġpla
rovido
ĶN
ĠRo
Ġcaus
Ġinstitu
ĠXX
ĠSUB
213
ÃįCI
ĠdÃ©b
Ġitem
ĠSE
Ġfundament
Ġfins
IM
ĠnecessÃ¡rio
Ġcabe
ĠSub
RITO
Ġ05
Ã©ci
Ġcaracte
Ġcontro
ciado
Ġdocumentos
Ġexpressamente
SA
ĠtÃŃtulo
Ġdada
ĠDF
Ġmencion
Ġdiz
Ġess
ĠdivergÃªncia
ĠOUTRO
ĠMinistÃ©rio
ĠEMBARGOS
Ġcontexto
ific
idor
Ġtaxa
931
Ġnesta
Ġ01
Ġreceb
ĠAGRAV
ĠdecisÃµes
ĠDIREITO
44
UNAL
...]
ROS
ĠAg
cent
Ġense
Ġverifica
UNI
ĠJudici
ĠvigÃªncia
Ġtodas
culos
CA
Ġil
ĠSIL
sais
Ġ37
Ġba
sas
Ġimpos
89
Ġelementos
vidas
ĠjustiÃ§a
Ġtrabalhista
Ġconced
ender
sÃŃ
Ġdevido
CON
ĠJuiz
istema
ĠDecreto
ĠconclusÃ£o
Ġvenci
Ġlimit
isa
demais
vado
fico
rais
Ġren
ĠPROVIMENTO
Ġcomple
Int
Ġsede
Ġutiliz
Ġloc
ĠCAR
ĠremuneraÃ§Ã£o
Ã©c
ĠTRIBUNAL
dit
ĠÃºnico
Ġatribu
ĠindenizaÃ§Ã£o
ĠPROCESSUAL
Ġatra
ĠDECISÃĥO
ornada
ĠRevista
ĠespÃ©ci
021
unic
Ag
ĠPAULO
Ġhavendo
Ġtais
Ġinadimplemento
ĠmonocrÃ¡tica
ĠVIG
tr
Ġparcel
Ġestes
ĠAs
sufici
Ġfiscaliz
Ġnegar
plo
Ãķ
Ġamb
Ġfalar
ENÃĩA
Ġresta
vidÃªncia
Ġrelatados
Ġreque
Ġmaterial
ĠEmbar
ara
respon
ONSABILIDADE
ÃŃp
rif
ĠJul
ulo
ĠprescriÃ§Ã£o
Ġconsu
Ġparcelas
STF
ĠobrigaÃ§Ã£o
ÃķES
erÃªncia
65
ĠÃ³bice
ĠINTERNO
ĠMORA
Ġple
ĠprisÃ£o
lando
Ġdevem
ĠTE
ĠREsp
2009
Ġ58
ĠRECLA
Ġimpor
ĠPleno
Ġexam
32
MENTA
Ġmomento
Ġconsequ
Ġind
ĠPEN
cisÃ£o
Ġreex
Ġrestri
AIRR
Ġmerece
port
Ġel
sci
Ġile
ĠJuÃŃzo
paz
encial
ĠpÃºblic
ĠNe
ĠeconÃ´mica
Ġmar
Ġcorpus
rando
tima
Ġassegu
Ġponto
ĠcrÃ©dito
ĠREP
men
Ġprequestionamento
ĠPROCESSO
Ġsimpl
ĠMAT
Ã¡veis
Ġprote
Ġano
Ġmil
Ġjurisdicional
Ġapont
Ġpasso
Ġrevela
Ġconsiderando
ĠSANT
Ġpenal
ulas
Ġinclu
Ġantes
umidor
IZAÃĩÃĥO
ZA
Ġreforma
Ġefetiva
DEN
Ġcompro
81
ĠIPCA
RIG
Ġpromo
ĠPARA
IDO
ĠVistos
Ġadmit
ĠRESPONSABILIDADE
Ġimpet
ĠUniÃ£o
irma
Ġali
Ġera
ĠfÃ¡tico
Ġcento
Ġvigi
OSSIBILIDADE
Ġquant
37
culante
sto
Ġamp
Ġinfraconstitucional
portun
ĠPRIM
Ġ55
omia
Ġconju
Ġcontribu
);
cis
Ġbenefici
Ġexer
ĠmÃŃnimo
ĠSILVA
cos
Ġdispositivos
ÃĵRIO
Ġirre
ĠsaÃºde
Ġfede
ĠJUSTI
tro
ĠNacional
ux
Ġdecorrentes
Ġdiscutidos
CED
Ġgera
ĠCa
utenÃ§Ã£o
ĠAU
ĠAT
ĠtrÃ¢
ĠBrasÃŃlia
Ġtrecho
embro
Ġ760
can
Ġempregador
2010
doenÃ§a
Ġsuficiente
ora
vio
Ġnul
Ġsimples
ular
Ġadicional
Ġporquanto
ĠCONHECI
Ġtraz
terior
ĠPenal
ĠparÃ¡grafo
ĠDes
ĠAGRAVADO
ĠAnte
Ġaplica
86
ĠCORP
Ġdecidiu
Ġmera
STA
000
cio
ĠInstru
Ġplen
ABE
Ġcargo
Ġnenh
Ġ2015
Ġsi
ĠAdemais
Ġmeses
ĠSuprema
Ã¡r
ĠcÃ¡lculo
Ġrequisito
Ġoutras
Ġigu
Ġtodo
Ġdese
Ġhabeas
ĠPRIMEIRA
LIO
Ġprocessa
ĠmanutenÃ§Ã£o
Ġnego
ĠJUSTIÃĩA
Ġlit
Ġcorrespon
77
ĠInter
099
ÃĤ
dado
Ġconstitucionais
Ġved
ĠtÃ©c
Ġreexame
ĠVI
Ġvincul
Ġsejam
REC
ĠalegaÃ§Ã£o
ĠdispÃµe
Ġcontrariedade
Ġdemonstrar
Ġoportun
ĠterceirizaÃ§Ã£o
ulaÃ§Ã£o
ABEAS
ĠCORPUS
ĠespÃ©cie
ĠBEN
reira
Ġintegral
ĠmÃ¡
Ġcob
Ġuni
ĠArt
ior
36
ĠSB
Ġhab
itiva
Ġdaqu
45
iante
ĠMO
Ġexist
Ġjustific
Ã¡us
versÃ£o
ale
29
Ġdeterminar
Ġpreen
TST
nsito
ĠprincÃŃpios
ĠBar
Ġacolh
Ġvigilando
ĠsessÃ£o
Ġnovo
HA
anco
Ġreferida
Ġinval
Ġatos
Ġargumentos
Ġprestadora
Ġreais
ĠSÃ£o
Ġdefici
VANTE
Ġpra
ĠcontribuiÃ§Ã£o
Ġprocessamento
ĠhipÃ³teses
Ġris
Ã©rios
stan
Ġdepo
Ġprimeira
los
Ġfic
Ġcaracteriz
LO
Ġcontratos
inh
Ġfavor
Ġsin
Ġequ
ĠPlenÃ¡rio
Ġra
ĠADVOGADO
Ġgratuita
ÃŃveis
ĠbenefÃŃcios
Ġmod
Ġdisso
asi
Ġprimeiro
ĠAGRAVANTE
Ġgarantia
IDA
ĠAn
ĠquestÃµes
idez
Ġdesse
ĠPresidente
Ġmoral
Ġentende
inte
28
PA
Ġajuiz
ĠPara
Ġdecid
ĠDECLA
Ġpou
REIRA
ĠPR
Ġti
ĠSBDI
ĠTRANSC
ĠTO
anh
ĠrÃ©u
son
ĠAÃĩÃĥO
unicÃŃp
Ġine
ĠRecur
Ġevid
Ġcuja
Ġprofissi
Ġnulidade
ĠEL
Ġteria
Ã¡s
Ġacres
ĠCONC
RAS
Ġsan
47
ĠLT
ĠFUNDA
Ġ[...]
ĠtrÃ¢nsito
Ġrealizada
ĠConf
emun
tamente
Ġcrime
Ġtanto
Ġileg
bilizaÃ§Ã£o
2022
ĠprobatÃ³rio
ĠSÃĥO
Ġ00
Ġhaja
Ġservido
ĠPaulo
ribut
ĠcontrÃ¡rio
Ġtotal
Ġafasta
ĠTRABALHO
43
ĠÃ³rgÃ£o
Ġoutra
gas
Ã³g
Ġnome
ĠEmbargos
Ġocasi
Ġempresas
GERAL
ĠDAS
ĠHABEAS
Ġinteresse
PRO
ĠprÃ¡tica
Ġinforma
Ġvis
GO
Ġresul
Ġcin
Ġpericial
MG
Ġtomador
UÃĩÃĥO
Ġcautela
Ġjornada
BERTO
ĠclÃ¡us
ĠCONTRA
oa
ĠAUT
IMENTO
ĠFux
ĠcritÃ©rios
Ġhabitu
Ġsala
cipl
ĠmÃªs
Ġmanifesta
ogo
ĠPortanto
ĠPÃļBLICA
ki
Ġneste
ĠpolÃŃtica
Ġjulgar
ĠPe
Ġverbas
Ġ31
ĠcrÃ©ditos
peraÃ§Ã£o
ĠADVOGADOS
RS
est
Ġsistema
ĠdepÃ³sitos
rimento
Ġprocessuais
Ġgrau
ĠCons
gres
Ã³rio
eles
ĠDireito
adamente
pal
ĠReclam
ĠSEGU
cionamento
ÃĩÃķES
siva
MAR
Ġtest
Ġencargos
quad
Ġpros
ĠSOB
Ġreconhecida
ĠdemonstraÃ§Ã£o
Ġreje
Ġpossui
Ġjulgada
ĠcarÃªncia
Ġam
vidos
uito
ICI
ENTENÃĩA
ĠJudiciÃ¡rio
ĠaplicÃ¡vel
Ġtor
Ġer
toria
Ã´n
Ġconstitucionalidade
Ġexclu
Ġliminar
viÃ¡vel
ĠSessÃ£o
Ġdescon
spec
ĠDef
Ġfinal
Ġcustas
Ġvir
Ġpaciente
cida
Ġdesprovido
Ġindivid
Ġindepend
arÃ¡
Ġdurante
tividade
Ġpessoas
Ġdevidamente
Ġrelator
Ġprecedentes
Ġafro
Ã©s
ĠPELO
ĠTema
ide
Ġservidores
Ġrecursais
vas
ino
Ġdessa
Ġterceiriz
ĠfÃŃs
Ġposterior
Ġtestemun
ĠLUIZ
ĠprejuÃŃzo
ĠTRT
taria
PP
Ġtoda
ĠFER
Ġdiscipl
ĠEMPRE
ze
Ġhaver
Ġconjunto
Ġluz
ÃģT
tude
1993
nde
ĠinstÃ¢ncia
Ġjudiciais
Ġ246
bstan
ĠVIGÃĬNCIA
ĠExmo
lio
Ġcur
ĠAo
Ġsubmet
ĠordinÃ¡rio
ĠobservÃ¢ncia
HC
Ã£os
ib
Ġconsubstan
ĠdÃ©bitos
Ġreco
Ġcontinu
ĠJulgamento
ima
ĠBAR
endido
ĠLTDA
Ġembora
ĠRECOR
tadas
68
ĠforÃ§a
guar
unÃ§Ã£o
Ãªm
RG
VAL
Ġmos
itada
Ġverdade
ĠPELA
des
Ġprevistos
ÃīRIO
ĠRoberto
Ġdent
ÃĶN
Ġregular
Ġsusci
ĠSeÃ§Ã£o
ĠAREsp
irmar
Ġ33
ÃŃda
ĠSEGUNDA
Ġmensal
itado
Ġcontas
ĠÃºl
ĠVO
Ġcontratado
ĠcircunstÃ¢ncias
Ġescla
Ãºcia
SON
ĠJUR
ĠGeral
Ġrural
utela
Ġrepresenta
Ġevidenci
Ġenvol
Ġdevendo
DOR
pÃµe
SIDI
Ġprocessos
istem
uma
Ġobsta
ĠDiante
Ġlocal
ĠGil
Ġdez
ĠvÃŃn
ĠDias
Ġexclusi
Ġfirmou
Ġenquad
ĠprevisÃ£o
Ġparticip
ii
iliar
ĠRegist
Ġbus
2008
Ġpostu
Ġpreench
ĠAgravante
VEL
ses
ĠAp
ĠSocial
Ġprece
Ġalgu
Ġlabora
comp
Ġinvalidez
JU
SIDIÃģRIA
ARDO
Ġfirmado
Ġsucumb
ĠDEF
LE
Ġdeclara
NA
Ġsubs
Ãºmero
fre
Ġro
adual
ĠpetiÃ§Ã£o
ĠRECLAM
ENDÃĬNCIA
Ġfazer
Ġcontratada
Ġconform
Ġforne
ĠMÃī
Ġsuperior
Ġindeferi
tificaÃ§Ã£o
Ġfl
dicial
ĠAu
Ġqualidade
ĠreclamaÃ§Ã£o
No
Ġjuiz
Ġles
ĠPED
tid
Ġdeu
rÃ¡
Ġpresentes
ĠSUBSIDIÃģRIA
ĠaÃ§Ãµes
Ġ03
ĠdeverÃ¡
ĠFun
ĠMarco
Ġmodi
ĠAGDO
Ġlimites
75
tic
ĠmÃ©dic
Ġquad
Ġrenda
Art
ZO
Ġprinci
erv
ĠresponsabilizaÃ§Ã£o
Ġproduz
Geral
ĠinterposiÃ§Ã£o
ĠÃŃndices
Ġ39
63
ĠocorrÃªncia
Ġformul
ĠalteraÃ§Ã£o
ramento
cump
Ġreclamado
Ġ04
Ġ02
rido
Ġespeci
Ġmaioria
Ġcivil
gante
Ġremunera
Ġdiferen
PE
Ġdois
itados
VIÃĩ
ĠrealizaÃ§Ã£o
anexo
ĠLEG
Ġidade
Ġ06
ĠExtra
Ġquo
ĠnecessÃ¡ria
ves
reta
ĠAPLIC
OSA
Ġrele
ĠPU
Ġcontratual
ĠSERVIÃĩ
ĠAgInt
Ġimedi
Ġassist
Ġ35
endes
Ġcontrole
Ġprocedimento
Ġatual
Ġrestou
ĠMendes
ĠASS
ĠPROCED
com
ĠANT
ĠLÃºcia
ĠadministraÃ§Ã£o
ffo
Ġrecolh
CE
lim
ĠpÃºblicos
ĠdeficiÃªncia
ENCI
Ġfixada
ĠComo
paro
irmado
Ġmantida
UAL
Ġparc
Ġafronta
Ġconcre
issÃ£o
Ġliber
ĠEnt
ffoli
ĠADMINISTRAT
Ġefetu
ĠConstitucional
ĠQuanto
riais
Ġparcialmente
âĢĿ,
ĠimpÃµe
dam
Ġpat
Ġ85
ĠToffoli
asse
aneiro
Ġident
Ġlabo
Ġposi
ĠTRANSCENDÃĬNCIA
ĠentÃ£o
ĠinviÃ¡vel
Ã©ri
LAÃĩÃĥO
ordinÃ¡ria
ĠilÃŃci
URADOR
ĠAGTE
Ġverbis
ĠMARCO
alizado
Ġvinculante
QUE
ura
Ġcontratante
Ġexclusiva
ĠRosa
panÃ§a
Ġcompre
POSTO
Ġexem
ĠCONF
dia
Ġrisco
ĠPER
RIZ
Ġdesa
Ġcapaz
ĠGilmar
vam
Ġina
Ã¡rmen
recer
Ġafastar
Ġfica
cendo
Ġfra
Ġmostra
Ġlado
Ġreso
utor
Ġconhecer
ENTES
Ġ126
ixa
vert
Ġcerto
Ġparcela
Ġata
ĠPublic
dios
SE
ques
ĠIMPRO
crito
Ġfalta
ĠCONHECIMENTO
ĠcontrataÃ§Ã£o
Ġreconhecer
paraÃ§Ã£o
Ġcoisa
ĠInstrumento
Ġconst
MIS
Ġextras
ĠpoupanÃ§a
Ġtribut
ĠRec
Ġrequerimento
ĠWe
ĠOR
ĠEMENTA
Ġsuje
ĠOB
ĠCÃ¡rmen
ĠdiscussÃ£o
Ġmotivo
Ġindevida
Ġprofissional
ĠSAL
ĠapreciaÃ§Ã£o
ÃįCIO
ĠSem
ĠInterno
ĠWeber
FF
Ġdescump
ĠespecÃŃfica
atis
Ġcomprovar
Ġdar
Ġbanc
Ġpertin
ĠAr
Ġalega
Ġpropor
vali
Ġ07
ĠfixaÃ§Ã£o
ign
ĠÃĥ
Ġjunt
Ġdom
rasi
cid
DIC
Ġconsoante
Ġsol
Ġemprego
Ġopera
Ġtran
ĠTERC
Ġmaior
rasile
RECURSO
ĠK
Ġrequerente
ĠFA
Ġcurso
ĠalegaÃ§Ãµes
ĠFUNDAMENT
Ġregras
Ġdecidido
ĠUNI
.,
tuais
seÃ§Ã£o
MENTE
ĠÂ§Â§
Ġconformidade
ĠAI
ĠNos
ĠAÃ§Ã£o
Ġatin
NU
Ġsubstitu
ĠXXX
Ġaspec
III
POS
utos
Ġ'
ĠIndi
Ã©lio
Ġresid
ĠorientaÃ§Ã£o
ĠSubseÃ§Ã£o
Ãºncia
Ã¢met
ĠPUBLIC
ĠBarros
Ġpoderia
ena
ĠDecla
ĠRIO
entos
ISTÃĬNCIA
ĠEs
ĠEspecializada
ĠproteÃ§Ã£o
ĠvÃŃnculo
cidos
ĠEXEC
Ġagente
ĠparÃ¢met
Ġmorais
70
Ġ45
ĠVAL
ARE
Ġpret
ĠRJ
sidera
Ġtrabalhadores
Ġnesse
Ġproferido
pou
BA
Ġexige
Ġabso
ĠRS
unicÃŃpio
ĠDECLARAÃĩÃĥO
Ġfinanceira
ÃįP
arte
mÃ¡tica
VES
Ġassina
ĠperÃŃcia
ĠexigÃªncia
ĠAgRg
enhor
orrido
Ġnegativa
Ġdecorrente
lar
ĠAur
Ġ40
Ġalcan
ĠCRI
ĠSecre
Ġplano
ciamento
ĠVOTO
CONSTITUCIONAL
elh
ĠSrs
ĠAle
ĠAurÃ©lio
ĠRecursal
Ġprevent
Ġtoca
enso
dendo
bit
ROV
Ġadministrativa
pens
Ġtratar
ĠMaria
Ġpresta
Ġampla
Ġinsufici
ĠPENAL
ĠIMPOSSIBILIDADE
Ġ09
Ġacomp
ĠGERAL
Ġinve
tidÃ£o
2006
corre
isÃ³ria
Ġajuizamento
Ġpratic
Ġtutela
IR
ĠCU
ĠTa
ĠDIV
FE
ĠRegiÃ£o
80
Ġliberdade
ĠsÃŃ
ĠsÃºmula
Ġequi
Ġprevistas
Ġmenos
Ġapu
entar
Rela
Ġregistro
Ġvisto
Ġementa
ĠdistribuiÃ§Ã£o
Ġacus
VIDENCI
Ġviol
69
177
Ġpronun
Ã¡cia
itou
ĠocasiÃ£o
ĠdoenÃ§a
Ġexcep
Ġpartic
giado
Ġconferi
icardo
Ġ08
ĠJOS
Ġop
ĠfamÃŃlia
ĠFaz
Ġassinatura
OM
Ġlici
Ġsoci
ĠMÃīRITO
ĠComp
ĠJURI
osta
Ġimplica
taram
ĠEd
Ġsistem
IX
ticamente
Ġconcluiu
Ġsempre
vidade
NTO
Ġexp
Ġcrimin
Ġanteriormente
Ġseguro
vidor
ĠExcel
ĠIndivid
82
ĠPE
Ġindependentemente
Ġcinco
ĠRicardo
ĠrevisÃ£o
Ġigual
dir
ĠDIS
ĠPublicaÃ§Ã£o
ĠMON
DC
ĠACOR
40
ĠAlex
Ġexce
ÃįD
ĠARTIG
USSÃĥO
ĠIX
Ġcompens
FIC
Ġjulgou
Ġpermit
Ġgo
Ġesti
ĠRA
ĠpoderÃ¡
ĠcritÃ©rio
ĠMEND
PROC
Ġprecedente
pouco
ITO
ĠeconÃ´mico
IDE
Ġensej
ĠADMINISTRATIVO
andre
Ġconson
Ġrelatoria
ĠMATÃī
Ġpodem
Ãºmulas
Ġrecu
dig
Ġgen
bor
Ġcujo
ĠCE
Ġsubje
Ġreit
Ġdesemp
reiro
DAM
ÃĵRIA
Ġquem
iente
Ġobjetiva
Ġinform
ĠutilizaÃ§Ã£o
Ġimprocedente
MB
MS
Ġfederal
Ġperito
ĠAlexandre
dades
ĠInci
Ġ279
ĠINTERPOSTO
Ġhavia
mando
Ġcre
ficÃ¡cia
arti
ĠinformaÃ§Ãµes
92
sÃŃdios
ĠAss
CH
61
Ġ93
Ġrescis
Ġcautelar
Por
ĠindicaÃ§Ã£o
Ġpreci
ANDO
Lei
itura
Ġpermane
ĠconsonÃ¢ncia
ÃīLIO
Ġconsumidor
ĠCÃģ
Ġentanto
rit
lum
ĠDecisÃ£o
Ġjulgados
ĠEsta
ine
Ġhabitual
Ġfamiliar
Ġindeniz
Ġocorreu
bat
bser
ITOS
esso
gan
Ġincor
Ġinvia
Ġestabelece
ÃĤNCIA
ĠPresidÃªncia
ĠRessal
ĠSUPRE
ÃŃtima
Ġclara
has
PF
ĠNOS
Ġefetivo
encia
Ġesco
ĠDESP
Ġdecre
STITUIÃĩÃĥO
ulada
entou
Ġconsolid
In
Ġacesso
ĠCONSTITUCIONAL
TORA
ĠSenhor
Ġintim
ĠpublicaÃ§Ã£o
AIS
2003
ÃŃnse
Ġautoridade
ias
ĠPL
sso
ÃįN
Ġextin
Ġdesen
COR
Ġcontratuais
Ġ100
ĠDessa
ĠLE
Ġtocante
oni
ĠRelatÃ³rio
Ġpreventiva
Ġuso
ĠÃ©po
Ġconsegu
ĠFazenda
Ġplena
ern
rupo
Ġrefle
Ġpassa
osse
ESS
Ġlo
ĠFederais
ĠBen
ĠROBERTO
Ġalegada
valo
ĠAUR
Ġanexo
Ġquadro
Ġinvoc
ĠAURÃīLIO
Ġ102
Ġdeixou
Ġmagist
ĠtÃ£o
Ġconstante
Ġare
MAN
ĠmanifestaÃ§Ã£o
ĠBarroso
Ġofere
judicial
Ġdiv
RIÃĩÃĥO
cura
Ġpatrim
Ġche
rin
ĠserÃ£o
Ġenquanto
bate
liminar
ĠsuspensÃ£o
Ġarbit
erante
Ġpaga
Ġavali
ĠSANTOS
ĠINCID
ĠLI
ĠFUN
endida
Ġmero
ĠAlÃ©m
Ġ2017
Ġconce
Ġrequer
100
Ġcoletiva
Ġpessoal
ĠeficÃ¡cia
ĠÃ©poca
vou
stos
ĠautomÃ¡tica
Ġsustenta
ĠINTE
ĠcobranÃ§a
sivo
ĠConforme
ĠfÃ©
Ġsegunda
ĠcontribuiÃ§Ãµes
ĠDIAS
ĠMINISTÃīRIO
ĠOL
mentado
Ġservidor
PR
259
ĠpresunÃ§Ã£o
ĠSENTENÃĩA
Ġagentes
Ġobriga
ĠÃ¡
ĠinexistÃªncia
Ġtampouco
................
ĠAus
Ġperante
ĠSal
ĠmarÃ§o
ĠjurÃŃdicas
ĠcitaÃ§Ã£o
Ġobjetivo
elas
Ġdespa
ĠestÃ£o
Ġmuito
ÃŃne
ĠdÃ¡
Ġ59
ĠMG
ĠARTIGO
ÃģRIOS
Ġfosse
Presid
ĠJos
62
ferÃªncia
Ġposicionamento
ĠMARIA
diÃªncia
Ġobserva
gio
Ġexemplo
ĠsituaÃ§Ãµes
Ġprocedente
ĠconheÃ§o
inada
Ġabran
Ġrelativa
ĠDissÃŃdios
vÃ©s
ĠPROVA
Ġfiscalizar
esar
CL
Ġmedidas
ĠBrasil
Ġfundamentada
Ġvida
ĠSer
ĠexposiÃ§Ã£o
Ġpercent
41
Ġespecialmente
Ġsatis
ÃįPIO
Ġjus
Ġexa
ws
RJ
ĠEN
Ġlegisla
volvimento
Ġfixou
ĠIndividuais
ĠsistemÃ¡tica
KI
ERCUSSÃĥO
ntese
Ġargumento
ĠdiferenÃ§as
Ġinsur
Ġlon
ĠJULGAMENTO
Ġlaboral
elaÃ§Ã£o
Ġ67
onomia
Ġcal
atÃ³ria
Ġreitera
Ġpretende
eso
Ġfora
ĠConso
Ġimpossibilidade
ĠprÃ³prios
ĠREPERCUSSÃĥO
ĠEXECUÃĩÃĥO
ĠprevidenciÃ¡rio
Ġapresenta
48
ĠDES
ĠinstÃ¢ncias
ĠENT
int
ĠBAN
Ġsolid
Ġdecidir
(...)
embar
ĠalÃŃne
Ġdespacho
Ġadequada
ĠimpugnaÃ§Ã£o
ĠsÃŃntese
Ġrelacion
eios
ĠLew
ncial
elho
ciaÃ§Ã£o
rita
Ġperce
Ġdescumprimento
Ġentender
wski
ello
Ġjulgador
Ġemp
ĠLewando
Ġconstitui
Ġindireta
ĠmÃ©dico
Ġlinha
Ġfixados
RASIL
nÃºncia
Ġinadmis
0000
ĠINF
ĠRECON
ĠPOSTO
SÃºmula
Ġserem
ĠLewandowski
Ġconsiderado
enciais
Ġaqui
RELAT
ĠprevidenciÃ¡ria
Ġcel
ĠBENEF
Ġpublicado
ĠPREV
ĠreduÃ§Ã£o
STOS
Ġ".
Ġ95
Ġinadimpl
Ġexpl
idaÃ§Ã£o
ĠTNU
ĠCORRE
ĠtranscriÃ§Ã£o
Ġalud
Ġcate
ĠDa
Con
Ġteve
ERAÃĩÃĥO
ĠMENDES
ĠRepercussÃ£o
ĠNACIONAL
Ġjudici
Ġconfigura
rispru
Em
Ġembargado
Ġparadig
2007
Ġtribun
Ġmotiv
ERIOR
ĠMATÃīRIA
Ġtransp
Ġlegit
Ġgrif
Ġconcurso
dar
ĠMello
DRIG
Ġculpos
Ġpassou
Ġlegalidade
Ġinvesti
Ġgrupo
probatÃ³rio
ĠLO
Ġlide
Ġpodendo
endimento
unho
ĠDesse
ĠCu
ĠdÃŃ
Ġconcluir
Ġdescont
Ġdigital
ĠclÃ¡usula
Ġsuposta
ano
Ġsociais
Ġconstantes
ĠPrevidÃªncia
ĠaudiÃªncia
ĠACORDAM
Ġimediata
ĠmÃ¡x
Ġinse
Ġpremis
Ġmerc
Ġdemandante
Ġur
ilho
Ġreflex
Ġnenhum
ĠOLIV
ĠsoluÃ§Ã£o
lacion
Ġalter
ĠPREVIDENCI
ĠFU
PS
Ġcontudo
pas
Ġmul
Ġav
lha
ĠIsso
ĠofÃŃcio
Ġembargante
Ġvigor
FA
ĠBanco
ĠTem
Ġlabor
ĠDIST
Ġcontradit
culosidade
Ġdetermina
Ġmaneira
ĠSegu
ĠMunicÃŃpio
Ġsig
Ġimpede
Ġsociedade
roga
Ġocu
ĠOLIVEIRA
Ġneg
Ġrespons
Ġaferi
Ġpropri
LOS
Ãªn
ĠISTO
ĠinstruÃ§Ã£o
Ġimput
Ġresulta
pesti
ren
ĠCole
ĠatravÃ©s
ĠTRABALH
Ġdep
bre
Ġindis
De
Ġmeios
ĠfÃ©rias
ĠGIL
Ġvirtude
Ġretro
ĠsalÃ¡rios
Ġcasu
Ġreferente
ĠRIC
INA
RANÃĩA
formizaÃ§Ã£o
Ġexclusivamente
Ġpedidos
Ġjusta
Ġconsignado
ĠJurispru
Ġprejudic
Ġmandado
ĠinstituiÃ§Ã£o
sibil
ĠSERVIÃĩOS
ĠImp
Ġinferi
grÃ©
78
Ġeletr
Ġincorpo
Ġreconheceu
.)
ĠfÃŃsica
Ġrazo
rÃ©st
ĠUNIÃĥO
ismo
ĠDESPRO
ĠINDEN
dez
ĠZ
ĠcircunstÃ¢ncia
RIZAÃĩÃĥO
71
ĠBRASIL
Ġonde
Ġcatego
ESSO
ĠPREST
ĠSÃºmulas
ĠJUDI
ĠINO
Ġobstante
Ġtratamento
Ġsubsidia
Ġpermanente
voca
taÃ§Ãµes
ĠFirmado
ĠconsequÃªncia
Ġadqui
Ġfixado
DADE
bra
ĠEdson
tico
Ġefetivamente
Ġmol
Ġ333
Ġorigin
curado
IB
ĠLogo
ĠSecret
ete
ĠDesta
ĠBARROS
ĠINEX
ĠRio
RELATOR
SIDENTE
ÃŃdos
ĠELET
Ġdeveria
Ġomis
Ġsalarial
Ġdezembro
Ġentendo
ĠADMINISTRAÃĩÃĥO
30
ordinÃ¡rias
ĠEspeciais
ĠRECONHECI
ivo
ĠREQU
Ġfinalidade
ĠRECORRI
Ġintervalo
lagra
Ġerro
Ġacordam
Ġcomprovada
38
riores
ilh
ĠcompensaÃ§Ã£o
Ã´s
Ġus
Ġimpres
Ġclaro
Ġlu
necess
Ġadotado
ĠSEL
ĠFUX
ĠRECUR
ĠimÃ³
Ġtranscre
Ġabsolu
Ġ2021
Ġincisos
Ġ2022
Ġformal
ĠCel
42
Ġexpe
ĠJuizados
ĠJosÃ©
ĠparÃ¢metros
Ġvanta
RM
ĠJo
Ġcomum
ĠdÃº
Ġrevo
INS
ĠMas
ĠTerc
Ġr
itas
NI
Ġconhece
Ġnov
unici
Ġantecip
ADOR
Ġestar
igÃªncia
Ġdiversas
curador
Ġincomp
Ġaplicar
Ġveic
Ġnada
Ġmajo
Ġcapacidade
ĠDo
Ġfirmada
ĠDESC
Ġpericulosidade
Ġcorrig
ĠÃį
Ġculposa
Ġsete
dimentos
Ġimpugnado
crita
Ġmodific
ORMA
chin
Ġ2019
Ġrecebimento
ĠCORTE
Ġprincipal
Ġentendeu
Ġdebate
Ġassum
Ġcele
ĠOU
ĠbeneficiÃ¡rio
Ġmin
Ã´nio
ĠSUP
Ġgratuidade
ĠRELATÃĵRIO
Ġdecis
Ġanalisar
Ġpercentual
ĠemprÃ©st
Ġaplicada
ERT
494
ĠGra
ĠvÃ¡l
ĠFachin
ĠRICARDO
39
022
ĠReclamante
Ġorden
vÃ¢ncia
ĠsubstituiÃ§Ã£o
razÃµes
Ġino
Ġficou
ĠJO
Relator
Ġverba
gibilidade
Ġpecu
imos
RÃī
Ġproposta
Ġautoriza
50
Ġfeita
ĠapresentaÃ§Ã£o
Ġsupra
Ġvotaram
Ã´nico
atro
CF
ĠparticipaÃ§Ã£o
ĠALEX
ÃŃnsecos
ĠconversÃ£o
Ġinviabiliz
ĠassistÃªncia
Ġorgan
Ġaprov
lador
orta
ĠrazoÃ¡vel
Ġtorna
salub
ĠSELIC
Ġatende
ĠCN
ĠRÃ©
conform
Â°,
ANDRE
ĠEC
ĠExecu
cado
ol
Ġsuficientes
ĠdecorrÃªncia
Ġbusca
are
Ġatualizado
Ġestava
ĠÃºlti
logia
Ġtomadora
Ġinsalub
Ġpressuposto
Ġpleite
Ġpreliminar
cente
Ġconsiderar
NÃ£o
Ġbrasile
Ġev
ANA
tiz
Re
ĠSa
Ġcam
Ġsequer
Ġdenegou
ĠpropÃ³s
Ġpossa
49
ĠediÃ§Ã£o
Ġsubsidiariamente
ĠAf
ĠcontraditÃ³rio
Ġrecolhimento
72
Ġentidade
Ġvotos
bilitaÃ§Ã£o
ĠgratificaÃ§Ã£o
Ġsof
Ġ38
Ġnenhuma
ĠcontradiÃ§Ã£o
Ã¢n
ĠINCIDÃĬNCIA
CIO
ĠSou
tÃŃvel
ÃįT
ĠJURÃįD
ĠCEL
ĠpensÃ£o
Ġapresentou
ĠpresenÃ§a
ĠLeis
ĠCelso
ĠAPLICAÃĩÃĥO
ĠproduÃ§Ã£o
Ġaltera
POSTOS
Ġprevale
SAL
tre
inuta
ĠSA
ĠcabÃŃvel
46
cidas
Ġindividual
ĠPetiÃ§Ã£o
Ġfinancei
Ġdelito
Ġ1988
Ġmercado
Ã¢ne
Ġrealizado
51
AME
Ġconsubstancia
Ġtratando
ana
Ġincapaci
Ġesclare
Ġreflexos
Ġapro
sim
Ġlongo
ĠOF
possufici
gando
Ġseguir
Ġvem
Ġ791
1997
erou
Ġteses
ĠpropÃ³sito
USA
Ġdemonstra
SSU
ridades
ĠHa
Ġbasta
Ġtermo
CPC
Ġjustifica
fÃ©
ĠOr
ĠGILMAR
Assim
Ġenfre
Ġmencionado
esas
Ġvalidade
ĠFo
ĠadoÃ§Ã£o
RENTE
ĠdenÃºncia
Ġimpugnada
ĠAutor
2005
Ġcontida
Ġapreciar
Ġdeferimento
ĠCT
Ġilegalidade
Ġresultado
Ġasso
Ġespeciais
REN
Ġconstata
Ġhipossufici
ĠdeterminaÃ§Ã£o
Ġquestion
Ġdevedor
Ġpacific
rut
CU
dada
Ġcad
Ġadvogado
maticamente
ĠtransferÃªncia
OLI
Ġestadual
Ġdepend
ala
ĠprÃ©via
ĠPRECED
cepÃ§Ã£o
Ġul
1991
Ġcapit
76
Ġtexto
Ġhouver
ĠtÃ©cnica
tio
Ġdizer
ĠSUPREMO
ĠtÃªm
PRES
Ġdiretamente
USÃĥO
ĠbÃ¡s
Ġrestabele
inta
tri
RÃĶN
ĠALEXANDRE
Ġflagra
Ġvigente
ĠLÃļ
ĠPET
Ġdentro
Ġexercer
Ġafirma
uto
ĠatuaÃ§Ã£o
cem
ĠTOFF
ĠCORREÃĩÃĥO
ĠlesÃ£o
ĠTaxa
ETÃģRIA
nÃ£o
ĠTOFFOLI
Ġproporcional
ĠVIO
Ġlegislador
Ġexcepcional
Ġdisciplina
Ġfundo
ĠCONTRATO
ua
ĠELETRÃĶN
Ġdemonstrada
Ġdestacar
Ġparticular
ĠMU
Ġpleito
ĠRegimento
ĠPLEN
Ġliv
ĠRegistro
Ġexten
Ġdesfa
ĠimposiÃ§Ã£o
Ġasse
Ġceleb
ĠMONETÃģRIA
ĠRecorrente
Ġreal
Ġpessoais
ĠATA
ĠPRESTAÃĩÃĥO
REsp
Ġlimite
ENTADO
Ġmonta
Ġabri
Presidente
ĠDesembar
Ġdemonstrado
Ġdeduz
ĠPREVIDENCIÃģRIO
ĠprevÃª
Ġjaneiro
Ġviola
dicato
036
ĠLÃļCIA
vantes
ETÃĬNCIA
ĠCARLOS
Ġpagar
Ġ42
Ġvol
Ġ2020
stro
Ġespecifica
ĠTerceira
INT
Ġcomer
Ã³gica
Ġutilizado
ĠELETRÃĶNICO
Ġdeterminou
Ġcategoria
Ġedit
Ġdeclarou
ĠOl
istente
ARA
ECESS
Ġaspecto
ARI
Ġdeno
RIBU
ĠporÃ©m
2002
VAS
GIDE
ĠalÃŃnea
Ġemin
cind
ĠdeclaratÃ³rios
ĠÃīGIDE
Ġdiversa
Ġempregadora
Ġimpedi
âĢ¦
Ġestabelecido
Ġbens
Ġexe
FERI
Ġ41
plic
Ġobservado
enham
elhor
AgRg
ĠlimitaÃ§Ã£o
ĠConsumidor
Ġajuizada
ĠCarta
ĠtrÃªs
xo
Ġpresum
roduz
ĠfÃ¡tica
ĠTEMA
Ġconsignou
Ġmesmos
ĠALEG
Ġassistencial
Su
ĠperÃŃodos
Ġautomaticamente
ĠINEXISTÃĬNCIA
ĠilÃŃcito
ĠSil
Ġsalvo
Ġverificar
Ġcumpre
oso
Ġ2018
Ġretor
Ġ-,
Ġincide
ĠresoluÃ§Ã£o
Ġprospera
ÃģTICA
ĠMAN
Ġcrimes
Ġeconomia
Ġant
respe
Ġretroa
rei
ĠextraordinÃ¡ria
ĠSust
ĠINTERES
ĠRequ
ĠÃĶN
ĠAB
ĠSenho
ĠSC
Ġhomo
ĠDEN
ferencial
ĠrecuperaÃ§Ã£o
ĠRODRIG
Ġambos
Ġaba
Ġlegitimidade
Ġencargo
ĠdepÃ³sito
ĠjudiciÃ¡ria
Ġidentific
Ġaquele
GE
LAN
Ġdespro
ĠconteÃº
Ġflagrante
960
Ġpreca
RMEN
GU
ĠDr
gir
Ġcorrespondente
Ġestando
Ġmelhor
iso
ĠEDcl
ĠLa
Ġduas
ĠÃĶNUS
ĠjurisdiÃ§Ã£o
Ġsigni
Ġapresentada
stes
ĠsubsidiÃ¡rio
ĠTERCEI
Ġtorn
ATIVA
iÃªncia
Ġdiversos
ENSA
Ġcontrar
Ġdesnecess
ORM
ĠgenÃ©ri
Ġ83
ĠCÃģRMEN
Ġexi
Ġdestin
ĠresponsÃ¡vel
ĠTER
ĠCl
Ġadim
JO
Ġtempesti
ĠSUL
uro
RÃĬNCIA
sado
ĠÃłqu
IVIDADE
Ġdevidos
ĠCarlos
Ġestado
rea
Ġtransfere
ĠvÃŃtima
Ġjunho
Ġconsiderada
Ġdesrespe
ĠcontrarrazÃµes
ĠMora
Ġexaminar
Ġconfro
ĠJOSÃī
ĠEF
CAL
Ġmanifestamente
ĠfunÃ§Ãµes
ĠANTE
cam
ĠprovisÃ³ria
Ġenun
ĠÃ³rgÃ£os
ĠOri
RADO
Ġdespesas
cedÃªncia
ÃŃqu
Ġreser
Ġprescri
ĠBARROSO
Ġpont
ĠMS
quidaÃ§Ã£o
ĠPortaria
ĠvÃŃcio
ERG
Ġindica
endidos
ĠcontrÃ¡ria
Ġmagistrado
Ġirregula
Ġapresentado
Ġobservar
ĠVir
SSUPOSTOS
ĠconteÃºdo
Ġtemas
ĠAUTOS
Ġmanter
ĠFAC
ĠConsidera
Ġopostos
Ġdeterminado
Ġconseguinte
vados
ĠinadmissÃŃvel
ĠRECORRIDO
Ġadotada
Ġentes
Ġinteresses
Ġabus
Ġminha
ĠDist
Ġnoci
ĠMoraes
Ġdesfavor
Ġpreserv
rogas
ĠCC
mbro
Ġ60
uso
contro
ĠespecÃŃfico
ĠPEDIDO
UZA
ĠRECLAMAÃĩÃĥO
RETA
ĠdÃ©bito
cinco
nunciado
Ġreferentes
ASE
Ġacu
Ġrespectivo
ĠSex
SER
ĠSouza
ĠExtraordinÃ¡rio
CORRÃĬNCIA
Ġquantidade
ĠimÃ³vel
RIAS
ĠVirtual
ĠNEGO
ĠprÃ©vio
ĠReso
Ġequiv
Ġliteral
RIOS
ĠLeg
ĠrepresentaÃ§Ã£o
ĠveÃŃ
Ġmante
Ġimpetrante
Ã¡ticas
tenÃ§Ã£o
Ġate
ĠVIOLAÃĩÃĥO
ĠReclamada
cor
gens
iveira
ĠDESPROVIDO
Ġreaju
Ġcomporta
ĠmÃ©dica
ĠSexta
ĠHORA
ĠAPOS
ĠReferencial
edida
ĠCONTRAT
onais
ENSÃĥO
ONIO
Ġnessa
ĠconfiguraÃ§Ã£o
ĠpacÃŃ
ĠROSA
icia
Ġdados
ĠOliveira
erabilidade
Ġvedado
ĠreparaÃ§Ã£o
Ġdaquele
Ġcess
2004
ĠnÃºmero
EST
ĠeletrÃ´nico
ĠExcelÃªncia
NOS
Ġacidente
FB
Ġocorrido
Ġ2016
ĠPLENÃģRIO
Ġcote
eros
Ġdevidas
ITA
ĠsucumbÃªncia
Ġprecisa
Ġbanco
Ġtela
arta
Ġevidente
Ġaquela
ĠtÃ©cnico
ĠavaliaÃ§Ã£o
staÃ§Ã£o
ÃįCIOS
Ġenseja
cidade
ENTADORIA
davia
57
Ġcomprovado
Ġdebat
grif
Ġpers
uman
controver
ĠGO
Ġeles
atÃ³rio
ĠTal
Ġmanteve
ĠpÃ¡g
Ġevidencia
ĠMULT
ĠMo
Ġlaborativa
Ġreflexa
ÃŃcita
ĠSOUZA
ĠFIL
stitucionais
ĠID
IGURA
endendo
ĠREGIONAL
Ġdesca
ĠSEGURANÃĩA
Ġdispensa
conÃ´m
lementar
ĠNÃºmero
SCRIÃĩÃĥO
ĠCERT
Ġgarantir
ĠPROVIDO
estÃ£o
Ġobst
ĠnecessÃ¡rios
Ġprodu
Co
EMB
Ġterceiros
ĠBran
Ġpropriedade
rup
IDÃĥO
vaÃ§Ã£o
Ġconclus
ĠRa
iros
ĠextinÃ§Ã£o
Ġcabimento
Ġressaltar
ĠOS
inistro
ĠContra
Ġjunto
ĠPres
ĠINDENIZAÃĩÃĥO
Ġpoli
ĠDefesa
ĠAutora
ĠFERREIRA
ĠREQUIS
inci
Ġultra
Ġsum
Ġilegal
cada
anha
ĠNorma
feito
icamente
Ġvislum
Ġ54
Ġobs
CAT
ĠFERN
EIT
ĠRG
ĠResoluÃ§Ã£o
Ġmontante
Ġrequere
EB
lado
TR
Ġdele
ÃįVEL
ac
Ġdign
Ġoportunidade
Ġdefinitiva
PROCURADOR
Ġprestado
CC
PRESENT
Ġacompanh
Ġconcer
Ġesses
ĠOrientaÃ§Ã£o
SPRU
ĠrescisÃ³ria
Ġafastamento
Ã´ne
Ġcader
ĠHORAS
ĠCONSTITUIÃĩÃĥO
ĠexpressÃ£o
gosto
one
ĠCONFIGURA
ĠMORAES
Ġoriginal
Ġdado
ĠGU
Ġconsa
Ġimprovido
Ġeu
ĠSustenta
Ġtur
Ġqualific
che
ĠJURISPRU
ĠcondenaÃ§Ãµes
ĠCosta
ĠGRAN
ĠordinÃ¡rias
ĠNessa
Ġespecificamente
Ġtitu
Ġexti
uta
bro
Ġparadigma
venÃ§Ã£o
chos
ĠpercepÃ§Ã£o
ÃŃst
Ġanex
ĠGo
ĠSEM
ĠCERTIDÃĥO
vertida
Ġisonomia
ĠPARTE
Ġproced
ĠrelaÃ§Ãµes
ĠReque
UNIC
ĠMEL
UM
58
Ġtipo
52
ĠdisposiÃ§Ãµes
Ġlimita
Ġed
Ġnormativo
Ġapresentados
Ġdesin
Ġanteriores
ĠFUNDAMENTAÃĩÃĥO
Ġconfi
Ġconheceu
Ġquin
Ġcontemp
ĠTribunais
ĠANTONIO
AgInt
ĠServi
udio
Ġimpe
para
ĠPRECEDENTES
ĠdÃŃvida
Ġaca
ĠanalÃŃ
ĠexceÃ§Ã£o
ĠVin
min
Ġinferior
ONOR
ĠEXTRATO
ĠVIN
Ġtempor
ĠJAN
ĠPARCIAL
Ġprob
Ġaplicados
MON
Ã³rias
Ġinsus
vereiro
gresso
Ġposto
ĠPer
SEC
Ġoficial
ĠSra
ĠimprocedÃªncia
ĠIND
Ġdentre
ONAMENTO
ĠApÃ³s
ĠVara
Ġdil
ĠmatÃ©rias
Ġrecebe
embros
unicipal
ĠJoÃ£o
Ġcotejo
Ġsali
ĠLA
Ġensejar
Ġseman
ĠFilho
Ġatendimento
Ġdesenvol
Ġlivre
ĠGRANDE
fi
ĠDeclaraÃ§Ã£o
ĠCas
Ġconcedido
Ġ818
ĠIL
Ġobscu
riam
Ġidos
ĠContudo
Te
Ġ932
ĠTeo
Ġpreceito
Ġintegrantes
Ġep
Ġ62
Ġlegislativa
cou
arqu
Ġalegado
ĠSUPERIOR
Ġfinan
Ġincontrover
PI
neta
Ġmeu
TI
Ġeis
Ġcargos
Ġpublicada
343
Ã¢nime
ixo
Ã¡fico
ĠRequeri
ĠSubpro
Ġreaf
ĠalteraÃ§Ãµes
ĠINCONSTITUCIONAL
Ġagosto
MENTOS
Ġpertinente
Ġevitar
Ġgrave
ĠAinda
ĠCOMPROV
artigo
EITO
ĠNUL
ĠEmenda
Ġindispens
ĠPOSSIBILIDADE
Ġjustificar
ĠAPOSENTADORIA
ĠLV
Ġindicar
Ġtestemunha
ĠconsideraÃ§Ã£o
ECESSIDADE
Ġsaldos
Ġimprescind
Ġcart
ĠPRESSUPOSTOS
ENDA
ĠDANOS
ĠPROCURADOR
ĠAOS
Ġrestrin
ciada
ĠCOMPETÃĬNCIA
itando
Ġet
ĠdisposiÃ§Ã£o
ĠMINISTRA
las
itiu
ĠRcl
ĠFRAN
ĠGRAT
Ġ44
Ġinfirmar
DEM
ĠSOCIAL
ĠprobatÃ³
ĠPEREIRA
Ġmoldes
ĠBENEFÃįCIO
Ġdeterminada
ficas
Ġcaderneta
Ġevidenciada
Ġreconhecido
Ġrealizar
ĠBANCO
ĠINCONSTITUCIONALIDADE
ulado
ĠJURÃįDICA
ĠclÃ¡usulas
Ġinterm
ĠConsta
voluÃ§Ã£o
ĠegrÃ©
ĠÃįN
Ġperda
ĠPRIN
triz
Ġinsta
Ġincidente
Ġamparo
Ġexigir
ĠCOL
âĢĻ.
Ġextre
Ġformulado
53
Ġnovembro
ĠTERCEIRIZAÃĩÃĥO
ĠalcanÃ§
ĠconclusÃµes
DOS
Ġacusado
ĠAlega
Ġmenor
ĠSilva
ĠCDC
Ġapesar
Ãªnt
ĠÃºnica
Ġge
ESA
ĠJurisprudencial
ĠCUL
ĠARA
clusÃ£o
Ġenquadramento
Ġincapaz
Ġviabiliz
Ġfevereiro
ĠCPP
ĠTurmas
--
ciona
742
SKI
Ġaplicado
Ġafe
nton
gua
ĠGu
ÃĶ
ĠFran
Ġprovar
Nesse
sar
stra
ĠTEMP
ĠIMPET
Ġvezes
Ġrecorre
ĠLegis
ĠOFENSA
ĠConsolid
Ġconven
ĠpÃºblicas
Ġlev
Ġgoz
ALIDADE
Ġcriminal
ĠTrans
ENS
Ġpreenchimento
Ġtri
ĠRIB
ĠMULTA
Ġcriminosa
AP
Ġaqueles
Ġnaqu
dentes
Ġfez
Ġmotivos
Ġpropos
Ġ97
ĠreferÃªncia
Ġquaisquer
ĠFILHO
ĠNULIDADE
2000
ĠHONOR
Ġdeclarada
Tema
Ġpronunciamento
Ġestabilidade
ĠsubsistÃªncia
eia
UG
032
Ġobt
critos
Ġguar
Ġsetembro
RIDADE
tir
Ġleva
RÃįN
RÃįNSEC
Ġvari
ĠjurÃŃdicos
atÃŃvel
icidade
Ġpac
Ġportado
enÃ§as
Ġjulg
Ġdispens
ubro
Ġhomolo
Ġdiverso
eno
ĠmodulaÃ§Ã£o
ĠextensÃ£o
ORN
ĠAR
ĠJULGADO
Ġcabendo
ĠtrÃ¡fico
Ġdesconstitu
cro
Ġmeramente
Ġarestos
ĠcompreensÃ£o
ĠemprÃ©stimo
lant
Ġgerais
Ġreform
Ġfixar
Ġvinculadas
Ġprossegu
pÃ¡g
Ġconsum
ĠEis
quÃŃ
1973
Ġlan
EBER
Ġtan
Ġpossibil
ĠmÃ¡ximo
giu
ifica
Ġordenamento
Ġoportuno
bÃŃvel
ĠPAG
Ġreduz
Ġposteriormente
deu
ĠAS
orro
âĢĻ,
Ġprola
Ġdeclarar
Ġapresentadas
Ġequival
Ġexplici
ĠAra
ĠmoratÃ³rios
Ġtribunal
pressÃ£o
Ġ422
ĠFIS
Ġpermite
Ġconcedida
Ġapresentar
ĠGM
Ġterceiro
ĠinterpÃµe
ĠNas
__
ĠMarques
ĠpatrimÃ´nio
ĠTodavia
Ġhom
MPRI
Ġcompetente
Ġ34
ĠXXXVI
ĠADPF
Ġrevolvimento
POSIÃĩÃĥO
UNICÃįPIO
ĠDISTRITO
Ġtel
ĠSDI
WSKI
Ġdiplo
cetÃŃvel
ĠRECONHECIDA
vento
Ġdeline
ĠLX
1995
ĠÃºltima
Ġquatro
ĠvÃª
Ġcapazes
CIMENTO
caÃ§Ã£o
ĠJuÃŃz
Ġinterpostos
ude
Ġobscuridade
Ġdesincumb
Ġoutubro
Ġtinha
ĠOrig
Ġch
Ġfigu
ĠJudiciÃ¡ria
ĠApo
ĠIncidÃªncia
ĠConsolidaÃ§Ã£o
Ġadmite
Ġconvenci
Ġprescricional
Ġrespectiva
ĠWEBER
RÃįNSECOS
Ġpun
Ġlav
TAÃĩÃĥO
Ġhar
ĠPRESCRIÃĩÃĥO
Ġdesrespeito
Ġobra
VER
Ġrepet
Ġdecisum
eiÃ§Ã£o
UES
Ġsignifica
Ġabril
ciados
ĠAND
ĠJANEIRO
Ġincumb
Ġmateriais
Ġrequerido
ĠFAZ
ĠRIBEIRO
ĠConselho
ĠinversÃ£o
Ġalcance
ĠProcurado
ĠMED
BAT
Ġdepois
Ġentrada
rina
tadamente
56
bel
Ġtransporte
Ġaduz
ÃįZO
ĠintimaÃ§Ã£o
Ġcolacion
Ġinseri
Ġnexo
cas
ĠSecretÃ¡ria
Ġcontar
bela
ĠVeri
ĠRODRIGUES
Ġdiretriz
Ã¼
Ġimpedimento
ĠÃįNDIC
bri
Ġnacional
eta
ĠDENEG
Ġfi
Ġmembros
Ġcenta
forme
Ġtenham
Ġconfl
ĠRequerente
ĠPRINC
ĠliquidaÃ§Ã£o
Ġcomun
ĠdocumentaÃ§Ã£o
Ġhuman
ĠMELLO
ANDADO
ĠFAL
Ġrel
Ġtrechos
ĠZa
ĠIm
retanto
Ġprover
ĠIMPROVIDO
ĠFundo
Ġenfrent
Ġassegurado
ĠdefiniÃ§Ã£o
Ġessas
Ġcond
ĠReclamaÃ§Ã£o
ĠReg
ĠHONORÃģRIOS
Ġinterna
0001
Ġ373
EXAME
ĠVinculante
vocado
Ġdespe
ilo
59
Ġenunciado
ERAIS
Ġresponder
Ġcentavos
Ġdesempenho
ĠORDINÃģRIO
Ġdim
Ġconsagra
essenta
ĠAt
doc
cedor
MISSÃĥO
Ġexata
ĠVII
ĠLEW
MPRIMENTO
OL
dora
ĠinequÃŃ
EMENTA
ĠMART
ient
ĠINDE
ANDOWSKI
ĠRELA
ĠLEWANDOWSKI
ĠIMPROCED
her
Ġdefeso
tologia
ĠMORAIS
Ġjulho
ĠPUBLICADO
ĠOrigem
ĠÃºltimo
Ġdepoimento
sideraÃ§Ã£o
ĠColegiado
QUES
Ġsubmetido
ava
cionada
ĠCer
tudo
Ġconstru
ĠatribuiÃ§Ã£o
JA
veu
Ġdenega
quente
SDI
MISSIBILIDADE
ĠMARC
ĠTeori
Ġcoletivo
Ġvalo
Ġassentou
Ġ50
Ġcol
Ġ186
bu
Ġrevel
QUESTI
ona
Ġextr
Ġtorno
Ġnovos
arts
Ġconvencimento
CIP
ĠZavas
Ġelabo
Ġdrogas
Ġadmitido
Ãµem
ĠEDSON
Ġproferidas
ĠREEXAME
Ġobservados
ĠEstadual
ĠCam
ĠConstitucionalidade
Ġvedada
Ġoriun
CULO
Ġinterp
ĠPla
ĠmotivaÃ§Ã£o
ÃģVEL
357
Ġdesses
ĠSR
CB
ÃīR
Ġboa
Ġreferidos
ĠTA
ĠINTDO
ĠinadimplÃªncia
ĠTRF
Ġdestaque
âĢľ
ĠapelaÃ§Ã£o
Ġ2014
Ġ53
ARES
ĠPREQUESTI
Ġsobretudo
ĠautorizaÃ§Ã£o
ĠNEGA
ĠEMPREG
Ġcitado
ÃĵDI
Ġpago
gora
Ã³gico
Ġexor
ĠVos
ĠSegundo
cki
Ġestat
ĠreabilitaÃ§Ã£o
Ġ2011
ĠNORMA
ĠPereira
Ġdout
Ġenf
amos
Ġmis
Ġgravidade
ĠZavascki
erman
Ġsuperv
gre
ĠidÃªnt
ĠNormativa
Ġimposta
ĠDeclara
ĠordinÃ¡ria
HIN
Ġassegurar
Ġretorno
ĠFEL
ĠJUROS
Ġacolhimento
Ġfinanceiras
ĠPERI
ĠorganizaÃ§Ã£o
Ġinsalubridade
Ġproventos
ĠREPRESENT
EA
ĠsupressÃ£o
ĠDesembargador
ISÃĥO
ĠAnd
ins
Ġdeixar
ĠCOSTA
Ġhavido
Ġvencido
Ġmanifestou
nal
Ġrazoa
Ġ535
Ġprogres
uri
ĠProv
Ġaplicando
ĠrestriÃ§Ã£o
ĠConsiderando
ETO
ĠimpetraÃ§Ã£o
Ġintr
UAÃĩÃĥO
Ġestabelecida
ĠcertidÃ£o
ĠClÃ¡
ENDI
ELL
ĠPed
tia
ĠNeste
Ġsalariais
ĠObser
Ġterceirizada
Ġsucess
Ġadquirido
ĠveÃŃculo
1990
Ġ282
Ġmorte
ĠREF
Ġ48
MINAR
ABIMENTO
Ġinom
ĠENTE
Ġvul
Ġ57
ĠPREQUESTIONAMENTO
ĠimprescindÃŃvel
Ġcelet
030
RAL
ĠBA
Ġadotados
ĠTam
ĠMANDADO
irmaÃ§Ã£o
Ġ879
ĠsolidÃ¡rio
ĠJUDICIAL
Ġalguma
Ġterceirizados
tem
ĠCONCL
ANC
Ġconcreta
ĠÃ¡rea
Ġocupa
Ġsen
ĠPelo
eiros
ĠRECLAMA
cionado
dois
ĠNego
Ġfundamental
CIDADE
ĠVINC
ĠMUNICÃįPIO
Ġficar
Ġembargada
cle
ĠADICIONAL
Ġtudo
Ġsucumbenciais
Ġ98
Com
ĠNAT
Ġrelativo
ÃŃnio
Ġeventuais
Ġadministrativos
[...]
ĠVossa
Ġinconform
ĠCOMO
ĠFor
ĠFrancis
ĠPRA
Ġindeferimento
Ġreserva
ĠLIV
ĠQuinta
ĠPar
ĠFern
Ġindicadas
Ġafirmou
Ġcondenar
bertura
Ġdignidade
ĠRessalte
damento
Ġacar
Ġsolici
Ġ1991
ĠprevidenciÃ¡rios
ĠDispens
Ġ927
Ġigualmente
Ġregularmente
ĠMedida
quin
ĠAdministra
Ġcomercial
ĠformaÃ§Ã£o
ĠCAUSA
ĠprevidÃªncia
CIAIS
gimento
stamento
Ġparecer
rentes
ĠRECORRENTE
ĠJUIZ
ĠRIST
Ġconfronto
ĠBa
ANO
ĠAduz
Ġimped
Ġmantido
fos
925
izado
paÃ§Ã£o
preende
FEREN
Ġmesmas
ĠGon
sando
Ġinominado
ĠUniformizaÃ§Ã£o
ĠINFRA
Ġexecutivo
Ġdesign
entada
Ġabsoluta
Ġestatal
ANTE
ĠIntim
ĠinclusÃ£o
Ã³dia
tador
Ġdaquela
gente
ĠCor
ĠNEGATIVA
vadas
Ġleitura
ĠEssa
Ġessencial
ĠpeÃ§a
Ġdelim
etÃªncia
UTÃģRIO
ĠNCPC
ĠREGIME
Ġprincip
Ġtelef
ĠPI
ĠunÃ¢nime
Ġprod
Ġexigida
Na
ĠFrancisco
Ġdivul
ADAS
Ġsupera
ĠconstataÃ§Ã£o
vinte
Ġesfe
ĠdiÃ¡ria
Ġextrai
Ġmane
SCO
Ġoral
ĠCELSO
lia
Ġnotadamente
ĠdeverÃ£o
xe
Ġconstitucionalmente
Ġestabelecer
ĠCum
qÃ¼
Ġestip
Ġadimplemento
ĠhipossuficiÃªncia
Ġprosperar
ĠALVES
Ġmiserabilidade
ĠconfianÃ§a
inde
Ġdistin
ĠvÃŃcios
arquia
ĠAfirma
Ġsatisf
RIBUIÃĩÃĥO
Ġretra
ĠComplementar
ĠDIVERG
cipa
jamos
Ġreclama
icÃ§Ã£o
Ġreno
HIA
for
ĠMasca
Ġmodifica
Ġestabelecidos
Ġatest
Ġnosso
Ġelen
crim
Ġ78
ĠdÃºvida
ĠDANO
ĠEstados
ĠJaneiro
Ġprotela
istindo
ĠinstituiÃ§Ãµes
SERV
renhas
ĠGON
ĠMascarenhas
Ġfut
Ġjustificadamente
ĠMARTINS
Ġpreceitos
rÃ©sci
ĠFACHIN
Ġbaixa
alizada
entando
Ġestatut
Ġdistint
ISE
ĠORDEM
ĠindispensÃ¡vel
ĠRequer
Ġharmon
Ġrelativos
ĠVIII
Ġrazoabilidade
CTE
ESE
adequ
sabilidade
Ġestabeleceu
Ã©rito
ÃĵDIGO
ÃĩO
Ġcolo
Ġ51
constitucionais
ILEF
centes
Ġpremissas
Ġmor
Ã¢ma
viamente
ĠPOL
certo
Ġextrajudicial
ITIVO
Ġcolegiado
Ġafastada
Ġultrapas
Ġproferiu
Ġfale
ĠFel
Ġreti
ĠInicial
VIO
Ġmere
Ġcomplementar
REZA
dial
Ġalterna
ĠPois
ĠobtenÃ§Ã£o
Pro
ĠSOBRE
Os
Ġdobro
SENTENÃĩA
Ġconfigurada
ĠPART
iza
0281
Ġpriva
Ġful
Ġdiploma
ĠOcorre
1998
esses
Ġnatural
ĠextrÃŃnsecos
ĠQUAL
FICAÃĩÃĥO
ĠRES
Ãºmeros
ĠinsuficiÃªncia
ĠcÃ¡lculos
ĠInstruÃ§Ã£o
ISTAS
Ġrejeitados
ĠMARQUES
ĠCULPA
ĠpacÃŃfica
EMBARG
ĠFRANCI
ĠGERAIS
ĠOJ
ĠRegistre
Ġfiscal
ĠCÃĵDIGO
ĠinformaÃ§Ã£o
ĠCorre
ĠBel
dores
ĠDIVERGÃĬNCIA
ÃŃcia
ing
ĠEXTRAS
eza
ĠEntretanto
Ġtange
Ġimportante
ĠDJE
ĠECON
Ġpersonal
forma
Ġreceber
Ġtenho
Ġaquis
Ġrelativamente
Ġ2012
Ġinicia
Ġrelativas
ĠCONCLUSÃĥO
Ġpassivo
inheiro
Ġproble
Ġcontidas
ĠBrandÃ£o
ĠDIVULG
ĠapuraÃ§Ã£o
ĠLIMA
rroga
Ġprecon
ĠASSU
ĠexclusÃ£o
ĠSOARES
Ġisto
ĠEn
Ġsofre
Ġsindicato
ĠPAGAMENTO
utros
ĠSIN
ĠRIT
CR
Ġadi
Ġsequ
Ġpagos
ĠepÃŃ
UNES
Ġseis
IDOS
ĠcaracterizaÃ§Ã£o
Ġprorro
Ġadequado
ĠCAT
ĠSendo
Ġincidir
ĠRCL
ĠÃįNDICE
ĠEMPRESA
ĠXXXV
Ġquer
Ġrealidade
ĠincabÃŃvel
tibilidade
Ġ77
ART
ĠFUNDAMENTOS
ĠJURISDI
ĠSEÃĩÃĥO
Ġresol
Ġdepende
Ġocorri
ĠidÃ´ne
STITUTO
Ġsuscitada
Ġportadora
ÃįLIO
Ġdeli
Ġmencionada
Ġcompete
Ġadvento
ĠRECURSAL
cessariamente
Ġ118
def
ĠprÃ³
ĠNECESSIDADE
ĠAUTUAÃĩÃĥO
mbora
mentares
Ġjulga
grafe
Ġcaracteriza
ĠGRA
resign
Ġexamin
DES
ĠrescisÃ£o
ĠinequÃŃvoca
mentada
ÃīB
Ġpagamentos
Ġ46
PRESIDENTE
tur
Ġprerroga
ĠcomplementaÃ§Ã£o
Ġquantia
entenÃ§a
Ġaspectos
ĠRELATORA
ĠASSUNTO
ĠcessaÃ§Ã£o
feitos
ĠLEGIS
ÃŃdas
Ġperten
ĠVe
ĠCrim
ĠpermanÃªncia
Ġagravado
Ġdemandaria
Ġresposta
ĠSistema
ĠAUTO
Ġvinculada
Ġmantendo
ĠLXX
Ġ(...
erativa
Ġprivada
Ġnecessariamente
ĠepÃŃgrafe
Ġestrita
rique
Ġreclu
Ġequipa
ARTA
ĠSant
Ġnegado
ROG
VIDA
Ġexigido
itadas
inaÃ§Ã£o
Ġinici
Ġestrut
Ġproporcionalidade
Ġapto
Ġferi
ĠAIRR
Ġfazendo
Ġinicialmente
ilha
Ġnar
ĠacrÃ©sci
Ġproceder
ĠâĢĵ,
Ã§al
Ġalgum
Ġinstituto
Ġdescontos
Ġcuj
ĠRHC
Ġaumento
asso
IPE
Ġ32
ADI
Ġperceb
ĠCONSU
ĠProcuradoria
Ġsaber
ĠRITST
Ġrequerida
ĠPROFERI
ato
Ġdific
Ġdespeito
Ġindex
Ġrecente
ĠClÃ¡udio
Ġemit
Ġacrescidos
ĠOra
Ġjulgo
Ġprop
ĠRECLAMANTE
RIT
ĠcomposiÃ§Ã£o
cimentos
Ġmoto
Ġminutos
Ġexiste
ĠinsuscetÃŃvel
Ġlogo
ĠCONDEN
ĠtemporÃ¡ria
Ġrealizados
Ġconsiderou
ficos
Ġreconhece
ĠaptidÃ£o
FICO
Ġeram
ĠCOMPROVAÃĩÃĥO
Ġsupor
Ġpreparo
Ġven
Ã¢mara
Ġtestemunh
Ġetc
ĠRECLAMADA
ĠIMPUG
212
Ġafigu
ugna
ĠSEGURO
Ġespecific
Ġexter
cando
Ġaludida
Ġcontido
periores
ĠresidÃªncia
bete
Ġconstran
ĠATIVIDADE
Ġemb
ĠSubprocurador
HORA
ĠDistrito
Ġfundamentais
Ġ36
Ġelemento
Ġesclarecer
guns
Ġexistente
sific
MUN
ĠtributÃ¡ria
Ġcent
Ġcorreta
Ġ489
Ġdeterminando
ĠPRAZO
Ġprodutos
Ġencam
Ġ543
unes
Ġcomando
Ġigualdade
ĠFer
Ġgrifos
Ġimposto
Ġverifico
Ġpatrimoni
ĠegrÃ©gia
Ġtrou
Ġeminente
prego
Ġpremissa
velmente
Ġrecom
sem
ĠEXMO
RIOR
ĠILEG
Ġincorre
daÃ§Ã£o
Ġ43
ĠArgu
jornada
ĠHÃ¡
Ġfator
ĠProvisÃ³ria
ĠCONST
Ġquinqu
izar
tenta
Ã³ri
ERMAN
ĠHel
Ġdeixa
Ġposse
Ġpostula
ĠRib
ĠquitaÃ§Ã£o
ĠJUÃįZO
ĠPos
ĠInicialmente
stre
Ġconceder
Ġbrasileiro
ĠreclusÃ£o
dindo
Ġausente
Ġvale
Ġportador
Ġconsequente
Ġdemo
ĠFAZENDA
Ġvisando
Ġredis
Ġurb
ĠnecessÃ¡rias
cons
pes
Ġpatro
ĠCOLET
ĠlÃŃqu
Ġaponta
ĠCEF
ADC
ĠverificaÃ§Ã£o
DB
................................
Ġtranscrito
ĠPi
Ġmu
ĠREQUISITOS
Ġdinheiro
Ġoito
ĠAUX
Ġsuma
Ġfiscais
quem
Ġarma
utas
Ġrito
Ġtram
Ġrig
Ġinser
Ġimport
ĠTERMO
ĠGonÃ§al
sada
ĠTEMPO
Ġbo
Ġimplant
ĠVi
ĠduraÃ§Ã£o
base
ĠCONHECIDO
ORTE
ĠMINAS
Ġfru
Ġintra
ĠinterpÃ´s
vesse
gue
dice
Ġafirmar
Red
Ġmensais
Ġintegralmente
MONST
ĠmÃ£o
ĠGran
Ġficando
Ġfacul
DOC
Ġeventualmente
Ġativa
sion
ÃĵRIOS
Ġampa
Ġesfera
Ġpesc
ĠLegisla
Ġacos
ĠPPP
ĠparÃ¡grafos
ĠLAU
Ġobservada
Ġarcar
ĠindÃŃcios
Ġremessa
cios
Ġconfun
ricul
ĠoperaÃ§Ãµes
constitucionalidade
IMIDADE
Ġgrande
Ġconsumo
Ġacum
003
ĠpressupÃµe
Ġ193
Ġhumana
ĠTJ
Ġrestando
ĠDEMONST
Ġvert
ÃģL
Ġocorrer
radas
ĠFRANCISCO
Ġdesempenh
Ġinstau
101
ITAÃĩÃĥO
cil
Ġpata
voco
ĠTambÃ©m
ĠRÃī
Ġcredor
Ġambas
grama
ĠFunda
NTES
ĠCÃ¢mara
alho
Ġcen
ĠANTERIOR
Ġexigibilidade
Ġpenho
Ġalguns
ĠinsurgÃªncia
Ġ47
stituto
ĠSaÃºde
Ġindicados
Ġadmitir
ĠIMPUGN
ĠCÃŃvel
DAÃĩÃĥO
ĠATO
Ġprosseguimento
alha
onha
creve
Ġpassiva
Ġrol
Ġdificul
fim
ABEL
Ġinconformismo
ital
ĠGonÃ§alves
ĠPOLÃįT
ÃŃzos
5425
ĠCent
ĠNUNES
Ġimediatamente
ĠIC
conÃ´mica
Ġconduz
Ġapta
Ã¡ticos
ĠPresentes
Pre
Ġnotas
ĠCAMP
Ġaresto
ĠINFRACONSTITUCIONAL
ĠSEX
Ġementado
tes
Ġjuntada
INTA
ĠQuarta
Ġ899
ĠMORAL
Ġhora
ĠGrande
vÃŃ
Ġcorro
Ã¢neo
Ġ(âĢ¦
ĠSERVIÃĩO
Ġdif
INO
TIVA
ĠTERCEIRA
irmando
TU
ĠPri
CION
SOS
vera
UTA
Ġrepresentante
ĠruÃŃdo
Ġimporta
RETO
IMO
Ġrigor
Ġ2013
Ġimpostas
ENDIMENTO
ĠEste
idad
Ġregulamento
gna
Ġades
ĠAugu
elic
Ġinobser
itude
Ġcli
ĠAusÃªncia
Ġpala
ĠsolidÃ¡ria
ĠVALOR
Ġdeferida
ĠRibeiro
ĠPRESIDENTE
Ġvinte
Ġsuspen
ĠFIX
Ġtemporal
Ġpropositura
Ġentrega
ĠposiÃ§Ã£o
ĠatribuiÃ§Ãµes
ivas
Ġelig
ALDO
Ġpalav
Ġinadequ
ĠDispensado
ĠlicitaÃ§Ã£o
Ġsujeito
endas
425
Ġmanda
ĠJÃº
ĠCÃįVEL
Ġsubjetivo
ntia
ĠADCT
Ġfornecimento
Ġemprega
Ġeligendo
Ġdiscute
Ġcanc
Ġreun
Ġ114
ĠJURISDICIONAL
Ġleis
ĠINTERPOSIÃĩÃĥO
ĠAponta
Ġtodavia
ĠDIRETA
ÃĤN
Ġnele
ĠLuÃŃs
quinze
Ġautoria
Ġvinculados
ĠAM
Para
Ġ284
Ġproib
ĠMan
elha
Ġrelevante
ondo
Rcl
Ġfinanceiro
Ġcaracterizada
itam
Ġtrouxe
Ã´no
ĠAugusto
ÃģTICO
Ġestran
Ġpersonalidade
ĠSobre
Ġanti
Ġ65
imentos
vem
ĠServiÃ§o
RedaÃ§Ã£o
ĠSelic
Ġcausas
ĠORIG
ĠCaixa
Ġsindic
Ġom
ĠSERVID
Ġdiminu
ĠPRINCÃįPIO
corrente
Ġinfrin
les
Ġfuncion
ĠAnal
ĠGal
Ġcondenado
ĠPESSO
ĠaplicÃ¡veis
Ġassumidas
Ġfiscalizou
utrossim
ÃįS
unicÃŃpios
Ġefetiv
Ġhor
ENÃĩÃĥO
Ġceletista
Ġexpresso
Ġintroduz
ĠorÃ§a
ĠIR
feita
tores
.âĢĻ
Ġ105
ĠpreclusÃ£o
ĠTEL
Ãªnio
ĠgenÃ©rica
Ġreve
Ġexcess
ĠprocedÃªncia
ĠAsse
ĠCRIMIN
Ġcalcul
EZ
Ġobrigado
ĠCARVAL
Ġconsolidada
ĠCR
ĠOu
Ġconceito
sÃŃdio
ĠÃŃ
zi
Ġoferece
CUL
ĠFISCAL
ĠDOU
Ġprocedimentos
put
ĠBrasile
ĠInconstitucionalidade
ĠQUARTA
Ġvencimento
Ġprivado
Ġautarquia
Ġsur
ĠcustÃ³dia
Ġdefinir
112
Ġdessas
ĠtÃ³p
Ġmud
ĠADVOCAT
ĠTrabalhista
Ementa
Ġencer
ÃļBLICA
Ġlic
ĠQUANT
ĠALEGAÃĩÃĥO
Ġrescin
ĠurgÃªncia
ĠprestaÃ§Ãµes
erial
ĠConden
Ġtestemunhal
ĠOBRIG
ĠJÃ¡
Ġrecebeu
Ġconstatada
ĠREPÃļBLICA
TER
Ġ49
ĠJuÃŃzes
Ġexatamente
ĠnÃ³s
ĠPode
ĠDISPOS
inanc
Ġabrang
Ġpraticados
ĠSANTA
Ġ66
Ġpoderes
Ã©dio
Ġatraso
ĠADVOCATÃįCIOS
Ġdiss
Tra
Ġfulcro
ibilidade
ĠcondÃ£o
ĠincorporaÃ§Ã£o
ĠrelevÃ¢ncia
ĠCuida
Ġabaixo
Ġestaria
bera
cluÃŃdo
Ġpatologia
ĠciÃªncia
idou
ĠÃļ
ĠCamp
DEC
fra
oria
SIA
ĠSentenÃ§a
Ġexercido
ORNADA
Ġindividuais
Ġfraude
Ġmormente
ĠnegÃ³
ĠuniformizaÃ§Ã£o
Ġ2009
ĠTempo
DÃĬNCIA
ĠHelena
Ġincontroverso
ĠapreensÃ£o
ĠEmbora
Ġdecad
Ġon
ĠCarv
Ġconsiderados
ĠTRIBUTÃģRIO
ĠNunes
Ġdepos
Ġdou
ĠApelaÃ§Ã£o
ĠMag
Ġsubordin
ĠQUINTA
tÃ³rias
Ġvisa
ĠatenÃ§Ã£o
Ġ280
Ġlugar
ĠPresidiu
ĠincluÃŃdo
Ġpontos
ĠLIM
ĠoposiÃ§Ã£o
Ġtot
Ġaludido
Ġrevis
ĠCTPS
ĠDEFESA
Ġinteg
ĠICMS
Ġapontados
andida
Ġ(...).
Ġ",
Ġconclui
ĠMagist
ESSÃĥO
Ġvantagens
ĠPOLÃįTICA
ĠPolÃŃ
ĠMagna
Ġdesco
eDOC
Ġpermitir
Ġusu
ĠMEN
ĠDeclaratÃ³ria
ĠRESCI
ĠadmissÃ£o
Ġdisponi
Ġfirme
ĠimportÃ¢ncia
Ġindicado
ĠAma
premo
ntamento
Ġdenegado
Ġrefor
oura
ĠPROVAS
ÃģFICO
arenta
ĠAnexo
ORI
toco
ĠbancÃ¡ria
Ġhave
ĠCARVALHO
ĠSERVIDOR
ĠOf
ĠFerreira
Ġalegando
ĠVal
Ġsustento
ĠCumpre
Ġinju
quiv
Ġautoral
ĠEle
amente
Ġregularidade
ĠCL
Ġobter
ĠAusente
ĠDel
ĠclÃŃn
Ġinvocados
ĠEDU
UB
Ġsubjetiva
ĠRegimental
ĠVIGI
Ġbast
ĠDest
rgÃ£o
Ġvuln
EITOS
Ġequivalente
Ġpolicial
Ġnestes
ĠVINCULA
Ġentidades
Ġcausalidade
Ġinqu
ĠComposiÃ§Ã£o
PÃĵ
ĠautÃ´no
Ġexigidos
ĠInstituto
Ġintuito
Ġpactu
Ġanalisada
Ã§ada
Ġcontram
Ġdesincumbiu
Ġcerta
ĠOrdem
ĠCEP
Ġvont
ĠprobatÃ³ria
Ġ2008
Ġcompa
Ġregistrar
lique
ĠDem
ĠFal
ĠadequaÃ§Ã£o
Ġcham
Ġfuncional
Ġcandida
Ġinviabiliza
ĠJURISPRUDÃĬNCIA
ĠINSTITUTO
Supremo
ĠGara
ĠREPRESENTAÃĩÃĥO
ĠEMBARGADO
Ġcontato
Ġame
Ġfinanciamento
lada
ĠBARB
ĠacrÃ©scimo
ĠcartÃ£o
inisterial
Ġpeculia
ĠCAP
Ġdesconstituir
Ġpromover
ĠmÃŃnima
EIS
Ġmal
ĠPet
Ġsaldo
ĠExecutivo
ĠFAT
gular
Ġpese
ĠPENA
Ġefici
fun
ĠBarb
Ġesteja
ĠpolÃŃt
Ġnun
ĠinobservÃ¢ncia
ĠnÂºs
ĠcomissÃ£o
ĠAUXÃįLIO
Ġapontado
Ġnormativa
ÃĶM
ĠdesnecessÃ¡ria
Se
ĠConsoante
ĠBENJA
mete
ĠMoura
Ġdesl
UREZA
Ġ103
Ġdiscrim
Ġingresso
ĠMANT
ĠpreservaÃ§Ã£o
Ġindevidamente
plica
ĠDestarte
ĠHERMAN
Ġconcerne
Ġambiente
ĠvariaÃ§Ã£o
cessual
ĠBENJAMIN
Ġpreviamente
Ġacrescido
ĠInex
Ġparticula
Ġriscos
Ġconstrangimento
Ġpossuir
plicÃ¡vel
GRA
Ġpatamar
Ã£es
Ġcontagem
Ġdestes
Ġidentidade
Ġreajuste
ĠcontestaÃ§Ã£o
LANDO
ĠCRÃī
ĠMart
dri
105
IVOS
Ġinexiste
Ġvincula
trÃªs
DER
ĠCONTROV
ĠOAB
ARINA
Ġressar
ĠNATUREZA
ĠEMBARGANTE
ĠBarbosa
FICI
ĠAgravado
Ġlitis
Ġexecutada
Ġexordial
584
Ġ897
Ġmateri
Ġpad
ĠargumentaÃ§Ã£o
Ġvenda
Ġimple
sÃŃveis
ĠSenhora
ĠapreÃ§o
Ġdevol
ĠFisc
ĠlÃŃcita
Ġrepe
ĠAUTORA
Ġw
Ġconferir
ĠGRATU
ĠRequerido
lunt
ĠCe
ĠsenÃ£o
Ġdirig
Ġassentado
Ġirresign
ĠprejuÃŃzos
quei
Ġima
Ġintegrar
ĠAlegaÃ§Ã£o
az
Ġ90
Ġesgo
Ġatrai
Ġrealizadas
Ġvencidas
ĠPACI
ĠADMISSIBILIDADE
stas
Ġinfraconstitucionais
Ġreput
Ġsorte
vidÃªncias
ĠcapitalizaÃ§Ã£o
ĠconsideraÃ§Ãµes
ĠJOSE
Ã³rd
Ġsanar
ĠSEXTA
postas
ĠParte
Ġdenom
Ġressalva
itoral
Ġdeles
Ġpertinentes
Ġvontade
Ã³rdÃ£os
ĠPERÃį
Ġinsuficiente
ĠexigÃªncias
ĠPROFERIDA
ĠassociaÃ§Ã£o
Ġconsiste
ĠBenjam
ĠEsse
ELAÃĩÃĥO
quenta
Ġpenhora
Ġpreenchidos
ĠLUIS
ÃŃb
ĠMAG
RN
Ġamea
ĠRR
Ġtestemunhas
Ġdepreende
ĠdevoluÃ§Ã£o
URG
TJ
Ġexcesso
ĠnÃŃvel
Ġobservando
Ġreferidas
Ġencontram
ĠTRABALHISTAS
Ġfederais
ÃĩAL
RIN
Ġconsolidado
ĠCP
Ġentor
ĠvedaÃ§Ã£o
liar
ĠanalÃŃtico
ĠSenhores
centos
Ġdomici
Ġace
HEÃĩO
1999
ÃĵP
ĠbÃ¡sica
inante
SOL
ĠAlberto
ĠVerifica
Ġpretendida
Ġcontraminuta
gentes
Bras
ĠintervenÃ§Ã£o
Ġrever
Ġsuperven
ĠGarantia
ĠBenjamin
Ġz
Ġalc
Ġsofrido
andes
Ġcompanh
Ġvantagem
RIAIS
ĠOCORRÃĬNCIA
Ġteoria
Ġmovi
Ġparticipa
ĠINI
Ġutilizados
ĠsatisfaÃ§Ã£o
Ġverbete
Ġfili
URADO
Ġlavra
ĠregÃªncia
Ġfid
Ġexercida
ĠdÃºvidas
cados
BC
Ġsalientar
Ġesteira
Ġabrange
ANDES
ÃŃti
ÃīRSIA
Ġprerrogativa
ĠfÃ¡ticas
ĠintrÃŃnsecos
ĠMartins
onde
Ġnovas
Ġteto
ĠequÃŃ
ĠHerman
ices
ĠinflaÃ§Ã£o
ĠFernandes
ARR
Ġatualmente
ĠexpediÃ§Ã£o
XA
Ġomissiva
Ã¡grafo
Ġacompanha
use
Ġdoutrina
ĠCRU
Ġestabelecimento
Ġagora
Ġpossuem
Ġempregat
ĠCONHEÃĩO
Ġpronunci
Ġ111
ĠrÃ©us
Ġacervo
ĠCertific
Ġgozo
ĠIntimem
ĠGONÃĩAL
ĠDÃīB
Ġdecreto
Ġcomissi
Ġ324
Ġpraticado
Ġentretanto
Ġentorpe
ĠINPC
Ġidoso
endente
Ġposta
Ġ790
ALH
ĠCol
ĠOMISSÃĥO
ĠirresignaÃ§Ã£o
ĠvÃ¡lida
Ġconsideradas
ĠECT
ĠXIII
Ġ70
ĠCONTROVÃīRSIA
ĠMauro
ĠÃĵrgÃ£o
831
ĠalcanÃ§a
defeso
ĠnotÃ³ria
ĠVIGILANDO
ĠmodificaÃ§Ã£o
Ġabor
Ġjustamente
IPCA
Ġreiterada
ceamento
Ġsegurada
Ġrespectivos
Ġuniform
iii
ĠNAS
Ġprejudicada
ĠSUS
ĠPRISÃĥO
ĠBARBOSA
ĠoperaÃ§Ã£o
ĠGOM
ĠSul
DICA
Ġaferir
Ġagricul
cionar
ĠCATARINA
ĠÃª
ĠECONÃĶM
Ġiniciativa
ĠÃ³bices
ĠVale
chado
Ġcuid
desta
Ġlicita
ĠTendo
ĠINTEG
Ġcogn
Ġintrajornada
Ġ(âĢ¦)
Ġatender
Ġharmonia
Ġcumprir
Ġenvolvendo
BrasÃŃlia
ĠaferiÃ§Ã£o
Ġprocessar
ĠcÃ³p
ĠacÃ³rdÃ£os
ntamente
Ġnossos
Ġobjetivos
ĠGONÃĩALVES
ĠSantos
ĠrevogaÃ§Ã£o
252
ĠAcres
Ġ487
BATÃĵRIO
ĠFÃģTICO
Ġ80
ĠFERNANDES
Ġdisse
ĠTRÃģFICO
Ġexistir
Ġpesca
UP
AÃĩÃķES
ĠoriginÃ¡ria
ĠRodri
Ġalimentar
Ġmencionados
rupÃ§Ã£o
ĠCPF
tuto
rÃ¡ficas
DECL
ĠRÃ©u
Ġapontada
ĠUN
ene
ĠobrigatÃ³ria
Ġobreiro
Ġdela
vocada
eridade
etria
Ġelas
UNIOR
ÃģLISE
gadora
ĠMATERI
Ġ101
Ġiterativa
ĠAto
Ġreite
%,
Ġdesenvolvimento
ĠmÃ©dia
ĠGOMES
Ġimpugnar
Ġsuscitadas
alizados
ĠJUNIOR
Ġitens
ler
ENA
Ġalterou
ĠFIN
ĠSAN
beraÃ§Ã£o
cola
assific
per
947
Ġconcretos
IncluÃŃdo
Ġcasa
Ġnegl
ĠcenÃ¡rio
Ġ201
ĠZA
ĠtÃ©r
Ġenrique
ĠVER
Ġgarantias
Ġutilizada
ĠprovidÃªncias
Ġpercebe
Ġassiste
Ġdemonstrou
Ġaquelas
Ġmanifestar
Ġprejudicado
ĠCONS
ĠadesÃ£o
ĠSeguranÃ§a
Ġcampo
ENSO
ĠprevidenciÃ¡rias
Ġefetividade
Ġparece
Ġdelitiva
gal
Ġcomento
Ġpermanecer
endeu
Ġvencimentos
ĠinscriÃ§Ã£o
ISA
par
ĠTESE
Ġtenta
Ġcitada
Ġprovida
ĠFELIPE
ĠCaso
ĠprovidÃªncia
Ġdiferenci
Ġhist
EDADE
ĠbancÃ¡rio
ĠreconsideraÃ§Ã£o
Ġcolh
ĠtÃ©rm
Ġacolhida
Ġnum
ĠBASE
ĠCampbel
ĠconvicÃ§Ã£o
ÃĩAS
Ġfeitos
CHA
ĠparÃ¢metro
ĠVice
Ġfirmados
MENTAÃĩÃĥO
Ġ297
Ġcomunic
ĠCÃģL
Ġsindical
Ġens
ĠSin
Ġfundamentado
Ġcomportamento
VIII
ĠNR
ĠilÃŃcita
anal
Ġdeveres
MOS
vamento
SERVÃĤNCIA
Ġprofissionais
ĠHabeas
Ġhos
ĠCarvalho
ĠconstruÃ§Ã£o
gitimidade
ĠmÃŃnimos
ĠVINCULANTE
ĠobstÃ¡
Agravo
Ġdito
ĠCampbell
Ġimpetrado
Ġproduzida
Ġcondutas
Ġquinquenal
Ġabstra
gues
Ġrestabelecimento
iram
Ã§ado
Ġsubse
Ġcorpo
Ġcidad
Ġperfeita
ĠPel
Ġadotar
Ġconferida
Ġministro
dator
Ġdeslinde
Ġnotur
Ġcautelares
ĠLEIS
Ġtribunais
Ġprocu
Ġrespal
UNDO
ÃļDE
ĠAnton
racter
Ġdeclarado
Ġveiculada
mpe
ilÃŃb
sional
ĠREMUN
Ġtrazidos
Ġprestar
Ġmodalidade
Ġ384
racterÃŃst
ĠPlano
Ġpecuni
URO
ĠincompetÃªncia
ĠdiferenÃ§a
Ġintegridade
ĠvÃ¡rios
ĠPoderes
ĠAdministrativo
Ġembas
Ġantecedentes
Ġsab
Ġilu
Ã´nica
Ġ312
tÃ¡
Ġcontinuada
ĠvotaÃ§Ã£o
Ġcumpriu
ĠPARAN
ĠestatutÃ¡rio
ilÃŃbrio
ĠIns
ĠprogressÃ£o
MINADO
ĠREVISÃĥO
Ġconcess
Ġcontinuidade
hi
ĠdenegatÃ³ria
ĠANÃģLISE
Ġcontribuinte
cta
ĠCearÃ¡
ĠPub
Ġ84
ĠEFEITOS
MC
ITIMIDADE
ĠRegime
Ġgrifei
Ġimediato
Ġcumprida
ĠOutrossim
Ġcomput
itante
Ġverificada
Ġwrit
ĠNEGAR
VOL
edito
vir
ĠSeguro
ĠcaracterÃŃst
ĠdaÃŃ
Ġexperi
ĠDISPOSITIVO
ĠequÃŃvoco
ÃŃssim
Ġprevalecer
CULOS
ĠAUGU
Ġmedica
ĠAntonio
Ġnocivos
ĠIMPETRADO
Ġabsol
Ġmet
Ġconcent
Ġcelebrado
Ġilici
CIAÃĩÃĥO
VE
Ġincluindo
sados
ĠCUMPRIMENTO
Ġbar
PACIDADE
PJ
826
Ġafastou
Ġcorretamente
Ġdaqueles
trinta
Ġlevando
Ġinsuficientes
ĠespecÃŃficos
Ġ120
ĠgestÃ£o
ĠpolÃŃtico
Ġdemonstram
RIQUE
Ġceleridade
Ġinerentes
ECA
MI
Ġsupri
013
ĠROCHA
verno
ĠDIB
Ġautonomia
late
ARANT
ĠVer
Ġminuta
ĠlÃ³gica
ono
Ġvertente
ĠprorrogaÃ§Ã£o
Ġpedir
atos
idamente
Ġpagas
ÃŃt
ĠMil
Ġindeferiu
vers
quig
Ġclaramente
Ġresponsabiliz
ĠAta
ĠcondenatÃ³ria
Ġambient
ualizaÃ§Ã£o
Ġreproduz
078
Ġademais
Ġtrinta
Ġseriam
ĠvaloraÃ§Ã£o
Ġreclamadas
arca
Ġdocumental
Ġsupostamente
mentais
ĠrescisÃ³rias
rifo
Ġtraduz
Ġtaquig
1988
Ġefetuados
ĠDECLARAT
Ġrelevantes
ducaÃ§Ã£o
ĠDefiro
ĠtaquigrÃ¡ficas
ĠPARCIALMENTE
Ġsabe
Ġescolha
Ġvigentes
Ġarre
ASS
Ġcerceamento
queira
Ġ2007
Ġ557
DJ
Ġcompra
APLIC
ĠMagalh
Ġdilig
ĠOBJ
Ġratific
ĠMagalhÃ£es
ĠCONCESSÃĥO
ĠtÃŃp
Ġimpedir
heÃ§o
Ġpleiteado
ĠContas
Ġpretendido
posentadoria
IFICAÃĩÃĥO
Ġdemandas
Ġalterar
lares
ĠRET
ĠPRELI
Ġturno
ĠEmenta
Ġincumbe
entados
Ġenquadra
ĠrediscussÃ£o
ĠAF
ĠINTRÃįNSECOS
ĠPRÃĵP
ĠINICIAL
Ġexecutado
Ġpalavras
Ġpatrimonial
ĠSENHORA
Ġviolados
ĠretrataÃ§Ã£o
Ġhonor
ĠSecretÃ¡rio
Ġjuntados
osas
ĠmajoraÃ§Ã£o
Ġ406
Ġatribuir
ĠmÃ©dicos
Ġ94
gido
Ġpoten
Ġsocio
Ġverdadeira
026
dent
Ġsuspensa
ares
Ġlitig
ĠAUGUSTO
Ġfornecedor
Ġtiv
faz
ali
ĠJOÃĥO
Ġcapita
sessenta
Ġ196
ZE
ĠBenef
ĠEconÃ´mica
STRO
uzzi
Ġmunicipal
ĠBenedito
ĠLici
ion
Ġjulgamentos
ĠRISTF
Ġconflito
ĠprecatÃ³rios
ĠPRÃī
ĠdistinÃ§Ã£o
Ġenriquecimento
ĠLEGAL
ĠSAÃļDE
ĠEg
Ġprom
Ġ121
tum
timento
Ġproduto
Ġpreciso
ORAÃĩÃĥO
MEIDA
Ġ)
VENT
Ġmulher
ĠDeve
ĠHi
Ġregistrado
ĠtÃ³pico
Ġresguar
ĠespÃ©cies
ĠatribuÃŃda
ĠfÃŃsico
ĠÃ³bito
Ġconstatado
Ġfundado
LEX
ĠCap
ĠGARANT
Ġnunca
BB
Ġprazos
Ġindependente
Ġdroga
PED
Ġgaranta
ĠGRATUITA
Ġ477
ÃīSI
Ġexcluir
Ġguarda
ĠESTAD
Ġeng
Ġcumprido
Ġlegalmente
Ġconsumido
Ġquantum
Ġindicadores
ĠJoa
rÃ£o
Ġsemelha
ĠINOCORRÃĬNCIA
xito
ĠhorÃ¡rio
Ġcombat
Ġimpossibil
ĠLUÃįS
ĠALMEIDA
Ġedital
EE
Ġconsistente
Ġconver
Ġvolunt
ĠÃªxito
Ġcomprovou
Ġsujeita
Ġcompleta
Ġutilizando
ĠPaci
Ġestejam
Ġ266
tizaÃ§Ã£o
ĠCertifico
ĠPesso
âģ
Ġsegre
âģĦ
HI
ENSORIA
ĠDROG
Ġtranscrever
Ġcome
Ġdirim
ĠPRET
ĠMATERIAL
Ġmental
Ġcomplex
Ġpostulado
Ġextremo
ITAL
oriz
ĠDIFEREN
ADES
CKI
Ġdelitos
Ġsuperiores
ĠAli
Ãºjo
Ġpacificada
Ġprotoco
ĠTRABALHISTA
graÃ§Ã£o
ÃļJO
Ġ2001
ĠNETO
ĠempregatÃŃcio
ĠES
Ġtempestivo
Ġartes
ĠMANTIDA
stado
ĠdecretaÃ§Ã£o
ĠPEDILEF
ĠAlves
ezar
048
Ġtip
UZ
Ġextingu
Ġexau
Ġpescador
Ġautorizar
ĠFO
ÃŃtulos
Ġcancela
ADORA
ĠAraÃºjo
ĠdiligÃªncia
ĠPREVIST
ĠHEN
ĠsanÃ§Ã£o
Ġassinal
Ã¡b
AZ
atÃ¡rio
irmada
ĠExtrato
VASCKI
Ġadmitida
Ġextrema
ÃŃcito
Ġadotou
Ġimporte
Ġrespectivas
Vistos
Ġexistentes
ĠZAVASCKI
ĠJÃļ
Ġrestringe
ĠcabÃŃveis
172
Ġprivativa
Ġfolha
Ġdeser
ĠARAÃļJO
Ġrespectivamente
var
Ġsuci
ĠQ
Ġdistintas
Ġobjetiv
VEIS
ĠCLÃģ
cÃ£o
itava
Ġestre
Ġdesconto
ĠMONO
ĠPREJU
ĠviolaÃ§Ãµes
ĠrestituiÃ§Ã£o
Ãºcle
Ġinscrita
Ġdefinida
pÃ¡gs
Ġdeduzida
Ġtitular
ĠAGRAVADA
ĠAMA
ĠincompatÃŃvel
Ġocor
Ġcomet
Ġinsurge
ĠCezar
imetria
IMA
Ġmun
Ġdenun
ĠCNIS
ĠorÃ§ament
ĠmudanÃ§a
ĠLegislativo
Ġcoletivos
Ġsobrev
una
Ġregistrou
Ġcorresponde
Ġ2010
Ġconsecu
vente
Ġacarre
ĠCABIMENTO
Ġdenunciado
Inteiro
Ġpericiais
Ġrealmente
Ġcumula
ĠALT
Ademais
ĠMOURA
Id
contra
Ġtiver
Ġsolu
Ġeman
ĠtÃª
ĠConvocado
Ġatras
Ġrepar
Ġevidenciado
RESS
RESP
DIÃĩÃĥO
endidas
Ġprestados
Ġpequ
ĠIMPUGNAÃĩÃĥO
ĠPROCEDENTE
Ġvislumbra
CUMB
ORES
Ġ"(...)
ĠExecuÃ§Ã£o
pÃ³tese
ĠFONS
Ġanalo
Ġponde
Ġrecebido
ĠEu
Ġinstal
riÃ§Ã£o
Trata
RITA
presa
1996
ĠhonorÃ¡ria
Ġafastando
Ġhaveria
ĠlÃŃquido
IVID
ĠpromoÃ§Ã£o
Ġ468
007
ivos
gadas
Ãªnia
ĠFONSECA
reiras
Ġabuso
ĠINTERPRE
Ġsubmetida
Ġfundada
ĠconsequÃªncias
ĠCabe
ĠaquisiÃ§Ã£o
ĠREJ
Ġlimitou
ĠCARG
ĠimputaÃ§Ã£o
RADA
Ġdespropor
Ġdescaracte
Ġpenas
grou
Ġpub
inter
Ġprisional
Ġsedi
elec
inou
Ġ2003
Ġbastante
ĠCARA
ÃīSIMO
Ã©rgio
ĠPARANÃģ
mÃŃn
stada
020
Ġcogit
Ġ356
Ġimplic
ĠPeluso
Res
Ġrecebidos
Ġdisciplinar
ĠINCA
ĠEgrÃ©
Ġdeixando
AF
Ġacolhidos
ĠTAXA
ĠinfraÃ§Ã£o
Ġgu
ĠLuis
Ġtabela
Ġobrigato
Ġprincipalmente
196
Ġ760931
Ġfraud
Ġcausados
Ġplenamente
ĠmantÃ©m
ĠORIGEM
ĠProcurador
ĠTEORI
dico
ĠENTRE
Ġperigo
ĠCÃģLCULO
1994
Ġestabelecidas
ÃŃba
ividade
ĠJOA
ĠimpossÃŃvel
ĠRodrigues
ĠMaior
Ġtrazida
ĠJULGO
Ġbrasileira
ICE
Ġincapacitado
Ġcontrari
ODO
Ġalterada
ĠPrevidenci
Ġtare
ĠUn
Ġintelec
ĠimplantaÃ§Ã£o
ĠSecretaria
ĠvÃªnia
ĠcompatÃŃvel
sio
ĠSÃī
ĠpoderÃ£o
Ġdivulgado
ponsabilidade
Ġunidade
ĠreiteraÃ§Ã£o
ĠCONSTITUCIONALIDADE
ĠpassÃŃvel
ĠcriaÃ§Ã£o
PB
ciando
ĠdissÃŃdio
pso
Ġ99
Ã©tri
Ġretroativa
NTA
Ġvejamos
ĠSÃ©rgio
ĠintegraÃ§Ã£o
ĠSEGUIMENTO
Ġcontrovertida
ĠSUCUMB
IAN
Ġlig
Ġaposentado
aram
Ġdepoente
Ġreman
ĠMunicipal
Ġ203
Ġderi
ĠLicitaÃ§Ãµes
ĠMONOCR
ĠFalcÃ£o
Ġfacil
Ġexpostos
016
doze
PRESO
ĠCONJU
ĠINOMINADO
Ġpolo
ĠPEL
ĠARTS
Ġagir
vÃŃdu
ĠopÃ§Ã£o
Como
Ġpotencial
jeiÃ§Ã£o
ĠLt
Ġanalisado
eligÃªncia
Ã¢nea
Ġversa
Ġarquiv
Ġ150
ĠPRELIMINAR
ipe
lateral
Ġ1973
Ġcorrobo
Ġsegurados
ĠINTERPRETAÃĩÃĥO
rÃ¡fico
DAS
Ġfalha
Ġilicitude
Ġenferm
Diante
ĠantecipaÃ§Ã£o
ĠHavendo
Ġconsequentemente
Ġevidenciar
ĠINAPLIC
ĠBANC
ĠmenÃ§Ã£o
Ġobservou
Ġmarco
Ġtotalmente
cento
Ġrepas
ĠAplic
ĠindivÃŃdu
Ġpreenche
Ġfonte
ĠREGIDO
SITO
Ġresultantes
Ministro
ĠacusaÃ§Ã£o
uladas
Ġprestam
aduais
Ġsuprim
hes
Ġatacada
ĠIMPROCEDENTE
Ġacolher
ĠEnunciado
VALO
ĠterÃ¡
Ġprestadas
ĠJULGADA
----
ĠhaverÃ¡
Ġ205
itenta
ĠCAL
Ġalgumas
Ġtivesse
ĠEl
etariamente
ĠLtda
ĠPETRO
Ġrepresentativo
cede
Ġsemanal
Ġestri
001
ĠPROTE
Ãºcleo
Ġratio
Ġreconhecendo
urge
Ġ61
821
ĠNada
Ġnovamente
Ġadv
ATÃĵRIA
ĠfÃ¡ticos
ĠPLA
Ġconci
Ġnela
Ġ109
ĠFelipe
ĠIl
Ġaguar
ĠQue
gno
Ġindevido
Ġ145
Ġ182
Ġviabilizar
NALDO
ÃŃa
Ġconhecidos
jeto
DD
Ġ283
Ġcomprova
Ġcoletivas
ĠnegÃ³cio
tam
Ġcorrespondentes
Ġmonetariamente
Ġapreciada
Ġlitiscons
ĠlicitatÃ³rio
Ġinv
Ġpeculiaridades
EMBARGOS
Ġapela
Ġocorrida
Ġproblema
orden
ĠPRIV
ĠMant
Ġdireto
ĠTRANS
ĠSan
DITO
Ġobservo
ĠENTENDIMENTO
ĠTRANSP
lho
ĠPrecedente
Ġsobera
quim
ĠindenizatÃ³ria
ĠHENRIQUE
435
pp
ĠQUEST
Ġfinanceiros
Ġconsubstanciado
ĠMI
Ġdosimetria
ĠdiminuiÃ§Ã£o
ĠEnte
Ġ87
etos
Ġseguida
udos
ĠarguiÃ§Ã£o
Ġestrutura
Ġ219
UTELA
cra
DIREITO
ĠRED
ĠEDUARDO
Ġtransferi
ĠCARACTE
Ġremanes
liaÃ§Ã£o
ĠdÃŃvidas
Ġdecidida
ĠLXXIV
ĠTRANSCRIÃĩÃĥO
ĠProf
ench
Ġadmitidos
Ġenvolve
ĠsubmissÃ£o
ĠpÃ¡gs
ĠAPÃĵ
stados
ĠINCI
Ġexpend
Ġarbitrado
ĠprofissÃ£o
fique
Ã§ar
Ġdefinido
ĠCONDENAÃĩÃĥO
ĠSindicato
Ġnoturno
Ġdefende
possibilidade
ĠInconform
ĠMunicÃŃpios
Ġ870
taleza
ĠCRIMINAL
Ġcujos
Ġfechado
Ġfilho
RET
ĠESTADUAL
Ġeg
FICA
CAR
Ġobjetivando
ĠIS
iciais
Ġconcern
ĠviolÃªncia
ĠDelgado
ĠParaÃŃba
DAN
ÃģS
GADO
ĠSOL
Ġsimplesmente
ĠExcelso
Ġexequente
Ġirregularidade
Ġintegrante
ĠDou
ĠRÃīU
Ġnorte
ĠFrei
Ġdispor
ĠPREVENT
ĠPAT
ĠGROS
Ġtele
ĠPublique
ĠParÃ¡grafo
ĠinvestigaÃ§Ã£o
STE
ĠASSO
ĠAPELAÃĩÃĥO
Ġefica
ĠDEFENSORIA
Ġtax
Ġdeferido
PV
Ġalien
ĠtÃ©rmino
tion
cie
ĠMONOCRÃģTICA
ab
reno
ĠExma
760
Ġreside
ĠOUTROS
ncÃŃpio
ĠJuizado
Quanto
lhes
Ġinflu
como
Ġeminentemente
utel
ĠTOM
inados
ĠANTES
ĠMAURO
ĠNor
Ġinexistindo
Ġvera
ĠFreire
grifos
ĠPasso
Ġaplicabilidade
Ġempresarial
ĠFortaleza
ĠHI
DENCIAL
Ġinfere
ÃĶNIO
Ġnove
ĠREFLEX
Ġ2006
ĠConheÃ§o
Ġcorrigido
Ġregistros
Ġpresid
iteia
cular
ĠGARANTIA
Ġdissenso
ficaÃ§Ãµes
Ġdeficiente
Ġlaborais
ETE
oito
Ġescopo
ĠLICI
Ġcola
POR
Ġeficaz
ĠINAPLICABILIDADE
ĠagÃªncia
Ġ2000
ĠJoaquim
Ã¡lo
Ġfossem
istir
ĠINCAPACIDADE
Ġ2002
ont
Ġcapital
Ġestarem
UNICIP
Ã´nju
ĠAJU
ilian
Ġesclarecimentos
ÃĥES
Ġmaiores
ĠHipÃ³tese
ĠdoenÃ§as
naldo
ĠprecatÃ³rio
ĠLEGISLAÃĩÃĥO
Ġveracidade
Ġperf
CLUSÃĥO
CS
Ã©st
ĠBrasileiro
erais
CLT
CN
Rel
Ġpugna
Ġcorrente
anho
Ġartic
Ġfrente
EP
ĠPimenta
ĠCla
ruz
ĠCri
ĠâĢĶ
ĠADIs
cionou
Ġdetrimento
Ġregu
ĠInterm
ĠJurisprudÃªncia
ĠcÃ³pia
Ġrejeitou
Ġproduzir
ĠAnt
ĠLilian
Ġprove
Ã§Ã£
ilhos
ĠlegÃŃtima
ĠINVI
Ġchegar
Relatora
ĠsÃ³cios
RGIO
ĠConfira
ĠobstÃ¡culo
ĠameaÃ§a
isor
ĠmunicÃŃpio
ASA
DICATO
ERN
alizar
Ġidem
Ġlogra
Ġparadigmas
ĠtÃ©cn
ĠpÃ¡t
Processo
ĠidÃ´nea
Ġinscrito
ĠCRUZ
vertido
ĠHEL
Ġsofri
ĠPREVENTIVA
FC
Ġrestabelecer
bDI
inho
PES
250
Ġmilitar
ĠJURISPRUDENCIAL
Ġforo
Ġreformar
ĠDra
GA
Ġja
ĠCONTRATUAL
ĠOrdin
Ġpassando
ĠpaÃŃs
Ġtornar
Data
lan
ritto
Ġilegitimidade
Ġelevado
ĠDESTA
Ġintegralidade
Ġaconte
ĠcapÃŃtulo
ĠEmbargante
Ġindexador
Ġdesem
Ġ137
Ġpoliciais
Ġexempl
Ġcoo
ĠplenÃ¡rio
Ġreca
ambu
monte
ĠconfissÃ£o
Ġartesanal
Ġexpor
Ġintern
Ġpop
Ġsinton
ĠAUTOR
ĠRESCIS
Ġtrazer
ĠexplÃŃcita
Ġcontratados
Ġdestacou
cadas
ĠBRA
Ġfatores
Ġadequadamente
Ġobstacul
Ġfilhos
ĠINSTÃĤNCIA
omÃ£o
Ġapontadas
enchidos
Ġcancelamento
Ġexpostas
ĠCOMPLE
Ġexerceu
ĠvÃ¡lidos
Ġfogo
ordinÃ¡rios
Ġmodificar
AA
SUFICI
ĠSÃļMULAS
Ġabsolutamente
Ġevento
Ġ("
ĠTÃ©c
Ġofer
Des
ĠJur
ĠOg
Ġconsol
ĠregulamentaÃ§Ã£o
Ġ0000
Ġimun
ĠSbDI
ELHO
Ġperdas
ĠCTN
ĠlicenÃ§a
Ġsintonia
Portanto
entam
Ġdepoimentos
dust
ĠPRES
ĠPOST
Ġ52
Ġcusteio
ĠVALORES
Ġempregada
ĠDEL
xim
ĠequilÃŃbrio
Ġexper
ĠCONCURSO
Ġmodificativo
Ġplan
ĠSUSP
080
Ġnormativos
Ġsolida
ĠBritto
ergia
ĠtributÃ¡rio
ĠINTERVALO
OLH
ĠalimentaÃ§Ã£o
Ġassu
ĠSalomÃ£o
ĠNÃºmeros
Ġindep
ĠoriginÃ¡rio
Ġperspec
Ãºl
ĠAgravada
Ġ958
ĠapÃ³
ĠINDIC
DOENÃĩA
Ġcusto
ĠATUAL
Ġabertura
Ġdesproporcional
ĠEXTRÃįNSECOS
Ġsubstituir
all
Ġdesacerto
VERSÃĥO
Ġtranscritos
Ġfre
geri
ĠrepetiÃ§Ã£o
ĠfraÃ§Ã£o
ĠcÃ´nju
Ġtransitada
ĠVaz
CELA
Ġterceira
ĠclÃŃnico
Ã©b
Ġeditada
214
nia
QUI
Ġpreso
ĠInterministerial
ulados
ornos
Ġprolatado
Ġexcepcionais
Ġsobrestamento
ĠTratando
ernambu
camento
IZADA
Ġcondenou
ĠLau
ĠcumulaÃ§Ã£o
Ġ195
COMP
ĠDireta
ĠRGPS
Ġsumulada
ĠINVAL
Ġfalecido
Ġlapso
Ġdiferente
ĠSÃīRGIO
Ġcadast
ĠemprÃ©stimos
USO
ct
ĠaprovaÃ§Ã£o
Ġcausar
ĠhistÃ³ri
CEL
Ġautores
ĠPernambu
ĠFATOS
ĠcÃ´
Ġmaterialidade
ĠJUDICI
Ġacompanhamento
060
Ġessenciais
Ġimpedimentos
Ġremet
ĠMIL
DIO
Ġpoderiam
ĠBelmonte
Ġhipossuficiente
edido
âĢ¦]
ĠResponsabilidade
Ġsetor
ĠfavorÃ¡vel
ĠinstituÃŃdo
Ġpermissi
Ġargumenta
Ġencaminh
ĠhÃ¡bil
Ġvai
Ġconfirmar
Ġantecipada
Ġnot
etÃ¡rio
ĠARG
ĠFISCALIZAÃĩÃĥO
lÃ³gico
Ġanalogia
ĠEXAME
ĠVIA
ĠCASO
Ġhomem
EIROS
rÃŃcola
plicabilidade
gese
ĠPernambuco
ĠRecursos
Ġnormal
Ġindenizar
Ã§am
rir
ĠME
Ġespa
Ġinfor
Ġ74
Ġcarte
ĠhomologaÃ§Ã£o
nior
ĠDIFERENÃĩAS
ĠnÃºcleo
sou
043
ĠhabilitaÃ§Ã£o
IXA
ticidade
Ġsujeitos
Ġreinte
ĠPERÃįODO
Ġatendidos
Ġ500
ĠCLA
ĠLaurita
Ġliti
Ġteriam
ĠDROGAS
Ġresponde
Ġtaxas
Ã¢m
item
ĠDER
Ġsuficientemente
Ġeletro
Ġvencidos
Ġsuced
Ġ2004
ĠcÃŃveis
Ġatinente
ĠbeneficiÃ¡ria
Ġatua
BE
Ġblo
',
Ġdificuldade
pesso
ĠÃºltimos
ĠLo
ĠbeneficiÃ¡rios
ĠRECURSOS
ĠCal
stou
ven
ĠPARCELA
ĠRECONHECIMENTO
Ġ485
Ġbis
Ġesfor
ĠnÃŃt
Ġinexistente
ĠanalÃŃtica
ancy
Ġcorrigidos
ZI
Ġ224
Ġoutrem
ndi
Ġhouvesse
veri
righi
Ġ894
Ġpreservar
ilidade
ĠSob
Ġatingir
ĠCONTRIBUIÃĩÃĥO
ĠAndrighi
Ġrelacionadas
Ġ211
tÃ¡vio
umberto
ĠpolÃŃticas
ORGE
025
dom
Ġsuposto
Ġtribu
Ġpleno
Ġcadastro
Ġdebatida
AM
Ġsubmeter
Ġdecorreu
Ġperspectiva
ĠNancy
ĠafirmaÃ§Ã£o
ĠArgumenta
Ġcontados
As
Ġprol
jado
Ġdefen
)"
ĠqualificaÃ§Ã£o
Ġcontraria
Ġbi
guei
ĠsentenÃ§as
grifei
Ġdolo
ĠinquÃ©rito
ĠÃģ
critas
ĠDEFICI
Ġ170
pet
ĠPreenchidos
bidade
tti
ĠVIEIRA
Ġpet
Ġfiz
Ġanu
RAMENTO
Ġpatente
MT
Ġdescaracteriz
ĠinaplicÃ¡vel
ĠDENEGO
Ġimpeditivo
Ġresultou
IGU
ĠFinanc
ĠsegregaÃ§Ã£o
Ġestas
ĠPCC
Ġtrabalhou
trans
HER
Ġdiferentes
107
essor
Ġvias
Ġ467
Ġadent
Ġpermanece
Ġlhes
ĠCentral
fia
ĠAPELO
ĠQuando
ĠFERNANDO
ĠBres
MIT
ĠAÃ§Ãµes
Ġposte
ĠINQ
lante
ĠConclu
Ġsegue
Ġpenalidade
047
ĠCONFIGURAÃĩÃĥO
ÃŃgio
tamento
ane
ĠterÃ§o
essas
incidÃªncia
nicamente
nes
CULOSIDADE
ĠHumberto
INE
mit
ĠOtÃ¡vio
Ġacrescent
Ġcaracterizar
Ġrelacionados
ĠMATO
ĠSoares
Ġindicou
Ġregulamentar
vamente
Ġvirtual
bou
Ġintelectual
ÃģRIAS
Ġaten
Ġefetuar
ĠintenÃ§Ã£o
AE
ĠÃĵB
Ġobtido
Ġquase
Ġanual
Ġconsolidou
Ġfigura
Ġdando
ĠCarmen
ĠCONSUM
ĠPERICULOSIDADE
Ġclassific
Ġ75
ĠâĢľ(...)
1992
Ġhoje
Ã§ados
Ġextinto
atÃ³rias
ĠContrato
mpesti
VED
ĠMOREIRA
RON
Ġdeferidas
Superior
Ġpan
ĠREN
ĠPLANO
lados
iam
ĠLeite
Ġrepetitivos
Ġdestacado
Ġveda
ĠGAL
Ġpenais
vÃ£o
ANDER
Ġexecutadas
ĠMES
ĠGROSSO
Ġcidade
ĠINAD
pital
Ġ1999
Ġsufra
Ġpresumida
Ġdefinitivo
ĠXXII
ĠCAIXA
Ġconfunde
ĠAPRE
ĠequiparaÃ§Ã£o
Ġasseve
ĠPolÃŃcia
ĠJÃºnior
Ġpromovida
Ġassegura
ĠER
IRM
ĠPDF
Ġformulados
Ġinviabilizar
Ġressarcimento
024
ĠFont
Ġlimitando
Ġirrele
Ġdemandada
Ġpud
mÃŃnimo
Ġsoma
Ġdominante
ĠSI
ĠPRETENSÃĥO
RANTE
Conforme
ĠlitigÃ¢ncia
ĠTabela
ĠSIST
ĠcontÃ©m
Ġgerente
Ġcausal
eda
ĠCORRÃī
ÃįSS
CD
Ġcarga
LAS
Ġconsumidores
ÃŃm
tis
Ã³rios
mail
Ġnesses
Ġdetalh
Ġrequerer
ĠnegligÃªncia
edades
ĠaliÃ¡s
Ġvinculado
Ġinerente
gindo
ĠDeci
NIOR
____
ĠAPÃĵS
Ġsustentando
Ġ180
Ġinflacion
Ġcompensa
ĠÃłqueles
Ġ372
aleticidade
Ġinstrumentos
035
ĠCRFB
gide
ĠEntÃ£o
ĠCNJ
Ġexequ
ĠCRÃīDITO
Ġsessenta
stabele
ientes
ĠSen
ĠRECUP
ĠIMPROCEDÃĬNCIA
ĠÃ©gide
ĠAlme
ĠAy
Ġomnes
Ġ2023
Ġpositivo
ISSÃĥO
culaÃ§Ã£o
ĠTodos
orrÃª
Ġ319
Ġdescab
Ġinteiro
ĠprolaÃ§Ã£o
PROCESSO
Ġapoio
ĠMilitar
ĠJÃļNIOR
ardo
mil
Ġirregular
BF
Ġrelacionada
Ġoitenta
Ġestreita
bras
¿½
ï¿½
ĠcÃ´njuge
Ġconstituem
Ġdiretrizes
Ġrepa
ĠINVIABILIDADE
Ġrepou
Ġ),
Ġ;
ĠatribuÃŃdo
Ġtratam
ĠapÃ³lic
Ġdefiniu
Ġ300
ĠextraordinÃ¡rias
LEI
orge
Ġconsubstanciada
ĠCOND
Al
ĠINDENIZ
Ġabono
ĠAlmeida
Ġtera
Ġplanilha
erar
ĠServiÃ§os
ĠTer
volu
Ġproven
Ġdeciden
ĠinovaÃ§Ã£o
ĠseparaÃ§Ã£o
Ġaberto
gantes
Ġcompreendido
Ġdescan
ĠCOB
ilÃ¢ncia
Ġsuporte
Ġpede
Ġdispon
Ġpleiteia
023
ĠANOS
ESTADO
Ġtentativa
Inc
ĠPetro
ĠdetÃ©m
ĠDATA
eram
ĠisenÃ§Ã£o
ocu
Ġtributo
ĠsubordinaÃ§Ã£o
Ġdiscri
Ġhabil
Ġentorpecentes
Ġexpert
ĠPETROB
ĠMAIA
Ġadicionais
ĠSCH
Ġconsagrado
ĠVogal
Ġconfere
Ġrecep
Ġ56
ULAR
Ġacolhe
Ġ2005
Ġrespondem
ĠImpossibilidade
ĠSatis
Ġagravantes
ĠIncidente
Ġconvertida
isando
ĠCONJUNTO
ĠARGU
Ġ81
ĠRAZ
Ġusur
Ġconsignar
Ġentendendo
ĠprÃ³pri
ĠGratu
Ġlemb
ÃŃssimo
Ġcitados
Ġrevelam
Ġobede
ĠFUNÃĩÃĥO
ĠANTÃĶNIO
orrÃªa
ĠCORRÃīU
OMIA
ĠINC
mann
ĠIncide
IDOR
ĠCorrÃªa
ĠmÃ¡xima
gel
ZAR
ĠRoc
pol
ĠBENED
ĠtramitaÃ§Ã£o
ĠCASTRO
Ġremeta
Ġpudesse
cionÃ¡rio
tigo
ĠFUNDAMENTO
Ġterem
igibilidade
osos
Ġcontempor
ĠGerais
Ġintempesti
Ġensino
ANDRO
Ġalternativas
UTENÃĩÃĥO
ĠdireÃ§Ã£o
ĠnomeaÃ§Ã£o
Ġconstatou
Ġdecidendi
IDEZ
Ġ82
ĠMARCELO
ÃįDIO
019
Ġafigura
veram
ĠNorte
Ġviolado
ĠAPARE
ĠJORNADA
Ġantiga
ĠcomunicaÃ§Ã£o
FAST
bilizada
Ġsenso
ĠelaboraÃ§Ã£o
ï¿½ï¿½
Ġaplicam
Ġprete
Ġtempestividade
juros
Ġenfo
NTAS
Ġabusiva
Ġinstitucional
ĠRocha
Ġcorreto
atÃ©
ĠmanifestaÃ§Ãµes
ĠeconÃ´micas
Ġtomada
red
ĠdecadÃªncia
Ġcausado
Ante
Ġdestina
Ġreconhecidos
Ġcondenando
ĠREPET
Ġinterposta
ĠPreten
lume
IBILIDADE
ĠFÃģTICA
ĠintermÃ©dio
Ġirm
Ġgerador
VIA
BELL
ĠEPI
Ġdeslo
Ġclientes
Ġ296
ĠDispos
Ġcaber
Ġregramento
Ġindicada
ĠComarca
Ġtrabalhado
Ġpontu
ister
005
Ġ1997
Ġ174
Ġrespaldo
065
ĠbancÃ¡rios
fru
Ġviabilidade
029
Ġperigos
ĠDecido
ĠCAMPBELL
ĠPeri
Ġreparos
784
ĠAyres
ĠprÃ³prias
aci
andado
SEG
Ġinsiste
ĠMen
Ġdestaco
ĠVieira
Ġexerce
Ġadimpl
onorÃ¡rios
ĠRegionais
Precedentes
ĠQUESTÃĥO
cros
Ġoutor
ĠvÃ¡rias
Ġadst
Ġagravos
Ġinterro
ĠJORGE
ĠSALOM
Ġcarreira
ĠNoronha
reve
Ġdemonstre
Ġnota
Ġ1993
ĠCONFIGURADA
Ġimpondo
Ġcompe
ĠRua
660
fec
Ġdeferiu
Ġerga
Ġalus
Ġcontidos
Ġvinha
vando
Ġmantidas
ĠLOPES
quatro
Ġ[âĢ¦]
ĠJorge
ĠMinas
itares
ĠMaia
ĠFINANC
ĠalÃŃneas
Ġsubst
Ġdelineado
ĠMUNICIP
ĠREAL
Ġemer
Ġmandato
ĠpretÃ©ri
Ġmenores
Ġacusa
ACEN
ĠcompetÃªncias
ĠSALOMÃĥO
ao
ĠMANUTENÃĩÃĥO
BD
ĠanulaÃ§Ã£o
Ġproteg
rgInc
Ã§amento
ĠcartÃµes
jetos
Ġdistribu
Desta
ĠANA
Ġconfigurado
ĠBR
NE
Ġ64
ĠRELAÃĩÃĥO
RANG
ĠnotificaÃ§Ã£o
Ġprejudi
stific
rise
Ġunilateral
Ġficam
ĠinstauraÃ§Ã£o
ĠprevenÃ§Ã£o
ĠDEPÃĵ
Ġconfigurando
)."
ĠExam
Ġpromul
ĠreintegraÃ§Ã£o
dando
Ġdomiciliar
Ġestrang
ĠPREVID
laridade
Ġcustos
erme
Ġobservadas
ĠindenizatÃ³rio
Ġdebates
Ġdestinado
ĠDCB
Ġcedi
diu
ĠCURIA
Ġcontinua
Ġinfringentes
Ġconfigurar
Ġmultas
Ġobreira
ĠGRATIFICAÃĩÃĥO
ĠPrevidenciÃ¡rio
exos
Ġenfermidade
Ġdelibera
Ġfixando
probatÃ³
hefe
ĠDÃīBITOS
Ġdisson
unicip
ĠDANTAS
ĠIM
EIX
sivos
Ġmodelo
ABELE
Ġdialeticidade
Ġfrag
ensor
Ġ187
data
ĠLima
ĠPretÃ³rio
ĠCURIAE
ĠSINDICATO
alimentaÃ§Ã£o
ĠCENT
EQU
mputo
Ġaprovado
espe
2023
Ġautorizado
ĠCasa
'.
EAMENTO
Ġcarre
ĠespecÃŃficas
lÃ³g
ĠevoluÃ§Ã£o
ĠdiÃ¡rias
ĠAPLICÃģVEL
CAO
Ġexcessiva
cr
rista
Ġaprovada
ĠrenÃºncia
ĠINCISO
Ġpromovente
ĠCÃ¡l
ĠMM
Ġnocivo
Ġexceto
ĠMagistrado
Ġcito
Ġarqui
Ġintermedi
stavo
Ġrecorrentes
ĠAADC
ĠNE
gÃ¡vel
Ġmelho
Ġpreenchido
Ġdestaques
ĠDora
Ġcuida
ĠBENEDITO
Ġexames
ĠDu
Ġfazem
Ġincidindo
Ġsex
pole
Ġconstituir
ĠCOMPENS
ĠConju
zentos
ĠINSTRUÃĩÃĥO
ĠCOLETIVA
ĠPCCS
ĠalcanÃ§ar
ĠCriminal
Ġafirmado
ĠCNPJ
ĠespaÃ§o
Ġextint
Ġimpac
Ġpouco
razo
ĠSIM
corrÃªncia
Ġencontrava
ĠECONÃĶMICA
ĠMC
Ġchegou
ĠcÃ´mputo
Ġ294
ULAÃĩÃĥO
ĠTar
Ġcomerciais
nÃ§a
Ġpermissivo
oneidade
Ġinexigibilidade
Ġques
ĠGrau
Ġimperi
ĠId
ruda
Ġexposta
Ġcabia
Ġdispensado
SSÃĥO
Ġlogrou
ÃįSSIMO
USULA
Ġunicamente
Ġaprove
Ġobstru
sma
Ġps
Ġreper
Ãªmio
Ġdiscutida
ĠArruda
ugu
ĠregularizaÃ§Ã£o
Ġfutura
Ġostenta
Ġ108
Ġveiculadas
ĠmovimentaÃ§Ã£o
Ã©bito
ĠDESCU
ĠTREC
edeiros
Ġsubmetidos
Ġelencados
)".
Ġjamais
pessoal
IOS
ICOS
PresidÃªncia
ĠEXISTÃĬNCIA
verino
ĠDECOR
Ġneles
Ġdesvio
EIO
Ġlevar
Ġsuperveniente
ĠFRE
Ġement
ĠsÃ³cio
ĠdemissÃ£o
ciani
Ġmanejo
Ġinteressado
ĠcogniÃ§Ã£o
ĠMedeiros
ĠapÃ³lice
arto
Ġnegativo
292
Ġrecusa
ÃŃna
FD
ĠOitava
Ġpreocu
ĠFoi
MENTAR
ĠSOUSA
IDAS
uca
Ġconcentrado
cioc
Ġenergia
ĠBresciani
pel
Ġespecialidade
Ġhonra
Ġcinquenta
PROCES
ĠAssis
ĠREQUISITO
Ġprovidos
Ġcogitar
mite
usa
dou
UTIVO
ĠEREsp
ĠANAL
cialmente
Ġrecor
Ġgerar
Ġsobrevenha
Ġapurado
rativa
Ġelim
ĠRedator
Ġdespesa
VIS
Ġperfeito
ĠGustavo
Ġestabelecendo
Ex
todo
FORM
ÃĵRIAS
ĠPart
dinho
Ġprisma
ilherme
ĠMall
Ġsolte
Ġconcession
Ġnoti
ĠDESCUMPRIMENTO
PROCESSUAL
Ġinadmissibilidade
ĠproibiÃ§Ã£o
sumo
ĠAusentes
ĠMandado
Ġestou
Ġrecentemente
Ġesteve
Ġracioc
ĠEstatuto
LU
0009
Ã©is
ĠMallmann
Ġlicitude
ĠFica
ĠREIS
ĠelÃ©tri
Ne
ĠTRD
Ġdecl
ĠOrg
Ġfixa
472
Ġacarreta
nios
Ġestavam
Ġunipessoal
Ġtributos
Ġreafirmou
Ġ450
ĠcontÃŃn
inariamente
Ġcrist
Ġaviso
Ġproferidos
Ġdescanso
Ġatribuiu
Ġ(Â§
ĠNovo
seca
anÃ§as
ÃŃquo
Ġrepro
Ġ1998
ĠSUBSTITUIÃĩÃĥO
ĠestÃ¡vel
Ġrurais
emprego
ĠJURÃįDICO
Ġescri
867
ĠidentificaÃ§Ã£o
Ġveio
ĠRPV
0231
ĠGuilherme
ĠeficiÃªncia
ĠAntÃ´nio
GRAF
ĠXXVI
Ġmister
Ġnaquele
226
738
ificaÃ§Ã£o
Ġacaba
ĠGratuita
ĠCruz
ĠAdicional
conheci
riou
versa
ĠdeserÃ§Ã£o
Ġrejeitada
Ġ129
ĠdependÃªncia
ĠcediÃ§o
ĠRegula
Ġporte
ĠHELENA
Ġdependentes
038
Ġadmitiu
ĠALI
DEF
Ġefetuado
ATIVO
Ġsocioe
Ġrealizou
Ġprestou
Ġmoeda
ĠLUC
Ġconcedidos
Ġ86
Ġtemos
Ġmostram
Ġestaduais
ĠAPARECI
Ġcobertura
ĠDEMONSTRAÃĩÃĥO
ĠSALÃģRIO
Ġsubjetivos
Ġalh
ĠManual
ĠAndrÃ©
ĠAÃĩÃķES
ĠpostulaÃ§Ã£o
Ġanalisou
Ġfidu
Ġtranscreveu
Ġatuar
ĠLEGITIMIDADE
Ġvislumb
ĠdeclaraÃ§Ãµes
.).
Ġveros
ĠVAZ
ÃŃcil
ĠalÃŃquo
Ġfixo
Ġassunto
Ġacerto
ĠLAUDO
Ġsil
Ġservir
ĠfuncionÃ¡rios
ĠGalvÃ£o
Ġremo
Ġesc
ĠDIP
Ġrequereu
goas
ĠCorpus
Ġdepender
Ġassentada
ĠSanse
Ġconcor
Ġbarreiras
Ġdependente
Ġfu
ECÃį
Ġtransitadas
Ġdesignado
itamento
Ġprocla
Ġautorizada
Ġcolegi
ĠSanseverino
ORT
Ġexaminada
Ġbaliz
PROBATÃĵRIO
ĠPREVISTO
Ġestiver
Ġestritamente
ĠtÃŃtulos
ĠvigilÃ¢ncia
ĠIsto
Ġapare
ĠDETER
ĠGodinho
Ġpossam
Ġimo
ĠINSUFICI
Ġposteriores
Ġconcom
ĠNecess
Ġindeferido
ator
Ġpreceitu
Ġeletronicamente
SAS
Ġparticipou
RHC
ĠAplicaÃ§Ã£o
culp
Ġparla
Ġcondutor
inando
ĠDesembargadora
inares
ĠprotelatÃ³rio
Ġirrelevante
ĠMi
Ġapurar
ĠRu
ENCIAL
uk
ĠÃºtil
Ġrepercu
Ġ(...)"
ĠcaracterÃŃsticas
itivas
iÃ£o
Ġqualificado
Ġprejudicial
Ġapelante
ĠdifÃŃcil
400
conha
ĠreconheÃ§o
Ġcomprovem
Ġinseridos
Ġreci
secu
Ġquarenta
ĠMOT
Ġagres
Ġnoventa
Ġmulti
ĠMARCOS
ĠMATE
Ġproduzidas
ĠGracie
Ġconhecida
Ġgarantido
Ġ339
UCO
ĠReis
ĠpertinÃªncia
ĠPODER
ĠPedido
Ġorienta
ĠPIS
poleÃ£o
ÃŃcias
Ġ1990
Ġincapacitante
Ġol
ĠCEZAR
ĠÃĵBICE
Ġsuportar
ĠTarso
Ġinjustific
ĠDESCABIMENTO
ĠConvenÃ§Ã£o
Ġperpet
ĠvÃ¡lido
ĠfruiÃ§Ã£o
Ġ210
500
ĠraciocÃŃnio
ETIVA
Ġreexam
Ġestim
Ġdedic
ĠFASE
Ġ96
ĠCRIST
ĠATUALIZAÃĩÃĥO
Ã¢mica
ĠBastos
Ġandamento
Ġexercia
ĠAFAST
Ġbastando
ÃįTULO
Ġvenha
Ġconfirmou
ĠprocuraÃ§Ã£o
ĠCONCED
ĠBreno
ĠCLÃģUSULA
Ġ191
ĠpreÃ§os
ĠconstituiÃ§Ã£o
ĠFundaÃ§Ã£o
Ġexplo
Ġpacificado
Ġinaplicabilidade
ĠAtividade
Ġinco
ĠPROF
Ã©tima
Ġimpre
ĠFUNDAÃĩÃĥO
itÃ³ria
Ġinformou
ĠY
ĠevidÃªncia
235
Ġsurg
vile
ĠRECUPERAÃĩÃĥO
ĠNapoleÃ£o
QUIM
ĠCONSUMIDOR
Ġrepetitivo
Ġlegitim
ĠMONT
LIA
ukina
ĠprobatÃ³rios
ĠINDEFERI
ĠRaul
ĠEllen
eix
Ġlastro
ING
Ġ725
Ġentendido
Ġii
ĠAgravados
ĠconstituÃŃdo
RIEDADE
Ġimplicaria
ĠAmaro
CIONAIS
ĠKukina
ĠEXIG
ÃŃnseco
ĠReclamado
ANHIA
ĠSim
ĠlimitaÃ§Ãµes
ĠFALTA
tais
ĠsubstituÃŃdos
Ġdeveriam
Ġrelation
Ġdeterminados
curadora
ĠLOCAL
ĠRessalta
ĠFaria
ĠESTAT
Ġsuspender
Ġsumular
ĠLi
ĠIP
ĠPorÃ©m
Ġamplo
ferida
Ġlastre
ritÃ¡ria
Ġremunerado
dibilidade
Ġpossibilitar
Ġcumulada
unha
ĠAdvo
Ġarquivem
issÃµes
Ġterceirizado
ĠCOISA
ĠExmos
ĠDECRETO
ĠBRASILEIRA
anos
ÃŃdio
esmo
fas
multa
Ġinid
rela
Ġacompanhar
Ġsele
ĠARR
Ãªnios
Ġadministrativamente
ĠVIL
ĠVeja
Ġrecomend
dados
Ġrelationem
Ġ544
Ġultrapassa
Ġinvocado
Ġtrabalhava
Ġcontrata
Ġtrabalhar
ĠPACIENTE
pla
Ġdomic
Ġdesconsidera
Ġdin
Ġconstar
ĠINVALIDEZ
Ġmim
ĠREST
Ġimprobidade
ĠnegociaÃ§Ã£o
Ġpension
Cont
QUER
AGR
rida
ĠGur
Ġsecu
ĠEMPREGADO
icaÃ§Ãµes
ĠanÃ¡lo
Ġexemplifica
Ġrecorrer
Ġ69
Ġproveito
Ġsobrestados
Ġrepouso
ĠUT
ĠAliÃ¡s
ĠpacÃŃfico
ĠBenefÃŃcios
ĠbÃ¡sico
ĠTUTELA
ĠvoluntÃ¡ria
Ġaptos
UAIS
Ġparticulares
ĠCongresso
Ġcoa
ndice
ĠSUSPENSÃĥO
ĠMACH
ĠUma
Ġtrabalha
ĠAuto
ETTI
Ġenfa
enciante
Ġconsent
Ġpiso
Ġobrigatoriedade
Ġcomprove
ĠregiÃ£o
Ġexpecta
Ġlimitada
Ġconfront
itÃ¡rio
dadas
ĠCONDI
ĠRMS
012
ĠFARIA
ĠprÃ³x
inciso
LOG
caput
ĠvinculaÃ§Ã£o
nsp
ĠREGIÃĥO
ĠRECEB
Ġdiscutir
Ġprogra
Ġeditou
ĠpreÃ§o
teza
Ġ115
Ġprecisamente
Ġremetam
ĠRESCISÃĵRIA
Ġtrazidas
ĠidÃªntica
Ġsobrevi
ĠSILV
ERAT
ĠCRIME
ĠFischer
Ġ142
Ġcompanheiro
Ġcolabo
ĠresponsÃ¡veis
MINISTÃīRIO
ĠPETROBRAS
ĠEMBTE
Ġ68
iguidade
erca
ÃīCI
ĠCOBRANÃĩA
stina
Ġdescrito
Ġliminarmente
ĠINCOR
Ġsubstan
ĠRISTJ
ĠQuestÃ£o
Ġoriundos
ĠIlmar
ĠMÃģ
Ġparticipado
Ġvagas
ĠFORM
Ġbom
Ġcaberia
Ġvistas
Ġnaquela
ĠLIMIT
ĠpromoÃ§Ãµes
ĠREY
ĠMACHADO
Ġ73
caÃŃna
Ġprivile
Ġsupraci
URAL
Ġenfoque
ĠFon
ĠOBRIGAÃĩÃķES
CIDENTE
Ġtranscrevo
ĠREQUERI
ĠCIR
ACÃĵRDÃĥO
Ġincidentes
VOC
ĠALEGADA
932
Ġtranscrita
ĠGurgel
";
ĠDaÃŃ
ĠFelix
Ġrestritiva
ĠEMBDO
Ġpreconiza
ĠCondenaÃ§Ã£o
SEM
Ġenfrentamento
Ġexegese
ĠTel
Ġesbar
ĠTÃī
Ġprograma
RADE
ĠAMB
Ġmilitares
155
Ġconstou
Es
ĠGallo
Ġperfeitamente
ĠIMPETRANTE
Ġestrito
Ġquarto
Ġsuprir
246
ĠESPECÃį
011
verou
127
Ġbas
Ġsus
ĠdelimitaÃ§Ã£o
REDO
ĠDireitos
lÃ³gica
ocrÃ¡tico
ĠINDI
ĠREYNALDO
Ġ155
basti
Ġrendimentos
Ġanist
Ġadmitindo
ĠlitÃŃgio
ĠComissÃ£o
Ġpronunciou
desemprego
ĠdeliberaÃ§Ã£o
Ġagravamento
Ġtornando
Ġ).
Ġensejo
Ġcolhe
nd
ĠCOMPENSAÃĩÃĥO
Ġcontratadas
ĠFonseca
riu
ĠGallotti
ĠINSAL
Ġtutel
Ġimpugna
Ġhabituais
Ġatendido
ĠINSALUB
feira
ĠINDICAÃĩÃĥO
ĠSebasti
ntegra
Ġenvi
Ġdesprovimento
Ġusufru
ĠRev
AlÃ©m
ĠemissÃ£o
Ġexistem
Ġmaconha
ĠCONDUTA
interrup
ĠMelo
Ġimagem
usete
Ġacla
ĠAsso
Ġmista
ĠDeput
ĠNesses
Ġresultados
874
CIADO
Ġrevelia
Ġdestinados
LITO
ĠdesconsideraÃ§Ã£o
ront
ĠAssistÃªncia
Ġcomplexidade
cionados
Ġmembro
Ġder
Ġaproxim
Ġcondenada
Ġrelatado
Ġagro
Ġsentenciante
ĠIT
ĠSEGURADO
Ġinterpreta
Ġinoc
ĠDistribuiÃ§Ã£o
Ġconcedeu
ĠdivisÃ£o
Ġproba
Ġrejeito
Ġinformar
Desembar
Ġmanifesto
0002
ĠNORMATIVA
ĠAssusete
0007
ĠVARA
ĠPESSOA
ĠDemocrÃ¡tico
004
ĠSebastiÃ£o
ĠvÃŃnculos
ĠhistÃ³rico
ĠNASCIMENTO
ĠAla
Ġadotando
ĠPEDRO
ĠeducaÃ§Ã£o
CT
rÃ³p
aposentadoria
ĠmÃ³
RRA
ĠThe
Ġani
ĠASSOCIAÃĩÃĥO
ocra
Ġfiel
Ġinsculp
Ġverificado
ĠindÃ©bito
470
ĠLIT
ĠinvÃ¡l
ĠdesfavorÃ¡vel
ĠAssevera
ĠrejeiÃ§Ã£o
ĠFAB
ĠUNIFORM
Ġcoorden
Ġfornece
Ġpermitindo
term
vern
Ġ104
Ġacusados
UÃį
Ġarra
ĠMoreira
Ġexcerto
Ġ76
ĠtrÃ¢mite
Ġreprim
ĠindivÃŃduo
ÃģTER
UTO
empre
Ġacent
Ġobras
itora
UST
ee
Ġestrutu
Ġforem
ĠHO
Ġ63
ĠdeduÃ§Ã£o
ĠsanÃ§Ãµes
Ent
Ġplaus
Ġinvest
Ġrejeitar
MES
ĠSEGUNDO
ĠEleitoral
Ġrecebida
ĠMOD
Ġvent
Ġperdu
processual
ĠRece
Ġinviabilidade
ĠLIMINAR
Ġ149
7000
Ġafirmando
Ġrepor
ĠANDRADE
ĠPERNA
acidente
Ġlucros
Ġdecretada
ciar
Ġdeferir
ĠcorrÃ©
Ġexaminado
Ġbojo
ĠSanta
ĠLEGALIDADE
104
Ġcontratar
ĠorÃ§amentÃ¡ria
responsabilidade
ĠdomicÃŃlio
Ġconstatar
Ã¡rqu
ĠBO
ivis
Ġmedicamentos
Ġreformada
ons
ĠPAULA
ĠDANI
ĠFontan
ĠCONSTRU
Ġdecorrer
Ġadvogados
Ġtransitados
ĠSUPRESSÃĥO
FICADO
vÃªncia
Ġcoad
Ġmuitas
559
ĠPERNAMB
405
Ġflu
ĠConsign
Ġdefinidos
Ġlocais
Ġafigurando
ĠCARÃģTER
ĠPREVIDÃĬNCIA
Ġdenominada
ĠConstitucionais
ĠinstituÃŃda
mÃ¡tico
ĠRequerida
Ġefetuada
PEDILEF
ĠcidadÃ£o
Ġinsign
tÃ©
randa
VOGADO
ĠfiliaÃ§Ã£o
855
BAS
Ġpersecu
Ġclasse
Ġfen
ĠLAURITA
ĠmonocrÃ¡tico
ĠEmpresa
ĠRelatoria
Ġincidem
ĠDISTRIBUIÃĩÃĥO
ĠPrincÃŃpio
ĠmÃ©dio
Ġcertame
RANDA
Ġapa
seis
Ġuniformiz
Ġconex
ĠlÃ¡
mada
acÃ³rdÃ£o
ĠRAUL
Ġquere
ĠREJEIT
cf
Ġauxiliar
Ġapreendida
Ġparticiparam
ĠsÃ¡b
ĠRecorrido
ĠPOS
Ġaplicou
Ġcompromis
dever
Ġabst
ĠcaberÃ¡
ĠTÃ©cnico
Ġtotalidade
Ġsuperada
002
ATOR
ĠRECLAMADO
Ġreferencial
ulou
deiro
ĠROS
Ġcomb
ĠTempesti
Ġculpabilidade
Ġutilizar
ĠefetivaÃ§Ã£o
Ġaveri
ĠJOAQUIM
Dessa
ĠInviÃ¡vel
Ġcaracterizado
Ġcujas
ĠcocaÃŃna
Ġabal
Ġpacificou
Ġacolheu
Ġrege
ĠCOMER
ĠrestriÃ§Ãµes
âĢĺ
ĠÃĤ
ampa
ATÃĵRIO
ĠVis
Ġprio
Ġirregularidades
dire
Ġquestiona
Ġvaler
ĠIr
Ġcondicionada
ANCY
ĠPERNAMBUCO
ĠÃłquele
ĠdenegatÃ³rio
Ġpacto
ĠArtigo
Ġconfirma
Ġfur
Ġininterrup
UMBERTO
ĠCOMPANHIA
Ġpsico
stico
IVAS
BSERVÃĤNCIA
103
Ġret
Ġdelitu
Ġreflete
STAVO
ĠJurÃŃ
ĠPP
Ġferiado
Ġsingular
ĠREFLEXA
Ġadministrativas
ĠNANCY
Ġfatura
Ġ72
Ġtarefas
ĠMEDIDA
1989
Ġisol
Ġmantenho
Ġidentificar
tivaÃ§Ã£o
Ġsign
decisÃ£o
ĠANDRIG
VOTO
Ġ116
diÃ§Ãµes
Ġocasion
Ã³rcio
ĠINDIVID
ĠPROD
Ġconcernente
Ġenvolvidas
ĠfavorÃ¡veis
Ġdemora
ĠdÃ©ci
ĠDefenso
Ġcomprovante
ĠINCORP
Ġcorrigir
sub
Ġcabal
Ġpostulante
Ġdiagn
ĠremuneratÃ³rios
ELAR
Ġreajustes
ĠSÃ©tima
ĠANDRIGHI
Ġ79
ĠBela
Ġconsecutivos
ĠALBERTO
Ġcomuns
jamento
Ġquinze
ĠPDFs
grÃ¡fico
VEN
Ġtoler
Ã©rcio
Ġdor
Ġroub
Ġexib
ĠImpet
Ġlista
Ġoutrossim
Ġagiu
2164
gÃª
ĠfazÃª
ĠMauri
Ġviabiliza
EMBARGADOR
ĠTribut
INI
ADVOGADO
DIA
118
ĠRena
ĠLAB
Ġambiental
Ġprocedentes
chi
Ġafastado
quentes
Ġdistintos
ĠIndica
ĠDecide
PERA
ĠCOATOR
Ġatenta
Ġsofridos
091
Ġfedera
ĠFundamentaÃ§Ã£o
Ġpersegu
256
UNHA
ILSON
MARA
Ġdemonstrando
ĠApesar
istentes
Ġregistre
Ġ911
ĠTRECHO
ĠexigÃŃvel
zen
ĠPARÃģ
ĠPrograma
Ġcompare
EDE
Ġdelas
tence
ARÃģ
ume
Nos
ĠdinÃ¢mica
ĠMT
ĠInad
FAEL
Ġsensorial
Ġsatisfaz
ĠMATERIAIS
429
Ġresultar
ĠLEITE
UNO
ĠANDRÃī
ĠProte
radores
risar
ERCEAMENTO
Ġapel
Ġ247
eiras
EDcl
Ġelu
ĠUNIFORMIZAÃĩÃĥO
ĠOrdinÃ¡rio
VOR
ĠMauricio
Ġ810
centa
artigos
Ġ128
Ġatendeu
Ġingres
ĠimÃ³veis
mentando
ĠMANI
Ġativos
ĠNote
IGN
ilia
Ġcliente
ĠinteraÃ§Ã£o
Ġaptas
Ġconste
ĠPertence
ĠVejamos
Ġeleitoral
ĠcÃ©
Ġatinentes
ĠERRO
Ġdeferidos
eras
ĠILEGAL
ĠITA
987
ĠPARTICI
Ġ135
TON
Ġalegou
Ġprolatada
ABIL
aa
ĠÃļN
ĠfenÃ´m
ÃŃstica
Ġencontrar
Ġprequestionadas
Ġcontempla
Ġviolou
014
Ġ122
ĠCrimes
Ġfazia
ĠMARI
Ġplanos
Ġsimi
Ġcaixa
Ġpassado
Ġ525
Ġ288
ĠlegÃŃti
ĠRegina
ĠSatisfeitos
Ġprevi
ĠAGU
ALHÃĥES
ĠBOR
Ġsuspensivo
reas
Ġcelebrados
izados
ocraticamente
quele
inas
ĠMAGALHÃĥES
Ġapresente
Ġqualifica
essora
ton
ĠÃ¡gua
liminares
ĠEntendo
ĠPERC
ĠRODRIGO
Ġleve
ĠEVENT
ĠnotÃŃcia
Ġ117
008
rense
jul
Ġajuste
orrÃŃvel
itente
ĠHUMBERTO
Ġassistente
ĠBENEFICI
ĠPessoa
ĠMiranda
Ġmonocraticamente
Ġresumo
Ġconsidero
Ġconstato
ĠObserva
ĠINOBSERVÃĤNCIA
240
Ġfeitas
Ġdoutrin
Ġcentral
Ġ226
Ġpubl
Ġacentu
Ġproduzido
Ġpleiteada
alte
UZZI
Ġ479
corrido
atÃŃveis
Desembargador
Ġinvocada
tern
Ġmargem
mol
Ġproblemas
ĠalienaÃ§Ã£o
ĠProcessual
GERIO
ĠRECORRIDA
Ġanalisando
gundo
turas
ĠdÃª
Ġjusto
ĠBAT
ĠSubprocuradora
Ġinstituiu
ARIAL
ouve
DANHA
ĠSua
ĠPINTO
ĠSALDANHA
quarenta
Ġprima
ĠMANIFE
Ġdete
endentes
ĠconfirmaÃ§Ã£o
odo
017
ĠRessalto
ĠAlagoas
Ġausentes
erf
ĠCristina
ÃįPIOS
ĠPACTE
Ġexercidas
ĠBuzzi
ben
Ġerig
Ġrendimento
ĠrÃ©s
ÃīRIAS
Ġinserido
ĠLUCIA
ĠCRIT
ĠeconÃ´micos
ĠsustentaÃ§Ã£o
Ġpendente
Ġserv
ĠCERCEAMENTO
ĠPERMAN
ĠPELUSO
omissÃ£o
ĠcÃŃvel
ĠINCIDENTE
Ġpormen
star
uo
ĠtransaÃ§Ã£o
Ġpatronal
ĠInconformada
Ġsuscitados
ĠSOLID
ITIVA
cha
ĠForam
viÃ§Ã£o
Ġjustificativa
ĠreclamaÃ§Ãµes
irro
Ġincent
vocar
ĠGMA
ĠInden
lob
Ġtransm
115
Ġanexos
sor
ĠCÃ¡lculos
ĠDje
ĠAtendidos
Ġabstrato
imaÃ§Ãµes
JORNADA
Ġnuma
ĠMELO
ĠWal
Ġurbana
ĠinÃºmeros
Ġ(âĢľ
Ġ636
135
BAN
RIM
ĠCONVERSÃĥO
Ġcolacionados
ĠveÃŃculos
ĠÃįndice
ĠINADMISSIBILIDADE
ĠOBJETO
INH
ÃģVEIS
Ġtranst
Ġelaborado
Ġconser
uxÃŃlio
demia
ĠINCOMP
RRAg
ENSOR
Ġcandidatos
jurÃŃ
CÃĥO
ĠRecursais
ĠAMP
Ġ153
Ġrescinden
Ġrema
ĠREFEREN
Ġindire
Ġjurisdi
JOS
Ġextrapo
ĠpretensÃµes
rantes
Ġimprocedentes
Ġjuntado
ĠLIMITAÃĩÃĥO
605
TTI
Ġdesenvolvida
Ġdecorrem
ĠRegular
ĠCUST
Ġpais
ĠXXIX
Ġfuncionamento
vagem
Ġofen
Ġantecipado
Ġidoneidade
Ġinserida
Ġemitido
Ġvencida
venci
ĠBANCÃģRIO
Ġinternacional
Ġeleita
inhentos
ĠTais
ilitude
gÃªne
itÃ¡vel
emos
Ġconfirmada
ĠhorÃ¡rios
ĠOb
Ġaposentados
ĠINDIRETA
ĠadmissÃŃvel
sequ
Ġenfrentar
ĠaÃŃ
ĠSOLIDÃģRIA
adm
ĠfaÃ§a
ĠconciliaÃ§Ã£o
ĠSALA
Ġimunidade
ENCIA
ĠinterrupÃ§Ã£o
Ġassegurada
Ġsofreu
Ġtrabalhadora
ĠCID
Ġ92
Ġpaut
ĠPENSÃĥO
ĠpossuÃŃa
dicamente
Ġuniforme
ĠPOSTERIOR
Ġfigurar
Ãł
enciado
URAÃĩÃĥO
ĠCH
Ġsimilitude
Ġ168
ĠretenÃ§Ã£o
Ġidosa
lÃ³gicos
Ġjudicialmente
ĠAFRO
ĠVil
itima
Ġdescritos
Ġrestitu
0003
ĠGoverno
Ġ202
ĠValor
Ġlevant
ĠALTERAÃĩÃĥO
528
Ã©sar
Ġsubsiste
Ġtelefone
ĠHonorÃ¡rios
Ġprobabilidade
cad
Ġobstruir
Ġacrescidas
ĠPETIÃĩÃĥO
ĠpersecuÃ§Ã£o
ĠegrÃ©gio
ĠROGERIO
Ġsetenta
erÃ¡vel
ĠCRISTINA
Ġintegram
ĠpromulgaÃ§Ã£o
onte
ĠÃ¢n
Ġ181
Ġdestaca
ĠCÃ©sar
ĠOfensa
RENTES
964
ĠPaciente
ĠLC
Ġinformado
Ã©rcia
Ġbio
ortante
UTELAR
ĠdiligÃªncias
cito
Ġrescindenda
BAMA
Ġmecan
ĠCARGO
0018
gias
Ġ255
ĠEXERC
Ġpacientes
Ġextinta
contribuiÃ§Ã£o
ĠautÃ´nomo
Ġpraticada
iaberto
ĠcompÃµem
ĠUR
430
Ġvulnerabilidade
Ġquebra
Ġ832
Ġevidentemente
ĠAFRONTA
Ġinteressa
457
Ġoficiais
ERÃĩÃĥO
capacidade
ĠprÃ¡ticas
Ġdecadencial
206
ĠADMINISTRATIVA
ĠjuÃŃz
Ġapreciado
365
ĠMAIS
Ġ1995
ĠconseqÃ¼
ĠFALCÃĥO
Ġregido
ĠREGINA
Ġestatu
assem
ĠDestaco
Ġ106
ĠtolerÃ¢ncia
Ġformulada
Ġocup
orno
ĠDet
tificaÃ§Ãµes
Ġconsignados
Ġsindica
779
Ġremans
Ġreparo
Ġprestada
Ġocorra
ere
Ġvinc
antas
Ġimpugnados
TNU
Ġmotoci
Ġdestinada
Ġsucessivo
Ġenfatiz
ĠConjunto
ĠAssociaÃ§Ã£o
Ġgarante
aliza
Ġretorn
ĠelÃ©trica
TOR
ĠSALARIAL
Ġtant
EIXEIRA
ĠCAUTELAR
Ġprever
ĠEscla
ĠpronÃºncia
Ġocupacional
Ġ383
Ġ355
ĠpossÃŃveis
ĠconveniÃªncia
ĠPALH
Ġventil
Ġocupantes
ĠReci
Ġatraindo
OLHIMENTO
MU
Ġimpostos
ĠÃłquelas
ĠsignatÃ¡rio
ĠinÃ©rcia
Ġtro
Ġcunho
ĠSERG
CONT
ĠTEIXEIRA
Ġrevelando
Ġtrazido
ĠFederaÃ§Ã£o
Ġadotadas
ĠRITO
Ġexigindo
Ġsemiaberto
Ġeleito
Ġamol
056
ĠGRU
Ġincom
Ġintimada
Ãºst
Ġdenunciados
aso
Ġincur
Ġlimitar
OU
Ġcarece
camente
Ġalme
Ġ173
ĠlÃ³gico
ĠinvestigaÃ§Ãµes
ĠAmp
Ġimplemento
ĠBUZZI
Ġreputados
somente
ĠfenÃ´meno
ĠCONDIÃĩÃķES
ĠAmb
ĠRaz
Ġsubmete
Ġgraves
ĠTempestivo
ĠCEARÃģ
ĠAgente
203
ĠPALHEIRO
ÃģVIO
ĠEgrÃ©gia
ĠCES
Ġmencionar
ĠdomÃŃnio
Ġdiga
ĠEMPREGO
ĠRD
ĠTÃīCN
So
108
ONA
mble
ĠMÃ¡r
Ġtratada
Ġautoridades
ceptÃŃvel
146
Ġconsulta
Ġpapel
ĠINTEGRAL
Ġatacado
Ġanalisadas
ĠusurpaÃ§Ã£o
Ġexpectativa
ĠsucedÃ¢neo
Ġestivesse
ĠIMPTE
027
Ġremansosa
098
IÃĩÃķES
Ġsubstitutivo
ĠGOI
ĠdiscriminaÃ§Ã£o
pr
Ġsubsequentes
ĠGUSTAVO
ĠEdu
ĠextraordinÃ¡rios
ĠColendo
Ao
Ġtransform
ĠCIRC
Ġmotivada
ĠASSISTÃĬNCIA
ĠDrogas
ĠRAMOS
Da
ĠELI
Ġcoleta
Ġpublicadas
ĠTOMADOR
ĠINTERESS
ĠARAU
Ġ134
Ġcriado
113
ĠdeclaratÃ³ria
ĠIsa
Ġelid
Ġcha
Ġescolh
ĠpadrÃ£o
ĠDESCON
exame
ratÃ³rios
ĠFIRM
ĠviÃ¡vel
ĠPetrobras
strada
ĠPreÃ§os
009
Ġprevalece
PEC
Ġcorte
Ġfavo
Ġdemocr
Ġcandidato
Ġ192
Ġafront
Recurso
oo
ĠRecorri
IP
Ġfaculta
Ġinsalubres
Ġdoze
ILHER
Ressal
HABEAS
ĠMATÃīRIAS
Ġconcorre
Ġcomposta
ssÃµes
ĠMESA
ÃĤNSITO
ĠACORDO
Ġdelineada
348
Ġbalizas
ĠDefensoria
af
ĠPREEN
ĠreincidÃªncia
ĠEsp
ĠUF
Ġtornou
Ġcriminosas
ĠFRA
Ġlibera
ĠRamos
882
Ġdesigu
Ġserve
emo
peza
transcendÃªncia
Ġesbarra
Ġreparar
Ġ567
ĠNeto
Ġconcomitante
QO
046
741
ĠMIRANDA
inhas
ĠidÃªntico
ĠTRÃĤNSITO
Ġpermitida
Ġsemelhantes
Ġrestrita
Ġrevelar
Ã§ou
PAÃĩÃĥO
Ġapontou
Ġacordos
Ġgravos
LEN
ĠMENDON
ĠLXXVIII
371
ciÃ¡ria
ĠPERICIAL
Ġsemana
VIDORES
Ġdenegada
Ġpandemia
Ġincorpor
ĠNOME
Ġ1989
utro
Ġestamos
Ġalta
Ġurbano
zia
Ġirrec
ĠocupaÃ§Ã£o
ĠQUANTO
ĠconexÃ£o
ĠcelebraÃ§Ã£o
ĠPAUTA
ĠsÃŃtio
dis
ENTÃīSIMO
VOLVIMENTO
Ġadotaram
atÃ©ria
toriamente
ĠcorrupÃ§Ã£o
DICIAL
ĠCONTA
ĠDefende
Ġexarado
ĠREA
%.
URGÃĬNCIA
ĠREGULA
mi
Ġchega
ILHERME
ĠPROVIS
544
rus
mado
ĠBAHIA
Ãºmeras
Ġdevedora
ĠFe
alidades
Ġpresume
ĠSali
Ġsignific
395
ĠDESERÃĩÃĥO
ĠindexaÃ§Ã£o
funda
Ġfrisar
Ġsemanais
ĠUTIL
ĠJuÃŃza
Ġdestaquei
766
963
ĠEli
Ġassevera
Ġsuspensiva
Ã¢nica
DJe
Ġexausti
Ġresidente
Ġexpedi
Ġpormenoriz
Ġ124
0004
Ġavaliar
Ġmunicip
Ġalu
Ġativo
Ġhabitualmente
ĠOBSERVÃĤNCIA
URI
stante
Ġdeclarando
etti
Ġdetermino
sivas
ÃįNCULO
Ġexpendidos
ĠSERVIDORES
ĠnÃŃveis
Ġ133
ĠDantas
ĠXI
Ġajuda
ĠproprietÃ¡rio
Ġjorn
Ġ113
ĠirrecorrÃŃvel
ADORES
POLE
ĠPREENCH
ĠINSALUBRIDADE
Ġabar
ĠVERBAS
347
Ġ89
ĠBELL
ĠrurÃŃcola
Ġpertence
ĠCÃī
Considera
ĠSALARIAIS
ĠACT
Ġincident
ĠCAVAL
ĠFLA
ĠOBRIGAÃĩÃĥO
Ġavan
Grif
Ġimper
meio
ĠJulgador
Ġindividualmente
Ġevidenciam
Ġtrato
Ġjulgando
Ġfirma
424
ĠDestaque
judic
Ġrevogada
Ġcerteza
ITAS
ĠCONTRADIÃĩÃĥO
ĠdispÃµem
benef
Ġprescin
Ã©tica
Ġcorresponder
ĠASSIST
Ġexcel
Ġ214
ĠinÃºmeras
ĠPreliminar
Ġretirada
ĠMAJ
ĠCAPUT
Ġpreposto
ĠlesÃµes
ciadas
Ġanular
ĠOUTRAS
Ġdisponibiliz
ĠAm
188
icÃŃdio
culum
FINS
ĠARAUJO
ĠCentro
ACOR
GEN
ULADA
ĠinserÃ§Ã£o
Ġpauta
Ġdisponibilidade
Ġfac
ĠSUMAR
financ
UNIÃĥO
SSA
Ġalegar
ĠRIS
ĠRenato
ĠEXTIN
Ġnecessidades
ĠDOCU
DEIRO
ĠJEF
Ġlavagem
ĠsequÃªncia
ificÃ¢ncia
ĠpecuniÃ¡ria
ĠConv
ternidade
Ġlembrar
ÃīT
Ġresguardar
ĠdicÃ§Ã£o
ENAL
NER
Ġensejou
Ġfrequ
Ġprocede
ĠVE
ĠPREVISTA
ĠPROCEDÃĬNCIA
ĠEXTENSÃĥO
ĠCORREI
Ġnom
ĠsucessÃ£o
Ġconfira
EITA
ĠPROCEDIMENTO
ĠRecife
tus
stecimento
ferido
ap
SAIS
ĠProce
Ġ353
POLEÃĥO
ĠMatÃ©ria
Ġdenota
ĠFÃīRIAS
ĠmÃº
Ġimputada
ĠIG
ĠOG
imal
ĠRESOL
ANE
rigo
Ġesteio
ONT
ĠGe
Ġaquisitivo
ĠinegÃ¡vel
Ġmilh
ĠVÃįNCULO
Ġmanejado
ĠAcor
Ġcontado
Ġsemelhante
ĠRECURSAIS
Ġlegislativo
ificado
Ġ405
ĠINS
ĠAplica
Ġ112
ĠSUBST
ĠParan
Ġdefine
Ġlevou
Ġrepresentar
Ġdivergente
pare
Ġinaugu
Ġagricultura
recorrente
ĠComum
ĠRTJ
bili
Ġimpera
ĠimplementaÃ§Ã£o
Ġatribui
ĠAnalisando
teis
ĠSANTO
Ġprescreve
944
Ġdistinta
Ġpromovidas
ĠOT
Ġcondeno
Ġpade
Ġferiados
ĠInforma
Ġdisciplinado
ĠDiz
Ġmotocicle
ĠRepet
Ã§oso
ĠIta
Ġconcluindo
Ġformas
VERI
Ġcompromet
Ãªut
ADEQU
Ġvolta
ĠprotelatÃ³rios
Ġprec
ĠREMUNERAÃĩÃĥO
ĠDESPROVIMENTO
Ġolvid
ĠRey
Ġ660
479
ĠÃŃntegra
ĠinidÃ´ne
LER
ĠIsabel
Ġ463
veda
ĠRAFAEL
NECESSIDADE
ĠcrianÃ§a
EGO
ĠJUL
Ġliqu
ĠensejarÃ£o
Ġprejudiciais
ITAR
137
ĠBATISTA
ĠinsignificÃ¢ncia
baÃ§Ã£o
Ġcoaduna
FER
Ġsolteiros
Ġmodalidades
sima
Ġeta
Ġconstitutivo
unicaÃ§Ãµes
ĠArgInc
RICA
040
Ġ966
ĠHu
Ġarbitramento
ENCIAIS
................................................................
ĠDispositivo
Ġacompanhada
Ġprojeto
SÃļMULA
ĠINDEVIDA
Ġformalizado
ĠPRINCÃįPIOS
Ġmino
Ġcombatida
ĠMÃ¡rcio
ĠinfraÃ§Ãµes
Ġextinguindo
Ġcoopera
ĠILEGALIDADE
0005
ĠPREVISÃĥO
Ġreprimenda
ĠLiquidaÃ§Ã£o
Ġvincendas
Ġfundi
ĠLOAS
)âĢĿ
Ġincontroversa
Ġcivis
pÃºl
Ġpreliminares
pÃºlveda
Ġindef
Ġvislumbro
ĠClaudio
ĠomissÃµes
ĠDETERMIN
Ġoportunos
Ġcalculada
Ġinativos
ĠpopulaÃ§Ã£o
EIÃĩÃĥO
Ġconsect
ĠPROVISÃĵRIA
Ġressaltou
dao
Ġbreve
Ġdefeitos
Ġarro
ĠDOB
ĠCondeno
Ġindust
ĠÃ³tica
Ġdenegar
Ġverdadeiro
Ġprincipais
Ġ157
ĠTÃįTULO
UNÃĩÃĥO
ĠBELLIZ
ĠconvÃªnio
Ġneguei
Ġadota
102
Ġapresentando
Ġaber
UDIO
ĠInde
ENTAÃĩÃĥO
ĠprimÃ¡rio
itig
queio
ATA
Ã§adas
Ġmencionadas
Ġresultante
Ġdefinitivamente
Ġreduzir
Ġuniver
TUDE
ĠconvenÃ§Ã£o
issio
Ġespont
ROL
ĠDECID
Ġanalisados
ĠBELLIZZE
rifa
Ġpermitido
Ġinstituidor
170
isas
ĠNORM
ĠORI
ass
inham
Ġ739
ĠSUMARÃįSSIMO
Ã³stico
Ġpropriamente
ĠsÃºmulas
Ġassem
ĠHoriz
ĠSUCUMBÃĬNCIA
ĠfracionÃ¡rio
ĠHugo
006
Ġincorreu
Ġmotivado
Ġomisso
ĠFREITAS
SIONAL
EZES
ĠDECLARATÃĵRIA
ĠCORDEIRO
ĠDISS
ĠAmplo
Ġexim
ĠdecisÃ³rio
ĠDANIEL
Ġimpl
Ġdenomin
Ġdepositados
nas
Ġbuscar
ĠcondenatÃ³rio
enhora
adi
Ġsuscitado
Ġindividu
985
ĠSchi
Ġoferecer
RATAÃĩÃĥO
ĠNAPOLEÃĥO
Ġproceda
Ġcadastros
Ġacompanho
ĠISABEL
ĠParti
Ġapropri
Ġ4921
Ġestatais
Ġditam
grifo
Ġprocedeu
Ġincon
066
Ġrede
Ġparidade
Ġprovis
vernador
ĠEXERCÃįCIO
ĠTAR
ĠCustas
018
ĠconcluÃŃdo
Ġdenominado
Ġdecidindo
910
ĠCARACTERIZ
ĠconstriÃ§Ã£o
ĠDiretas
ĠbenÃ©
Ġintimado
Ġalternativa
ĠfÃŃsicas
478
Ġcoatora
ĠresistÃªncia
ĠCaputo
ĠREDAÃĩÃĥO
ĠCONVOC
Ġremunerados
Ġacomet
cno
MANDA
ĠvalidaÃ§Ã£o
Ġasser
ĠDestaca
Ġimpugnam
ĠTranscreve
dito
ĠSchietti
ĠQual
utou
ĠabsolviÃ§Ã£o
Ġunidades
Ġofendido
Ġditames
CANT
Ġmantidos
Ġapontar
ĠREDUÃĩÃĥO
BERT
BIT
ĠSi
Ġpercentuais
Ġlaborativas
Ġcomprome
loso
Ġaparente
Ġpermaneceu
ĠEI
TRF
Ġvencedor
194
ĠinÃ©
Ġofende
Ġcompleto
ĠPASS
ACORDAM
ĠMUNICIPAL
Ġantiguidade
ENDE
ĠSepÃºlveda
Ġcerca
Ġpetita
Ġperceber
AGEM
dole
Ġlegitima
ult
ĠIna
bi
ĠBÃ´
ÃŃg
Ġcobrado
Ġdetent
ĠalÃŃquota
Ġpreceitua
ribilidade
Ġfundamentou
ĠLegislaÃ§Ã£o
Ġafeta
ĠFIXAÃĩÃĥO
Ġ91
EMA
ĠÃ¡reas
Ġrestrito
lenda
Ġquestionada
Ġintroduzido
Ġmotorista
ĠDEVIDA
ĠÃŃndole
Ġfaculdade
ĠcomercializaÃ§Ã£o
Ġcomissiva
ĠGOIÃģS
ĠÂ
Ġtranspor
pasÃ£o
ĠCS
ĠReynaldo
ĠJUDICIÃģRIA
bÃ©is
Ġexterna
Ġjudice
Ġregem
Ġcomission
ĠsuperaÃ§Ã£o
Ġexatos
ĠjuÃŃzes
ĠPROMO
Ġ"[...]
Ġpesqu
ĠDemon
PÃĵT
Ġcausam
Ġadoles
ĠdecibÃ©is
Ġmut
Ġintercep
150
202
ĠDIRE
ĠCOMUM
Ġprepon
entre
ĠProteÃ§Ã£o
Ġcompul
Ġatesta
Ġrequerendo
ĠEVENTUAL
ĠdiapasÃ£o
itÃ³rio
344
Ġconcedidas
ĠAno
Ġassegurados
ĠEros
mula
Ġverificando
urso
Ġregistra
Ġempreendimento
Ġrecha
205
preciaÃ§Ã£o
âĢĵ
Ġbastasse
Ġverificou
0008
ĠremuneratÃ³ria
ĠexperiÃªncia
Ġlaborado
ĠDeterm
ĠCesar
ĠDela
ĠpÃ¡tria
Ġ691
Ã¡gio
Ġcade
ĠdilaÃ§Ã£o
Ġinsalubre
042
cal
Ġ+
ĠPAS
madas
Ġrecentes
Ġgoverno
ĠPeduzzi
ĠHorizonte
QUAD
atividade
Ġatrasados
Ġalterado
ABRI
UK
Ġpactuado
ĠtÃŃpica
Ainda
erra
Ġimpacto
ÃļNCIA
Ġeficiente
Ġnossa
Ġamparado
ĠENERG
ĠessÃªncia
Ġrenova
ĠIno
Ġequipamentos
Ġprestador
245
ĠDiÃ¡rio
Ġdescritas
iliares
ĠJES
ĠCAS
Ġsubsequente
Ġambientais
ĠASSIS
Ġprovoc
ĠrecÃŃ
Ġextremamente
ĠHIPÃĵT
ĠrecÃŃpro
cute
Ġexclui
Ġost
Ġocorridos
ĠintrÃŃnseco
VII
Ã£e
ĠPROBATÃĵRIO
Ġreceita
DITOS
Ġ4425
ĠFORMA
Ġ110
ĠSche
Ġtido
crevo
Ġ454
ĠGUILHERME
Ġsigilo
ĠINADEQU
Ġantecede
Ġsupram
868
into
ĠPB
ladas
Ġocul
cinquenta
teriormente
nejamento
Ġsociedades
brica
Ġconferiu
Ġimpugnou
Ġcontornos
Ġhigi
ĠuniÃ£o
Ġnessas
Ġcarta
Ġdiscriciona
Ġmerecem
MF
cordo
administra
Ġgoza
Ġrobu
propri
issiogrÃ¡fico
ĠDEMONSTRADA
Ãªnci
ĠdesnecessÃ¡rio
Ġrevest
Ġinadimplidas
Ġnula
ĠNOVO
ĠFrise
ĠbancÃ¡rias
ĠVisualizaÃ§Ã£o
ĠFin
ILI
VERINO
essÃµes
033
ĠficarÃ¡
ĠtÃ©cnicos
stÃ¡vel
Ġpericiando
ĠCONFIGURADO
Ġnascimento
Ġfraudul
ĠPedro
Ġbuscando
028
876
Ġdivisor
Ġdeduzidos
Ġcontam
ĠSuperiores
Ġabusivas
ĠConheci
ĠDJU
locu
ĠEmpre
Ġgastos
ĠIDÃĶN
ĠANTECIP
Ġ459
ĠConstitu
ĠCONTE
ĠTI
ional
Ġ."
Ġrelatora
ĠremissÃ£o
ETIVO
ĠHU
Ġrepasse
Ġinscritos
ĠDISC
Ġarrastamento
Ġsuspenso
ĠaclaratÃ³rios
Ġflex
arÃªncia
Ġoitiva
Ġsupramen
ermann
CHER
Ġcos
Ġpesqueira
RUP
Ġopinou
ĠgratificaÃ§Ãµes
Ġchamado
PORCIONAL
Ġ...
Desse
Ġnobre
Ġsucinta
To
ĠGRUPO
AO
ĠHouve
ĠREFERENCIAL
anexos
Ġfundamentar
Ġrestar
ĠNOVA
ĠInq
Ġrestringir
FICADA
gerio
Ġrealiza
Ġ125
sur
Ġ337
ĠEXC
Ġinafa
ĠdissonÃ¢ncia
ĠInsurge
Ġhostil
ĠbÃ¡sicos
ĠFernando
Ġfilha
ĠUS
uber
ĠCRÃīDITOS
ĠSANTANA
Ġpredom
Ġreduzido
ĠRogerio
ĠÃļNICO
mir
Ġinsere
ĠSEBA
ĠINTRA
ĠRegulamento
Ġsuspe
MET
damus
ĠFELIX
Ġobjetivamente
Ġjo
ĠEduardo
Ġ884
uermann
bÃ³
ĠGE
Ġ988
Ġpob
Ġestudo
cerda
Ġprotesto
Ġpequeno
ĠÃĢS
0011
ĠLacerda
ENDO
ĠCIRCUN
ĠREGIST
ĠSeja
Ġmuitos
ÃīRCIO
Ġaponte
Ġ123
Ġlesiva
Ġlavrado
Ġpronunciar
rovida
0014
Ġconquanto
ĠMENEZES
Ġinterlocu
Ġrecai
ĠMENDONÃĩA
ĠParanÃ¡
eva
STITUCIONAIS
ĠtemporÃ¡rio
ĠrecomposiÃ§Ã£o
Ġamparada
254
Ġpraticou
ventura
Ġgest
Ġseguindo
Ġchamada
ĠPREJUDIC
Ġviolar
Ġ143
ĠInteligÃªncia
ĠScheuermann
Ġreavali
Ġabusividade
ĠTRANSPORTE
Ġ212
ĠanotaÃ§Ã£o
SUAIS
Ġfront
ĠOficial
ĠincÃ³
ĠRETRATAÃĩÃĥO
educa
Ġ161
404
Ġ136
496
Ġproteger
mbleia
1966
comunicaÃ§Ãµes
ĠLEON
Nas
Ġadoto
ĠPugna
ĠAlen
ĠFACE
Ġtomar
Ġapreciou
ezes
Ġracional
ĠFINANCEIRA
Ġpresti
SIVO
ĠBat
Ġadentrar
ĠRURAL
RIAL
ĠMAS
Ġseara
Ġpai
Ġ88
stabelecimento
Ġjustificou
Ġ470
Ġatribuindo
ĠDU
ĠsaÃŃda
ĠDOENÃĩA
Ġdescabe
URGEL
ĠjudiciÃ¡rio
Ġindevidos
Ġcometimento
Ġexclus
Ġpugn
ĠAlencar
Ġreiteradamente
ĠAPARECIDA
etas
703
ĠMÃįN
ĠReforma
Ġacumulado
Ġatinge
Ġtitulares
ĠVit
ĠBENEFICIÃģRIO
ĠCB
ĠCalmon
CIDO
Ġajuizadas
ĠPROCESSUAIS
ĠAnaliso
ĠEMPRESAS
)âĢĿ.
ĠFL
SERVA
Ġadvert
Ġplant
ĠArguiÃ§Ã£o
ĠMenezes
ĠNORMAS
Ġesclareceu
Ġdirimida
ĠCargos
Ġdefiro
Ġassentar
INSS
Ġmotocicleta
ĠMILITAR
VAN
0024
Ġjuntamente
ĠVillas
ĠpolÃŃcia
ĠSILVEIRA
656
RELI
ĠpreocupaÃ§Ã£o
Ġideia
ĠINTRAJORNADA
GES
ĠRAZÃķES
ĠanotaÃ§Ãµes
Ġrelacionado
ĠPRECEDENTE
iras
ĠPaiva
Ġincorporados
rez
Ġlimpeza
aldade
ĠGALLO
ĠADEQU
ĠUSO
ĠesforÃ§o
Ġfar
ĠmÃºtu
ĠDEFERI
Ġsimult
cipaÃ§Ã£o
ĠobrigatÃ³rio
ĠArantes
Ġdescrita
ĠADCs
ĠTCU
Ġbeneficia
204
resse
SION
ĠGAR
CRFB
tema
Ġesclarecimento
ĠerÃ¡rio
Ġtransmud
artamento
Ġsucessiva
endem
ĠDEFIN
ÃŃde
.".
Ġigno
ĠacusatÃ³ria
esta
ĠMesmo
).âĢĿ
ĠCada
Ġencerramento
ĠCueva
ĠSCHI
Ġsabido
ĠmÃ£e
Ġsedimentada
839
Ġcoletividade
Ġquestionado
Ġindicando
Ġassenta
Ġ267
Ġforte
ĠCÃĤ
ĠdomÃ©st
Ġarguida
Ġrestaram
242
probatÃ³ria
Ġdescaracteriza
dura
Ġdeterminadas
Ġliteralidade
218
Ġip
Ġindepende
Ġedi
Ġlaudos
terial
228
ĠGURGEL
ĠRENA
ĠDISP
ĠLIN
Ġressalto
utelar
Ġ166
Ġexpediente
ĠACO
Ġdesdo
Ġcomplementares
ĠCONSUB
ĠfÃ¡
Ġsofrer
Ġ167
Ġproferir
Ġgrifou
ÃŃtimas
Ġfixadas
ĠPROCURADO
ĠSiqueira
./
ĠpolÃŃticos
Ġobte
Ġtempestivamente
ĠCUNHA
Ġsolidariedade
ĠinsusceptÃŃvel
Ġinterval
ĠBÃ´as
ĠEuri
Ġatendendo
ĠRN
Ġdupla
ĠquÃŃm
ĠTributÃ¡rio
ĠPARTIR
Ġreconhecidas
UDA
tempo
Ġganh
Ġgrifo
134
ĠInexiste
Ġpreval
Ġutiliza
Ġcoator
Ġsentir
ĠEurico
Ġletra
Ġmercadorias
lam
Ġvende
ĠInterna
ĠmunicÃŃpios
UNCIADO
Sem
ĠliberaÃ§Ã£o
ĠReceita
Ġroubo
Ġreto
Ġexauri
Ġlegislar
ĠJOEL
ĠÃ¢ngu
ĠINDIVIDUAL
Ġ1994
Ġpura
Ġpejus
Ġjuntou
Ġalegados
fer
Ġdestacando
ĠREMUNERAT
ĠremuneratÃ³rio
ĠCOFINS
loy
ĠBRIT
807
ĠEFEITO
Ġvence
ĠBENEFÃįCIOS
ĠBRUNO
ficiÃªncia
Ocorre
ĠÃ³bvio
215
Ġespos
ĠGALLOTTI
Ġcontroles
iria
ĠâĢĻ
Ġajuizou
Ġdanoso
ĠsubstituÃŃdo
ĠESPECÃįFICA
atrim
SAR
ĠilÃŃcitos
QUEIRA
ĠexibiÃ§Ã£o
ĠWalmir
Ġ132
Ġinadm
dag
ENO
ĠMERC
ĠAGENTE
Ġasseverou
ĠEXTINÃĩÃĥO
ĠAJUIZADA
lhos
Ġdiscricionariedade
itantes
Ġ701
ĠCESAR
fil
verte
ĠÃłquela
Ġ140
ICAS
ĠReje
--------
Ġportaria
Ġcontendo
ĠSCHIETTI
UTOS
ĠPODE
Ġesgotamento
Ġexpedido
patia
ERRA
LIN
Ġequivocada
mativa
Ġsustentar
Ġindeferir
Ġpublicidade
Ġrefut
Ġcaminh
ĠindispensÃ¡veis
Ġexigi
Ġnecessita
ĠInexistÃªncia
Ġquadros
ĠReexame
yen
Ġmundo
Ġinteressada
Ġinsegu
Ġvalendo
AREsp
Ã´nicas
ĠJoel
ĠreclamatÃ³ria
973
Ġdestinadas
ĠCIRCUNST
RIC
Ġatualizados
ĠSUCUMBENCIAIS
ĠpeÃ§as
Ġirris
Ġimputar
conÃ´mico
omes
Ġreferir
ĠBRASILEIRO
Ġpunitiva
POSTA
MBITO
rupos
Ġassociados
ĠEducaÃ§Ã£o
rigoyen
Ġespera
ĠTr
TOS
ticos
IVAÃĩÃĥO
patibilidade
Ġmagistrados
Ġmandamus
Ġsta
Ã©gio
ĠCin
ĠIrigoyen
ĠObserve
ĠÃĤMBITO
RANGIMENTO
OG
ĠPLR
ĠHAB
Ġpericiado
Ġinferiores
Ġ131
ĠThereza
Ġsexta
416
glas
Ġ175
Neste
ĠFISCHER
raÃ§Ãµes
ĠReit
rÃ©dito
Ġoriundo
Ġestabelecem
Ġcontrapre
Ġmoralidade
ussi
ĠFinanceiro
Ġcoman
Ġcient
Ġtarif
Ġaver
Ġanexa
ĠFORA
ĠEliana
Ġdoc
Ġconstituinte
ĠLim
ĠINTERESSE
zamento
Ġindispon
Ġatestado
Ġassente
erÃ¡
arqui
Ġinteira
Ġirrest
Ġperqui
Ġexorb
ĠELE
Ġregistrada
Ġrestam
Ġminu
ĠGACEN
Ġresolver
part
ĠDouglas
ĠCAMPOS
Ġcong
ĠInadmis
010
vena
Ġmensalmente
ĠCONV
Ġarbitrados
UDE
ĠDESNECESSIDADE
ĠdedicaÃ§Ã£o
ĠBRITTO
Ġremunerada
Ġ194
ĠBatista
QUADRAMENTO
ĠnÃŃtida
Ġabrangendo
ĠsubstÃ¢ncia
denciais
Ġreferem
ĠdescriÃ§Ã£o
ONE
Ġlevada
ĠcomissÃµes
ĠJulgados
ĠalguÃ©m
ĠLEGAIS
896
ĠNORTE
Chefe
LES
ĠanalÃ³gica
Ġterri
216
ĠPROFIS
ĠEMPREGADOR
ĠImpetrante
Ġextrato
ĠREIT
ĠMEDEIROS
Ġ317
Ġfirmar
Ġconsul
Ġ664
tualmente
CG
.Â°
liz
An
Ġapurados
STANCIA
ĠEgrÃ©gio
Ġmerecimento
ĠREJEITADOS
ĠLopes
gen
Ġporventura
ĠforÃ§oso
Ġressaltando
ĠESTABELE
bus
ĠGomes
Ġprivadas
Ġden
ĠDAR
Ġinspe
pendentemente
Ġ437
Ġcertamente
Ġcarteira
ĠgenÃ©ricos
Ġdesnecessidade
Ġsubme
Ġpreser
ĠINDEFERIMENTO
Ġcompel
ANDRA
Ġrecolhidos
ĠEIRELI
bÃ³lica
Ġaprofun
OND
ETRIA
Ġcrivo
ĠNesta
tualizaÃ§Ã£o
eirizaÃ§Ã£o
logias
ĠInterposto
eixeira
ĠIMPO
cÃº
Ġpostulados
rest
ĠindividualizaÃ§Ã£o
Ġteratologia
Ġemenda
Ġ107
Ġsanada
ĠXII
Ġincapacitada
vez
URIDADE
Ġtiveram
ĠCust
ĠreconheÃ§a
542506
ĠdescontÃŃn
ROLE
Ġoriginariamente
ONI
745
Ġimpar
ĠCOMÃīRCIO
Ġvigilante
Ġpretexto
CSJT
Ġdemandar
Ġpropostas
ĠAdo
ĠImportante
614
ĠGratificaÃ§Ã£o
raminuta
ĠMussi
ĠVOL
Esta
Ġinadequada
ĠMENSAL
ĠVitral
ĠPROTELAT
ĠCONSUBSTANCIA
Ġassistenciais
Ġ5766
Ġressalvado
154
Ġbloqueio
Ġprestadoras
ĠIMÃĵ
DIT
conforme
isco
ĠREFORMA
Ġpercebido
Ġ783
Ġmode
similh
Ġmitig
ĠVei
ĠCI
Ġminist
cionadas
uros
ĠKUK
EMÃģTICA
Ġdomicili
Ġdispensada
Ġsucumbente
ĠOBSC
ĠDEVOL
Ġelencadas
Ġterra
Ġreduzida
ĠTeixeira
Ġencontro
ĠKUKINA
Ġintime
ĠPaÃŃs
SEGUNDO
erfei
verem
Ġpatrimoniais
ciamentos
Ġinfun
ĠVeiga
ĠECONÃĶMICO
Ġfuturo
Ġapontando
Ġarrecad
Doc
Ġautu
ĠApres
ĠeletrÃ´nica
ĠPossibilidade
ĠdestinatÃ¡rio
Ġantigo
IDADES
ĠÃ¢ngulo
Ġcompetia
Ġcuidados
Ġacostados
ĠSOCI
ĠMONTEIRO
Ġarquivamento
lhas
Isso
Ġdeso
Ġoriundas
ĠVERI
Ġcaracterizando
ĠCONSTRANGIMENTO
Ġcompatibilidade
Ġdestran
ĠBrandao
ĠestarÃ¡
Ġbienal
maternidade
Ġcasamento
Ġentorpecente
danha
Ġ138
hia
ĠcolaboraÃ§Ã£o
ĠSaldanha
Ġsucesso
EDI
similhanÃ§a
ĠJudicial
ĠCastro
Ġexaminou
itis
ĠVio
ĠIlan
Ġprat
Ġcompreende
quando
Ġdescontados
].
Ġdistingu
TAL
ĠinadequaÃ§Ã£o
ĠPretende
153
ĠdesignaÃ§Ã£o
Ã¡usula
Ġcomputado
versÃ¡rio
Ġ338
164
Ġaval
MARC
olsa
Ġimpertin
Ġrein
Ġrescindendo
165
HEC
ĠSUA
ĠBanc
Ġdaquelas
Ġdomin
Ġimputado
Ġconferido
lei
ĠSUBSTIT
Ġdefeito
Ġtidos
ĠnotÃ³rio
Ġviv
Ġcompensar
Ġadminist
ĠEXTRAORDIN
ĠORDIN
ĠOBSCURIDADE
nik
Ġabalo
terna
ensÃŃvel
ĠRMI
ĠRESERVA
Ġimparcial
DOSO
ĠQUALI
dida
ĠAtÃ©
ĠCARACTERIZAÃĩÃĥO
Ġsuple
RESPONSABILIDADE
ĠVista
Ġdiscrimin
Cum
Ġestariam
Ġultrapassar
ard
Ġefetuou
ĠvisÃ£o
Ġtitularidade
Ġcolig
906
Ġperfilh
ĠARBIT
erican
Ġlimitado
Ġpermanecendo
Ġreformatio
Ġpericulum
INHEIRO
Ġconjunta
718
ĠmilhÃµes
8217000
loysio
Ġvirtuais
Ġobtidos
Ġpreviu
224
ĠENC
ĠfiscalizatÃ³rio
ranÃ§as
Ġremetidos
rudÃªncia
Ġensejando
ĠPacior
0006
Ġprofun
ĠPaciornik
880
ĠCOMPLEMENTAR
ĠMODULAÃĩÃĥO
Ġlucro
SEVERINO
ĠMÃ©rito
ĠMAL
Ġpunibilidade
ĠAPRESENT
ĠIMO
ĠÃļnico
Ġproveniente
ĠNECESS
Ġfaltas
Ju
rb
Ġesva
ĠImpÃµe
ĠAut
Ġarbitr
Ġconstam
Ġbanh
Ġbancos
ĠSEDE
Ġfinais
ingu
ĠCONTAS
ilip
ĠAposentadoria
ĠAloysio
034
523
ĠEXCE
MAS
oro
FIM
ĠReconheci
Ġocasional
ĠRAT
Ġincompatibilidade
ÃįCIA
ĠCÃĤMARA
ĠdenegaÃ§Ã£o
Ġrediscu
virtu
Ġextrair
ĠBelo
Ġdesenvolvidas
Ġ501
").
Ġprimeiros
au
ÃŃdia
Ġ493
Ġassemelh
ĠsuscetÃŃvel
Ġtomado
bilidades
Ġaplicadas
ESP
ÃŃram
Ġobstado
)-
quia
ĠDiscute
ĠLICITAÃĩÃĥO
Ġseguradora
ĠinteligÃªncia
Ġjuridicamente
Ġcinge
Ġexterno
Ġparlamentar
ĠDEFICIÃĬNCIA
Ġtrate
RICO
ĠACIDENTE
estrut
ĠSubsid
ĠtÃ©cnicas
Ġ127
entadas
ĠpecÃº
Ġinadmitiu
Ġfirmadas
ĠsubstituÃŃda
Ġdivergir
Ġlid
ĠvÃŃtimas
ĠformulÃ¡rios
Tal
Ġcompletamente
ĠREAJU
SUP
ĠATIVA
Ġmedicamento
ĠDIVER
Ġdispositiva
dutibilidade
123
ĠEQUI
Ġbole
Ġpobreza
STIÃĥO
ĠDÃīBITO
8400
Ġcomete
,,
ĠGovernador
ĠMendo
ĠrevÃ©s
Ġintermitente
ĠProfissiogrÃ¡fico
Ġproduzidos
ĠCONTROLE
ĠSANSEVERINO
ĠexploraÃ§Ã£o
ĠBORGES
Ġenvolvidos
ĠContro
Ġdesvirtu
Ġadministrador
Ġexecutar
Ġimplicar
ĠtÃ¡
ĠVIC
todos
Ġmoldura
Ġmanifestado
ĠconcessionÃ¡ria
Ġoperacional
ĠliÃ§Ã£o
companh
Ġ156
ĠOFÃįCIO
rosso
ĠFundamental
ĠENGEN
Ġexato
ĠINÃįCIO
ĠARRUDA
vis
Ġating
ĠVALIDADE
121
alheiro
Ġrevisional
Ġeximir
riano
Ġentrou
ĠTom
Ġmetas
Ġpermita
Ġ130
1983
Ġcriminoso
Ġconstituindo
ĠformulÃ¡rio
Ġtrabalhos
ĠmÃŃngua
209
beis
ĠidÃ´neo
Ġmic
ĠEXIGÃĬNCIA
684
ĠMendonÃ§a
ĠplenÃ¡ria
Ġmajorado
gicamente
SB
hos
arquias
Ġcog
Do
ĠDEP
Ġnormativas
Ġposicionou
ĠBRAN
Ġ4357
Ġamolda
ĠPolÃŃtica
ĠFATO
Regist
elar
Ġindeterm
ĠNega
ĠLICITUDE
Ġindicam
Ġlitisconsorte
Ġsolidariamente
dicidade
rilha
Ġdivid
Ġinev
ĠBrasileira
Ġprequestionada
Ġinconte
ĠMon
Ġinterpor
180
Ġinvestigados
ĠCorreios
Ġcontratou
ORME
Ġsubstancial
ĠCONCRETO
ĠNecessidade
Ġcuidou
ĠpensÃµes
tip
erfeiÃ§o
Ġpresumir
608
ĠEvid
dap
Ac
ĠBEM
ĠIPC
Ġinterior
ĠPalheiro
ĠclassificaÃ§Ã£o
Ġinterromp
ĠBelliz
ĠDIREITOS
Ġeletri
Ġ293
ĠlanÃ§amento
ĠDEMANDA
LEO
ĠMe
ĠverossimilhanÃ§a
ĠUnivers
Ġalegadas
ĠexpeÃ§a
Ġavul
ĠAdvoca
Ġparal
Ġinteressados
Ġlegislativas
119
iÃ¡ria
LEY
ĠtransmudaÃ§Ã£o
Ġacostado
ĠJUDICIAIS
ĠSITU
ĠESTABILIDADE
ĠINCOMPETÃĬNCIA
Ġmerecendo
ĠCata
qua
ĠCULP
Ġbru
celo
ĠENUNCIADO
Ġpreven
ĠJose
Ġresponsabilizado
inhamento
ĠBellizze
Ġalusiva
Ġhospital
ĠESC
Ġministerial
ĠterritÃ³rio
Ġpedag
ĠexceÃ§Ãµes
Ġparticularidades
Ġcometido
DIR
ĠApenas
ĠPEC
ĠJÃºri
IANA
ĠAY
ĠRECOLHIMENTO
ĠCONTRIBU
ĠCARDOSO
Ġenfrentada
ĠDEFICIENTE
BANCO
Ġcriou
ĠINDUST
dante
ĠContraminuta
IMETRIA
0019
ÃļST
JUDICIAL
Ġexcessivo
Ġfundamenta
Ġsecund
ĠGMD
Ġpagou
itutos
Ġpesem
Ġcriar
ABELA
Ġbaseada
ĠincursÃ£o
ĠCONVOCADO
ERSON
ĠtemÃ¡tica
Ġresum
Logo
207
887
Ġdefinindo
Ġbran
ĠremÃ©dio
Ġadstrito
ĠIndividual
Ġdesemprego
Ġturnos
Ġrecebendo
EVA
ading
Ġ185
Ġimpossibilita
Ġexaminando
heres
ĠTARSO
Ġaguardar
ĠCOLETIVO
igidez
ĠILÃįCI
1985
ĠVED
ĠNOT
Ġcoe
ĠCinge
auxÃŃlio
osamente
dido
Ġnarrados
Ġfran
Ġvindo
Ġperio
ĠINCORPORAÃĩÃĥO
ĠprÃ³ximo
Ġextern
ĠCOMISSÃĥO
ĠPÃºblic
Ġ206
Ġcassar
ĠSEBASTIÃĥO
ĠIDÃĶNEA
Ġnotar
ĠFIGU
Ġesposa
ĠSara
ĠMato
Ġ141
Ġampl
ĠArnaldo
ĠCCB
Ora
Ġreexaminar
licer
Ġpraticar
Ġpertencia
ĠaniversÃ¡rio
ĠPh
adicional
irem
ĠÃºteis
275
Ġparcelamento
Ġredig
ĠSENT
benefÃŃcio
ARGO
ĠCir
Ġexarada
Ġinalte
Ġmunicipais
Ġassocia
ĠEMPREGADOS
Ġsubstituto
arquet
Ġide
ĠTranscrevo
Ġ*
ĠCRE
ĠConstata
ĠALB
Ġlaborou
Ġ950
Ġdefensiva
Ġformais
Ca
Ġprejudica
Ġmetodo
ĠconsolidaÃ§Ã£o
Ġ461
ĠDEVIDO
SITOS
Ġhigidez
Ġirredutibilidade
Ġlitigantes
gÃ£o
Ġinvalidade
Ġarmazen
ĠTRABALHADOR
ĠPERT
Ġinef
740
ĠCER
Ġpassaram
ĠCELET
EO
Ġconsci
Ġidentifica
ĠLABORA
Ġrespeitada
Ġnormalmente
Ġsumar
nsporte
ĠJun
NIK
ĠaperfeiÃ§o
ÃŃssima
Ġexercendo
ĠRESOLUÃĩÃĥO
Ġgi
Ġclareza
Ġiniciado
Ġrediscutir
Ġdatas
Ġacabou
Ġquerendo
SÃķES
ĠEXECUT
Ġdesafi
Ġalicer
ĠAfa
Ġhabilitado
itÃ¡ria
Ġsequela
ĠRI
ĠrecÃŃproca
Ġpare
Ġoferecimento
ĠdispÃ´s
ĠGestÃ£o
335
Ġsucintamente
cessuais
ĠEqui
Ġ220
857
Ġprequestionados
Ġaliment
ĠhomicÃŃdio
Ġdeslocamento
Ġreformando
072
ntos
Ġsofrimento
Ġobstar
Ġimpugnando
Requer
Ġemitida
Ġjustifique
Ġreputo
ĠEXP
ĠSaliente
etes
Ġ436
542164
Ġcompor
Ġestra
ĠGrosso
ĠLegislativa
125
Ġatrair
ĠfuncionÃ¡rio
ĠnegÃ³cios
Ġ748
Ġservindo
LOGIA
074
ĠDecre
Ġdesconhe
Ġsequencial
ĠRequis
Ġbons
Ġressaltado
vil
Ġmost
ĠENERGIA
ĠDeputados
ĠPROPORCIONAL
Ġirrestrita
ecuÃ§Ã£o
Ġinar
ĠtransiÃ§Ã£o
816
Ġnovel
ĠDEPÃĵSITOS
ĠCompetÃªncia
Ġevolu
Ġmulheres
Ġpediu
Ġilustre
SUPERIOR
liquem
522
Ġesclarece
0441
Ġcujus
Ġcumulativamente
Ġespecifici
ĠlÃŃcito
317
Ġhierar
ĠUnÃ¢nime
Ġprocessado
VIDENCIÃģRIO
Ġressalvada
erÃ¡rqu
Ġ144
Ġsupre
ĠAPLICABILIDADE
Ġperfaz
Ġdesfunda
Ġcalor
ĠmodificaÃ§Ãµes
ĠRISCO
ĠOpostos
106
ernetas
ĠTermo
ĠCADA
ĠconduÃ§Ã£o
819
Ġcase
Ġlocomo
RGÃĥO
ĠSaraiva
055
Ġvantaj
Ap
Ġdetec
tim
ĠORIGIN
ĠHo
Ġverga
044
114
Ġvendas
ĠEXCL
Ġdecido
Ġaproximadamente
ĠhierÃ¡rqu
ixas
ĠESPÃīCI
SIDERAÃĩÃĥO
Ġcompromisso
PREVIDENCIÃģRIO
ĠFUNDO
PRÃī
Ġperigosas
andro
Enunciado
Ġagricultor
IDAÃĩÃĥO
Ġvoltada
ĠAssessora
Ġinclui
Ġfalh
ÃĬN
ĠSISTEMA
Ġcriminais
Ġ1224
HIAGO
ĠTrabalhadores
813
ĠgraÃ§a
ĠConsequ
ĠCompete
.âĢĿ.
ĠConvocada
ĠlanÃ§ados
ĠLEGISLAT
HARIA
Ġlast
ĠPerfil
ĠCONTRATAÃĩÃĥO
090
enciar
Ġsinte
ĠRAZO
ĠEXPRE
ĠDOSIMETRIA
Ġreveste
ĠILAN
ĠIDADE
1986
Ġmarca
ĠabrangÃªncia
ĠCART
ĠDiver
Ġtinham
Ġenvolvimento
ĠMarcelo
ĠINTIM
ĠmajoritÃ¡ria
Ġredator
ĠcobranÃ§as
ĠinseguranÃ§a
Ġcausou
ĠINADEQUAÃĩÃĥO
rizado
ĠDISSÃįDIO
ĠAMBI
Ġ840
Ġmandamental
Ġsatisfa
INHO
Ġfinalidades
ESSA
Ġintroduzidas
Ġbal
plicaÃ§Ã£o
ĠintermediaÃ§Ã£o
Ġdesignada
Ġobteve
ÃģCIA
Ġcomprovam
ĠEmprego
Ġinexistir
ĠESPÃį
Ġdecurso
981
Ġreunida
Ġ225
ĠprovÃ¡vel
Ġpescadores
037
redÃ¡vel
ĠGEN
ainda
ĠcomÃ©rcio
imes
ĠUTILIZAÃĩÃĥO
RROG
Ġsustentou
surge
RTJ
Ġgramas
ĠSomente
ĠcaracterÃŃstica
testa
Ġprogramas
ĠEr
Ġconsubstanciam
ĠGABRI
ĠCOMPLEMENTAÃĩÃĥO
Ġhabitualidade
Ġinduz
ĠautÃ´noma
trabalh
Ġpendentes
Ġcomunidade
128
Ġanotar
Ġprossi
ampaio
ORNIK
ĠISON
ĠmonetÃ¡rio
ĠGARCIA
Ã´nicos
ĠPASSIVA
210
Ġlar
lamento
essarte
ĠnÃŃtido
ĠPACIORNIK
ĠENGENHARIA
ĠCatarina
umano
ĠlegÃŃtimo
ĠExa
CGJT
ÃįQU
ĠCÃīSAR
ĠOCU
ibir
Ġauferi
ĠParquet
Ġ5226
Ġcausando
Ġequivale
sidade
Ġpato
ĠBo
Ġprocurador
247
830
730
Ale
ander
ĠdisponÃŃvel
Ġrefletir
ĠPROTEÃĩÃĥO
gios
ĠexecuÃ§Ãµes
Ġresponsabilizada
ARTE
ĠImposto
ĠsumarÃŃssimo
ĠBenefÃŃcio
Ġobedi
ĠQuad
Ġconsignando
ĠINDÃļST
ĠPARÃģGRAF
Ã¡tia
ĠILEGITIMIDADE
Ġconvi
Ġextintivo
ETA
515
ĠrenovaÃ§Ã£o
Ġcumprindo
ĠÃĵRGÃĥO
Ġbeneficiou
Ġ522624
ĠEntende
ĠESPÃįRITO
Ġrevezamento
109
Ġdecorrido
Ġcerne
Ġatacar
ĠISONOMIA
Ġcontratantes
ĠCONSIGN
Ġpredominante
Ġrepresentaria
ĠFiscal
ĠCIRCUNSTÃĤNCIA
EXO
ESÃĥO
ĠSousa
ĠAcerca
Ġsurpre
Ġencontrando
ĠinidÃ´nea
Ġlevantamento
ani
Ġimpetrantes
ĠhomogÃªne
ĠEVIDENCI
ĠVILLAS
Ġdouta
Ġincapacita
deficiÃªncia
Ġautarquias
vasÃ£o
Ġsujeitas
ĠCOELHO
ĠBRADES
ĠHuman
Ġatip
Ġ147
ĠRT
ĠNat
eb
Ġconfrontados
Ġ386
ĠRazÃ£o
Ġceletistas
Ġfornecer
ĠKÃ¡tia
Ġexplic
ĠSampaio
Ġexclusivo
Ġ163
Ġpreto
ĠinspeÃ§Ã£o
Ġpenso
Ġexon
ĠARTIGOS
tribut
ĠMTE
ĠPerm
Ġ580
ĠParecer
ĠfÃ¡cil
ĠcontraprestaÃ§Ã£o
ĠDano
058
IAS
Ġpraticamente
Ġentenda
redaÃ§Ã£o
ĠINSTITUIÃĩÃĥO
Ġapen
ĠIBAMA
ĠPARCELAS
Ġestabelecimentos
ĠcoordenaÃ§Ã£o
ĠSenado
ÃĵG
ĠSanto
Di
usos
Ġtarefa
Ġcontrovertido
Ġprofessor
Ġdeduzidas
itor
ï¿½ï¿½ï¿½ï¿½
Ġcombinado
ĠtelecomunicaÃ§Ãµes
094
ĠinarredÃ¡vel
uno
ĠFAZER
ĠrequisiÃ§Ã£o
eamento
bos
Ġcategorias
ĠcontÃ¡
Ġ146
ĠesforÃ§os
NCIAMENTO
Ġentendimentos
Ġdeixo
Ġaduzindo
Ġesquer
ĠLIQU
ĠobediÃªncia
Ġpadece
050
ĠDADA
ĠPede
ĠRU
116
rarrazÃµes
ĠColeta
ĠCOMAR
Ġcombate
Ġintervalos
ĠprecÃŃp
Ġinvio
350
ĠANDRE
Nessa
Ġterrito
ĠLaudo
Ġintens
Ġ119
Ġesclarecido
Ġlastrea
ĠindependÃªncia
ham
045
Ġconfiram
independentemente
0291
plicidade
Ġdemandado
ortes
Ġcredores
ĠfalÃªncia
Ġ382
ĠFORN
Ġpergu
Ġfundamentadamente
ĠPREVIDENCIÃģRIA
ĠPen
Ġapresentam
ĠcidadÃ£os
Ġcalculado
Ġprovado
mentados
lou
Ġintimidade
ĠPRÃĵPRIA
Ġsexto
Ġversada
ĠInternacional
ĠÂº
ĠDSS
Ġdesm
Ġmodulou
doso
Ġlastrearam
Ġlinhas
Ġ448
ĠinvÃ¡lido
Ini
Ġalude
ĠFix
Ġconsentimento
Ġperquirir
alizando
Ġfortu
formidade
ÃĶAS
Ġ189
Ġremunerar
ĠVel
Ġatestou
Ġressalvados
Ġestrangeira
ISC
Ġfol
Ġescrito
117
Ġneglig
Ġacho
DESEMBARGADOR
Ġprestigi
Ġilust
ĠMEIO
leo
fede
STIMO
ĠEMPRÃī
ĠcontÃŃnuo
ĠEss
ĠExtrai
191
Ġatenu
Ġinterpretado
Ġpreponde
etÃ¡ria
dovi
844
ĠfiduciÃ¡ria
Ġ165
Ġabsoluto
ADMINIST
Ã©rie
ĠSUPREMA
Ġ359
Ġprocurado
Ġesque
Ġtutelados
],
ĠPhilip
Ġimperioso
DT
ĠPRÃĵPRIO
Ġ833
fiquem
iÃµes
ĠCarte
Ġmaus
Ġcondiciona
Ġinconstitucionais
ĠIB
ĠCrÃ©dito
Ġsubtra
ĠJESUS
Ġintempestividade
ĠOrgan
ĠCUEVA
Ġiniciais
ĠAos
Anexo
Ġcoloca
turais
ĠJUDICIÃģRIO
Ġpassar
208
inguÃ©m
Ġleading
ratura
ĠgenÃ©rico
Ġtratado
Ġadap
ĠGRAU
Ġequivalentes
Ġcancel
ĠEMENT
Ġtomou
ĠidÃªnticos
Ġgere
Ġbuscou
Ġdiverge
Ãºrg
546
ĠTOTAL
ĠinstalaÃ§Ã£o
Ġ315
ĠConfiram
Ġcaminho
232
0325
ĠCadastro
sis
Ġarbitrada
Ġacolho
1987
Ġ458
Ġreiterado
Ġpublica
Ġprivados
Ġautorizam
ĠSINDIC
ĠacumulaÃ§Ã£o
cina
Ġtransitado
FÃī
Ġx
ĠdisponÃŃveis
Ġban
Ġconferindo
IVIDADES
Ġaprendi
Ġsucessivas
Ġcadeia
ĠPosteriormente
ĠPhilippe
Ġprerrogativas
ĠBÃĶAS
Ġproposto
ĠfÃŃsicos
Ġprovenientes
uraÃ§Ã£o
Ġdevolu
pcia
ĠCOMARCA
ĠORIENTAÃĩÃĥO
Ġdizendo
riae
ĠTanto
0012
erista
ULADO
Ġipsa
IVER
Ġrecebia
tei
Ġportu
ÃŃodo
ĠSANTANDER
hÃ£o
ismos
Ġindu
ĠDOM
Ġexpressiva
cir
EGI
MULAÃĩÃĥO
Ġalgo
8300
Ġamplamente
ĠENTOR
ipo
Ġiguais
Ġcobrados
Ġfoto
ĠXXI
lÃ¡
ĠDecretos
ĠconcorrÃªncia
ĠDos
0021
TRIB
Ġ363
Ġcontinuar
Ġcoluna
Ġcomprovantes
Contudo
418
Ġpossibilitando
ĠSOCIEDADE
Ġcomprometimento
mpor
ĠsolicitaÃ§Ã£o
Ġampli
dula
Ġfundamentados
ĠcirculaÃ§Ã£o
ĠlitisconsÃ³rcio
ĠBRADESCO
ĠENTORPEC
ĠDesnecess
Ġmassa
372
Ġseg
Ġgol
ĠCAM
Ġlevado
rane
Ġconfirmando
340
Ġacometido
Ġacaso
ĠJOAO
Ġatipicidade
ALI
etor
ĠPELAS
Ġsepa
iter
083
ĠPrejudic
ĠDEPÃĵSITO
BEN
Ġadvin
Ġarca
Ġolvidar
Ġdouto
ÃīM
ĠSERV
Ġnaqueles
grifou
ĠIMÃĵVEL
Ġordens
885
Ġsedimentado
Ġfungibilidade
vide
ĠBentes
Ġformou
ORTES
Ġpretender
ĠParticipa
Ġfalecimento
Ġreafirmar
ĠDeman
Ġdiferentemente
POL
Ġvinculantes
ĠLEONARDO
ĠINDÃīB
148
ĠEXA
Ġdesconformidade
vidores
ĠdescontÃŃnua
ulidade
Ġensejam
Ġdeduzido
DÃĥO
Ġ169
Ġintensidade
uÃŃ
192
ĠBus
ĠcabeÃ§a
Ġ371
Ã©tico
Ġinterpretar
Ġsemest
ĠEAREsp
Ġoperador
indic
Ġdevolvida
RIDO
131
ĠPARÃģGRAFO
ĠBrito
Inicialmente
Ġsufragada
ÃŃrito
Ġaprovados
Ġ1224559
Ġ783235
Ġ405738
Ġconcretamente
Ġ830441
Ġ701091
Ġcontex
Ġgerando
CIT
IMAR
ĠSUPER
tÃ¡rio
888
Ġcr
Ġhumano
997
Ġcadernetas
VAÃĩÃĥO
ĠAZE
Ġsugeri
isse
istiu
ĠATIVIDADES
ĠMÃįNIMO
ĠopÃµe
Ġefetivos
Ġacomete
ĠtributÃ¡rios
rovaÃ§Ã£o
ONO
RCIO
ĠoblÃŃ
Ġtransitou
ĠBra
OEL
ĠPÃļBLICOS
Ġpermitem
Ġoneros
Ġquesitos
Ġcompon
Ġacompanhado
Ġpormenorizado
ĠREPETIÃĩÃĥO
ĠCOO
139
prÃªmio
Ġdescomp
ÃģB
ĠFIGUEI
Ġpleitear
ĠreversÃ£o
ĠimpÃµem
Ġinvestigado
Ġ475
Ġempregadores
"(...)
Ġsubmetidas
ĠDEVER
CEF
ĠPERCENT
258
Ġrecolhimentos
Ġomissa
ĠHOM
Ġgarantida
110
Ġneut
erÃ¡rio
ĠNova
ĠAYRES
Ġacrescida
BATÃĵRIA
Ġexigidas
Ġnulo
Ġ844
Af
pretaÃ§Ã£o
DICO
Ġdesacordo
Ġsinto
063
Ġrepresentantes
Ġpensionistas
Ġofensor
ĠQUANTUM
ermos
dÃ¢ncia
ĠPREJUÃįZO
andra
ĠADO
Ġdesfundamentado
Ġ188
ONAS
itÃ³rias
Ġgravoso
itenci
Ġexcepcionalidade
ĠObservo
Ġpassagem
ĠTABELA
Ġconcluo
ĠRENDA
Ġacolhido
Ġexaminados
ĠconservaÃ§Ã£o
ĠForÃ§as
186
mitido
Ġprescinde
Ġcreden
Ġmad
Ġobjetos
ĠBE
ESC
incidente
Ġcomandos
vabilidade
Ġincluir
Ġarren
ĠirmÃ£os
Ãºncias
ĠobservaÃ§Ã£o
junÃ§Ã£o
ĠTHE
cto
Ġestende
998
ĠImpro
ĠSUBSTITUTIVO
ĠQUANTIDADE
Ġdiferenciado
ĠsÃ©rie
rizada
Ġquestionamentos
Ġatitude
Ġalinh
ĠVelloso
ibiliz
ĠENQUADRAMENTO
Ġseguridade
izou
sias
Ġescala
Ġexterior
Ġestipulado
Ġconca
Ġ327
ĠLUZ
FUNDA
Ġquantita
Ġconforma
Ġinjustificada
ĠMonteiro
ĠArmadas
Ġ598
ĠintimaÃ§Ãµes
ĠFIGUEIREDO
ĠCONSTITUCIONAIS
ĠResta
Ġencaminhamento
Ġ944
ĠGRACI
850
ĠDez
ĠPELOS
rimo
Ġcolhidos
ĠCONFORME
ĠSISTEMÃģTICA
Ġ151
ĠRural
Ġexcedentes
Ġapura
ĠIndenizaÃ§Ã£o
Ġatuais
destaquei
ĠBRITO
Ġtelefon
ĠAssembleia
Ġtranscurso
Ġintercorrente
Ġtroca
sividade
Ġaborda
enhorabilidade
Ġterras
Ġpenalidades
Ġelevada
265
ĠAdvogado
ĠconstituÃŃda
ĠpÃ©
vejo
feitura
ĠBEL
VEDO
ĠCito
van
ĠGoi
ĠRavena
Ġadquiri
ĠMANE
ĠcolaÃ§Ã£o
ĠHos
Ġementas
ĠpecÃºnia
ĠMOTIVAÃĩÃĥO
ĠDIRET
Ġobrigada
ĠtributaÃ§Ã£o
Cumpre
ĠIRRE
ceito
ĠADMIT
Ġfortuito
Ġmatriz
pois
ĠcontrataÃ§Ãµes
Ġsubscrito
ĠGA
Ġmelhores
Ġplausibilidade
Ġacident
Ġcessa
Ġcompromete
Ã©rcito
ĠinvocaÃ§Ã£o
ip
amÃŃlia
ĠManife
Ġinflam
ĠTODOS
ĠCORREIOS
Ġmostrou
ĠNatal
ĠATOS
Ġconfirmado
ĠcorrespondÃªncia
ĠFUR
Ġ%
Ãºlti
Ġsintetiz
ĠConclui
especÃŃ
Ġminuci
ĠoblÃŃqua
248
ĠTrÃ¡fico
937
Ġvenia
Ġcontrache
Ġasseverado
331
CAÃĩÃĥO
ĠCAPITAL
ĠFI
ĠsuperveniÃªncia
Ġfornecido
idar
Ġjustificada
ĠEXCESSO
ADMINISTRAT
Ġexequenda
atÃ³rios
Ġresponsabilizar
Ġdificuldades
ĠAMPLA
uras
Ġrevelou
ntagem
estarte
ĠDEVOLUÃĩÃĥO
bas
ĠFIXADO
ĠPas
Ġ492
Ġ276
ĠContrarrazÃµes
Ġnegando
Ġinterroga
Ġimobili
Ġopin
ĠCTVA
ĠINV
ĠCustÃ³dia
Ġtransc
Ġcuidado
ĠLel
ĠJunior
Ġlevaram
IZADO
Ġ269
ĠCOVID
ĠBairro
Ġexcepcionalmente
Ġatrasadas
Ġcolacionado
Ãªncio
urÃŃcio
Ġcorroborar
::
roduÃ§Ã£o
OSP
Ġveja
ĠdimensÃ£o
ĠPREJUDICADO
Ġincorporado
Ġgestante
Ġacumulada
ĠPINHEIRO
ĠGen
ĠXL
ĠSUBJ
ERO
ĠADRI
ENAS
ĠPRÃīVIA
Ġsuprimido
543
167
Ġ313
ĠAcrescente
1980
Ġgrupos
ĠRecorrida
ENDIMENTOS
ĠQUALIFICADO
Ġsistemas
venida
ĠPIA
ĠDECORRENTES
8013
Ġatendida
Ġcuste
ĠCULPOSA
ĠABSOL
064
354
Ġmoradia
ĠreuniÃ£o
ĠhÃŃ
ĠinÃ©pcia
nias
ĠOBJETIVA
ĠRATIO
Po
ceder
ĠEvent
Ġpeti
ĠsÃ¡bados
ĠCordeiro
ensas
ĠconcretizaÃ§Ã£o
ĠECONOMIA
0017
Ġanexados
Ġsuperado
tural
ĠCOMPROVADA
255
Ġstatus
ĠDEZ
Ġtratou
Ġenquadram
824
lor
Ġdemonstrem
Ġdiscor
Ġexorbitante
0015
ĠEsclare
ĠMORTE
ĠPREENCHIMENTO
linh
Ġexistindo
ĠSITUAÃĩÃĥO
183
ĠMAGIST
pendÃªncia
Ġvislumbrar
Destarte
Ġfique
Ġhigiene
Ġ[...].
andi
ĠTÃīCNICA
ĠreapreciaÃ§Ã£o
ENTAL
ĠdenÃºncias
ĠMedi
VOS
zo
Ġregimes
Ġexclusividade
ĠponderaÃ§Ã£o
VIDOS
ĠENTIDADE
ferimento
ombar
ĠimprescindÃŃveis
ĠPREVISTOS
SessÃµes
ĠATENDIMENTO
ĠdestinaÃ§Ã£o
ĠExÃ©rcito
ĠextradiÃ§Ã£o
ĠIMOB
Ġgran
Ġdecide
ĠPRIVADA
ĠFre
Ġinda
ĠusuÃ¡rios
ĠAcordo
vale
mostra
Sendo
âĢĿ;
PARAÃĩÃĥO
ĠPRÃĵPRIOS
Ministra
EFI
ĠCONFLITO
Ġretroativos
Ġdestas
Ġimpende
Ġconcretiz
358
Ġderam
355
ĠCurso
Ġestu
Ġpalavra
Ġjulgadora
ĠExamino
Ġregulares
ĠPERÃįCIA
Ġassinalado
ĠDeste
ĠOrgÃ¢nica
Ġdesempenhadas
0022
ĠFREI
ĠTEM
ĠFOR
Â¿
ĠfÃ³r
Ġirrepar
GUEIRA
Ġhum
ĠREVOLVIMENTO
Ġcuriae
ĠmagistÃ©rio
Ġpropici
ĠperiÃ³
CÃ³digo
Ġlacu
get
Ġ611
ĠrepercussÃµes
vin
INDO
useram
ĠJa
Ġfederativo
Ġocorrendo
Ġcogita
Ġrespeitos
ĠAcrescenta
Ġabstrata
Ġelaborada
Ġculmin
Ġconvocado
ĠementÃ¡rio
ĠCha
900
Ġcorol
ĠfundaÃ§Ãµes
Ġ343
ĠfrequÃªncia
sol
ĠMANIFESTA
ĠDEVED
ĠprecisÃ£o
Ġprojetos
Ġimpenhorabilidade
Ġreclamados
ELSON
Ġeventos
Ã§ando
Ġassume
ĠinocÃªncia
ĠMaurÃŃcio
Ġpossibilita
Ġevidenciando
ĠLelio
Ġpostos
ĠNEFI
Ġtantum
Ġcristal
ANI
316
RING
ĠindivÃŃduos
ĠCARACTERIZADA
Ġinadimplentes
quina
ĠCONCEDIDA
Ġprovidenci
Ġedu
ĠVÃįCIOS
's
ĠINTEMP
Ġportadores
878
Ġprevia
ĠgÃªn
374
enciou
Ġneutral
Ġdispondo
ĠvÃŃ
Ġ198
ĠAZEVEDO
Ġdic
Ġindefiro
ĠFINS
Â½
ĠLUCAS
Ġpostura
ĠINSUFICIÃĬNCIA
Ġacostada
Ġdetida
Ġequipamento
Todavia
duzentos
836
ĠPoli
Ġconcretas
ĠColetivo
Ġimpedindo
ĠEquipa
ĠHumanos
ĠpÃ¡trio
Ġincidi
217
COES
Ġexplicitado
Ġfamiliares
Ġanistia
ĠTHIAGO
Ġrepassados
Ġreiterar
ĠPRECLUSÃĥO
ĠconvÃ©m
ĠIntimada
pia
Ġobrigatoriamente
Ġexecutiva
230
ditando
Ġcrise
Ġporta
ĠIRREG
ĠTese
Ġ158
Ġfil
ĠcrianÃ§as
Ġassegurando
ĠCONTRATOS
ĠCAB
educativo
Ġregres
LAM
REU
ĠprevalÃªncia
Ġ215
Ġeconom
Ġestatuto
ases
Ġtranscreve
JEF
ĠlicitaÃ§Ãµes
endam
destaques
ĠpassÃŃveis
OSIÃĩÃĥO
Ġautorizando
Ġficha
Ġinstaurado
Ġcomprovados
TRAN
Ġrelato
Ġrestritivas
ĠAMAZ
ĠincÃ³lume
DIG
ĠEMPRÃīSTIMO
ĠlocomoÃ§Ã£o
Ġfere
ĠindenizaÃ§Ãµes
171
Ġpercebida
336
Ġdeva
Ġ400
088
ĠSINDICAL
Ġmetodologia
ĠHOMO
Ġrevogou
ransp
Ġâ
demias
935
Ġ184
Ġdiferenciada
ĠMais
Ġ&
ĠATRA
ĠIDENT
rizar
sete
ĠrescisÃ³rio
Ġpreliminarmente
.'
ĠPlenÃ¡ria
ĠmÃ£os
ĠBahia
Ġexecutados
julgamento
Ġlib
ĠOTÃģVIO
ĠXIV
711
ĠHIPÃĵTESE
ĠIRR
Ġcorrela
069
Ġremanescente
TEM
Ġencontre
089
Ġ8666
ĠfarÃ¡
Ġinferir
296
ĠSUFICI
Ġatre
Ġlombar
ĠINDÃīBITO
ĠorÃ§amento
Ġreceitas
Ġouvida
ANIMIDADE
ĠGRACIE
Ġ253
452
Ġidentificada
Ġiu
Ġajuizar
Ġdependendo
Ġ139
INQU
ĠVEÃį
stin
ION
Ġdefender
ĠDECIDEN
ĠDECIDENDI
ĠfiscalizatÃ³ria
ĠAfirmou
641
ELLI
Ġrecolhido
ĠConvÃ©m
Ġgerou
Ġavalia
Ġassal
Ġelementares
Ġhavida
OJ
Ġampara
ĠUNANIMIDADE
ĠPUBLICAÃĩÃĥO
Ġcolendo
ĠDito
Ġtar
ĠASSISTENCIAL
ĠCorrea
partida
ĠINTEGRAÃĩÃĥO
quela
Ġexped
ĠMUS
314
Ġpermanecem
0016
.:
ĠPOLI
Ġdelimitar
VENI
ĠSERGIO
ĠRejeito
613
Ġregulament
ĠDessarte
ĠVerifico
ĠEstÃ¡
Ġacolhendo
ĠRepetitivo
Ġsubja
Ġministros
ĠApoio
Ġinternet
ĠfianÃ§a
Ġvencedora
ESES
Ġcontento
Ġexpedida
ĠAfinal
ĠTRABALHADORES
Ġperdurar
0013
ĠTOR
ĠAPROV
ESTIVIDADE
ĠINEXIST
Ġinfec
Ġrespeitado
Ġenfrentou
ĠDL
atrimoni
Ġexigiria
ĠPromo
ĠimprÃ³p
Ġtarifa
umus
075
Ġnocividade
turar
ĠQO
ĠOPERA
Ġessencialmente
rÃ³
0010
Ġri
ĠbiolÃ³gicos
anÃ¡lise
GEM
USETE
ĠcontrovÃ©rsias
razoado
Ġcomposto
Ġtex
ĠREQ
Ġinstitutos
ĠanuÃªnios
Ġementada
Ġpp
RÃĵ
Ġsenda
315
ĠDESFA
Ġreprovabilidade
ĠCELETISTA
Ġespecialista
0101
ĠHen
Ġpositis
ĠFIXADA
GRESS
Ġformalmente
ĠquÃŃmicos
ĠFREIRE
jada
ĠAdvocacia
MAT
maÃ§Ã£o
ĠConcluiu
Ġjurisprudenciais
Ġesposo
Ġconfundir
Ġmetade
ĠPlanejamento
mentÃ¡rios
Ġinterst
Ġformada
Ġcontribui
Ġoportunidades
Ġdistinto
nten
Ġbaseou
ĠREITERAÃĩÃĥO
Ġobviamente
Ġinteiramente
Ġconcorrente
Ġ323
Ã©stia
OSPITAL
ERADO
ĠESPECIAIS
STEM
Ġ413
ĠPERMANÃĬNCIA
ĠInst
ĠexaminarÃ¡
ĠPAD
dicos
ĠRESCISÃĥO
Ġiii
Ġtrancamento
ĠREPRESENTATIVO
ĠPENHORA
ĠcooperaÃ§Ã£o
071
valor
ĠSALÃģRIOS
ĠINTIMAÃĩÃĥO
Ġressalta
Sust
Ġsoberano
ĠEFIC
Ġresponsabilidades
068
ĠReaf
ILTON
ĠWRIT
cionando
Ġaveriguar
ĠDECLARATÃĵRIOS
ĠJA
ĠEFICÃģCIA
Ġredire
ĠPERCENTUAL
ĠVol
Ã¯
ondi
187
Ġpossuindo
Ġ285
ĠInsta
ĠASSUSETE
autor
ĠprotelatÃ³ria
ĠVerific
Ġtranstornos
Ġcorrigidas
ĠMano
ĠLEGISLATIVA
ĠincluÃŃdos
DFT
Ġdesar
lumes
Ġimperativo
ĠAqui
pra
Ġoperandi
EU
ÃīRIOS
ĠâĢľ[...]
Ġviolando
Ġpretoriano
Ġdesprovidos
tificada
USIVA
Ġquinhentos
Ġequipe
ĠDECAD
219
ĠARGUIÃĩÃĥO
Ġprivilegiado
ĠCONSELHO
viam
Ġinterpretada
Ġdiscutidas
Ġalto
Ġ171
800
ĠsilÃªncio
PRESSUPOSTOS
Ġregida
Ġdesempenhada
Ġgerados
Ġtalvez
ges
Ġautorizadores
ITIVOS
Ġquestionamento
Ġexemplificativo
Ġdescre
ĠDII
Ġvolume
ĠSalÃ¡rios
Ġformado
Segundo
ĠsubsunÃ§Ã£o
Ġdescumpri
elhos
Ġestipula
relativos
ĠdÃ©cimo
Ġincidental
059
ĠHospital
Ġexpur
ĠCAUS
ck
Ġregulamentado
Ġminorante
ĠSubsidiÃ¡ria
111
Ġrepita
ĠBEZ
Ġaltern
Ġensina
Imp
ĠMANOEL
244
aneamente
Ġpleitos
ĠDivergÃªncia
ĠEMPREENDIMENTOS
ĠprÃªmio
Ġparalis
tidi
enheiro
ĠpretÃ©ritas
Ġquestionar
caso
257
ĠDENÃļNCIA
ĠtelefÃ´nicas
bis
Ġmovimento
ĠCumpri
Ġcompetentes
Ġgeneri
Ġextinguiu
992
ĠPREC
ĠRAZÃĥO
UC
Ar
Ġ700
0461
ĠinterlocutÃ³ria
ĠAFASTAMENTO
cindÃŃvel
Ġentregue
Ġformar
Ġfolhas
Ġisenta
Ġredutor
Ġindiretamente
ĠAMO
Ġ213
Ġdobra
ĠvÃªnias
122
ĠPERS
Ġabsor
Ġ287
ÃįLIA
ĠELLEN
ĠSeguridade
Ġprevalecendo
ĠAquele
ĠPra
Ġcelular
ĠAUTORIDADE
Ġrecebidas
Ġdesconheci
ĠpuniÃ§Ã£o
Ġagre
ĠPRESUNÃĩÃĥO
ETI
ĠAri
Ġpatrocin
ĠQUALQUER
Ġpronto
ĠDispensada
ADMINISTRATIVO
rimeira
760931
Ġdeb
Ġoriunda
ĠsobrevivÃªncia
RONHA
ÃŃbe
Ġ265
ĠDepreende
Ġcorretos
883
Ġdetinha
Ġprestando
Ġcres
Ġhomena
Def
ĠestatutÃ¡ria
HÃĥO
Ġ204
Ġoposto
ĠescritÃ³rio
ĠDENEGADA
Ġcircunstan
ĠKa
986
124
145
647
APELAÃĩÃĥO
Ġ183
289
Ġcondiz
Ġindique
ĠMÃīDICO
827
Ġconvoc
ICÃįDIO
ĠRemun
Ġultrap
ĠMarcos
ĠREQUE
ĠPrimeiramente
ĠINDÃļSTRIA
Ġiniciou
ĠReitera
ĠVenci
ĠLIMITES
Ġmodus
Ġseq
195
Ġretira
Ġrespeita
ANDA
TRT
ĠpeÃ§o
Ġassumir
ĠEstando
ĠimprudÃªncia
ĠhÃ¡beis
Ġrubrica
Ġvital
Ġconsolidadas
ELE
stando
ĠocorrerÃ¡
Ġquantias
Ġzelo
ĠNORONHA
Ġcontrapartida
ĠInaplicÃ¡vel
Ġposter
Ġditada
ĠAJUIZ
ĠPretensÃ£o
CANTE
Ġexime
ĠOportun
ĠATEND
bol
Ã³cu
ĠWAL
Ġcoerente
ĠvoluntÃ¡rio
Ġcompuls
ĠCASA
ĠautomÃ¡tico
ĠBEZERRA
ĠversÃ£o
Ġmeri
Ġexigem
ĠChefe
ĠDOMIN
Ġdesempenhar
ĠmatrÃŃ
ĠHABITU
Ġcontem
054
ĠinstalaÃ§Ãµes
tensÃ£o
TN
Ġdisciplinada
imalista
iscentos
ĠControle
imas
ressa
Ġ767
Ġoptar
Ġemo
297
tiu
Ġ218
Ġresultando
ĠELÃīT
ĠNEVES
ĠVENCI
ĠPes
ĠCRITÃīRIOS
ĠRENATO
ĠcorolÃ¡rio
Ġ394
dicas
ĠdesconstituiÃ§Ã£o
norm
Ġconcernentes
Ġsalva
445
Ġquesito
ĠManoel
iado
ĠAPENAS
Ġapurada
ĠDESFAVOR
ĠGUIMAR
ĠPrimeiro
053
ĠcÃ©le
pecu
ĠPRESSU
Ġcolegialidade
parte
Ã©ritos
ĠAb
Ġsoberana
restabelecimento
Ġfurto
Ġcolhida
Ġconfec
ĠSÃĵ
Ġindeferida
Ġcomparecimento
ĠcientÃŃ
Ġoportunamente
ĠForense
Ġomit
Ġ584
ĠColacion
Ġbeneficio
GR
Ġhomologado
Ġdepre
Ġsaneamento
ĠreproduÃ§Ã£o
ĠÃįNDICES
ĠServidor
Ġiniciada
Ġalimentos
Ġatestados
158
ĠGUIMARÃĥES
Ġmarido
gressÃ£o
Ġdedica
ĠRepres
MANN
Ġmodificativos
Ġsalientado
Ġimputados
Ġrevogado
ĠexerÃ§a
ĠPARADIG
ĠNOGUEIRA
rudente
gÃªncias
ĠIgu
Ġfis
ILIA
ĠITEM
Ġnarrativa
Ġoferecida
Ã´nia
Ġexercem
assificaÃ§Ã£o
Ġk
DEFENSOR
Ġadiante
Ġveiculado
Ġdeflagra
ĠPaula
ĠmolÃ©stia
ĠMAJORAÃĩÃĥO
ĠMET
ĠPROFISSIONAL
403
ĠinterrogatÃ³rio
rÃµes
TEMA
ĠproporÃ§Ã£o
ĠPESSOAIS
ĠLIBER
ĠPorto
ĠquinquÃªnio
ĠagrÃŃcola
ĠcontradiÃ§Ãµes
Ġidosos
ĠCONHEC
Ġpretendendo
Ġ152
Ġ1996
369
Ġquadrilha
667
ĠCARGOS
Ġvindic
ĠBASTOS
Ġaposentadorias
HOS
Ġincluiu
IBGE
Ġacentuado
Ġ619
Ġ329
ĠReno
FGTS
Ġprosseguir
ĠConsignou
Ġinstitucionais
JF
ĠRed
ĠJulgado
ĠTRIBUT
ERCA
ĠmÃ¡quina
Ġ0001
Ġcriada
ĠmÃºlti
Ġmercadoria
ernidade
Ġplu
Ġdelineados
Ġinserta
Ġterritorial
Ġinfringente
Ġcabalmente
ĠTERCEIRO
ĠEXECUTIVO
ECOM
opol
ĠinterpretaÃ§Ãµes
NB
665
Ġconvin
BPS
Ġterceirizadas
Ġsupracitado
ĠVa
IU
Ġtaxativa
Ġpraticadas
Ġvigora
ĠBem
inere
645
Ġamplitude
178
Ġcontinuam
ritm
ĠBAL
144
ĠTEC
Ġsalvaguar
147
ĠcorrÃ©u
540
Ġcredit
idora
ĠEfe
ligi
Ġcessado
ĠREAJUSTE
xima
ĠCONCRETA
Ġconsagrada
941
ob
Ġduplo
ĠcompatÃŃveis
UROS
453
SIDADE
ÃĤNEO
Ġeditado
pit
ĠcontemporÃ¢neo
ĠAutarquia
Ġutilidade
Ġprovocar
ĠEV
RECIMENTO
ĠHA
ĠPIAUÃį
ĠalcanÃ§ada
IANÃĩA
ĠDele
ĠTampouco
rinha
ĠdiagnÃ³stico
ĠdesfavorÃ¡veis
ÃįBA
Ġgrandes
Ġ1987
Ġinvestiga
Ġfuncionais
ĠROG
Ġataca
Ġdissent
Ġpositiva
Ġdevedores
Ġreafirma
financeira
patrimoni
Ġsimilares
ĠprogressÃµes
ĠUNIVER
isar
Ġdesmemb
Ġcorrobora
ĠQUAD
Ġcobrada
Ġfrust
Ġencontrado
ÃīRITO
Ġpesquisa
ĠSEUS
Ġinsu
ĠDispon
ĠVAS
356
Ġvejo
Ġitinere
ĠinÃ³cu
Ġinterpretativa
Ġdifuso
ĠDENEGA
ĠCOMERCIAL
ĠCBTU
Ġreclamantes
Ġperpetrada
ĠinespecÃŃ
Ġimpedem
Ġapreciados
Ġdirimir
Ġ159
Ġexplicitamente
Ġbaseado
Ġevitando
ĠUM
Ġexcedente
ĠDESCONT
Ġcota
Ġpresumido
DÃ¡
Ġretirar
Ġdetentor
Ġtida
Ġconcur
Ġjuizados
Ġhedi
ĠMantenho
Ġpensa
ĠTELEF
Ġfito
ĠcorrelaÃ§Ã£o
ĠHab
845
ADIMP
Ġfichas
Ġpresidente
ĠbenÃ©fica
IAR
ĠtÃ³picos
ĠINSTÃĤNCIAS
Ġexplicitada
Ġautorizou
Ġobedecer
Ġprevalecente
Ġgros
ĠEditora
obra
Ġ"...
Ġtaxativo
Ġproduza
ĠINTERNA
Ha
ĠALEN
Ġ457
ĠmonocrÃ¡ticas
Ġregulamentares
Ġinformada
ĠMARAN
ĠnegativaÃ§Ã£o
996
Ġviu
ĠORG
ĠsubsÃŃdio
Dis
ĠmercÃª
Veri
ĠNota
Ġinsculpido
ĠHOSPITAL
Ġgri
756
ĠCONTRADIT
ĠremoÃ§Ã£o
ĠCITAÃĩÃĥO
POCA
Ġcass
Ġimprim
Ġpatologias
ĠIrre
ÃŃndice
Ġassertiva
ferente
VARES
nova
inete
dimentou
Ġtarifas
Ġescrita
Ġprevaleceu
Ġenunciados
Ġpratica
bouÃ§o
Ġcumulado
Ġtratava
415
orrÃªncias
Ġhumanos
prova
Ġtrabalhando
238
erada
ĠretificaÃ§Ã£o
KA
Ġrobusta
ĠperÃŃcias
Ġmoder
Ġperiodicidade
ĠQUANDO
ĠarcabouÃ§o
Ġcompanheira
ĠCOLEGI
Ġinstrumental
Ġindevidas
811
efi
istante
ĠGilson
ĠInte
ĠACERCA
leg
REL
Ġparticipar
ĠeleiÃ§Ã£o
Ġinver
Ġacarretar
ĠatribuÃŃdos
ĠreavaliaÃ§Ã£o
BASE
Ġinova
Ġ362
ĠPermitiu
039
Ġrespeitados
ĠPRESSUPOSTO
Ġemitiu
ĠPROPORCIONALIDADE
bÃŃveis
Ġlin
ĠGONCAL
Ġatentamente
ĠJUIZADO
ĠFUNASA
Ġdescabida
RÃĵLEO
ĠISS
REF
BO
ĠLIBERDADE
sÃŃqu
Ġvigo
ĠPaul
243
Ġduzentos
Ġuniformizador
Ãºstria
onÃ´m
ĠsatisfatÃ³ria
ĠENTORPECENTES
ĠIMPED
120
Ġressalte
ĠFUNDAMENTADA
ĠHOMICÃįDIO
Ġbaixo
276
Ġdescompasso
Ã³veis
MPA
Ġganhos
ĠCOMERCIO
ĠDÃį
ĠINADIMP
ĠdeterminaÃ§Ãµes
ĠEFET
ige
253
ĠPARTICIPA
Considerando
Ġimperiosa
ĠdB
Ġamor
ĠBusca
Ġdesincumbir
ĠFinanceira
Ġfundadas
129
gueira
Ġimpugnadas
ĠassunÃ§Ã£o
ĠTRANSPORTES
Ġaritm
Ġfuturos
ĠIMPOSTO
ĠinevitÃ¡vel
df
ĠFEITO
Ġsinais
Ġaverigu
173
Ġdesconsiderar
ĠTELÃī
ĠAv
.-
ĠCONTRIBUIÃĩÃķES
anhia
Ġservent
ĠDISPENSA
Ġpublicados
Ġmostrando
ĠTELÃīGRAF
Ġ395
Ġtrabalhados
bino
Ġ177
UNA
Ġdestinam
Ġexplicitar
contratual
Ġpremi
Ġcapturar
ĠEntendimento
Ġcirur
Ġhabita
Ġpatrono
Ġinternacionais
Ġobstaculizado
ĠrÃ¡
Ġprevenir
Ġ1992
ĠDOBRO
277
Ġgarantindo
Ġimprescin
ĠAMAZONAS
Ġglob
Ġsuscita
ĠSUSEP
346
PT
Ġsedimentou
Ġafastados
251
ĠcomprobatÃ³
sic
ulares
Ġofici
ABELECIMENTO
ĠExcelsa
Ġsurgimento
ĠgenÃ©ricas
ĠNefi
ĠSUC
Ġreiteradas
Ġimpul
ĠEla
ĠpedagÃ³gico
Ġexsurge
ericana
057
ĠÃīPOCA
ntas
ĠreforÃ§o
Ġtranspos
Ġconvert
ĠhorÃ¡ria
rr
Ã¢neos
ĠPARAÃįBA
Ġcolenda
ulsando
ĠCortes
ĠPinto
182
tÃŃveis
Ġreligi
ĠMos
ĠpadrÃµes
Ã¡lculo
ĠJurÃŃdica
Ġconvencional
Ġing
ĠconsiderÃ¡vel
ĠRESS
ĠEquipamento
ĠGandra
ĠREFLEXOS
Ġocorreram
ĠTESTEM
ÃŃrem
Ġaproveitamento
132
alizadas
Ġexaurimento
ĠTELÃīGRAFOS
adoria
1984
ERASA
ĠCRIMINOSA
Ġdefinidas
Ġcotidi
Ġabusivo
ELI
ĠCHA
ANÃĩA
ĠMERCADO
mentÃ¡rio
ĠCertidÃ£o
Ġextratos
Ġcomplexo
ĠIves
ĠSIQUEIRA
sse
PET
Ġpostas
ĠJÃģ
ĠLeopol
ĠvariÃ¡vel
CANTI
ĠTELECOM
237
ciam
Ġanexado
TAMENTO
ĠtÃŃpico
ĠINVEST
udia
965
satis
Ġbruta
ĠÃŃnf
Ġvive
ĠcontÃ¡bil
ĠEsteves
elson
ĠverossÃŃ
126
Ġprolator
Ġfr
Ġrepublic
Ġconfiguram
Ġdita
Ġ593
Ġ444
luÃ§Ãµes
ĠMUSSI
Ġreafirmado
ĠABREU
CIN
RUPÃĩÃĥO
ĠREGISTRO
342
ĠirreparÃ¡vel
ĠREVIS
338
ĠdemocrÃ¡tico
ĠCAVALCANTI
138
300
CP
cÃ¢
ĠÃĶ
ĠOrÃ§amento
ĠquantificaÃ§Ã£o
Ġaferida
ĠPorque
cc
ĠGONCALVES
Ġtecno
ĠCONTRADITÃĵRIO
ĠReclama
Ġ244
ĠÃĵb
ĠDisse
Ġgeneral
ĠPESSOAL
anciamento
Ġarrema
erado
337
ORNO
Ġconsignadas
verna
Ġoutorga
ĠCUSTAS
propriaÃ§Ã£o
ĠREDA
eias
Ġexequendo
erem
jar
Ġapresentaram
ĠMÃ©
quadramento
quival
")
"),
ĠViolaÃ§Ã£o
958
ĠAvenida
Ġengan
ĠcÃ³pias
Ġventilada
ÃĶNIA
ĠJes
Ġinformando
ĠCONSID
Ġadequar
rel
ĠFAVOR
Ġcamp
Ġprivilegi
ÃĬA
ĠEXPOSIÃĩÃĥO
ĠPartes
Ġligados
rose
Ġintempestivo
Ġrecorribilidade
Ġestabiliz
ĠUniversidade
ĠContribuiÃ§Ã£o
Ġreputa
175
Ġ568
815
qual
352
ĠINDEVIDO
Vale
ĠhistÃ³ria
Ġcapaci
ĠANU
442
%)
Ġ249
Ġatuou
Ġ304
ĠINFRING
ĠRAZOABILIDADE
ĠCIRCUNSTÃĤNCIAS
ĠpsÃŃqu
Ġvoltou
ĠFINA
Ġ6021
ĠAdministrativa
ĠARGUMENTOS
ĠAutoridade
ĠVAN
Ġgrosse
Ġefetivada
Ġpreex
Ġestimado
Ġgenericamente
ĠtransparÃªncia
Ġramo
ĠVENDA
Ġdatado
ĠincompatÃŃveis
Ġinfundado
rack
Ġabastecimento
ĠdelegaÃ§Ã£o
Ġdiscutido
Ġextrapatrimoni
ĠREQTE
Ġ330
Ġrecibos
ĠARMA
ĠAdvogados
Ġvoc
ĠDipp
ĠALENCAR
ĠTJDFT
Ġantecedente
INGENTÃīSIMO
Ġressalvando
ĠATRASO
Ġconfigure
Ġculposo
ĠpecuniÃ¡rio
ĠFORNE
Ġobiter
usÃ£o
Ġsopes
Ġpodemos
Ġdefensor
ĠexcluÃŃda
ĠPERSONAL
ĠformulaÃ§Ã£o
pondo
Ġregulamentada
ĠMESMO
Ġprocuradores
Ġdiscre
Ġpreencher
olÃ³gica
Ġaborre
ĠExe
ĠtelefÃ´nica
663
Ġapreendido
Ġ855
ĠTOMADORA
ĠOCUPA
084
Ġcontinuou
Ġinvocando
Ġsuge
SÃ£o
221
ApÃ³s
ĠmÃºtuo
Sustenta
ĠCompanhia
Ġcare
ĠimportaÃ§Ã£o
ĠPLEITO
Ġarbitra
Ġressalvadas
Ġconsumerista
311
Ġhostilizada
Ġdesest
ĠbÃ¡sicas
Ġinadequado
pria
Ġimpesso
Ġdestoa
Ġdivulgada
ĠWIL
ANTES
ĠsocioeconÃ´mica
BRA
ĠcirÃºrg
enos
cumprimento
Ġprotocolo
ticas
ĠFORMAL
ĠcassaÃ§Ã£o
ĠPCS
ĠRecom
mba
ania
stÃ£o
cÃ³
079
Ġeliminar
Ġuniversal
Ġinadimplente
Ġunilateralmente
156
ĠPela
INTEG
ĠAUTOM
ĠindÃŃcio
ĠTEMPOR
Ġcomarca
Ġexte
Ġtrinten
ĠREMUNERATÃĵRIOS
ĠAJUIZAMENTO
ĠremuneraÃ§Ãµes
ĠPETRÃĵLEO
ĠImpende
sura
ĠIPI
270
Ġgua
ĠINSTITU
Ġconsegue
colh
Ġpossibilidades
Ġpreencheu
UTOR
Ġcolegiada
itio
correr
INTER
Ġsite
ĠDep
ension
Ġprovada
143
Ġdesat
Ġregistrando
IONAL
Ġespecializada
Ġargumentando
**
341
ĠmÃ³veis
Ġprocra
certos
Ġdesdob
inadas
Ġdisciplinamento
ĠAntes
260
ĠJuris
Ġconsi
IRO
Ġdeserto
erro
Ġdesli
ĠBan
tina
ĠExterna
ĠALA
ĠconsignaÃ§Ã£o
ĠreanÃ¡lise
Ġimprescindibilidade
AU
uÃ¡rio
954
Ġespecificados
Ġsolicitou
ĠMuito
ĠSala
ĠBERN
Ġext
Ġdeliberar
ĠOrganizaÃ§Ã£o
RINHO
ĠInstituiÃ§Ã£o
ĠLIQUIDAÃĩÃĥO
ĠREQUERENTE
Ġpreclu
Ġcalculados
Ġmecanismos
Ġlocalidade
Ġrepresentado
ĠMORAT
deira
548
ĠpÃ´
Ġeduca
ĠADQUI
Ġhoriz
Ġfragmento
313
345
VIN
issional
ĠIrresign
Ġrespeitar
diÃªncias
UGLAS
ĠInconformado
ĠFic
Ġdispus
Ãªutica
ĠELEITA
Ġ208
Ġembargantes
Ġindenizado
rasto
STIN
raneidade
Ġtrabalhadas
ĠServidores
Ġharm
Ġisoladamente
Ġenquadrado
Comp
Ġsignificativa
ĠNorm
orridos
LHE
Ġ178
Ġhid
Ġfinalmente
Ġretroativas
333
ĠPROGRESS
ĠtransposiÃ§Ã£o
Ġprodutivo
Ġdesprovida
190
ĠproÃŃbe
Ġregulado
Ġgrav
263
Ġsuportados
Ġvaria
223
Ã³lo
ĠCAROL
073
ENTA
Ġimplique
Ġmovida
ĠEdit
041
Ġtipicidade
imamente
Decreto
ĠQuadro
ltra
Ġdesempre
esou
ĠPrevale
igos
406
Ġcria
grado
Ġofensas
ĠPerce
Ġcontempo
Ġpopular
Ġfraudes
ĠcoerÃªncia
Ġdesempenha
Ġdemonstrados
950
ĠGa
ĠALC
Ġsequelas
Ġaferido
ENTO
ĠGrupo
Ġsuplementar
Ġpadrasto
Ġadequados
Ġacion
269
095
Ġavent
Ġvisam
ĠVERBA
ĠalcanÃ§ado
Ġnulidades
ute
ĠRESU
197
desco
732
Ġinterpretando
Ġ154
ĠREGÃĬNCIA
Ġaprendiz
Ġvou
Ġapreciadas
870
Ġadmito
Ġcoinci
ĠORIGINÃģRIA
Ã¡lio
Ġmecanismo
ĠCORR
Ãªmica
ĠAgravos
ĠCRITÃīRIO
Ġespecificadas
082
Ġmensa
gadores
Ġprodutividade
ÃŃstico
ĠREQUERIDO
Ġconceitos
tidÃµes
Ġarmas
Ġimag
Ġ538
ĠITAU
ercant
Ġredirecionamento
ĠmatrÃŃcula
Ġexag
Ġ(...)âĢĿ
ĠopÃ´s
Ġreceio
2425
Ġdadas
Ġexista
Ġadequadas
ĠexplÃŃcito
Ġimotiv
Ġdespici
ĠCautelar
ĠINCLUSÃĥO
0947
Ġpropa
Ġprocura
Ġsecre
ĠQUEIRO
Ġsustentado
Ġfoco
ĠhomogÃªneos
Ġdebatido
nsa
Ġintransp
Ġsintomas
077
ĠaverbaÃ§Ã£o
Ġnaturalmente
Ġsone
ĠCORRÃĬA
Ġcoisas
Ġcolaciono
ĠSUCED
auto
Ġprevis
Ġjustificando
846
ĠTIPO
Ġperder
ĠDispÃµe
ĠDesca
ILO
Ġetapa
ĠPrefeitura
visÃ£o
086
Ġincorporada
ĠDene
mentaÃ§Ãµes
ĠConfigu
ĠPARTICIPAÃĩÃĥO
Ġperseguido
Ġromp
Ġversem
crime
ĠREALIZAÃĩÃĥO
Ġinfirm
Ġ250
Ġvetores
886
193
Ġciente
Ġconseguiu
Ġconstando
Ġdefendida
ĠespontÃ¢nea
174
Ġtentar
Ġfases
Ġobtidas
tical
ĠSIMP
dinariamente
transporte
Ġderra
ĠINSURGÃĬNCIA
ercial
159
639
Consta
ĠterÃ£o
Ġfiscalizado
Ġnu
ĠDEFENSOR
Ġregidos
Ġguarida
umos
ĠFIRMADO
ĠDemonstrada
Ġtempora
Ġaquilo
mat
ACHO
Ġperita
LEV
Ġparto
cesse
421
ĠSup
957
Ġaprovou
ĠSEC
ĠfÃ³rmula
Ġjuntar
ĠJuros
ĠRem
tureza
ĠPreliminarmente
Ġmarcos
Ġdesafia
ĠPRÃīVIO
ĠCAND
ĠVila
ĠTERMOS
Ġrealizava
Ġ286
ĠconcepÃ§Ã£o
ĠarrecadaÃ§Ã£o
Ġdelituosa
TORIA
Ġ20544
Ġirrever
Ġbeneficiado
VIDADE
ĠalcanÃ§ados
Ġregulamentou
458
Ġrequerimentos
ciou
ense
Ġpresos
Ġpassam
Ġinternos
264
20114
Ġdictum
Ġacompanhando
Ġperitos
AVI
ĠCUMULAÃĩÃĥO
Ġderiva
EMP
ĠDelaÃŃde
706
ĠSalienta
Ġliberta
ĠUrb
Outrossim
832
GP
ĠfidÃºcia
ĠILÃįCITO
Ġenvolvem
ĠPessoal
ĠDUARTE
Ġdono
IANO
Ġconval
ĠÃŃnt
Ġexamine
lidÃ¡ria
Grifos
ĠSÃ³
stituÃŃda
IAGO
Ġsolicitado
ĠampliaÃ§Ã£o
icus
ĠPont
Ġapreendidas
Ġenum
ĠTeoria
ĠAMORIM
Ġregimentais
ĠCONSIGNADO
ĠPÃºblicos
habeas
ĠOP
ĠdivulgaÃ§Ã£o
ĠRenda
ĠMAM
ĠPROP
Ġutilizou
Ġvivam
ĠDÃįVIDA
Ġmaternidade
Ġpeso
nibus
anda
Ġbeneficiar
ĠafirmaÃ§Ãµes
ĠinafastÃ¡vel
Ġdesigual
163
Ġcompati
Ġlist
Ġadver
Ġdocumentais
Ġapreendidos
ĠInqu
Ġacidentes
ĠVerbete
ĠPRIMEIRO
ĠAgravantes
ĠpÃ¡lio
Ġincorpora
ĠUFIR
ĠPORTA
595
ĠOrdinÃ¡ria
076
Ġregistrados
Ġsindicatos
ĠGoiÃ¡s
ĠESTE
Ġalvo
servi
QUERQUE
Ġ590
Ġcondicional
ĠirrisÃ³rio
ĠLEGISL
443
ilib
967
ĠREINTEG
Ġeleg
Ġamostra
Ġsanado
tributÃ¡ria
449
ĠADEQUAÃĩÃĥO
ĠfundiÃ¡rias
249
ĠQUINQU
Ġnegligente
ĠalimentÃŃcia
Ġ731
ĠconcessionÃ¡rias
Ġlibertatis
TERMO
Ġutilizadas
EMAR
285
Ġpostal
Ġns
678
8030
conÃ´micas
ĠConsequentemente
637
085
Ġlonga
Ġexaminadas
284
Ġnit
Entretanto
ĠremuneratÃ³rias
ĠformalizaÃ§Ã£o
ĠinflacionÃ¡rios
Ġconsistentes
Ġdepositado
Ġsolucionar
Ġiniciar
ĠaderÃªncia
ĠPerito
ĠorientaÃ§Ãµes
Ġpromoveu
Ġ848
ĠcÃ©lere
ĠÃĶnus
rossegu
incapacidade
Ġesposado
ĠestratÃ©
ualmente
Ġprivil
Ġimpetrou
ĠCollor
Ġdescumprido
Ġzelar
ĠHenrique
236
ĠconsectÃ¡rio
ICH
ĠInd
Ġenglo
MINADA
Ġconflitos
ĠMEDIDAS
Ġoptou
Ġnomeado
Ġespecificidade
Ġreiterou
Ġsurge
Ġonerosidade
492
iciÃªncia
Ġprevendo
Ġintegrado
FERÃĬNCIA
Ġservidora
181
Ġidentificado
Ġvide
autora
ĠBRAGA
Ġestudos
Ġamparar
Ġatualizada
Ġremete
ĠPublicado
Ġarmazenamento
Ġapontam
Ġrealizando
Ġcombu
Ġurbanos
Ġultrapassado
Ġsensu
ĠAgÃªncia
ĠBolsa
ORADO
ĠREDATOR
ĠCLÃģUSULAS
cias
ĠPERSONALIDADE
Ġnominal
ĠincabÃŃveis
Ġindiscu
ĠtransformaÃ§Ã£o
ĠJUSTA
ĠFERRA
IGÃĬNCIA
CHES
ANG
ĠelevaÃ§Ã£o
ermen
Ġoriginalmente
ĠGABRIEL
ĠCLÃģUDIO
Ġrequeridos
ritÃ¡rio
Le
5425425
Inci
Ġinequi
itores
Ġhierarquia
REGA
GRANTE
ĠTHEREZA
IOR
ĠinadmissÃ£o
ĠacrÃ©scimos
261
ĠSolidÃ¡ria
Ġexauriente
ila
Ġatingido
ĠDISCIP
SIJ
ĠDELITO
ĠIMPETRAÃĩÃĥO
dita
stadas
esseis
Ġoperadora
Ġdomingos
Ġressarcir
ĠVÃª
ĠDECLARATÃĵRIAS
746
ĠINSUFICIENTE
UQUERQUE
ĠTex
MARCELO
ĠninguÃ©m
Ġinviabilizando
ĠMeira
227
Ġdesfe
Ġfech
ĠinterceptaÃ§Ã£o
ĠNelson
onas
Ġpactuada
Ġ221
Ġanula
grafia
Ġjogo
Â°-
Ġexpendidas
Ġexcertos
Ġconcomitantemente
ĠDIRETAS
Ġ387
ICIUS
vocamente
ĠRessaltou
ltrapas
tiba
ĠDESPACHO
ĠATÃī
enharia
Ġrequeridas
LEVÃĤNCIA
Ġerr
Alega
essores
514
ĠDestacou
136
Obser
tiza
teu
ĠEXTER
ĠMEIRA
SONÃĤNCIA
Ġadimplidas
166
504
Ġenvio
Ġconter
ĠDepartamento
Ġrevol
ĠAgora
Ġgestor
cita
Ġsoltura
hing
MENTADO
ORAL
Ġconclusi
rico
Ġgraus
ĠIndireta
ĠfacilitaÃ§Ã£o
Ġaplico
198
ĠINVERSÃĥO
UNICA
222
ĠimpÃ´s
ĠVEL
Ġ217
Ġgenitora
ĠPRIVADO
ĠFAM
368
Ġ318
Ġadvocacia
Ġratificou
542
ĠDISTRIBU
Ġ769
rasta
Ġincorrer
Ġsubstra
Ġgozadas
Sobre
Ġprocedi
Ġfavore
equival
Ġ396
092
ĠDEVEDOR
Ġdesga
ĠVÃįCIO
Ġcombust
Ġretornar
Ġenteados
Ġfei
ĠVANT
Ġembasar
orama
ĠProcedimentos
ĠprovisÃ³rio
ĠREPETITIVO
ĠTERCEIRIZ
ĠAlbino
dal
332
ĠCONTIN
jÃ£o
Ġrespeitosamente
Ġturm
ĠFLAGRANTE
Ġtempos
600
jurÃŃdica
Ġmadrasta
ÃŃamos
Ġsatisfazer
Ġdecretou
(...
ĠCRISTI
Ġlocalizado
Ġdiagnos
Ġelo
ĠestÃ¡gio
052
Ġfornecedores
DIB
ĠAragÃ£o
Ġabrangidos
ĠANS
cador
JÃ¡
Ġtipos
ASSO
Ġimpetrada
Ġintroduzida
Ġabstenha
700
ĠrelatÃ³rios
Ġrepresentada
fÃŃcio
segundo
Ġreincidente
Ġsoberania
ĠocorrÃªncias
ugnaÃ§Ã£o
Ġprotegido
Ġfirmando
ĠMPF
Ġelucid
ĠIncapacidade
626
278
ĠMANEJ
doras
Ġincomple
503
ĠALBUQUERQUE
411
Ġassumiu
ĠIgualmente
Ġjudica
Ġ583
ĠexcluÃŃdo
Ġpequena
Ã¢nsito
Ġ254
ĠRODO
Ġcontrariou
Ġrebat
gend
Ġdispuser
439
RUT
Ġinstituir
IDORA
bral
Ġesquerdo
Ġfaria
Ġadia
Ġhipo
ĠFUNDAMENTAL
Ġacrescentou
ĠcorrÃ©us
211
Ġgoverna
ĠCONSTAT
ĠCONTRATUAIS
272
ĠDOUGLAS
Ġcita
ĠESTA
ĠRemuneraÃ§Ã£o
ĠRecomend
Ġintegrais
ĠAMARAL
tividades
ĠCONFIANÃĩA
Ġ870947
amb
ensÃµes
Ġvenham
Ġtranstorno
Ġsindicais
Ġ334
ĠlanÃ§adas
Ġsuscitar
considera
ĠEng
Ġ256
Ġradio
Ġlucra
Ġpautada
ĠincluÃŃdas
Ġparlamentares
ĠMORATÃĵRIOS
________
Ġindist
Ġinserv
Ġemanada
gma
ĠMERA
alheiros
ĠFundamentos
ĠDELITIVA
Ġinequivocamente
Ġguardar
Ġhorizont
ulto
1979
UIÃĩÃĥO
Ã³rum
Ġdesequ
ĠmÃ¡xime
RELATÃĵRIO
Ġsatisfeito
Ġvaga
Ġabrir
SEQU
Ġcabem
049
vÃŃrus
Ġincumbia
ĠGis
OSO
ĠcessÃ£o
federaÃ§Ã£o
229
PERATIVA
ĠIdoso
soante
ĠJUÃį
IMP
ĠcoaÃ§Ã£o
140
Ġaberta
Ġ148
Ġcalcada
Ġpermiti
ĠAQU
vest
ĠFederativa
Pelo
Ġrepresentam
Ġasseverando
Ġelabora
ĠPrestaÃ§Ã£o
Ġjulgadores
Ġmono
ĠsuspeiÃ§Ã£o
ÃįVEIS
âĢĿ),
Ġescolaridade
ĠirmÃ£o
0020
Ġproduziu
Ġgrosseiro
Ġpromovido
ĠAGUIAR
ĠinvasÃ£o
677
erÃ¡veis
Ġinsatis
BERTURA
Ġpanorama
ĠORGAN
Ġintranspon
EPI
ĠCuri
ĠclÃŃnica
Ġcombatido
956
ĠVerbas
Ġevidenciem
Ġobstaculizar
TIVO
ĠcertificaÃ§Ã£o
Ġaderiu
gendler
ĠÃ´nibus
ĠNELSON
stabilidade
Ã©ia
ures
Ġtomadores
241
Ġimplantar
Registre
889
ĠreforÃ§a
ĠResp
ilton
ĠESTATUTÃģRIO
ue
ĠPargendler
ĠarbitrÃ¡ria
ĠEXCLUSIVA
ĠSUSCIT
ĠPRECAT
ĠEstabele
ĠDEVE
especial
troatividade
Ġtomando
princÃŃpio
IZA
Ġprobandi
820
Ġfaixa
ĠinequÃŃvoco
inam
ĠmÃ©dicas
733
Ġdomiciliado
ĠlitispendÃªncia
Ġassinalar
ĠDei
ĠmÃºltipl
Ġ340
Ġgravadas
ĠlÃŃquida
ĠProcuradores
Ġrestante
Ġpessoalmente
Ġcontributivo
Ġequipara
451
ĠSUPERVENI
Ġ291
ĠlocaÃ§Ã£o
ĠColaciona
Embora
Ġreputou
189
pensa
ĠJurÃŃdico
Ġsucessivamente
Ġencerra
Ġhermen
ĠCCT
ĠTAVARES
Ġproporcionais
ĠidÃªnticas
Ġ360
130
Ġnarrado
opera
ĠconvenÃ§Ãµes
Ġpretendia
553
Ġlides
Ġarquivo
Ġoferta
ĠinterstÃŃcio
ensaÃ§Ã£o
Primeira
ĠPATRI
ĠQUALIDADE
ĠÃĵbice
ĠplausÃŃvel
ĠLTCAT
pado
737
ĠMUNICIPIO
Ġpropiciar
Ġhomenagem
VOG
ĠRescis
Ġpere
ĠDani
ĠeletrÃ´nicos
eli
ADPF
Ġdevia
Ġinterrup
Ġilustra
MARIA
ĠPORTO
ĠcaminhÃ£o
ĠinquÃ©ritos
Pres
Ġrepara
ĠMantÃ©m
ĠprecÃ¡rio
ĠgÃªnero
diabÃ³lica
artel
TANTE
Ġcessantes
Ġdissentir
Ġapoi
Ġpugnando
ĠcontemporÃ¢nea
Ġestender
Ġcertos
Ġrecupera
185
ĠINTEMPESTIVIDADE
Ġtipicamente
ĠextraÃŃdos
ĠFundamento
cabÃŃvel
preensÃŃvel
ĠilÃŃcitas
329
ĠincidirÃ£o
ĠinfluÃªncia
Ġintimem
671
ket
551
Ġcontin
Ġfrontalmente
Ġcognos
Ġcomponentes
sadas
ĠBENS
Ġdegen
Ġsubstrato
Ġlixo
938
Ġpermitiu
icaz
ĠeleiÃ§Ãµes
ĠindÃŃg
ĠQUEIROZ
Ġcarteiro
ilson
Ġtentou
650
Ġtransferir
157
ĠNOTUR
ĠNobre
Ġincompet
ĠDisposiÃ§Ãµes
ĠTexto
662
ĠCARN
Ġentra
ĠPrescriÃ§Ã£o
ĠBACEN
Ġmonito
545
labilidade
ĠanÃ¡logos
Ġ603
Ġ207
ĠSEGURIDADE
Ġhaviam
262
BATE
Ġreproduzir
ĠPAL
ĠARI
Ġempreitada
353
ĠDECIDIDA
neraÃ§Ã£o
INCID
Essa
Ġinjusta
Ġ1967
549
UA
Ġpu
Ġautent
Ġindistinta
Ġ197
Ġdesemb
ĠPARTIC
Ġliberal
Ġreestrut
280
ĠvÃŃrus
SÃįVEL
Ġrepel
ĠdispensÃ¡vel
ĠLEM
Ġmi
Ġcondenados
Ġformalidade
Ġengenheiro
Ġcouber
Ġextraditando
ĠEdital
LOAS
ĠINQU
Ġdesfecho
av
ferir
ĠâĢĿ
ĠCOMPRA
Ġoutrora
Ġdestrancar
ĠdesÃŃdia
320
Ġrodovi
Ġdeliberada
ĠMARANHÃĥO
Ġpositiv
936
ĠincluÃŃda
141
Ġbases
051
ĠEntre
ĠcontÃŃnua
dd
ĠOCUPACIONAL
Ġbrasileiros
ĠHabitaÃ§Ã£o
339
terc
ĠreÃº
Ġdesenvolvido
ĠpÃ¡gina
formaÃ§Ã£o
Ġfala
Ġajusta
ĠREPR
Ġ385
Ġdispunha
Ġprudente
ÃīRIA
ĠRELATION
Ġtratados
Ġconsidere
ĠdesistÃªncia
ĠTransp
rovÃ©rsia
Ġexcluiu
ĠimpedirÃ¡
ĠROUB
ĠEventual
Ġandar
Ġequidade
quinhentos
PPP
419
239
ĠDen
Ġenfrentado
ĠPARTES
Ġ160
Ġhaveres
097
ĠDezena
ĠParticiparam
Ġparticipantes
ĠMANEJADO
ĠNulidade
Ġ248
Ġalber
Ġqualificada
Ġculminou
Ġcontrariar
Ġemanado
ĠREQUERIMENTO
Ġpostulando
ĠverossÃŃmil
Ġdizem
Ġdigna
MERO
Ġapreciando
ÃŃlias
Ġ227
657
Ġinviabilizado
Tam
Ġsou
ĠagÃªncias
Ġtelefonia
ĠautÃ´nomos
ĠVALE
Ġprejudicar
ĠNessas
ferÃªncias
749
normal
ĠsubstÃ¢ncias
980
ĠEXPRESSA
ĠobstÃ¡culos
Ġlaborava
Ġininterruptos
ĠGeneral
918
Ġdeixado
933
Ġreabil
IANE
Ġjornal
Ġpeculiar
176
ArgInc
Ġfacultativo
documento
Ġcontribuintes
INCIDÃĬNCIA
ĠMUL
ĠAPARECIDO
ĠPIRES
ĠURGÃĬNCIA
ĠManifestaÃ§Ã£o
Ġsubjacente
ĠANTERIORMENTE
ANAL
Ġinten
664
ĠunÃŃ
Ġhomens
Ġinap
Ġnotoriamente
ĠSUCEDÃĤNEO
âĢĿ).
ĠCAPITALIZAÃĩÃĥO
394
ÃĬNIO
FOR
Ġrecolher
Ġetapas
ĠCarteira
Ġregit
Ġdesaten
utras
STANTE
Ġfiscalizada
Ġaludidos
0103
ĠMODI
Ġzona
Ġalv
ÃŃmulo
Ġineficaz
Ġindisponibilidade
Ġdenego
SEX
radora
Ã¡cio
execu
Ġacab
375
ĠMÃ¡
ĠexaÃ§Ã£o
lato
ĠLBPS
qÃ¼enta
162
Ġreformou
idem
Ġsimilar
ĠBU
ITADA
Ġabre
ĠDECIDIDO
Ġdivisa
ĠESPÃīCIE
Ġfabri
Ġformalidades
ĠdependÃªncias
irÃ¡
suas
Ġlitigar
Ġestimativa
Ġinterre
ercantil
Ġadolescente
CONCEL
Ġimportantes
ĠClÃ¡usula
Ġministra
ĠROND
Ġconceitu
ĠsÃ³s
ĠCORREA
Ġsetores
Ġdescl
Ġcontrariando
siderou
Ġprescrito
643
349
INDA
ĠCAUTELA
Ġmenciona
Ġclas
itavelmente
ĠEv
Ġimperativa
ĠAUDI
ĠAgravadas
Car
Ġcro
Ġjulgadas
ĠINOVAÃĩÃĥO
322
ĠCOOPERATIVA
994
Ġcompras
Ġperfil
ciÃ¡rio
Ġepis
Ġamicus
Ġ779
bido
ĠApelo
Ġpreponderante
Ġliame
ĠDESEMBARGADOR
onavÃŃrus
Ġoriginais
ĠDESFUNDA
916
Ġdelineadas
LUIZ
Ġtramita
emar
Ġentab
Ġcomprovando
Ġdesvin
ĠRecomendaÃ§Ã£o
Ġprimazia
168
ĠReconhecida
onato
Ġfiliados
ĠORDINÃģRIAS
ĠavaliaÃ§Ãµes
Ġcomprometer
ĠCONTRARIEDADE
ĠLeopoldo
Ġatentar
Ġvaz
vios
ĠpermissÃ£o
282
ĠRELATIONEM
Ġagricultora
ĠSERVICOS
riza
ĠAba
ĠVASCONCEL
ĠPequ
Ġautom
RER
pecuÃ¡ria
840
ALIMENTAÃĩÃĥO
ĠVERA
JOSÃī
Ġinternas
Ġprecis
ĠLeon
alizou
Ġvendedor
Ġ(...)".
Ġinvocadas
op
351
reito
087
149
169
Ġautorize
Ġchama
ĠHORI
ĠPAN
Ġ364
460
Ġaparelho
Ġinterrompe
067
ĠÃ§Ã£
Ġprocedendo
ĠrefeiÃ§Ã£o
ĠFIRMADA
220
ĠPIMENTA
Ġcrack
ĠpsicolÃ³gico
Ġ949
Ġtreina
ĠINDENIZATÃĵRIO
ĠARBITRADO
icaÃ§Ã£o
669
Ġlealdade
Ġpostular
ONIA
Ġcompreender
ĠdecisÃ³rios
ĠporÃ§Ãµes
ĠRos
Ġofensiva
Ġtranscorrido
JUD
ĠcapÃŃtulos
Ġharmoniza
Ġguia
ĠtransmissÃ£o
Ġrecus
Ġsuspensos
EDU
437
Ġdetermine
ĠCoorden
Ġrelacionamento
ĠLINDB
Ta
ĠLEANDRO
RIORES
ĠPLAN
Ġcampes
ĠCONFORM
ĠVINICIUS
Ġcomprovadamente
Ġensejaram
ĠINDENIZATÃĵRIA
nda
ARD
Ġnitidamente
ĠCAMARGO
ĠBr
ĠDeputado
Ġconvincente
Ġinsistindo
ĠÃºn
ĠALAGO
ĠREVISIONAL
Ġregulamenta
Ġcasada
ĠROGÃīRIO
ĠANO
ĠBRANDÃĥO
ĠcompensatÃ³ria
ĠLUCIANO
Ġvertical
erva
Ġretroatividade
Ġatuarial
Ġdiagnostic
BRASIL
CENTÃīSIMO
Ġjustificam
Ġemprestada
ĠPROTELATÃĵRIO
lhado
ĠMalheiros
Ġcorporal
ĠrepartiÃ§Ã£o
nov
533
ĠDECADÃĬNCIA
Ġmerecer
ĠmÃ©todo
184
Ġsumulado
Ġescorre
381
Ġrecorridos
Ġprimariedade
Ġmodificado
ĠfamÃŃlias
ĠCANC
736
ĠFRAUDE
1982
948
Ġimportando
Ġ176
ĠinexecuÃ§Ã£o
OF
ĠespecificaÃ§Ã£o
ĠProcedimento
Plen
062
ĠCUM
Ġprolon
Ġprossiga
ĠEPP
Ġassentando
Ġcrer
Ġpontuar
desde
Ġpuramente
ĠcertidÃµes
Ġdissonante
Ġperdeu
Ġorientar
Ġilegais
Ġactum
Ġtraduzem
ĠEQU
Ġnovecentos
ĠPEDIDOS
Ġfuga
ĠconsectÃ¡rios
Ġtoma
ĠAGENTES
ĠMOL
utra
ĠâĢľ[
ĠreparÃ¡
Ġreformado
giram
Ġsujeitando
Ġdesmembramento
Ġerigido
ĠClÃ¡udia
ĠCuritiba
Ġelucida
SBDI
Ġinquestion
ĠEXER
Ġjustificaria
ĠANALÃįT
ĠincorporÃ¡vel
ĠfrÃ¡g
ĠfeijÃ£o
Ġconstrutora
ĠWANDER
Ġincer
061
ĠMantido
(âĢ¦
Ġexcluindo
ĠHORIZO
ĠAUDIÃĬNCIA
Ġseguros
ĠDISCUSSÃĥO
ENDENTE
ĠmudanÃ§as
Ġbanheiro
853
onder
Ġdotada
993
ĠAnalista
ĠInsiste
Ġindeterminado
ĠInstÃ¢ncia
ĠPETITA
STAÃĩÃĥO
ficamente
Ġconflite
Ġpostulada
ĠInadmissÃŃvel
Ġprovocada
ĠlanÃ§ado
Ġboni
ĠdiÃ¡lo
mm
ĠPAUL
Ġcristalino
ĠLÃįQU
rital
Ġassumido
ĠdoutrinÃ¡ria
ĠNB
Ġ768
330
Ġsatisfeitos
nove
ĠGRAVIDADE
Ġeletrici
ĠEXCLUSÃĥO
ĠAlegre
ĠENTIDADES
ĠAdministrativos
Ġcontestar
Ġconcede
Ġdestacada
Ġacha
179
Ġsegura
ercado
Ġinconteste
ĠVIDA
RENO
ĠFINANCIAMENTO
ĠImÃ³veis
547
Ġautomo
20124
Ġdevolutivo
ĠIRREGULA
Ġexcessivamente
989
ĠALAGOAS
gedo
Ġadolescentes
ĠOpera
884
ĠInquÃ©rito
ĠCENTRAL
ĠCONDIÃĩÃĥO
ĠconsecuÃ§Ã£o
ĠPERDA
Ġaceita
Ġfaturamento
ĠDESCONSIDERAÃĩÃĥO
ĠConfederaÃ§Ã£o
Ġdesconhece
983
ĠEDUCAÃĩÃĥO
Ġexistia
Ġexplicitou
TJMG
ĠReferida
ĠDESCONTOS
ĠAGRO
ĠSantander
Ġpreconizado
rinho
Ġmilho
Ġinseriu
Ġacrescentar
945
Ġopina
Ġ332
unicaÃ§Ã£o
Ġiuris
Ġsubsistir
Ġdava
ĠsubsÃŃdios
917
ĠANG
dro
Ġinviolabilidade
ĠDenego
151
Ġcobrar
probatÃ³rios
Ġobserve
ĠSUBMET
225
Ġmajorados
0023
Ġdestinat
Ġesferas
ĠconvocaÃ§Ã£o
Ġinstitui
ĠELA
ĠCompulsando
ĠLIC
ĠRECEBIMENTO
Ġamostragem
877
999
Ġligadas
cant
ĠfiscalizatÃ³rias
Ġguias
Ġimpliquem
Ġtransa
Ġcru
ĠsumÃ¡ria
Ġcolocar
ĠTrÃ¢nsito
Ġcaptura
Ġalhures
Ġcontun
142
Ġindustri
Ġvergastada
617
ĠADESÃĥO
Ġseguido
Ġnunc
Ġrevertida
ĠInf
ĠsÃ©
dias
160
Ġcheque
ĠSAMPA
Ġintrans
Ġpunitivo
318
Ġconfiguraria
ĠEXTRAJUDICIAL
Ġoferecido
Ġ252
ATIVOS
ĠInformaÃ§Ãµes
Ĺı
Ã´nus
Ġacrescentando
Ġvulnera
Ve
Ġdecor
873
CIONAMENTO
ĠSAO
Ġexaustivamente
dex
ruÃªncia
620
962
Ġcarro
ĠFORNECIMENTO
STICA
Ġservem
asperaÃ§Ã£o
DEJT
Ġinvoca
MESSA
ĠdesnecessÃ¡rias
Ġreen
ron
Ġadversa
ĠEvandro
Ġagressivos
Ġ241
ĠKatia
501
Ġrelevo
ploma
cart
Ġpleiteando
ÃĶNICA
Ġdesenvolve
Ġpessoalidade
558
lina
ĠCONTINU
Ġcitadas
quis
ĠpreteriÃ§Ã£o
ilene
777
Ġreflexo
271
Ġadquirente
Ġturma
SUM
LEMENTO
ĠUltrapas
ĠeSIJ
8100
istia
Ġengloba
Ġtrezentos
Ġ883
Ġdirigida
ĠHUGO
ĠEfetivamente
Ġencontravam
362
Ġinstrut
ĠSAMPAIO
REA
ĠanuÃªncia
ĠDeclaratÃ³rias
Ġarrazoado
ĠpÃ¡ginas
ĠFONA
Ġfumus
Ġ172
Ġdissociada
Ġabordada
RATO
Ġanualmente
Ġreiterando
Ġiner
268
ĠFEDERAIS
Ġlaborados
Ġcomprovadas
Ġdesconstitui
676
ĠrecÃ¡lculo
ĠREINTEGRAÃĩÃĥO
DCB
Ġpeculiaridade
ĠmatemÃ¡tica
Ġacred
Ġ(...),
ĠLOU
Ġobtida
Ġ378
Ġcompletar
Ġfizer
Ġdivergentes
CIADOS
Ġconjuntamente
Ġcausador
ĠTransitÃ³rias
Ġbairro
ECH
Ġlastreada
diciais
ĠABUS
Ġtempera
Ġinadimplidos
152
ĠSERGIPE
Esse
ĠdnÃ£o
Ġposiciona
990
ĠContadoria
Ġdirigido
VERN
SCRI
Ġ605
ĠFatos
Ġrecomenda
Ressalte
ĠcompensatÃ³rio
ff
Ġdatada
ĠexecutÃ³ria
ĠcompulsÃ³ria
envolvimento
Ġtentativas
ĠSocio
ceria
ĠSEGUROS
ĠAdmit
ĠexasperaÃ§Ã£o
entro
070
AGÃīSIMO
ĠApela
ĠADQUIRIDO
Ġorganiz
Ġespeque
1974
Ġcursos
Ġacampa
Ġimpessoalidade
LACION
Ġ273
preensÃ£o
ĠidÃ´neos
ĠâĹı
ĠWa
ĠCONDENATÃĵRIA
869
Ġempregos
961
527
jados
utelas
Ġfuturas
vencido
772
RENS
ĠMagistrados
gam
entas
Ġmomentos
Ġfornecida
713
cÃŃvel
ĠlanÃ§a
ĠDESFAVORÃģVEL
Ġnacionais
Ġcontenha
Ġpartidos
VENTOS
Ġdesligamento
234
Ġacionada
Ġcirurgia
cs
Ġinsub
ĠDESFUNDAMENTADO
BIDADE
856
720
Ġpotesta
Ġproje
Ġestados
ĠROUBO
Ġavi
Ġprodutiva
MUNDO
(âĢ¦)
Ġpercebidos
Ġlesivo
ĠDELI
Ġcriminosos
Ãºria
Ġsaque
ĠsujeiÃ§Ã£o
ĠImpugnaÃ§Ã£o
ĠRecon
Ġinadequadas
Ġavulso
658
ĠCONTAGEM
Ġ1022
Ġcolhidas
inente
Ġtrazem
Ġsignificativo
995
SERVAÃĩÃĥO
ĠAmaz
ĠtributÃ¡rias
915
298
ĠPequeno
CIADA
ĠaudiÃªncias
ĠacordÃ£o
Ġ264
Ġjornadas
Ġdesenvolver
ĠCONSONÃĤNCIA
Afirma
363
ĠCARÃĬNCIA
Ġ164
Ġmanifestando
Ġincompetente
ĠSRA
Ġdiligente
ĠnoÃ§Ã£o
rimest
ĠlocalizaÃ§Ã£o
enciamento
ĠExcelent
ĠpretÃ©rita
Ġcontemporaneidade
471
ĠREFE
Ġcred
Min
ĠDECORRENTE
Ġaderi
ĠFÃįS
953
ĠAFASTADA
AGNER
Ġrestituir
Ġestamp
955
ĠFUNCEF
Ġdesper
ĠpresidÃªncia
zer
Ġenfatizar
133
Ġagroin
Ġinvocar
gara
Ġ381
Ã³rico
556
ĠFUND
Ġrevogar
Ġtutelado
endi
TERC
Ã½
ERTO
ĠCilene
Ġthe
Ġlesado
ĠIs
ĠTomador
Ġvamos
Ġreporta
ĠPORTARIA
848
LL
ĠÃ£
gner
775
747
jur
Ġempresariais
Ġintento
ĠPosto
837
ĠNEGOU
ĠIPTU
ĠFONAJEF
734
cedo
ĠConhecimento
593
797
ostas
rÃ³leo
Ġresga
266
ĠIncÃ³
plicÃ¡veis
nunciados
Ġcumpridos
Ġlogram
ĠFigu
Ġconsagrou
ĠBradesco
igÃŃvel
Ġsuspendeu
Ġvoltar
ĠBI
Ġocorresse
ĠterÃ§os
ĠalcanÃ§ando
cap
ĠingerÃªncia
tasse
ĠintransponÃŃvel
606
Ġdetido
Ġoperou
ĠadvertÃªncia
Ġmeras
ĠMIG
Ġdiversamente
AUS
rica
ĠinjunÃ§Ã£o
ĠNegativa
Ġderradeiro
centado
ĠPROVENTOS
ĠCRIMES
934
ĠFOI
arra
ĠligaÃ§Ã£o
ĠELIANA
Ġtemporariamente
HAL
adeira
ĠEFETIVA
ĠpretÃ©ritos
Ġinib
Ġficta
ĠSilv
ĠMoral
erre
ĠlÃŃquidos
ĠCENTRO
ÃģG
Ġemitidos
Ġpretensa
510
ĠRAI
Cabe
................................................................................................
vagante
Ġcredibilidade
temporal
Ġ507
Ġincontroversos
AGAS
Ġpossua
administrativo
ĠusuÃ¡rio
Ġcompar
Ġanalise
ĠCALMON
Ġbenesse
presas
fal
Ġprescrita
ĠinstituÃŃdos
0100
Ġoffici
651
ĠNestes
ificada
Ġpassag
717
ÃŃssimos
Ġproibida
SÃºmulas
Ġdelimitado
ĠCoelho
Ġperfilhado
pela
Ġingressou
ĠVEÃįCULO
hares
303
Ġindustrial
bÃŃt
Ġsuped
Ġadstrita
Ġchanc
torial
Ġdiretas
ĠConclusÃ£o
Ġenfim
gedoria
Ġeditar
Ġcontemplando
Ġpreced
ĠNormas
ĠProva
Ġ190
Ġidenti
ĠTRIBUTÃģRIA
Ġreiterados
ĠCJF
ĠTÃªm
771
idura
ĠCAUTELARES
Ġapelos
Ġtrazendo
Ġglobal
Ġespecializado
ĠPartido
Ġabarca
464
Ġcomparecer
ficaÃ§Ã£o
ROT
ĠdÃ©cimos
PTINGENTÃīSIMO
ĠRONDÃĶNIA
Ã¡ss
376
Ġpedindo
ĠOfÃŃcio
ISP
ĠsÃ¡bado
Ġdeterminam
Ġaceitar
921
MN
Ġgerado
475
ÃĬM
rarÃ¡
Ġassociado
Ġestiverem
DJF
ĠvalorizaÃ§Ã£o
Ġquatrocentos
Ġretar
Ġadequando
1981
Ġimplementado
Ġquis
ĠDAL
ĠRESTITUIÃĩÃĥO
Ġpermanentes
SINO
ishing
ĠarbÃŃt
Ġcontrariamente
ĠNÃļ
Ġconcedendo
ĠFID
ĠPUBLICADA
ĠUnidade
ĠPOSSE
ĠFri
ĠTELECOMUNICA
RESA
ĠRog
culpa
ĠControvÃ©rsia
RECLAM
aplicaÃ§Ã£o
Ġbra
Ġdevolver
ĠContratos
ĠELÃīTRICA
ĠtÃŃpicas
Ġverdadeiramente
ĠDaniel
852
Ġapuradas
ĠPORT
ĠvÃªm
izando
Ġreconsidera
ĠOBRA
RELA
ĠProcessuais
ich
ĠDOCUMENTO
ĠPT
feria
administrativa
ISEU
ĠMeio
ĠDiploma
Ġapenado
Ġfraudulenta
Ġingressa
881
ĠConhecido
Ġsentenciado
ĠIMPROBIDADE
acen
Ġimpedido
TambÃ©m
ĠpropÃµe
ĠCLAU
ĠTRANSFERÃĬNCIA
ĠAtos
FO
IANTE
ag
Ġsobressa
ĠQuartel
863
ĠetÃ¡rio
ĠFATOR
Ġferra
739
Ġmilhares
Ġestipulada
ĠvulnerÃ¡vel
Ġinstado
ĠinflacionÃ¡rias
evento
Ġatestar
ĠUMA
ĠEmbargado
EDES
Ġincentivo
Ġultrapasse
Ġsucessivos
ĠEDITAL
ĠEstaduais
ĠPerman
losa
Ġ389
ĠCONSEQU
Ġfornecidos
744
Ġimprensa
616
ĠdÃ£o
ĠNoutro
ĠexpÃµe
Ġdespedida
Par
ond
ĠatribuÃŃdas
Ġpreclusa
Ġdescontado
310
mares
Ġconstri
5425605
ĠINFLACION
ĠPrev
ĠarbÃŃtrio
ĠinÃ³cua
aviso
ĠSEU
Ġenvolvam
ĠunÃŃss
Ġfaturas
AUSÃĬNCIA
Ġimpertinente
ĠAmbiente
Ġinqui
ĠESTRITA
Lu
977
ÃĵGICA
Ġ709
MUNICÃįPIO
ĠDESE
ÃĵLIO
ncÃŃpios
Ġcomputados
rismo
Ġonus
ristas
ĠPRAT
ĠRESTABELECIMENTO
TRIBUNAL
Ġemerge
Ġgradu
bida
ĠSANCHES
ĠPolicial
Ġimprimir
790
ĠEspÃŃrito
ÃģBIO
Ġtotalizando
Ġpreve
ĠnumerÃ¡rio
URY
Ġdaria
dique
Ġ245
ĠLeonardo
ĠCÃ©
perint
ĠTranscendÃªncia
Ġpertencente
Ġdesid
Ġoperada
ĠCOLETA
sidades
ĠDN
pelo
ERADA
Ġmanip
QUEL
Ġ5447
Ġcasal
ĠLEGISLADOR
FI
495
Ġce
Ġcertas
Ġ835
ĠinvÃ©s
ĠinvalidaÃ§Ã£o
NEY
cetÃŃveis
Ġ481
Ġinvestidura
Ġindigit
ĠIntroduÃ§Ã£o
ĠDemais
ĠAVAL
ĠpreferÃªncia
Conden
Ġsemestral
Ġaumentar
ucaia
ĠPRORROG
Ġcit
Ġressalvas
Ġrespondeu
Ġendere
ĠFLO
ĠpÃ³lo
Ã©rpre
lit
existÃªncia
Ġpreventivo
seja
ĠSap
646
Ġnegocial
Ġprejudiquem
Ġpretendeu
-,
Ġresidual
ĠDESEN
Ġrescindir
ĠFlo
ĠfaÃ§o
Ġ959
Ġ316
ĠSID
ĠdenominaÃ§Ã£o
Ġage
ĠFERNANDA
ĠChaves
ĠDesenvolvimento
Ġss
ĠvulneraÃ§Ã£o
ĠocultaÃ§Ã£o
Ġjuntadas
Ġach
ĠautÃ¡rqu
Ġabando
Ġresolve
ĠÃ¡l
Ġsuper
Ġassesso
Ġnotific
Ġregionais
ĠcrÃŃ
ĠCorreÃ§Ã£o
550
VERNADOR
Ġ236
ĠEFETU
vador
ĠCURSO
CELENT
ĠEVANDRO
ĠocasiÃµes
ĠURB
ĠESPÃĵLIO
itÃ¡rios
ĠMAIOR
hÃ£
Ġ240
875
ĠMEDIANTE
Isto
Ġher
berta
ĠDescumprimento
Ġ563
RESSO
Ġentendida
ĠREGRA
444
ĠFABIO
Ġspp
DV
Ġestipular
031
ĠAcomp
mano
MAIS
847
567
Ġadesivo
magem
ĠFamÃŃlia
ĠXVI
Ġremanescentes
Ġregulada
ĠAPREENSÃĥO
ĠACOLH
ĠRESID
Ġcof
Ġcessar
ĠextraÃŃdo
ARGOS
Tendo
corribilidade
307
guas
ĠDESTE
Ġmultiplicidade
Ġreponha
ĠLTr
ĠintÃ©rpre
SSE
Ġcorroborada
939
Ġirretroatividade
Ġsuspeita
ĠVIOL
ĠRequisiÃ§Ã£o
ĠConstru
ĠCAST
Ġcometidos
antes
ross
Ġorganiza
)?
organ
redo
venÃ§Ãµes
ĠHam
930
661
653
ĠARNALDO
Ġadquiridos
ĠTerceirizaÃ§Ã£o
BR
Ġosci
361
ĠRevela
ĠalÃŃquotas
ĠBUS
ĠUm
Ġretroagir
ĠCLE
Ġobjur
ĠXV
ĠRECDO
ĠREPA
Ġrestabelecendo
Ġingressar
Ġpovo
CEDO
295
ĠAPO
Ġcitar
ĠponderaÃ§Ãµes
ĠviÃ©s
Ġabranger
ĠprecÃŃpua
Ġcrono
ĠDESTIN
Ġaprofundado
essou
ĠsupervisÃ£o
ĠApare
Ġgreve
Ġpior
555
Ġpermitam
ĠestipulaÃ§Ã£o
ĠAmbient
ĠAssinal
RECLAMAÃĩÃĥO
ĠPERMANENTE
ĠRegistra
SEXCENTÃīSIMO
Ġreem
idistante
Ġinsatisf
Ġencontrados
Ġdescumpriu
ĠBOA
ĠEletr
ĠEXCEP
ĠWagner
Ġtab
bimento
ĠORGANIZAÃĩÃĥO
Ġenorme
ĠalusÃ£o
Ġcooperativa
ĠrecepÃ§Ã£o
ĠEvidente
Ġinterregno
Ġ586
ĠGENÃī
ĠREGIDOS
Ġdial
ĠAutos
ĠDECISÃķES
751
Ġimotivada
ĠMPT
ĠaceitaÃ§Ã£o
Ġ442
Ġvice
ĠparalisaÃ§Ã£o
ĠCovid
359
Ġsustentam
dustrial
648
Ġexpurgos
uxiliar
Ġdesgaste
Ġeiv
ÃŃvio
Ġhospit
ĠAUSENTE
Ġtomadas
ĠDeveras
Ġprimado
ple
ĠEQUIPARAÃĩÃĥO
Ġexcludente
Ġ397
Ġsatisfatoriamente
ĠCAUSAM
Ġoner
ĠDEFINIÃĩÃĥO
Ġesvazi
noventa
Ġfinanciamentos
MONTE
JOSE
ĠInterpretaÃ§Ã£o
ĠcontemporÃ¢neos
ĠEXMA
682
851
Ġminimamente
UÃįDO
Ġ374
849
CEDENTES
Ġincentiv
946
ibilizaÃ§Ã£o
668
Ġtempus
ĠDENEGATÃĵRIA
ĠdesequilÃŃbrio
remos
ĠMachado
ĠIntimaÃ§Ãµes
ĠTRI
ĠHOR
ĠPROCURADORIA
Ġresolveu
Ġequivocado
ĠRETORNO
ĠCOMIS
estes
Ġ596
ĠDOCUMENTOS
Ġcofres
gnÃ³stico
Ġabordagem
ĠpublicaÃ§Ãµes
ĠcoronavÃŃrus
Ġafastaram
CARD
camos
ĠMARG
EXEC
GOS
ĠIRRELEVÃĤNCIA
Ġomissivo
Ġestrutural
Ġgrava
VÃĥO
ĠProssegu
Ġdiplomas
ĠIMEDI
Ġrespostas
ĠIndeniz
792
trezentos
Ġfinanciado
Ġcateg
ĠOST
Ġfontes
907
ĠavenÃ§a
Ġalternativamente
ĠreposiÃ§Ã£o
VIDAS
equivalentes
ĠTele
306
Ġconduziram
ĠimplÃŃcito
ĠsupedÃ¢neo
INSTITUTO
Ġcomprovarem
Ġ529
ĠInadmissibilidade
Ġpensamento
Ġconcaus
640
Ã³vel
Ġrefl
Ġdesacompanh
ĠVar
Ġempreendidas
ĠCorregedoria
HÃ¡
ĠMaran
ĠPETROS
ĠALEGADO
598
SEPTINGENTÃīSIMO
REZ
SR
ETTO
ĠtransgressÃ£o
940
anas
Ġestranha
959
Ġdeduzir
Ġimparcialidade
748
ĠcontextualizaÃ§Ã£o
grÃ¡
erÃªncias
Ġfundos
Ġalheio
Ġsuperar
Ġexijam
Ġcensura
ĠRETRO
ĠMACEDO
Ġdependeria
ĠEmentÃ¡rio
842
Ġalusivo
Ġextracontratual
Ġelidir
Ġalterando
ĠprÃ¡tico
ĠSERASA
ĠexcluÃŃdos
jando
PRI
Ġsufragado
Ġincre
Ġequilib
ĠCHAVES
Ġanun
Ġocupante
Ġinerte
Ġuniformizadora
Ġconsenso
INENTE
Ġdesafiou
ĠENSINO
LP
Ġdecididas
Ġsancion
809
tera
Ġestritos
Ġnormais
ĠColenda
Ġindistintamente
ĠINTEL
CHI
833
emp
rigiu
adoras
ĠSocioeducativo
902
Ġolhos
ganda
APOS
Ġresolvida
ĠCUMULADA
Ġcontribuir
Ġeconomicamente
Ġvalora
557
âĢĿ)
ĠAUTORIA
usÃªncia
VINEL
ĠACUS
ĠPrefeito
ĠMunicip
Ġadvogada
ĠequivalÃªncia
ĠANTECIPAÃĩÃĥO
ĠCRUVINEL
Ġarticulados
colas
ĠsupÃµe
081
644
328
ĠCunha
541
Ġprovocado
Ġdenunciada
Ġ366
Ġdifusos
ĠIncabÃŃvel
emorando
ĠAINDA
675
ĠestatutÃ¡rios
Ġ512
Ġincons
keting
Ġacarretando
Ġliquid
ĠDesde
ĠTecno
Ġconduzir
Ġtrago
tua
ĠINSCRIÃĩÃĥO
Ġobjetivas
ardin
ĠreuniÃµes
Ġreservada
Ġdescu
Ġpercebeu
Ġ216
Ġratificando
processo
Ġequivoc
ĠBIS
(...).
URÃįCIO
ĠilegÃŃtima
Ġfiducia
798
ĠCAD
ĠRelativamente
ĠEXAMINADA
Ġprioridade
ĠXVIII
ĠvitalÃŃcia
Ġformando
Ġprotocolada
401
Ġcostum
ĠconjugaÃ§Ã£o
ĠpactuaÃ§Ã£o
Ġatenuante
APOSENTADORIA
undo
INAS
ĠDIAL
Ġacautel
Ġcoibir
Ġcircuns
Ġagido
Ġesquema
ĠHamilton
Ġdisposta
Ġinsurgente
Ġinsubs
Ġsustentada
ĠpÃ³s
ĠHUMAN
Ġsubstitutiva
Ġ328
Ġpreventivas
Ġrelatou
Ġexistencial
ĠjustificÃ¡vel
ĠANTECIPADA
ĠalternÃ¢ncia
Ġafasto
ĠSapucaia
pÃ¡
Ġconsumativa
ĠRECTE
Ġlitigante
446
ĠAsfor
Ġfolga
DP
ĠXXIII
Ġrelaciona
805
Ġrespondendo
ĠinflamÃ¡veis
Ġconsigna
Ġrepetir
Â´
ĠsuficiÃªncia
Ġformuladas
ĠPassa
Ġdedique
Ġopor
Ġocupado
ĠPal
ĠSUPOSTA
Ġaconteceu
ĠpermaneÃ§a
Ġenfer
ÃįNIO
949
ĠPROGRA
Ġchefe
Ġdaquilo
RP
ÃįDO
PER
Ġestipulados
096
ĠELEMENTOS
ĠRogÃ©rio
Ġfund
ĠAud
ĠintÃ©rprete
373
ĠBe
Ġmeta
Ġlacuna
ĠinaplicÃ¡veis
ĠPrivado
EMBRO
0041
RIL
ĠCSJT
456
ĠconseqÃ¼Ãªncia
ĠQUO
ĠLemos
uu
Ġdeclarante
ĠDEMISSÃĥO
Ġterreno
Ġprovados
SIN
ĠRESCISÃĵRIAS
ĠCarvalh
DECI
Ġ514
ĠrazoÃ¡veis
IGUEL
Ġfisio
diante
Ġgolpe
Ġnegativas
Ġsupostos
Ġespecificada
Ġang
Ġexpressas
Ġsuportado
ĠDuraÃ§Ã£o
ĠAMBIENTAL
Ġatuando
ĠPRESENTE
Ġmicro
Ġ499
MEN
pec
Ġaborrecimento
Ġprogressiva
ĠTesou
ĠReclamaÃ§Ãµes
Ġefetuadas
Direito
Ġ298
630
Ġplural
Ġdebatidas
Ġdetalhado
Ġtranscritas
Ġdemocra
Ġfornecedora
Ma
Ġbur
ĠdivergÃªncias
Ġremanesce
ĠTÃ©cnica
ĠCARNEIRO
ĠMOTO
Ġestabilizados
vidamente
ĠREDISC
ĠTrabalhistas
Ġentregar
Ġdegra
gacia
Ġindividualizada
REST
ĠconvÃªnios
377
ĠNOTURNO
gmail
861
ĠFINANCEIRO
Ġconsumidora
ĠdiscussÃµes
Ġhabitacional
Ġinterromper
rasse
ĠPJ
715
ĠGEST
ĠColetiva
ĠFinalmente
serviÃ§os
ĠAssentou
Ġnormalidade
Ġmostrar
gÃ¡
Ġ635
ĠBranco
ĠDIN
ĠProjeto
ĠDESEMP
cumentos
0026
Ġlegitimamente
872
ĠCONCES
Ġaparelhos
ĠreestruturaÃ§Ã£o
Ġinterest
ĠUso
ĠEns
num
ĠREJEIÃĩÃĥO
Ġ452
ĠConversÃ£o
Ġenumera
Ġresto
Ġmantinha
Ġpartido
ĠFRANCO
922
UD
Ġnaturez
Ġestrangeiro
ĠIBGE
Ġforense
Ġgravid
Ġmercantil
lantrÃ³p
Ġsubordinados
INADO
Ġlocalizada
ĠJUÃįZA
ĠacessÃ³rias
Ġincapazes
Ġsenhor
ĠSergi
Ġengend
Ġcorroborado
Ġloja
Ġcalculadas
ĠpecuniÃ¡rias
ĠPRESENÃĩA
issa
971
ÃŃndro
ĠDURAÃĩÃĥO
PorÃ©m
Ġverifique
judiciais
Ġdesempenhado
Ġ);
itativa
Ġcorporis
Ġadvinda
ĠPreceito
Ġsignificado
ĠMUN
231
----------------
659
Aduz
Ġ";
Ġgratificada
689
ĠSF
Ġautorais
parti
Ġespecializados
Ġinsculpida
ĠDEVIDAMENTE
Ġinsumos
ĠUNIVERSIDADE
hamento
ĠRESULT
strado
Ġregulamentos
Ġcolocado
ĠEmÃŃlia
Ġmanifeste
Ġcomplemento
horas
Ġtreinamento
VIM
Ġatendidas
ĠCADASTRO
oA
ĠSIMPLES
ĠsÃ³l
ELLO
ĠprecÃ¡ria
ĠINQUÃīRITO
Ġsupostas
Ġrecal
Ġgravidez
312
mbate
Ġalugu
Ġexpressivos
Ġfizeram
ĠSUFICIENTE
Ġimplicou
ĠXAVI
Ġrejeita
Ġprecip
ĠCorreta
Ġ368
ĠDiretor
ĠcirÃºrgico
ĠCarvalhido
ĠRecorre
Ġcorresponda
ĠATRIBU
ĠXAVIER
Ġindefere
Ġmovimentos
ĠIPVA
Ġaguarda
ĠRequere
Ġhidro
ĠagropecuÃ¡ria
ĠREL
ĠIMPUGNADO
Ġ302
ĠALESS
Ġrecepcionado
ĠPercebe
ĠFARIAS
ĠANALÃįTICO
Ġsaques
Ġdecretar
ĠveiculaÃ§Ã£o
506
ÃįDIC
ĠRegistrou
ĠPrevidenciÃ¡ria
ĠPARADIGMA
Ġarrendamento
Ġ925
Verifica
ĠconsciÃªncia
Ġenquadrar
Ġcolabora
Ġ600
ĠPaulista
903
setenta
Ġantece
Ġneutralizar
ĠExige
Taxa
Ġdefendeu
Ġimpediu
ĠNECESSÃģRIO
Ġ8213
Ġproporcionar
Ġequidistante
1964
Ġinaugural
552
ĠEXPED
ENDIDA
Ġcompatibiliz
ĠHB
ĠFeitas
ĠSergipe
Ġofficio
Ġ793
Ġcompanhia
Ġdesproporcionalidade
Ġenvolver
ĠextrÃŃnseco
838
Ġequiparado
PAULO
AGENS
ĠTECNO
CIOS
975
ĠCONFORMIDADE
Ġficado
Ġdestarte
Ġprimar
Ġguerre
ĠaperfeiÃ§oamento
Ġcontracheques
Ġ281
Ġvere
Ġdetentores
Ġsinal
ĠTenho
Ġprecisar
ĠJulgadora
Ġreferindo
Ãºn
graf
Ġ412
Ġmultiplic
Ġreenquadramento
Ġmanto
Ġ235
Ġ460
ĠREPARAÃĩÃĥO
Ġpoucos
ĠENCARGOS
ĠPROCURADORES
440
982
Ġregistradas
ĠInexistindo
ĠinservÃŃveis
Ġvedou
Ġgiro
ĠalÃ§ada
ĠÃ³p
Ġprofessores
ĠcontrÃ¡rias
ricamente
ĠPERTEN
672
ĠCumprimento
Ġimplementada
ĠindicaÃ§Ãµes
Ġabsur
858
ĠPROMOÃĩÃķES
ĠCATEGO
domÃŃnio
ensur
Ġ370
806
anhan
000000
ĠCONSUMO
ULOS
ĠFiguei
ĠCh
Ġleciona
ĠDesign
Ġequiparada
ĠProfessor
ones
ĠMed
Ġadvindas
ĠMinistÃ©rios
ĠNem
ĠMat
Ġfederativos
ĠINEXISTENTE
ĠGRATUIDADE
Ġ421
duas
ĠPONTO
Ġ[...]"
Ġexceder
649
ELRE
Ġdemandam
ĠTELECOMUNICAÃĩÃķES
Contra
ĠconvÃŃvio
Ġlimitados
Ġestigma
ĠForm
487
ĠIMOBILIA
ĠCarreira
Ġconverter
Ġcenter
Ġnegativamente
ĠFÃģBIO
Ġ277
ĠBAI
ĠjustificaÃ§Ã£o
Ġesvazia
ĠPOLICIAL
Ġprotocolado
ĠGab
Ġvoltado
Ġprocedida
usas
ĠSIMIL
Ġ"Â§
Ġintertemporal
anna
ĠRECLAMO
artanhan
ATIVIDADE
ĠevidÃªncias
ĠcolÃ©gio
ciedade
ĠDOBRA
ĠCAROLINA
ĠHIV
Ġescal
Ġjurisdicionados
ENE
750
Precedente
ĠlÃŃ
Ġtrabalham
Ġsegmentos
ĠAPRESENTAÃĩÃĥO
Ġseiscentos
ĠSaliento
513
Ġverificadas
OAB
Ġjurisdicionais
ĠVASCONCELOS
zinha
Ġdelic
ĠReclamadas
Ġsofrida
ĠDROGA
GRESSO
Ġ162
ĠVINCULADA
Acres
ĠCombate
Ġabrangida
670
gr
Ġlivremente
Ġpreconizou
Ġimpossibilitado
Ġarrimo
Ġpsi
ĠTelef
Ġimprovida
ĠsimultÃ¢nea
Ġcontundente
tom
976
minado
ĠAV
etro
Ġexplica
Ġcuidar
0029
Ġfederados
ĠComÃ©rcio
Ġempreit
inais
ĠdiÃ¡rio
EDA
ĠRESPONS
ĠPostu
Ġassisti
Ġextensiva
crever
ĠHABITUAL
ĠpÃ´r
ĠDec
Ġcertificou
ĠFisco
Ġliquidez
398
ĠComercial
680
LEIA
ITUDE
Ġlevam
Ġcomplementado
ĠEnquanto
Ġreitere
ĠDESCO
ĠJURÃįDIC
ĠPRECEITO
ĠcaptaÃ§Ã£o
Ġcostu
Ġzero
ĠVIT
Ġprestigiar
ĠDISTRIBUIDORA
ĠMaranhÃ£o
ĠPRISIONAL
Ã³rix
ĠIMEDIATA
Ġgos
ĠVercin
ĠconcordÃ¢ncia
getÃ³rix
ĠReafirmaÃ§Ã£o
791
ĠinternaÃ§Ã£o
Ġconstitutivos
direito
ĠFigueiredo
ĠFECH
ÃĢ
ĠRescisÃ³ria
ĠfilantrÃ³p
ilos
ĠDartanhan
Ġdiversidade
978
Ġ305
ĠMediante
Ġescola
Ġdesva
ĠRodrigo
ĠRESPEITO
1978
ĠdiferenciaÃ§Ã£o
reclusÃ£o
Ġ404
Ġrevelada
Ġfalsa
IBAMA
ĠPericulosidade
ĠconstituirÃ¡
ĠPRESCRI
RAM
Ġ310
ĠorÃ§amentÃ¡rias
Ġ209
ĠEnsino
Ġinafastabilidade
327
ĠPROTELATÃĵRIOS
ĠBELO
VALDO
ĠdomÃ©stica
Ġacrescentado
ĠALVIM
ĠSilvest
ĠnÃ£
378
450
Ġredist
ĠFERI
Ġ322
ponha
ĠSÃŃ
cionÃ¡rios
Ġculturais
ĠmajoritÃ¡rio
Ġvantajoso
RADOS
ĠINFRINGENTES
Ġantigos
ĠSUBJETIVO
ĠVEDAÃĩÃĥO
Ġ251
ĠCESS
ĠConquanto
ĠACRE
DecisÃ£o
ĠsoluÃ§Ãµes
Ġdemas
Ġvigorar
Ġ511
atamente
ĠconsumaÃ§Ã£o
Ġrevisar
Ġcristalizado
ĠCOMB
NÃĥO
ĠGar
ĠMÃīDICA
izam
974
Ġrevertido
ĠMOMENTO
Ġbloque
ĠdiscriminatÃ³ria
ples
COM
476
ĠtemÃ¡tico
299
Ġsupracitada
carga
Ġesclarecendo
Ġcelebra
Ġ455
843
ĠtransferÃªncias
ĠdetenÃ§Ã£o
ĠProvimento
ĠGMAL
Ġferro
ĠSilvestrin
ĠVercingetÃ³rix
ĠHoras
ĠhierÃ¡rquica
ĠAPLICADA
Ġatingindo
pada
951
ĠinterferÃªncia
tendo
Ġquarta
752
ĠCONSTRUTORA
ĠAUTOMÃģTICA
ĠInocorrÃªncia
Ġextempor
ĠJURISDIÃĩÃĥO
ĠsocioeconÃ´mico
ĠLEAL
correu
Ġpromova
ĠIRREGULARIDADE
diam
ĠCOTE
ĠSPC
irmo
Ġaposentada
Ġprocurou
4047
899
ĠsocioeconÃ´micas
Ġrelativ
ĠSilveira
CAS
Ġalienado
334
ĠsubsidiÃ¡
ituaÃ§Ã£o
ĠSY
ance
Ġcabo
ĠINTERPOSTOS
ĠSenÃ£o
ELREEX
ĠPia
ĠAsseverou
674
ĠEVIDENCIADA
ĠREVOG
ĠImporta
rino
Ġensejaria
871
ĠAco
REIRO
cismo
ĠSociais
ĠalvarÃ¡
Ġ223
alhaes
ĠPRODUTOS
ĠDurante
Eis
Ġjudicante
Ġdiscutiu
Ġsuprema
ĠATENDIDOS
INHA
943
ĠINFORM
Ġlevados
Ġacam
Ġnaturezas
ENDAS
ĠfrÃ¡gil
ĠDETERMINAÃĩÃĥO
803
Ġexplan
ĠCapital
Ġsalientou
Ġinterpretou
causa
Ġfalhas
Ġexcelso
ĠOportuno
Consoante
Ġdisponibilizado
neg
161
ĠORAL
ĠincumbÃªncia
ParÃ¡grafo
ĠPÃļBLICAS
ĠPARTICULAR
ADÃĥO
Ġquadra
Ġ443
Ġinvestimentos
Ġcassada
Ġafastadas
ĠCDA
Ġnegada
Ġofertada
286
321
Embar
Ġextrapatrimonial
ĠTrÃªs
ĠDISPOSTO
cessiva
Ġsupervis
ĠAlm
Ġideias
370
CARLOS
273
ERACAO
412
ĠAPRECIAÃĩÃĥO
ciplinar
Ġsubsidiariedade
Ġsubjetivas
Ġcondicionado
Ġrecibo
brÃ¡s
Ġ179
ĠinflacionÃ¡rio
ĠVICENTE
PENAL
Ġseguem
ĠPROPOSTA
Ġdispensar
STAMENTO
ĠDeclaratÃ³rios
Ġdestru
citado
ĠAna
Ġexara
ĠÃŃns
Ġanimais
Ġ231
Ġdistinguishing
Ġdemonstrativo
ĠLÃįQUIDO
IZADOS
ÃŃndrome
Ġmaj
Ġsurpresa
ĠMagalhaes
ĠVERIFICAÃĩÃĥO
ĠreÃºne
oPara
Grifei
Ġdespicienda
Ġsobressai
pericial
Ġinvalidar
Ġdirige
Ġdesrespeitado
ĠepisÃ³di
ĠGIS
ĠfederaÃ§Ã£o
ĠMIGUEL
ĠGisele
ĠvulnerÃ¡veis
Ġ942
ĠCATEGORIA
ĠPoderÃ¡
ĠPlanos
Ġdesprovejo
776
ĠPraÃ§a
ĠdotaÃ§Ã£o
642
ĠextraÃŃda
Ġoitocentos
Ġrefutar
Ãºmulo
ĠXXVIII
Ġfundamentadas
ĠMEI
Ġmeus
970
iciente
Ġinfirma
uamente
Ġdisputa
ĠcontraditÃ³ria
ĠDISCIPLIN
Ġdescabimento
Ġperemp
ĠLIDE
Ġdesprez
mentadas
Ġsetecentos
Ġcolheita
iar
Ġconvertido
Ġasc
TEN
idu
ĠCONSTRUÃĩÃĥO
stora
sificaÃ§Ã£o
Ġdetento
1970
291
093
Ġcelebrou
jÃ¡
edor
ĠaveriguaÃ§Ã£o
Ġcarreiras
ĠavanÃ§ada
Ġ591
ĠPrejudicado
Ġatuam
Ġsoube
ĠclÃ¡ss
Ġfalida
ÃįTIMA
Ġaler
Ġfeitura
Ġgenitor
nn
MITAÃĩÃĥO
ĠOBSERV
Ġretroativo
ĠAcesso
Ġhospitalar
Ġevoluiu
436
mencla
Ġprimeiramente
ĠWANDERLEY
324
Ġsimultaneamente
ĠBELMONTE
ĠRAIMUNDO
ĠexpressÃµes
Ġtransferido
ORIA
ĠFE
ĠPenitenci
ĠHIPOS
ĠSET
ĠdesapropriaÃ§Ã£o
ĠCONTRATADA
IAÃĩÃĥO
perÃŃodo
ĠinespecÃŃficos
Ġcontava
Ġenvolvido
ĠExtravagante
ĠALÃįN
Ġdirimiu
ĠPle
ĠIndenizatÃ³rias
Ġ789
ĠJÃºlio
ĠESGO
Ġcoer
Ġsalvaguarda
artrose
ĠficarÃ£o
ĠINVALIDADE
Ġreflita
ical
ONSO
Ġimagens
ĠCLAUDIO
ĠRessalva
ĠrecomendaÃ§Ã£o
Ġdirigir
325
Ġprescritas
Ġaproveita
Ġmicross
ĠdesclassificaÃ§Ã£o
inaÃ§Ãµes
ĠEMENDA
ĠcomeÃ§ou
Ġcasado
ĠmÃ©todos
20134
ĠmissÃ£o
mados
ĠFicou
ĠHOMOLOG
ĠInfere
ĠpropÃ´s
imension
Ã¢mb
Ġcan
Ġefetua
Ġoferecidas
Ġ301
ĠDIMIN
Ġlonge
ĠPrevistos
ĠPERDAS
CK
279
ĠineficÃ¡cia
ÃĬMIO
Ġdesempregado
ĠRecu
ĠturmÃ¡rio
Ġsupervisor
ĠHIPOSSUFICI
Ġ350
ĠANALIS
LAU
Ġ515
Termos
etÃ¡rios
Ġqua
ĠTesouro
233
Ġprodutor
Ġpercurso
Ġsubmeto
Ġdesvenci
ĠtrintenÃ¡ria
Ġcolacionada
unidade
Ġagindo
Ġestranho
968
ĠMÃģRIO
Ġacostadas
919
Ġreverter
Ġcalib
Ġcontinue
priedade
RIS
NDI
Ġenquadrada
Ġredes
ĠDISPOSITIVOS
ĠDelaide
borou
Ġabrangente
ĠpendÃªncia
tel
ĠLITIG
Ġisolada
Ġcontrariedades
633
679
Ġbasicamente
518
CIEL
ĠMAURÃįCIO
Ġsemelh
Ġdivergiu
Ġsist
ĠRestou
Ġrou
Ġvolu
Ġcargas
Ġfalhou
ĠCOTEJO
ĠJUN
Ġsignificar
Ġdesestim
Ġagrava
ĠANIST
deve
ĠOlindo
Ġprincipio
Ġextrapola
ĠREDISCUSSÃĥO
Ġbaila
Ġprecisam
Ġdiscrep
ĠGERALDO
ConstituiÃ§Ã£o
326
Ġsobreaviso
ĠDNIT
952
ĠLEMOS
conomia
308
Ġdestino
Ġtutelar
ĠAPROVAÃĩÃĥO
Ġinatividade
Ġfacilidade
Ã©ticos
ĠEXCEÃĩÃĥO
Ġcumpridas
FEITO
Ġtrimest
Ġrepos
Ġtomadoras
Ġcontrovert
Luiz
Ã´ni
0371
ĠSENTIDO
ĠCONSIDERA
Ġ320
ĠconformaÃ§Ã£o
ĠSAT
Ġestabelecia
ĠprimÃ¡ria
Ġ303
rovado
ĠAnote
Ġpobre
ĠNeves
Ġreafirmada
Ġescolhido
Ġabriu
Ġlomb
ĠVICTOR
EZA
ĠCONSOL
ĠPROFERIDO
ĠELEI
empregado
Ġseque
459
Ġ574
Ġfunciona
ĠligaÃ§Ãµes
Uma
Ġembargo
841
ĠGDC
ERÃĬNCIA
Ġinalteradas
ANTO
Ġdesembar
Ġ402
Ġvieram
Ġdecretos
ĠAmapÃ¡
ĠEXTRAORDINÃģRIAS
Ġpaz
ĠGRAVE
domin
ĠAUMENTO
0051
Ġpriori
Ġviabilizando
Ġacontece
Ġcomparti
ĠLUCROS
859
Ġ311
ĠTrabalhador
ĠâĢĺ(...)
Ġeleitorais
Ġced
Ġdesloca
Ġprejudicialidade
ĠCONFERI
Ġdevolvidos
701
Ġcustear
719
ĠFLÃģVIO
Ġfrontal
econÃ´mico
ficit
Ġpasse
Ġjurisdicionado
Ġsubsistem
ĠINCAB
Ġlitte
ĠTORRES
Ġvindicado
Ġtradicional
ÃīP
Ġdesauto
Ġbaseia
591
estabele
Ġradic
Ġfiliar
ĠAmazonas
grafos
0027
Ġnatal
ĠNEXO
Ġrevolver
ec
Ġinitio
367
Ġ6357
rioridade
ĠCAVALCANTE
ĠinquestionÃ¡vel
ĠEvidenci
Ġcriando
public
Ġmanuse
ĠQUITAÃĩÃĥO
ĠSUST
ĠAndra
ĠBTN
guem
Ġsomado
ĠExplic
ĠRECEBIDOS
Ġficaram
ĠtÃ©rmica
ĠLAC
corpo
grifamos
ĠSatisfeito
ĠDesnecessÃ¡ria
697
EPÃĩÃĥO
Ġconhecimentos
Ġrepresentados
ĠEnfim
ificar
Ġimpulsion
ĠESTABELECIDO
Ġreiv
ĠDIR
ĠConstatado
ĠFORMAÃĩÃĥO
HM
vesti
ÃįDE
ntara
Ġparceria
ĠexpÃ´s
Ġviolaria
Ġassentados
ĠcompensatÃ³rios
991
ĠprovocaÃ§Ã£o
Ġdesdobra
ĠcominaÃ§Ã£o
ĠPROBATÃĵRIA
SCI
ĠhÃŃgido
ĠCONJUNTA
ĠOre
Ġviz
Ġtransito
ementa
Ġreputar
ĠCOMPRO
Ġprocrastin
elionato
unda
Ġreferenci
ĠAcompanho
uaÃ§Ã£o
267
Ġvetor
Ġ545
Ġaud
Ġsofrendo
ĠprognÃ³stico
ĠCONTRATADO
ĠadaptaÃ§Ã£o
essem
Ġ435
itÃ¡rias
Ġespecificar
ĠSupera
ĠdarÃ¡
strei
Ġfalsidade
SUB
Ġaliado
ĠÃ³ptica
ÃīPCIA
ĠGla
ĠExecuÃ§Ãµes
Ġensejadora
Ġpreexistente
Ġrati
Ġ8030
Ġrepasses
ĠROL
Ġfotos
Ġvisu
IBIÃĩÃĥO
ĠQUESTÃķES
TIFICAÃĩÃĥO
ĠFed
igna
ĠSFH
ĠimobiliÃ¡rio
Ġidentificados
ĠindiscutÃŃvel
ĠPRODUÃĩÃĥO
ĠCONCESSION
Ġpossuam
spensÃ£o
Ġgrief
CAMENTO
Ġnaquilo
Ġrotina
ĠmÃ³vel
Ġadiantamento
Ġpensionamento
Ġexacer
EMBLEIA
ĠmanhÃ£
Nestes
Ġinadmitido
Ġpronunciamentos
ĠEXTRAORDINÃģRIA
565
Ġoutorgada
ĠrÃŃ
Ġaditamento
ĠTerri
ĠnÃºmeros
892
Ġcompreendida
ĠexperiÃªncias
Ġpromessa
verÃ¡
ĠPRESCRICIONAL
686
ALHO
Ġimprescrito
ĠMAGISTRADO
ĠfundaÃ§Ã£o
Ġdispensando
Ġretific
ĠSabe
Ġfirmaram
ĠCÃ©dula
ĠDIMINUIÃĩÃĥO
ĠPiauÃŃ
Ġleil
Ġbaix
Ġalegadamente
valorizaÃ§Ã£o
914
Ġmajorar
Ġvolunta
Ġelevados
ĠroÃ§a
Ġretroativamente
idÃ£o
Ġimportaria
Ġ299
ĠsecuritÃ¡ria
Ġalegue
ĠHORIZONTE
adura
Ġcruz
ĠexportaÃ§Ã£o
streintes
Ġalegam
Ġsans
ĠcolocaÃ§Ã£o
ĠEssas
diaÃ§Ã£o
Ġexpedidos
ĠamortizaÃ§Ã£o
mitir
rigaÃ§Ã£o
ciaÃ§Ãµes
ARTAMENTO
Ġ635729
Ġsobreveio
ĠRelÂª
Ġ439
Ã©rica
ĠCapÃŃtulo
gatÃ³ria
ĠGMAAB
ATIVAS
ĠdiÃ¡rios
ĠIrresignada
Ġcomprador
Ġchefia
Ġbanheiros
ĠARANTES
ĠÃŃnfimo
ĠPROGRESSÃĥO
ĠPena
Ġmodificada
ĠDEPOS
ĠRESTRIT
Ġ=
ĠDESENVOLVIMENTO
Ġperguntas
ĠMINUTOS
Ġdetalhadamente
ĠITAUCARD
ĠMajo
polis
JRP
Ġperde
ĠincorreÃ§Ã£o
Ġoportuna
conversÃ£o
flito
905
ĠSetor
Ġinconformidade
coes
Ġacertadamente
Ġuniformizar
ĠaritmÃ©tica
ĠNOCI
ĠINDUSTRIA
Ġordinariamente
ĠALTERN
INALDO
IGO
"[...]
VIÃĩÃĥO
ĠAtente
ï¿½ï¿½ï¿½ï¿½ï¿½ï¿½ï¿½ï¿½
ĠopiniÃ£o
ĠseqÃ¼
Ġassessor
Ġemanadas
Ġprimor
ĠVIANA
Ġmando
530
Ġacober
397
Ġcampanha
ĠdistÃ¢ncia
ĠEletrÃ´nico
Ġ357
ĠEFETIVO
Ġhiper
izadas
Ġmagistratura
Ġpatamares
911
Ġafinal
hard
Ġsublinh
ĠJUNT
Ġala
ĠTre
54246
Ġtum
jurÃŃdico
Ġrestringiu
ĠÂ²
bon
Ġtermina
Ġocorridas
erg
ĠCondiÃ§Ãµes
dua
LICE
ĠDEMAIS
URPAÃĩÃĥO
LOSO
Ġdispenso
ĠindenizÃ¡vel
Ġanotado
SEÃĩÃĥO
ĠjulgÃ¡
Ġenca
Ġimaginar
ĠtransaÃ§Ãµes
Ġampliar
Ġcreditamento
Ġeletricidade
Ġgravosa
ĠCONDO
catÃ³rio
sivelmente
Ġentendem
menclatura
Ġarcando
Ġplanta
Ġfragilidade
ĠDISCIPLINAR
Ġrecolhidas
913
ĠTEMPORÃģRIA
Ġ342
lÃ³gicas
Ġconcedo
ĠordinÃ¡rios
Ġdissa
ĠDeixo
860
orrobo
esc
Ġencerrado
0845
Ġdirecionada
adequaÃ§Ã£o
ĠExpe
ĠCONHECER
578
ĠincidirÃ¡
Ġfacultado
cificamente
Ġespor
Ġdemonstradas
Ġsabendo
Ã¡gua
Ġsituado
ĠOLINDO
bb
ĠDADOS
Ġveiculados
Pos
ĠSAB
Ġanexada
Ġaguardando
Ġobrigados
ĠExequente
AÃ§Ã£o
ĠMACIEL
ĠAVI
ĠLegal
511
ĠConselh
Ġ270
ĠDala
ĠFOGO
sing
HAS
Ġpertine
Ġsurgiu
Ġextrajudiciais
ĠretribuiÃ§Ã£o
Ġboleto
ĠSIMILITUDE
483
Ġaluno
Ġconsignada
Ġprestava
ĠexoneraÃ§Ã£o
ĠconcentraÃ§Ã£o
ĠPRORROGAÃĩÃĥO
ĠNN
Ġrevisora
Ġ239
723
Ġnulas
778
RELATORA
Ġescolar
cade
Ġcausada
Ġcolid
Ġfruto
ĠprivaÃ§Ã£o
IGNI
URANTE
recurso
Ġafetar
Ġ410
ÃĬS
Ã´nima
ĠFonten
ĠcognoscÃŃvel
ĠdescaracterizaÃ§Ã£o
ĠestatuÃŃdo
758
Ġefetue
ĠRef
ĠreprovaÃ§Ã£o
ĠColetivos
ĠCD
ĠaplicaÃ§Ãµes
ĠindustrializaÃ§Ã£o
ĠDIEGO
Ġdiariamente
Ġ505
Ġpartid
Ġlaboradas
ĠDiv
Ġligada
PROBATÃĵRIA
ĠCONSTATADA
ile
Ġanistiado
Ġcautelas
Ġ"(
ĠinexigÃŃvel
ĠaÃ©
Ġavaliada
Ġtanques
Ġaer
Ġsegundos
ĠexercÃŃcios
Ġdeson
Ġfui
Ġenquadrando
Ġengano
ĠinterceptaÃ§Ãµes
ĠMELHOR
Ġmotorizado
PAR
fix
Ġresil
Ġminucioso
onÃ´mico
Embargos
ĠABSOLVIÃĩÃĥO
ptura
Ġmoderada
508
DERICO
ĠBANCÃģRIA
ĠinvÃ¡lida
MUDAÃĩÃĥO
ĠGabinete
Ġcausadora
Ġcumulativa
ĠMemorando
Ġelencado
ASEP
ĠNecessÃ¡rio
Ġafastam
executividade
Ġsexo
cÃ¢ntara
pio
Ġindicativo
Ġ388
0028
448
Ġdesidera
cione
Ġversar
ĠMonetÃ¡rio
ĠINÃīPCIA
Ġfrise
RECER
ĠCalsing
IFICA
ntou
Ġacautelar
Ġbarreira
Ġ347
Ġdiscutem
cunst
participaÃ§Ã£o
ĠprÃ³xima
ĠWAGNER
Ġturmas
Ġproclamou
Ġlitros
ĠEXCEPCIONAL
Ġfomentar
ĠEDI
aos
orou
Ġrua
ĠAndrade
ĠDalazen
Ġcondicionar
408
0025
Ġmelhoria
ĠGMJRP
Ġenviados
Ġdizia
legais
ĠprivatizaÃ§Ã£o
ĠBUSCA
NIOS
LMANN
ANNA
iscrim
ACAO
Ġdetidamente
Ġexcetu
ĠafetaÃ§Ã£o
ĠmitigaÃ§Ã£o
Ġrigorosamente
ĠFontenele
ĠIGP
Ġiso
Ġargumentativo
ĠDisponibiliz
Ġocupar
PlenÃ¡rio
ĠGESTÃĥO
CIR
Ġ523
rime
Ġ9099
isso
ĠdÃ©ficit
ĠdestinatÃ¡rios
En
ĠsemelhanÃ§a
ĠUSURPAÃĩÃĥO
Ġpremiada
ĠSus
Ġintimadas
VS
minimalista
ĠirÃ¡
Ġdecorreria
Ġrevele
Ġdesinte
Ġdefendendo
Ġsolicitar
ances
438
Ġrestringindo
ĠINA
indicar
969
onderou
Ġredimension
ĠTOCANT
ĠlicenÃ§as
Ġtrafica
ĠimprÃ³pria
hardt
309
Ġmensu
Ġassistentes
ĠHIPOSSUFICIÃĬNCIA
utatis
ĠMARCUS
ĠdemocrÃ¡tica
20104
determ
constituÃŃda
Ġperpe
0053
ĠexcelÃªncia
638
Ali
ĠReserva
554
652
Ġinfluenciar
Ġhorizontal
Ġamplos
ĠOreste
Ġlitteris
ĠDECLARADA
ĠFLAVIO
694
Ġperigosa
destacou
729
ĠGMACC
Ġ(âĢĺ
Ġhe
ĠALIEN
ĠcompÃµe
ĠRENATA
ĠProfissional
ĠdiabÃ³lica
ĠMENOR
Ġatento
ĠDescabe
ĠjuÃŃzos
Ġensejadores
GUA
ĠCampos
Ġassistido
Ãºstia
Ġatingida
defiro
ĠJus
ĠTelÃ©
ĠmeritÃ³rio
ĠPRECATÃĵRIO
Ġcheques
Ġassalto
Ġaven
ĠanÃ¡logo
Ġpassageiros
Ġimputa
Ġclaros
ĠALIMENTAÃĩÃĥO
processuais
cionÃ¡ria
ĠPRATIC
402
783
http
Ġrestritivos
Ġdeput
Ġrelata
743
ĠEmpresas
Ġirra
ĠABRANG
Ġantecipadamente
Ġdispostos
Ġatendem
Ġnormatividade
Ġimplicam
Ġsocorre
Ġerros
ĠBON
Ġadvindos
ĠVencido
ĠDUP
Ġprorrogado
Ġorientado
Ġpronunciado
âĢĶ
Ġvisitas
ĠDEBATE
Ġcaracterizam
ĠITAÃļ
ĠSig
ĠTRANSMUDAÃĩÃĥO
Ġexemplos
IAL
ĠPDV
ĠTELEMAR
Ġgozam
ĠSENTENCIA
ĠTelÃ©grafos
Ġfundou
Ġdeixaram
Ġsubordinado
ĠInvoca
Ġombro
Ġserviu
ĠSENTENCIANTE
Ġmesa
ĠcongruÃªncia
410
ĠextrapolaÃ§Ã£o
ĠFERRAZ
pensabilidade
ĠDEM
Ġasseverar
Ġemendas
ĠDINIZ
ĠPROMOÃĩÃĥO
ĠAten
Ġ258
ĠMASSA
PÃģ
Ġratificada
Ġassinada
ĠEsses
ĠinsatisfaÃ§Ã£o
ĠPRÃģTICA
ĠPessoas
ĠDiretoria
ĠseleÃ§Ã£o
Ġfacilmente
sticos
Ġ483
ĠAUTORIZAÃĩÃĥO
ĠinstituÃŃdas
Ġsubscrita
Ġ1614
Ġindiciado
ĠCORREIA
ĠLABORATIVA
ell
Ġsituada
Ġvier
Ġdepres
Ġconseguir
781
ĠSUBSEÃĩÃĥO
UNDOS
Ġimportar
ĠConstatada
Ġabusos
ulando
Ġ682
Ġbuscam
Ġonerar
Ġcompareceu
ĠExaminando
natureza
IGUIDADE
ravelmente
Ġvedar
ĠvÃ£o
ĠEMISSÃĥO
Ġversado
Ġ275
entem
301
ĠIndefiro
Ġretorna
ĠALIMENTOS
ĠIndevido
Ġiv
Ġviagem
REM
688
EDV
INERE
Ġajuizado
ĠExtraordinÃ¡rios
ĠvariÃ¡veis
IGNAÃĩÃĥO
ĠPAIVA
Ġsupramencionada
ĠDELGADO
Ġimponha
Ġlicenciamento
Ġ425
ĠangÃºstia
ĠBARRETO
ĠErhardt
323
ĠdistribuÃŃdo
627
ĠregiÃµes
Ġconflitantes
283
FUN
Ġaduziu
ĠDISCRI
Ġalmeja
inclusive
Ġocasiona
ĠeliminaÃ§Ã£o
ĠITINERE
ĠADMITIDO
ĠTOCANTINS
Ġ423
Ġlegitimar
Ġ344
ĠempregatÃŃcia
Ġseguiu
GTON
ULT
ĠRONAL
ĠRUÃįDO
Ġinvestido
Ġocorria
383
ausÃªncia
396
Ġidentifiquem
unos
Ġunivers
ĠCELEB
boraÃ§Ã£o
923
Ġlastreado
andis
ĠRÃ©us
Ġ565
Ġprejudicados
Ġafetado
Ġdeterminante
imar
ĠinadmissÃŃveis
Ġcapitalizados
ĠAPLICÃģVEIS
TOLOGIA
ĠPREVI
Ġcompromissos
ĠELIAS
Ġenfrentadas
ĠirmÃ£
294
ĠPROCEDENTES
Ġinstituidora
foi
ĠPRERROG
Ġnarra
Ġpertencentes
ĠFECHADO
ĠCONCEDIDO
ĠDentro
ĠTÃŃtulo
ĠTARI
ung
Ġassistida
Ġconsagrados
ĠlegitimaÃ§Ã£o
ĠtÃ¡cita
emarketing
ĠBÃ¡s
Ġinfort
ĠcombustÃŃvel
Ġnon
onze
Ġpenitenci
ĠdesconstituÃŃdos
Ġprecipuamente
Ġdeclarados
Ġtaman
Ġpeculato
Ġcondizente
ATÃĵRIAS
Ġpequenas
302
ECO
Ġmedicina
Ġprestadores
ĠprovisÃ³rias
ĠMagistratura
ĠPÃ¡
Ġ502
ĠMARCIO
ĠTransitÃ³ria
Ġextinguir
683
Ġprofunda
gramas
Ġinfluir
Ġadmitidas
ĠacidentÃ¡rio
ĠMÃģRCIO
497
Ġsucede
Ġendemias
Ġsimplificado
ĠExecutada
393
ĠTransportes
ĠCASS
ĠDeficiÃªncia
ĠESTEVES
ĠDETRAN
ĠNÃļMERO
ĠCidade
ĠcomprobatÃ³rios
Ġisento
Ġconfirm
ECT
Ġvislumbrando
diado
ĠCAPACIDADE
Ġdelimitou
Ġcombater
Ġ243
ĠAju
Ġmotivou
ĠPRESTADORA
Ãľ
Ġdeterminantes
ĠsecundÃ¡rio
0091
Ġrebater
ĠFURTO
ĠMANIFESTAMENTE
ctariamente
Reso
Ġmeros
DIS
ĠInformaÃ§Ã£o
Ġinterpretativo
ĠflexibilizaÃ§Ã£o
Ġdiretor
Ġ257
esp
0067
ĠhierÃ¡rquico
Ġeditadas
GF
ĠMÃ¡rio
Ġcorri
ĠINTERRUPÃĩÃĥO
ICAO
Ġirresponsabilidade
ĠpacificaÃ§Ã£o
Ġimpertinentes
ĠautÃ¡rquica
ĠGarcia
Ġinsp
Ġquitadas
Ġinjusto
ĠautÃªnt
ÃģTIA
485
cÃ¡vel
Ġjurados
Ġabatimento
ĠEVIDENCIADO
ĠNNMF
ĠCÃ¡lculo
ĠCARTÃĥO
ĠELEITORA
ĠvisualizaÃ§Ã£o
Ã§anha
ALVA
Ġacrescer
Ġmagistrada
Ġindefin
VESTI
622
ĠindÃŃgenas
ĠTERRIT
ĠMinÂª
Ġindispensabilidade
Ġcogitando
ĠINDUSTRIAL
Ġrenun
Ġdescreve
ĠImpedido
Ġencontrada
Ġvesti
bril
Ġ308
0037
TEMP
ĠTAL
ĠIF
ĠAuxÃŃlio
Ġdd
ĠPublicada
Ġ547
604
ĠEscola
ĠDOMICI
inqÃ¼
ĠVic
Ġdirecionamento
ĠaposentaÃ§Ã£o
Ġimplantado
ĠTudo
Ġescu
Ġenquadrados
Ġprocessante
ĠCELG
ĠAMAPÃģ
ĠmÃºltiplos
Ġcontinuado
709
Ġenglob
ĠGALVÃĥO
Ġcomoda
ĠNascimento
ĠINADIMPLEMENTO
Ġcesta
ĠPrejudicada
2605
Ġrequestado
ĠdisponibilizaÃ§Ã£o
ĠSalarial
420
770
Ġcomissionado
ĠINCRA
Ġgira
ky
CELENTÃįSSIMO
ĠcomunhÃ£o
0322
ĠContinu
ĠSEMANAL
Ġruptura
ĠPeÃ§anha
Ġpreservada
382
0036
ĠTRCT
rovÃ¡vel
Ġdescontadas
valiaÃ§Ã£o
ĠCAPÃįTULO
Pa
654
Ġencaminhado
ntista
Ġbilateral
ĠatÃŃp
Ġef
virjo
ĠRÃ©s
ĠABONO
765
competÃªncia
Ġreaut
ĠFinanciamento
Ġqueixa
ĠTransitada
ĠMULHER
nÃ§as
ianto
Ġverbetes
Ġanterioridade
ĠTRATAMENTO
Ġpatronos
Ġpleiteados
Ġsuprimida
imp
Ġvalidamente
Ġulterior
Ġencaminhados
Ġbe
ĠFC
ĠCONFISSÃĥO
Ġsabia
Ġ222
vero
Pede
RAES
ĠINVESTI
ĠInclusive
Ġdeclaradas
Ġexperimentado
ĠLic
ARDI
ĠJULIANA
uÃŃno
Ġprobante
Ġpactuados
Tem
Ġrompimento
adÃ£o
Ġlote
pÃ©
ĠconvivÃªncia
ĠConflito
ĠregulaÃ§Ã£o
Ġsurpreendido
ĠDESCONTO
ĠATAC
Ġconcili
ĠsecundÃ¡ria
ÃĶNO
FAC
ĠNOB
942
ĠCartÃ³rio
ĠBancÃ¡rio
Ġprovoca
Ġjunta
ĠDEMONSTRADO
ĠRUB
Ġtemer
Ġcall
ĠGuar
ĠCÃģLCULOS
Ġverdadeiros
ĠItaÃº
Ġrenovar
764
ELLA
Ġ5867
julgado
Ġincorporou
ENSIVO
ĠDESRESP
ĠapropriaÃ§Ã£o
rovada
Ġgestora
Ġincorrendo
Ġhumilh
Ġmutandis
Ġhostilizado
Ġgravame
Ġexistirem
ĠPESSOAS
ĠcartÃ³rio
cerca
ĠMALLMANN
RMS
Ġfixam
ĠexerÃ§am
ĠInformativo
Ou
ĠBUENO
ÃĵRCIO
Ġpretendem
Ġentrar
Ġpretenso
fael
manoel
305
ĠVELLOSO
Ġaluguel
1976
ĠApelante
Ġalunos
ĠMÃīDIA
Ġ345
stam
ĠresponderÃ¡
Ġinterfere
ĠimplicarÃ¡
Ġnasceu
Ġsuscitou
tÃ©c
ĠALCAN
Ġmensalidade
ĠtÃ¡cito
traÃ§Ã£o
URADA
ĠAlimentaÃ§Ã£o
ĠTemas
427
tÃ£o
ĠemergÃªncia
BI
Ġsupe
ĠJAI
Ġversam
Ġcriadas
Ġmalgrado
Ġfazend
MILA
Ġanimos
Ġperdurou
CPP
Ġ462
ĠVIGENTE
Ġdesempenhou
Ġredigida
Ġdesiderato
ĠIsento
VAM
Ġenvolva
ĠADOÃĩÃĥO
Ġparentes
mÃŃnimos
ĠLIMITE
Ġexaradas
Ġliberalidade
Ġ503
MONIA
ĠRenova
Ġ326
ĠTÃīCNICO
Ġincurso
Ġindiquem
ĠedificaÃ§Ãµes
ms
Ġeventualidade
ĠIMPOSIÃĩÃĥO
532
Ġconclusos
Ġguisa
491
prof
Ġreputada
ĠEndemias
dalÃŃcio
Ġdesvencilh
Ġenfrenta
Ġhediondo
ĠcÃ¡r
Ġacrescenta
ĠGlauber
ini
fabe
461
LANT
Ġpraxe
Ġplanejamento
ĠPÃ¡dua
Ġestendeu
Ġpersiste
ĠResposta
ĠHIPÃĵTESES
537
ĠacÃºmulo
Ġofensivo
ĠTESTEMUN
DECISÃĥO
NIDADE
Ġ765
Ġdesdobramento
ĠARQU
Ġfortes
MUNICIP
ĠlanÃ§ada
ÃŃgn
ensurÃ¡vel
Ġhomologada
Ġpadron
ĠcÃ©dula
ĠDEPOSIT
ĠORDINÃģRIA
Ġfacilitar
ĠdomÃ©stico
Ġdesdobramentos
Ġadquiriu
Ġratificados
Ġ541
Ġinseridas
ĠSOCIO
Ġposicionado
Ġgostaria
ĠcontrÃ¡rios
ĠSalÃ¡rio
ĠTAX
Ġpartindo
360
DNEY
igo
ĠOCOR
ĠMÃ¡xima
VISA
ĠMICH
ĠMATOS
ĠBIT
447
ĠEmmanoel
ÃĬNIOS
ĠEXEQU
Ġfundamentando
ÃįDA
ĠXVII
FRE
Ġrecomp
EDv
ĠMANIFESTAÃĩÃĥO
434
Ġargui
ĠBPC
814
Ġatestando
IPC
Cu
Ġafirm
JUS
Ġsingula
Ġrespeitadas
ĠPrincÃŃpios
TADO
cool
818
724
Ġescorreita
Ġimprescri
ĠFORO
pÃµem
Ġvariedade
ĠpetiÃ§Ãµes
ĠplÃ¡
ResoluÃ§Ã£o
ĠREVOGAÃĩÃĥO
ĠConjunta
central
ĠEsclareÃ§a
ĠNogueira
ĠagressÃ£o
ĠsinalizaÃ§Ã£o
)",
ĠAcre
ĠSJ
ĠINDIVIDUAIS
Ġfraudulento
ĠBern
ĠMay
Ġmodificou
Ġentendia
Ġlevantados
Tur
DUZ
Ġilegalidades
698
388
Ġ672
ĠleilÃ£o
Ġdespendido
Ġinserto
Â°.
ĠREDI
Ġproclamar
Ġpropon
ĠINVESTIG
Ġ612
512
Ġencarre
Ġarbitro
304
Ġabusivos
Ġconvencer
Ġinformalidade
ĠDET
%),
Ġdistor
Ġsujeitar
Ġpunir
Ġaparentemente
ĠconstituÃŃdas
Ġ321
Ġdesvincul
Ġliberdades
hÃ¡
cetibilidade
Ġexija
Ġterap
gavelmente
ĠreativaÃ§Ã£o
ĠNaquela
Ġ654
Ġcolaborador
Ġadquirida
Ġsinistro
Ġocorrente
Ġviolenta
didade
ĠNÂºS
Ġacauteladora
ĠHAR
Ġinidoneidade
20094
Ġinterestadual
ĠMAD
Ġobrigar
Ġadquirir
Ġ335
Ġtipificado
293
Ġemitir
KO
ĠhÃ£o
Ġ631
Ġinvo
sobre
ĠTerritÃ³rios
431
Ġemocional
ĠClasse
ĠVP
Ġreferen
PREV
bolso
enciada
Ġcomplexa
Ġfratura
ĠmÃŃnimas
ĠvariaÃ§Ãµes
Ġarbitral
Ġjustificado
692
ĠgerÃªncia
Ġideal
NG
Ġ20087
ĠconseqÃ¼Ãªncias
ĠELEITORAL
gibe
Ġnomes
Ġinviabilizada
0044
Ġ546
Ġfranque
Ġaduzidos
ĠPAC
Ġdefesas
Ġsuprimir
ĠrÃ¡p
Ġouvido
RIBILIDADE
ĠPrisÃ£o
Ġ794
ĠvocÃ¡b
407
389
Ġefetivado
Ġalmejado
ĠMEDICA
Ġestranhos
Ġpodia
Ġextingue
ĠDOMINGOS
ĠCond
Ġcircunstanciado
480
ĠAlcÃ¢ntara
ĠEngenharia
727
761
Ġgeradores
ĠAssu
Ġembasada
ĠAlegou
ĠÃĢs
ĠSIMONE
Ġintercal
ĠDOMICILI
Terc
ĠLES
Ġgerencia
Ġosten
Ġdeclaro
Ġ1614874
ĠAPOIO
ĠMIS
ĠacusatÃ³rio
Ġenfermidades
Ġpermanentemente
ĠRissa
Ġiria
ĠinstruÃŃdo
Ġpontuou
ĠEntendeu
ĠRissato
Ġsujeitam
Ġponderar
Quando
ĠJesuÃŃno
Ãªmios
489
Ġ905
ĠLVII
Ġfalecida
Ġ852
tualidade
ĠAmericana
ĠestabeleÃ§a
cb
673
Ġarticulada
Ġdotado
Ġcura
Ġdesvi
Ġsexual
517
ĠHÃģ
ĠFicam
membros
ĠConstou
ĠcorresponderÃ¡
54250655
ĠdesÃŃgn
ribunal
ĠEXTERNA
380
ĠnotÃŃcias
Ġcotas
Ġrespeitando
jet
417
Ġconformar
Ġafaste
ApelaÃ§Ã£o
288
EIA
BORAÃĩÃĥO
ĠTotal
ĠAUTÃĶNO
ĠTEORIA
Ġpreconizada
qÃ¼inqÃ¼
oitenta
Ġoperar
Ġprocedimental
505
473
legal
AADC
ĠADVOGADA
Ġindireto
ĠMISTA
ĠdialÃ©tica
Ġtorne
Ġdebater
ĠLEO
716
Ġdolosa
ĠanÃ´nima
Ġanimosidade
Ġresist
Ġpudessem
etto
Ġcompartil
Ġreproduzidos
RECOR
Ġaerona
inf
Curso
Ġia
Ġsitua
Ġ349
Ġfolgas
Ġregresso
Ġassuntos
Ġprepara
Ġdeixam
Ġapropriada
ERABILIDADE
ref
Ġconsumado
ĠelucidaÃ§Ã£o
ĠUniver
Ġvest
Ġcontrover
ĠCONCEIÃĩÃĥO
Ġbasi
Ġincluem
CORRENTE
Ġjustifiquem
ĠIncidem
ĠLIMP
ĠRONALDO
ctro
ĠINCABÃįVEL
ĠAGIR
759
garantia
ĠPRINCIP
Habeas
FED
ĠPARTICIPAÃĩÃķES
804
Ġaprimo
Ġencom
Ġand
th
Ġpositivos
ĠSustentou
essete
Ġprepostos
sidero
ĠENTREGA
ĠGME
Ġsupervenientes
Ġentrevista
469
ĠteleolÃ³gica
ĠAnÃ¡lise
Ġgasto
ÃŃgios
ĠKÃģTIA
Ġlitisconsortes
Ġfiduciariamente
Ġatendente
Ġtecer
Ġpol
615
ĠEXIGIBILIDADE
384
ĠADRIANA
696
ETICIDADE
ĠdiÃ¡logo
ĠREGULAR
Ġdisponha
423
865
Ġconfess
Ġafrontou
Ġpleiteadas
Ġeloquente
ĠÃºnicos
Ġdisco
Ġperpetrado
Defende
AGA
ĠDIALETICIDADE
ĠOFI
ĠTJMG
ĠcrÃ´nica
ĠhistÃ³rica
Aus
Ġdemar
ĠDR
ĠmediÃ§Ã£o
Ġvergastado
Ġhomologados
Ġrequerentes
ĠDESRESPEITO
Ġexpressos
ĠCERTO
Ġlucrativos
ĠqÃ¼inqÃ¼
FAB
ĠDEFERIMENTO
Ġassegurou
534
ĠAlte
Ġveicula
Ġimplante
786
Ġcontaminar
502
Ġ473
ĠinovaÃ§Ãµes
Ġsucinto
ĠHER
ĠTutela
Ġcorrer
bem
Ġaventada
Ġexagerada
Ġpromovendo
CIACAO
ĠempregatÃŃcios
ĠunÃŃssona
estrutura
nego
ĠSucede
Ġrotin
SCH
Inconform
Ġembasaram
ĠRecorridos
ĠCidad
terapia
ĠSodalÃŃcio
ĠSeu
Ġmonitoramento
ĠFÃģT
ficÃ¢ncia
Ġdezesseis
Ġexigia
RAIS
ĠDURANTE
ĠDEMO
ĠFINAL
ĠGMB
Ġnoturna
orroborando
TRD
ĠmedicaÃ§Ã£o
Ġdistan
8500
Ġinvestimento
ĠaparÃªncia
Ġ537
ĠNOMEAÃĩÃĥO
ĠPROPRIEDADE
414
ĠconfecÃ§Ã£o
8260000
Ġ606
Ġremuneradas
441
Ġresume
Ġescolher
pagamento
perÃ¡vel
ĠADOL
Ġadvindo
520
ĠRequereu
Ġcredenciado
INTO
ĠPORTE
Ġordenar
ĠpsicolÃ³gica
ĠDESDE
ĠVENCIMENTOS
Ġretrocesso
ĠADRIANO
Ġastreintes
Ġdisciplinam
ĠJUNTADA
Ġaltura
Ġmensagens
ĠPASSIVO
Ġcoerci
ĠDom
Ġpostulou
ĠRafael
Ġcomissionada
Ġvici
Ref
ĠVIABIL
817
Ġdesvantagem
Ãªndio
ĠSÃŃtio
Ġrelatar
ĠACOLHIMENTO
560
ERMANN
Ġterato
524
ĠcomunicaÃ§Ãµes
Ġauferida
Ġasseguradas
Ġchegando
ĠANTIGUIDADE
ĠREFORM
Ġreed
Ġagravados
366
Ġresolvendo
ĠprivilÃ©gio
ĠChe
ĠprisÃµes
ĠCONSUL
aju
Ġ497
Ġintitu
Ġflagrantemente
quinas
Ġinsurgir
Ġostentar
STITUIR
Ġfro
questionamento
ĠGonet
lem
ĠPARECER
ENHO
Ġ649
VIL
ĠinfringÃªncia
Ġmaterialmente
ĠDIVERSAS
lela
281
DIV
Ġcontracheque
utrina
Ġprotege
quesito
628
Ġocasionalmente
ĠINTERNACIONAL
Turma
Ġ417
Ġprospec
ĠpaÃŃses
Ġ696
ĠGerente
bediÃªncia
ĠCONCESSIONÃģRIA
ĠSuplementar
ĠVINCUL
ĠÃĩ
Ġvaleu
Ġpersuas
Ã³rica
ĠCertificado
Ġ735
386
Cir
ĠSuperint
exe
Ġdeseja
ĠSUSCITADO
ĠULT
Ġdesigualdade
Ġderivado
Ġfalso
ĠVas
Ins
465
ĠTitu
ĠReal
Ġinexistentes
ĠSalvador
ĠexcluÃŃdas
Ġacusada
mem
Ġtratamentos
Ġsabidamente
ĠResid
Ġembasamento
Ġsubstancialmente
ĠLUIZA
ĠdiscricionÃ¡rio
ĠDIG
984
Ġconcorrentes
Ġratificado
ÃģCIO
Ġconverteu
422
Ġinele
ĠLON
ĠinsistÃªncia
Ġdeficientes
ĠAlmiro
Ġtole
Ġpassagens
ĠADMISSÃĥO
Ġnascido
Ġmodular
Ã³lio
Ġproviso
contrato
IncidÃªncia
ĠPERTENCE
ĠAuxiliar
ĠExplico
,Â§
ĠVISTA
ĠATACA
ĠPREVISTAS
ĠPRADO
criÃ§Ãµes
ĠDOUTOR
704
ĠÃ©tico
0031
Ġvex
ĠobstaculizaÃ§Ã£o
heus
ĠVilar
ĠCONHECIDA
Ġestabeleceram
stituiÃ§Ãµes
ĠContribu
Ġdesigualdades
757
RID
Ġimplementar
ĠDemonstrado
Carmen
ĠFREDERICO
Ġcompelido
Ġreservas
Ġsalientando
ĠTIAGO
ĠESTATAIS
Ġdesvirtuamento
Ġ848240
Ġsobrejornada
5425065
ĠATENDE
Ġderivada
ĠFAVORÃģVEIS
Ġdiminuir
ĠcausÃŃ
ĠVIGIL
ĠFIDU
Ġtive
Ġinvestigar
Ġestelionato
Ġline
0113
ĠGUAR
484
Ġcontribuiu
Ġesgoto
621
ĠGMM
Ġmandados
Ġdevolvido
mÃ£o
Ġconqu
pados
ĠANEXO
ĠcomeÃ§a
290
Ġcobradas
Ġrepri
Ġprossigo
Ġsecretaria
ĠCONTIDA
Ġdiferenciados
adia
Ġmagn
Ġvinculam
Ã©trica
ĠGUIMA
Ġcerti
Ġencerrada
ĠmÃ¡cula
ĠDEPARTAMENTO
Ġdesindex
ĠcisÃ£o
ĠDELA
Ġ0501
Ġdemocracia
ĠDisponibilizou
Ġformular
ĠMostra
ĠPr
Ġautorizadas
Ġimplicando
624
ĠParÃ¡
ĠconstituÃŃdos
ĠIlu
ĠrecomendÃ¡vel
dantes
CDC
ĠHOMOLOGAÃĩÃĥO
hat
uÃ¡rios
ĠPÃģG
ĠSCHE
Ġafastaria
SINDICATO
Ġ(âĢ¦).
Ġtidas
CRI
Ġinsurgiu
Ġsucessor
ĠIncÃ³lumes
Ġgravosas
Ġaduzidas
At
ĠLESÃĥO
Ġligado
Ġ295
Ġbeneficiados
ĠimpeÃ§a
ĠGMMHM
ĠacepÃ§Ã£o
ACH
Ġconceda
Ġreproduzo
INCIDENTE
Ġduplicidade
274
ĠMercado
ĠtraÃ§ados
Ġnecessitando
ĠClaro
fato
Ġpotestativo
596
Este
Ġaudito
Sub
ome
ALEX
Ġconstatadas
nifica
ĠquÃª
ĠDEFIRO
ĠIlÃŃcito
Ġerror
Ġconseguem
ĠDISPOSIÃĩÃĥO
Ġinvad
ARO
LINA
ĠVIGILÃĤNCIA
Ġinsertos
Ġfragil
Ġfine
ĠLABOR
ĠFacul
Ġregimento
ĠURV
710
Ġavaliado
ĠRecentemente
Ġapelada
Ġtornam
ĠdiscordÃ¢ncia
455
prescindÃŃvel
Ġ482
Ġprovidenciar
0134
STAS
Ġentendi
Ġassociada
endÃª
CIDA
parado
Ġrepo
ĠRELATIVA
Ġ230
Ġ893
Ġ"[
ĠresoluÃ§Ãµes
ĠCARTA
799
EREsp
Ġ504
Ġdomiciliada
ĠIOF
Ġexaustiva
Ġpreocupa
uos
ĠOperaÃ§Ã£o
ĠBruno
Ġferrovi
CATIVO
Ġcaixas
ĠGUIMARAES
Ġarg
ĠREPO
Ġmoderna
Ġdiligenciou
Ġseparada
ĠARM
Ġreclamar
Ġ1986
Ġ719
Ġesca
ĠPERTINENTE
Ġdefendido
391
ĠNum
far
.(...)
quatrocentos
ĠFÃįSICA
ĠantecedÃªncia
ĠOUTRA
ĠNESSA
ĠdoaÃ§Ã£o
controverso
ĠPerÃŃodo
Ġinterpuseram
ERANTE
0132
Ġdesapare
ĠPRESID
Ġrepresentativos
Ġsubscri
Ġ268
Ġsupramencionado
Ġenfermagem
ĠdesindexaÃ§Ã£o
Anal
Ġestatui
cÃŃnio
ĠreferÃªncias
Ġ346
ĠâĢľ...
Ġexamina
ĠANULAÃĩÃĥO
364
ONATO
pÃ³lio
Ġsuprida
Ġassinalou
0131
terÃ§o
Ġsubmetem
ĠALÃįNEA
Ġquitados
Ġreporto
ÃŃcitas
Ġprejudicando
Ġcultural
Ġflexibiliz
Ġreger
Ġguardam
Ġnaturais
Ġrestritivo
ĠanÃ¡loga
INDE
ĠSUJ
Ġ800
ĠGI
folha
RESIGNAÃĩÃĥO
UMIT
Ġ491
529
ĠhermenÃªutica
Ġestendido
Ġinstabilidade
Ġderro
539
854
Ġamianto
Ġoperacionais
ĠTecnologia
Ġextingo
AZEIRO
Ġ912
ĠConstato
Ġadiant
Ġ369
0033
Ġ1191
Ġerigidos
ĠGERA
0035
Ġcompreendidos
ĠobrigatÃ³rios
ĠDÃīCI
Ġemprestou
Ġvigorou
ĠproprietÃ¡rios
ĠinjustificÃ¡vel
LBC
impl
Ġautorizados
ĠNagibe
Ġindicador
Ġpermaneceria
695
ĠexigÃŃveis
Ġdistingue
ĠfluÃªncia
ĠEXERCIDO
ĠOI
Ġtransferidos
logicamente
ĠDevidamente
Ġregulam
ĠDentre
972
TH
ĠANDERSON
Ġcontrolar
Ġreembolso
Ġ595
Ġmanual
SIO
ĠBRENO
jetiva
0038
ĠDOMICILIAR
526
ĠLUCIANA
Ġconsecutivas
UMITRENS
319
Ġcorrespondem
ĠhabitaÃ§Ã£o
ĠESS
Ġanalogicamente
Ġrespaldar
dovia
Ġrejulgamento
ĠinÃº
Ġquitado
Ġmencionou
ICAMENTE
Ġdenominados
Ġretido
ĠDepois
Ġemerg
Ġacarrete
426
ĠTu
Ġmensur
ĠTJSP
Ġ734
Ġprox
Ġformalizada
ĠExaminados
ĠLITIGÃĤNCIA
482
naval
ĠVÃįTIMA
rÃŃcolas
Ġinstaura
ÃĬNCIAS
Ġnegativ
ILIO
elhÃ¡vel
atidÃ£o
Ġredu
REP
ĠTERRITÃĵRIOS
Ġgeri
empregados
ury
825
Ġefetivar
ĠCircular
Ġconclusiva
ĠQuer
ĠDanos
ĠTECNOLOGIA
Ġdefas
crevem
util
619
Ġautuado
Ġinsol
Ġinto
753
Ġinaugurada
Ġcontratualidade
Ġdiretivo
ĠrequisitÃ³rio
ĠNECESSÃģRIA
Ġprosperam
MPOG
ĠCaval
Ġcurto
ĠprescindÃŃvel
ĠComple
tÃ¡vel
LICI
Ġimpenhor
tÃ¡ria
ELAMENTO
ĠDecorrido
Ġtransforma
862
creveu
ĠAGRAVOS
Ġreconhecidamente
Ġparticipante
Ġacarretaria
ĠWILSON
tive
ĠSANEAMENTO
ĠdesvalorizaÃ§Ã£o
EGRA
Ġ926
Ġpuder
463
ĠROB
Ġsuplant
ĠBANCÃģRIOS
Ġconsigo
EZAMENTO
Ġfigure
ĠAcus
ĠBu
ĠCARREIRA
Ġexplicar
590
romis
Ġdescaracterizar
Ġminim
atual
ĠFreitas
ĠTEMAS
Ġproximidade
Ġaposentar
ĠcontraÃŃdas
Ġ698
Ġretratada
ÃŃam
Ġendos
imitaÃ§Ã£o
ĠTRANSITADA
cere
Ġquitar
adap
Ġconcursos
ĠLIMPEZA
Ġassinados
VENÃĩÃĥO
ĠconfusÃ£o
Ġsistematicamente
Ġempreiteiro
ĠREVEZAMENTO
Ġ229
Ġviolada
Ġinserir
ĠINDEP
589
Ġ401
ĠNOVOS
incluÃŃdo
divid
Ġsobrepor
Ġpermitiria
ĠDuarte
Ġdiretoria
Ġacampamento
ramos
Ġsobrevier
DII
ĠXXIV
Ġ456
ADICIONAL
Ġolho
Ġkg
ĠManutenÃ§Ã£o
LTA
ELADO
lig
prim
Ġafetada
ĠSUBMETIDO
ĠANVISA
Ġconfiguradas
Ġentabulado
573
Fo
ĠorganizaÃ§Ãµes
IMED
Ġ601
Ġnormatiz
valoraÃ§Ã£o
Ġdegenerativa
ERTIDA
488
Ġabsolut
ĠPODERES
ĠINFORMA
ĠPEIX
ĠRepresentaÃ§Ã£o
433
mf
ĠopiniÃµes
1977
Ġresidir
RAR
ĠreautuaÃ§Ã£o
ĠINCISOS
Ġcolaciona
onso
Ġperpetu
Tipo
655
Ġ440
Ġanuais
ĠMARIO
bara
Ġvalorar
STES
struÃ§Ã£o
Circular
ĠdistribuÃŃdos
Ġatue
Ġreceberam
ciÃ¡rios
ĠespÃŃrito
Ġignorar
ĠALIENAÃĩÃĥO
Ġreste
reo
ĠLOG
Ġatingidos
recla
sÃ³
ĠNÃ³s
ĠEstou
Ġdescumprindo
Ġespectro
Ġresidencial
535
stadora
itividade
ĠPREENCHIDOS
Ġ528
ĠgÃ¡s
ĠempÃŃ
Ġofereceu
Ġexigiu
deste
ĠPACIFICADA
Ġcompara
Ġreafirmaram
721
ld
Ġmandamento
Ġ278
mc
ĠNilson
ĠCENTER
Ad
endimentos
tias
Ressalta
FRA
elos
cionam
Ġalbis
Ġ292
Ġlistadas
ĠObri
Ġconsolidando
polit
extra
ĠofÃŃcios
Ġ937
385
clÃ¡usula
dim
Ġincl
Ġfiliado
elidade
Recla
INTE
Ġsubstituindo
Ġ(...)âĢĿ.
ĠmÃŃdia
Ġsatisfeita
atorze
Juiz
ĠINDENIZATÃĵRIAS
577
MGD
cen
ĠGMMGD
ĠValadÃ£o
ĠdistribuÃŃda
raram
Ġreajustamento
Ġcultura
ĠVargas
ĠDemandante
ĠRever
ĠesclareÃ§o
Ã§Ãµe
Eu
ĠAPURAÃĩÃĥO
Ġnasce
ĠAfins
Ġpensionista
Ġreceba
Ġclaras
bular
636
FFSA
Ġcarteiros
Ġcolocada
ÃŃvida
ĠCaracte
laÃ§Ãµes
IMPOSSIBILIDADE
Ġrescind
Ġtivessem
ASSOCIAÃĩÃĥO
algia
Ġ666
Ġsimplicidade
Ġ407
titu
Ġconvertendo
riana
NTAMENTO
feitu
Ġcalcado
Ġculm
ts
PAT
ĠALVA
vÃª
ĠConfere
Ġacome
ĠprÃ©dio
ĠBEAT
emin
ĠRepetitivos
Ġexaustivo
ĠPetrobrÃ¡s
ĠsomatÃ³rio
ĠQUINQUENAL
TRA
ĠGANDRA
ÃĵDIA
507
Ġregulamentadora
Ġimperatividade
ĠmuniÃ§Ãµes
Ġdoloso
ĠIMOBILI
HEUS
ĠCONFIRM
financeiro
714
726
879
ĠIDENTIDADE
ĠIndÃºstria
DIRBEN
Ġcentro
ĠdissoluÃ§Ã£o
Ġenviado
498
Ġencerrou
Ġ573
ĠestabilizaÃ§Ã£o
ĠConta
Ġtantos
Ġhedion
IGNIFIC
ĠGDP
ĠVALADÃĥO
Ġdefensivo
Presentes
Ġenfatizou
Ġconsciente
GIO
legitimidade
ĠGILBERTO
Ġminimalista
Ġsolucionou
ĠFLUMITRENS
ĠPROGRAMA
ĠNetto
1969
ĠforÃ§as
835
ĠRENO
Ġconstatando
;(
Ġmensalidades
ĠincÃ³lumes
Ġlege
ĠTIT
Ġgarantiu
ĠdiscrepÃ¢ncia
ĠanotarÃ¡
ĠESPÃīCIES
901
Ġ718
ABA
irre
Ġoriginou
frase
Ġaviado
ÃĤNEA
387
MIR
Ġquint
ĠportuÃ¡rio
1932
Ġficava
409
ĠINFERIOR
Ġsentimento
Ã¢nia
DJE
DAMENTO
ĠCUSTÃĵDIA
ĠMal
Ġganha
ĠTERA
Ġcalibre
ANTONIO
denizaÃ§Ã£o
Ġacarretou
sc
Ġcarcer
ĠAMBIENTE
EDUCATIVO
honorÃ¡rios
Ġbloco
stica
ĠCSLL
Ġgerentes
Ġrepousos
ĠnotificaÃ§Ãµes
ĠAFERI
Ġ233
Ġobrigacional
Ġatenda
ĠprecatÃ³ria
474
Ġcumulatividade
Ġtabelas
Ġamplia
umente
ÃģR
reiros
Ġ566
Ġresistida
EDO
tiÃ§Ãµes
Ġincs
ĠININTER
Ġcumpria
Ġcolim
riori
Ġautoras
0054
Ġmelhora
Artigo
ĠhumilhaÃ§Ã£o
ESSOR
URICIO
ĠpsÃŃquica
Ġimplementou
ĠcondomÃŃnio
ĠBOT
entaÃ§Ãµes
Ġelege
Ġnociva
ĠREMESSA
ĠPREPA
Ġsupremacia
Ġrevendo
CAIS
ĠRond
ÃŃlios
ĠAduziu
ĠDesignado
Ġinibir
Ġdestacam
ficial
Ġdemandadas
ĠBor
ĠRevisÃ£o
ĠCONSULTORIA
Ġprobidade
ĠcontaminaÃ§Ã£o
788
Ġtravada
Ġauferido
ĠGrif
ĠININTERRUP
ĠMonetÃ¡ria
ulos
Ġretomada
decla
entamento
904
462
Ġ260
quiÃ¡t
ĠVIABILIZA
ĠarticulaÃ§Ã£o
betes
RINO
725
ILHO
Ġrefo
Ġevidenciou
ĠCondutas
Ġ496
ĠFUNG
Ġ508
ĠMERECIMENTO
ĠEMPREGAT
ĠinÃ©dita
Ġdesam
Ġnaquelas
Ġsequestro
ĠrepositÃ³rio
ĠoriginÃ¡rias
ĠirrisÃ³ria
Ġreza
Ġfundacional
Ġanalisa
Ġ472
ponto
Ġinstante
ĠRealmente
Ġprequestionar
ABILITAÃĩÃĥO
sublinh
TERCEI
DICAÃĩÃĥO
ĠautomÃ³vel
Ġaa
ĠFOL
ĠRondÃ´nia
Ãºri
Ġ895
URT
CACIA
ĠDoutrina
ĠJULIO
ĠANISTIA
ĠLABORAL
Ġespecificado
Ġproibido
390
cionalidade
Ġcaderno
conhecimento
ĠREZ
Ġexcede
ĠBMG
Ġprofundidade
ĠDAN
Ġferramenta
seq
Ġpronuncia
RÃģS
Ġressalvou
ĠAUXILI
Ġocorreria
Ġpugnou
Ġpreferencial
Ġlume
Ġirrecorribilidade
693
Ġanote
ĠEnergia
blo
ĠComentÃ¡rios
ĠâĢ¦
Ġcause
ĠAcrescent
sionais
Ġperson
Ġacertada
Ġorg
Ġacompanharam
Ġacontecer
ĠENCARGO
lico
ĠprojeÃ§Ã£o
ĠValÃ©rio
ĠFUNGIBILIDADE
ÃŃtimo
ĠMÃģX
Ġcuidando
625
ĠsonegaÃ§Ã£o
antil
Ġcomunicado
Ġnortear
ĠALEGAÃĩÃķES
Ġreunia
ĠInominado
Ġorganizacional
ĠMARIN
ĠSYDNEY
Ġultrapassarem
Ġcancelado
Ġhomologar
ĠinflacionÃ¡ria
Ġconfundem
Ġdissim
ĠimputÃ¡vel
ĠABRA
ĠON
ĠrÃŃg
ĠtelefÃ´nico
ord
9999
Ġversando
ĠLucas
jas
ĠFAMÃįLIA
rolina
Ġpreenchia
ĠCMB
social
EMIG
Ġouvidas
Ġpassivas
Ġcolegas
gunda
ĠMinha
Ġ449
Ġpropaganda
Ġhipossuficientes
ĠImprobidade
Ġisolamento
399
ĠensejarÃ¡
ĠSempre
Ġeminentes
Ġadministradores
ĠConc
287
ĠPericial
elaboraÃ§Ã£o
ĠviÃº
TERCEIRIZAÃĩÃĥO
Ass
Ġpotencialidade
Ġserventia
Ġlocu
ĠAtlas
603
Ġ234
ĠplantÃ£o
ĠdependerÃ¡
ĠReferido
EXCELENTÃįSSIMO
Ġinviol
808
ĠINSTITUCIONAL
ĠUnidos
Ġestendida
Ġabordado
Ġilustrar
ĠSubstitu
Ġatestada
ĠGacen
eiam
Ġcusta
ĠCARACTERIZADO
Ġestrangeiros
Ġvideo
Ġ626
ELLE
Ġabsolver
Ġretrata
ILDO
bricas
ĠIMPROVIMENTO
ĠintranscendÃªncia
538
ATO
Ġ1969
Ġcumulativo
Ġacompanham
Ġpautar
834
Ġinvolunt
ĠOutros
Ġcriados
Ġselecionado
Ġassumindo
sÃºmula
Ġsilo
Ġ429
COL
ĠPortu
ĠfundiÃ¡rios
ites
MINAÃĩÃĥO
ĠIRPJ
Ġcometidas
Ġcontributiva
Ġsalienta
0050
Ġrecorreu
Ġfaziam
ESO
ĠHom
ĠIMPUGNADA
Vis
colhimento
ĠAssuntos
ĠUNIBANCO
tocÃ¡vel
ĠZAN
ĠPGR
Ġnecessitados
ĠCARMO
Ġrecorra
ĠincorporÃ¡veis
ĠEB
material
Ġverificados
ricultura
ĠcÃ¡rcere
ĠEDIÃĩÃĥO
bitavelmente
Ġgab
618
Ġelaborar
conÃ´micos
ĠSignifica
ĠDas
MATRA
este
Ġbeneficiada
690
Ġalinha
ĠReconhecimento
mentes
Ġnecessitar
Ġimputadas
GÃīSIMO
Ġredigido
esco
ĠDoc
ĠÃģREA
pacho
Vol
Ġ393
ORG
610
ĠSid
ĠPERICIAIS
Ġdemandados
risprudÃªncia
SentenÃ§a
UF
CIMA
Ġprocessada
ĠPRINCIPAL
PORT
gon
unc
Ġterceiriza
deiros
ĠÃ©tica
Ġresidentes
ĠANTERIORES
ĠREFORMADA
ĠDENISE
Ġindiscrim
Ġapelado
Ġtextos
ĠmonopÃ³lio
ĠEuro
ualizar
dezoito
ĠgravÃŃ
HONOR
Ġsignificaria
ĠparÃ¡
Ġ702
ĠestabeleÃ§am
UTIVIDADE
Ġ375
SSIFICAÃĩÃĥO
ĠESTU
ĠmanipulaÃ§Ã£o
ĠCOMUN
ĠAgentes
Ġhttps
Ġobedecidos
ĠPLENO
ĠPRIVATIVA
Ġdetalhada
ĠAVALIAÃĩÃĥO
cumbÃªncia
Ġlaborar
ĠRazÃµes
Ġrecair
Ã§u
ĠgraduaÃ§Ã£o
Ġ307
Ġsair
Ġexternado
HONORÃģRIOS
ĠPÃºblicas
Ġvoca
ĠLEP
ĠVEN
2014405
ĠRecuperaÃ§Ã£o
ATOS
ĠFAR
Ġcompetindo
Ġimplementados
geral
bitÃ¡vel
ĠRurais
864
Ġfri
ĠharmÃ´nico
Ġacresceu
CONTRATO
ĠPostula
Ġ536
Ġansi
ĠdiscricionÃ¡ria
Ġassemelhem
ĠMun
Ġcogente
Ġpormenorizada
Ġintegre
ind
Ġdescabido
Ġpia
Ġcolaboradores
Ġdenotam
Ġmotoristas
ĠMESMA
ĠLICENÃĩA
ĠABUSIVIDADE
Ġsilog
ĠRH
ĠdoutrinÃ¡rio
ĠSUCESSÃĥO
988
Ġreabilitado
ĠepisÃ³dio
ĠObreiro
ZOS
Ã³polis
ĠDIVIS
ĠPOLÃįCIA
ĠINTELIGÃĬNCIA
Ġpleiteou
Ġ365
ĠliÃ§Ãµes
Ġmaneja
ity
ĠRevisor
.),
ATIBILIDADE
ĠCONSTRUÃĩÃķES
ĠIMPEDIDO
Ġcotidiano
ĠSL
Ġ928
ĠRei
Ġmontagem
ĠACOLHIDOS
Trans
Ġingressaram
dÃªncias
ĠDisciplinar
Ġambiguidade
ĠAUTOMO
osidade
ĠMulta
Ġpresencial
Ġsupletiva
Ġdestitu
Ġlivramento
Estatuto
Ġcristalizada
Ġagrocom
Ġindicativos
516
Ġ431
ĠTERCEIROS
igura
ĠCUSTEIO
ĠmÃºtua
Ġignora
569
cidentes
796
dee
Ġhigien
ĠLOM
ĠINCL
0088
Ġquilo
CIÃģRIA
829
Ġnegativos
ĠSOBRESTAMENTO
ĠIVES
Ġeficazes
ĠTESES
CAP
Ġresulte
ĠfabricaÃ§Ã£o
Ġdemis
Ġdestacados
BARA
ĠaÃ§
ĠvÃ¡
DEB
Ġmente
Ġambula
Ġabrangido
Ġmoderado
ĠPRERROGATIVA
ĠJob
ONHA
ĠXXXIV
ĠestÃŃmulo
Ġtelemarketing
DURA
conferÃªncia
Ġ639
ĠSol
Ġdeterminava
Ġbolsa
Ġrejeitado
Ġ592
ĠVOLU
ĠprÃªmios
ĠDefin
597
ĠRAM
Ġ262
Ġrenego
ĠparÃ¡frase
Ġsolo
cinqÃ¼enta
Ġemanados
486
ĠAE
ĠtendÃªncia
Ġmus
Ġmotiva
Ġtarde
Ġfundistas
ĠDEPOSITADOS
ĠIMOBILIARIOS
formou
599
Ġacompanhou
GÃĥO
ĠSINT
Ġdescaso
ĠinflamÃ¡vel
379
ĠnegociaÃ§Ãµes
ĠConvÃªnio
Ġfaltar
Ġdesencade
Ġpausas
RICARDO
zeiro
RATA
ĠRecorrentes
ĠFranci
Ġinstruir
PAS
rÃ©stimo
ĠmÃ¡quinas
ĠINJU
ĠmÃ³d
ĠimpugnaÃ§Ãµes
ĠCIN
Ġcapitu
Ġdepressivo
INPC
Ġalteradas
Tri
Ġofertado
Ġembasou
Ġarroladas
Faz
894
Enunciados
ercÃŃcio
ĠANTUNES
Ġimpossibilitada
521
ARIA
ĠirreversÃŃvel
ĠEFETUADOS
Ġinstaurada
Ġdeclare
ĠSÃĵCIO
Ġ518
ĠEMPREGATÃįCIO
ĠBancos
Ġdelin
Conclu
ĠGMEV
eliz
ntagi
Ġargumentar
Ġcomumente
RINA
ĠJoao
Ġvedando
Per
Ġ741
822
Ġ798
Ġ717
Ġventiladas
ĠautuaÃ§Ã£o
ĠIMPOR
Ġatrelada
UTINHO
ĠESTATAL
ĠBEATRIZ
ĠpecuniÃ¡rios
ELISEU
ornadas
Ġdemonstraram
Ġ453
FCF
ĠSUM
0146
Ġreitero
Ġchamados
ĠdeclaratÃ³rio
ĠSEGURADORA
ĠCad
entÃ¡
Ġ610
728
anais
ĠacessÃ³ria
ĠIMUN
ĠTESTEMUNHA
fira
Importante
Ġincremento
ĠAnexos
828
ĠquÃ³rum
Ġanoto
Ġusado
ĠPRESIDÃĬNCIA
ĠACESSO
787
898
ANHA
Ġefetivas
Ġexpressivo
CNJ
Ġocasionar
Pois
801
;"
ĠNarra
Ġdissociadas
ĠPubliquem
ĠPREJUDICIAL
ĠSerra
sob
Ġbastantes
Ġapenso
Ġdesempenham
ĠABST
ĠMERO
Ġvantajosa
zas
ĠCOMPROVADO
ĠSAR
ĠRECONHECIDO
Ġ398
ĠINADIMPL
ĠCart
ĠPeÃ§o
536
ĠMedicina
OTO
Ġtunc
CENT
DANÃĩA
ĠDÃŃvida
ĠULTRA
Ġelaborados
Ġdesvencilhou
499
432
Ġ..
ĠAUTORIZ
ĠsanitÃ¡rias
Ġhet
Ġchegada
lhar
ĠSEP
Ġsinop
Ġcolacionadas
531
0034
ĠENRIQUE
ĠConceiÃ§Ã£o
equ
Ġsinopse
ĠPOSTULADO
ĠprevisÃµes
ĠempresÃ¡rio
tÃ¡rios
RF
ĠTSE
ĠTEMPORAL
Ġ594
ĠFUNCIONAL
629
Ġajustes
Ġgarantam
ĠCOLEGIALIDADE
mul
ĠclÃŃnicos
<@
Ġmitigada
Ġrevelado
aros
Ġcarente
EXECUÃĩÃĥO
Ġpaul
ĠJuaz
702
Ġcolacionou
Ġ424
ĠBERNARDO
Ġconstava
525
ĠautÃ´nomas
Ġconfessou
ĠRESSAR
TEL
Ġmajorada
LY
ĠITR
ĠSuspensÃ£o
cai
Ġconfusa
Ġlivres
ĠEspecificamente
Ġrepassado
Ġ994
519
Ġvigia
Ġfidelidade
602
tarias
ĠDESCONSTITUIR
ARACTE
Ġexaure
dano
Ã¡ri
413
tindo
Ġbeb
ĠIVAN
Ġinsan
Ġater
ĠusufruÃŃdo
ĠEmpregador
ĠsistÃªmica
ĠTV
Ġbene
Ġ306
Ġvisita
ĠenfÃ¡tica
Ġcometida
ĠsessÃµes
Ġsuspende
fredo
580
Ġexercidos
ĠCOBERTURA
Ġatuava
RECIONAMENTO
Ġautomotor
Ġtrajeto
Argu
ÃŃsse
Ġespecificidades
Ġquantitativo
Ġcontando
ĠCORRESP
ĠvocÃ¡bulo
Ġdiscos
Ġpostuladas
802
ĠconcluÃŃ
ĠDESCARACTE
IND
Ġaper
Ġtratadas
Ġdecorra
XX
979
Ġanulada
Ġencontradas
Ġalar
ĠSPE
Ġ272
Ġtitula
708
Ġdependem
Ġprofessora
ĠDSR
Ġsolucionada
ĠEmer
Ġpericia
ĠRFFSA
ĠIgua
ĠtransitÃ³ria
Ġcobra
fisc
ĠcongÃªne
Ġhierarqu
Ġq
ĠTransporte
Ġexistiu
810
Ġcitando
Ġvit
Ġ5857
ĠJuazeiro
Ġinvent
Ġexced
ĠADVOCACIA
inhos
IZAR
Ġveto
Ġ?
Ġnata
707
missis
ĠAcrescento
Ġsobrecarga
Ġtramitam
Ġpedreiro
Ġcontratualmente
Ġdeclinada
GIL
Ġadimplidos
ĠpetrÃ³leo
Ġpresidida
Ġusufruir
Ġcontribua
ĠfiduciÃ¡rio
ĠCRISTIANO
Ġrepresentatividade
ESCENTE
ĠMEC
Ġ808
Ġpeculiares
"(
net
ĠImprescindÃŃvel
Ġimpeditiva
Ġcontrapor
Ġfiscalizava
Ġguerreada
Seq
Ġoposta
tale
Ġadquire
ĠFERIADO
utaÃ§Ã£o
ĠOC
Ġintan
Ġplata
ĠestÃ¡veis
NEI
Ġaprofundada
583
ĠposiÃ§Ãµes
icular
ley
Ġdivis
NIA
ANH
Ġ958252
Ġ274
Ġ524
ĠDÃ©ci
Ġvalios
ĠCONFRO
ĠhÃŃg
ĠRevis
ĠtraficÃ¢ncia
562
ĠFora
IAO
ĠESPECIALIZADA
Ġevidencie
392
ĠEXECUTADA
Ġcerv
Ġ|
ĠpressÃ£o
Ġesperar
ĠASSOCIADOS
Ġnullit
762
Ġimpossibilitando
ĠALCANCE
ĠreelaboraÃ§Ã£o
Ġdan
ĠPRONU
Ġdelituosos
Ġclassificado
Ġ474
Ġcomportamentos
ĠmensurÃ¡
IGNIFICÃĤNCIA
ĠAPELA
Ġtranqu
ĠdesobediÃªncia
ĠVOLUNT
ĠalcanÃ§adas
ĠNaves
Ġmunicipalidade
Ã©gios
ĠGONZ
ĠEMPRESARIAL
ĠOutro
dus
ĠACIMA
ĠConstituinte
Ġrecebem
ĠUNIMED
ĠapreciarÃ¡
Ġpareceres
Ġseletivo
agem
rutor
ĠFabi
sifica
8402
Ġdecididos
612
ĠFALHA
Ġreproduzido
ĠGMACF
TTO
ĠBala
ĠREDIRECIONAMENTO
Ġviagens
ĠvideoconferÃªncia
IGIBILIDADE
468
ADEU
ĠconcessÃµes
TIO
ĠABRANGÃĬNCIA
Ġpiau
rata
Ġcontesta
cessivamente
773
ĠdÃ©cadas
csn
ĠempresÃ¡ria
ĠRescisÃ£o
ĠConcurso
Ġatent
ĠconsentÃ¢nea
Ġrevisto
927
566
929
Ġ1046
Ã¢maras
atrimÃ´nio
cei
ĠINSIGNIFICÃĤNCIA
Condeno
EV
Ġfacultativa
ĠAPONT
Ġabertas
ĠPelas
ĠVINCULAÃĩÃĥO
Ġimpedida
594
Ġmemo
itÃª
lios
Ġatrelado
Ġderivados
Ġria
Ġpio
berou
Ġconsubstancie
ĠassÃ©dio
ĠMANDA
Ġ795
trÃ¡fico
ĠParticipaÃ§Ã£o
Ġimpulsionar
Ġpronunciada
Ġtribuna
Ġprecedida
ISCONS
ĠMARCIA
ĠIrrepreensÃŃvel
ĠORD
ERDA
ĠTAC
Ġvistoria
ĠREZENDE
Ġpuro
ĠSOCIAIS
Ġconcausa
ĠIGM
ĠetÃ¡ria
ĠSUPERVENIENTE
0102
Ġincentivos
Ġconhecendo
Ġtranscreva
Ġaceito
774
oO
Ġtec
Ġuniformizada
ĠREJEITADA
ĠreflexÃ£o
ĠpossuÃŃrem
ultura
gov
Ġrecusar
ĠFIM
Ġespondi
Ġmodula
ĠÃįNT
DIRAT
ĠExatamente
ĠCHRI
ĠLucia
HORAS
ĠreforÃ§ar
Ġdisciplinares
ĠGMDMA
ĠCLARO
ĠPagamento
ĠLIB
Ġexemplificativos
LENE
ĠColhe
MINISTRO
ĠDC
issem
ĠvÃŃde
Ġdistrito
Ġnelas
Ġcapitaliza
Ġfulm
Ġlingua
UNAIS
Ġprestaram
ĠCONTEX
ĠDESA
PFE
INGTON
gedor
tÃªncia
Ġsimetria
defin
ĠÃ½
Ġaderir
ĠNESTA
ĠOp
Ġpericiada
Ġusar
ĠPETROBRÃģS
Ġanato
Ġcertifique
ĠlanÃ§amentos
ĠGUEDES
481
Ġnomenclatura
ĠEXTRE
ĠPAULISTA
Ãºnio
Ġsegredo
Ġ$
Ġ(...)."
tto
Ġpi
estar
ĠTraz
Ġencarce
Ġincerteza
udi
entei
Ġ259
grÃ¡fica
ĠDECIDO
ĠForo
Ġrenovada
annah
Ġ513
ĠEMAN
Ġreferendo
Ġ597
Deve
ĠJesus
ĠINJ
plice
ĠPES
ĠAmaury
Ġcaracterizadores
ĠFlÃ¡
Ġ418
inaram
Ġsobrestado
Ġuns
ĠdepreciaÃ§Ã£o
ĠREB
Ġfluxo
iariamente
0071
ĠFORÃĩA
Ġremetendo
Ġdiferencia
ĠLOUREN
ĠCONTR
vm
Ġ1916
Ġlazer
Ãªutico
ĠpsiquiÃ¡t
PU
Ġprocedido
vogado
dicando
Ġincidentalmente
Ġcolimado
Ġsocioeduca
Ġtras
ĠÃ¡guas
Ġcorrigida
ĠorÃ§amentÃ¡rio
ĠBalazeiro
ramitaÃ§Ã£o
ĠTOCANTE
ESAS
ĠpÃ©tre
Ġincorporadas
Ġcolocando
Ġesvaziamento
Ġsintetizados
Ġassegure
Ġdeco
ĠoriginÃ¡rios
ĠpersuasÃ£o
DUÃĩÃĥO
ulli
Ġhipote
Ġdelicti
ĠTRECHOS
ĠCircunst
ĠinfortÃºnio
certidÃ£o
ĠApresentadas
685
Ġderivadas
Ġperfilhada
Ġ564
RETOS
Ġ599
0145
ĠEntender
Ġvisava
DANI
FRAN
Ġconcretizar
Ġanco
ĠLiv
Ġestendendo
Ġrepisa
Ġprivacidade
TerceirizaÃ§Ã£o
ĠseÃ§Ã£o
Ġregidas
Ġcontenham
Ġdivisar
lom
607
remun
ĠAdmitir
mentalmente
Ġdefinitivas
Ġcomissivo
modo
EntÃ£o
ĠTor
Ġ228
Ġdesatendimento
mentam
Ġassinar
ĠSy
ĠSEJA
ĠMOLDURA
ĠSOMENTE
509
ĠNOTIFICAÃĩÃĥO
ĠMUDANÃĩA
Ġlevantada
564
ĠPERANTE
ĠimportÃ¢ncias
rovi
ĠOIT
ĠARAGÃĥO
Ġdeveras
ĠisonÃ´mico
Ġininterrupto
Ġgovernamentais
ĠFl
hora
kg
ĠEQUIPA
ĠBene
Ġreadap
ĠTRIBUNAIS
Ġconversas
Ġ655
Ã¡lvio
ĠPRONUNCIAMENTO
Ġdecidiram
Ġrepousa
Ġ488
ĠintermediÃ¡rio
ÃŃsticas
istiria
ĠAMAURY
Ġpreveem
Ġ................................................................................................
Ġreferiu
Ġpreceituado
0121
tosky
ĠDELAÃįDE
ĠinsuscetÃŃveis
ĠNEGÃĵ
Ġ642
Ġclasses
RINI
574
ĠMATERIALIDADE
631
iano
ĠREGULAMENTO
0482
Ġcurvo
nem
Ġcivilmente
Ġrepetitivas
Ġcumpra
Ġcampesina
Ġ290
ĠLINS
Ġabaste
Ġrazoavelmente
ĠTELEFÃĶNICA
RASF
Ġfacto
ĠrestarÃ¡
Ġsubstabelecimento
Ġfrustra
Ġ620
atur
Ġassinou
ĠISENÃĩÃĥO
Ġsugere
XAÃĩÃĥO
ĠalicerÃ§ada
Ġuniverso
ĠDelegacia
Ġdebru
icitamente
Ġregularizar
Ġ495
Ġprimeiras
rutÃŃ
Ġdevolvidas
ĠDesat
890
jornadas
ĠRemessa
691
82605
Ġgeralmente
Ġativas
Ġdesarrazo
493
gime
vartosky
ĠGevartosky
Ġconstituiu
Tribunal
Ġinserem
tocolo
Ġobjetivou
YA
ĠABERTURA
ĠHONORÃģRIA
ĠGMALR
ĠADES
trabalho
Dias
Ġconsideram
ĠGENÃīRICA
COURT
ĠÂ·
ĠTelefone
ĠSegurado
Ġpossibilite
Ġlevadas
Ġajustado
ĠcomparaÃ§Ã£o
ĠAqu
581
ĠrevaloraÃ§Ã£o
Ġcorpos
RUTURA
ĠGeraldo
Ġ451
ĠSituaÃ§Ã£o
Ġexpan
Ã³ct
mbl
Ġestreitos
MANDADO
0032
Ġsubmeteu
Ġremanescendo
ĠComentado
ĠAlfredo
Ġalheia
ĠEXCLUSIVAMENTE
ĠINCON
ĠcominaÃ§Ãµes
Ġcarreados
Ġimputando
ĠCOUTINHO
ĠSOCIOEDUCATIVO
ĠCESSAÃĩÃĥO
Ġtrauma
ĠPARTICIPACOES
ĠGabri
Ġquitada
ĠCre
DEFENSORIA
Ġtextual
601
Ã³ctones
ĠREGRAS
Ġmantenha
ĠVANTAGENS
Ġ471
Ġplenitude
ĠOFICIAL
ĠVide
Ġazo
Ġmostre
tava
Ġdocumentar
Ġcontinuados
ĠassociaÃ§Ãµes
ĠDAVID
ĠPedi
CIMENTOS
ĠGESTANTE
ĠSuperada
Ġ409
endesse
Ġcidadania
Ġtipific
ĠMETRO
..."
ĠOSTENTA
ĠIMUNIDADE
687
Ġdefeitu
ĠKA
ĠpontuaÃ§Ã£o
ĠAGÃĬNCIA
ĠLIMINARMENTE
Ġreafirmando
ERIC
Ġcominada
ĠConsul
ĠobservarÃ¡
ĠMARIANA
cuo
ĠMATHEUS
6301
ĠAcresÃ§a
Ġprefeito
Ġurgente
ĠESTADUAIS
Ġsinaliza
Ġdependam
Ġresolvido
ĠDIÃģRIA
MUNICIPIO
ĠJULGAR
895
Ġacontecendo
zinho
ĠRefor
Ġvedadas
Ġrubricas
2634
Ġinep
empenho
ĠsÃŃndrome
Ġquinta
Ġsubstitui
cipado
Ġimunes
ĠRodovi
mesmo
Ġtiverem
428
brida
ĠfacÃ§Ã£o
ĠJAC
Ġ730
ferindo
sasse
Ġdesconhecimento
ĠPacto
Ġpretendidos
lumidade
912
Ġparado
ĠBandeira
ĠlÃŃder
ĠRele
ĠSeguindo
ĠPARCELAMENTO
ferenÃ§as
ĠobedecerÃ¡
conte
Ġtoada
0052
ĠENRIQUECIMENTO
ĠAgu
477
ĠConte
Ġaprecia
Ġaplicativo
ĠDoenÃ§a
ĠConsigne
Fe
ĠVUL
Ġatualidade
Ġherdeiros
ciante
ĠTranst
ĠComunicaÃ§Ã£o
Ġexternos
ĠadvÃ©m
Ġnoite
Ġnestas
ĠREPOUSO
Ġimprovimento
Ġnoticiado
ĠCHE
ĠPan
ĠPenais
RÃĥO
iscu
Havendo
RECORRIBILIDADE
verteb
ĠUltrapassado
ĠCampo
490
0039
Ġprevalente
ĠcÃ¢n
769
Ġestatura
ĠÃ³leo
grafias
ĠPEIXOTO
ĠAvaliaÃ§Ã£o
Ġdesembara
Ġrespeitante
ĠesporÃ¡
lin
Ġfidedi
ĠCARLA
5101
Ġ348
Ġrepito
Ġpausa
ÃįCITA
0042
ĠCONSEQUENTE
Ġuniformidade
Ġconveniente
Ġincong
Ġgeram
782
Ġ759
Ġostentam
Ġconfigurou
Ġindese
ĠConselheiro
Ġinveste
ĠINATIVOS
Ġdiscutia
legis
588
mes
ĠAtualizaÃ§Ã£o
ĠDeix
ĠSÃ¡lvio
Ġdeneguei
Ġdireita
ĠDESPESAS
ĠEvidenciada
ĠFÃ³rum
ĠCAET
ĠVIGOR
ĠCONCENT
ladora
exegese
Ġatingiu
Ġ480
Ġonze
Ġdona
ĠSociedade
Ġnucle
ĠRAMALHO
Ġprema
Ġnoticiada
Ġinteressante
ney
Ġdiagnosticada
ĠRSR
Ġadvertidas
5425421
ĠFUNÃĩÃķES
ĠEmpregados
MINARES
Ġimpeditivos
ĠtipificaÃ§Ã£o
Ġinelegibilidade
)âĢĻ
PL
Ġnomin
Ġdiscorre
Ġcompletado
ĠDESVIO
ĠSenador
ĠMOTA
Ġinformam
Ġretirado
KET
Ġcrite
Ġartesanais
STADA
Ġcaracterizadas
Ġdetalhes
Ġdefenso
ĠINCORPORA
0066
Ġquestionados
Ġbaga
ĠInaplicabilidade
Ġrefoge
ĠimprÃ³prio
ĠSANDRA
Sob
Veja
Responsabilidade
Ġindubitavelmente
ĠINDISP
ĠMarcus
ardinha
ĠTERCEIRIZADAS
ĠCABRAL
Ġpublici
Ġbalan
Ġfechada
DINO
Que
Ġintroduziu
ĠSS
ĠhigienizaÃ§Ã£o
FREDO
ALTO
Ġadmita
Ġseparado
908
ĠINVENT
CITANTE
mant
Ġresumida
ĠDEDICAÃĩÃĥO
ĠCOMBINADO
Ġdisparos
ĠCAMILA
ĠlegÃŃtimos
gela
IER
Ġangula
ĠEvidencia
embora
ĠVARI
ĠOcorrÃªncia
Ġconvencionais
uantes
numeraÃ§Ã£o
ĠJobim
dutos
ĠdeflagraÃ§Ã£o
Ġ657
Ġcompletou
ule
UERMANN
611
0064
LOC
ĠargumentaÃ§Ãµes
concel
Ġinstauradas
ĠPUN
ĠEXPEDIÃĩÃĥO
Ġquantos
794
itÃ¡
Ġ0503
ĠTOL
Ġorganizada
0104
Ġburo
ÃŃcius
ĠintroduÃ§Ã£o
Ġ414
ĠOrientaÃ§Ãµes
Ġlastreia
ĠUs
579
Ġinterferir
Ġauxiliares
Ġgente
ĠfrustraÃ§Ã£o
Ġpromove
Ġintegrando
ĠDIA
ĠPERCEB
Ġ415
ĠExame
812
ĠPREVAL
Tratando
RICAS
MONIAL
Ġpropicia
Ġprivilegiar
cÃ¡
ANTIL
Ġcoli
Ġmem
Ġequa
Ġvertidas
ĠRESTRIÃĩÃĥO
ĠAPOSENT
Ġconduzem
mentadora
ĠEPIs
Ġcana
Ġcompelida
Ġcartas
Caso
Ġ827
ĠJULGADAS
ĠCANCELAMENTO
Ġincolumidade
ĠacessÃ³rios
ĠfarÃ£o
ĠELEMENTO
Ġextrem
0030
Inq
Ìģ
endia
Ġintensa
ĠBer
ĠprestÃŃgio
ĠespecializaÃ§Ã£o
Ġdescontentamento
ardim
ĠPSS
ĠNETTO
DIP
ĠConse
ĠESTRANG
Ġconsubstanciar
ĠDOIS
Ġprotocol
ĠCONFERIR
ĠEG
Ġimiscu
Ġenver
Ġsubmetendo
ĠrÃ¡dio
ĠSCHEUERMANN
ICUS
Ġapurou
Ġorganizado
OGIA
Ġconsistem
Ġadjudic
Ġpertur
Ġapelantes
ELABORAÃĩÃĥO
Ġrepresente
ĠSUPERVENIÃĬNCIA
ĠproposiÃ§Ã£o
Ġrepublicano
ĠNobrega
Ġactio
568
ĠDISSO
Ġdonde
etra
Ġnegrito
quel
ĠUrbana
Cer
Ġescritura
Ġreleva
Ġlargo
ĠMayer
Ġsevero
banco
pi
ĠABRASF
ĠVasconcel
722
ĠJusti
Ġformulou
Ġelegeu
vidosa
ĠinocorrÃªncia
ĠÃļNICA
pula
ĠFIDUCIÃģRIA
ANIA
MAZ
efÃŃcio
Ġrealize
Ġaduzir
ĠsubtraÃ§Ã£o
jou
Ġinstruem
Ġdiscutindo
Ġinstaurar
requis
Ġcriterios
561
Ġextravas
HCS
Ġvoltados
ĠCorroborando
Ġindependentes
ĠCONDENAÃĩÃķES
bal
convertida
BERTA
endos
ÃįM
Ġfortale
Intim
ĠavanÃ§o
Ġ353986
sendo
MARPJ
Ġfronte
Ġoitava
Ġdores
763
Ġdirigiu
eranÃ§a
ĠRAQUEL
ĠGMARPJ
ĠExtras
PEDIDO
ĠLITISCONS
Ġgabinete
ĠEXIST
Ġelenca
Ġreavaliar
ĠLIMITADA
Ġpartem
Ġ289
ĠADEQUADA
CIATIVA
623
ĠISSO
ĠProsseguindo
ĠSanc
ĠcessarÃ¡
Ġsolto
rimat
ĠratificaÃ§Ã£o
ĠGMDAR
Sa
0382
ĠMaterial
Ġconsabido
ĠANALOGIA
Ġorais
ĠRESPONSABIL
Ġpensar
Ã¢ndia
Ġpostergar
Ġmanifestada
Fica
Ġtardia
Ġcalcular
Ġ614
Ġequivocadamente
ĠdestruiÃ§Ã£o
Ġmutatis
ĠPou
propria
Ġassembleia
ELIA
ĠBasta
ĠGMHCS
ĠNORMATIVO
Ġsardinha
Ġrelemb
ĠMISERABILIDADE
ĠexatidÃ£o
ĠVerificada
ĠAcrescentou
Ġdefere
Ġincumbindo
MARCO
Ġafirmam
ĠrepetiÃ§Ãµes
)âĢĿ,
Ġdesenvolvem
Ġmuita
ĠDESEMPENHO
rimatÃ£
Ġ618
ĠVinÃŃcius
ĠMilton
negri
ĠOPERAÃĩÃĥO
Ġficto
Ġ953
Ġ846
ĠINVOC
ĠVIV
Ġdigne
ĠÃºltimas
ĠPREPARO
ĠREFERI
Ġprovisoriamente
Ġci
;âĢĿ
Ġfundar
0221
Ġconseguido
ĠINTERN
ĠDeterminada
Ġeco
Ġmanti
Ãºcar
Ġalmejada
NDO
Ġacondi
CHO
ferentemente
ĠPROCESS
ĠSALDOS
ĠFiscalizaÃ§Ã£o
Ġeleger
ĠFERRO
635
bstante
Ġsolicitadas
Visualizar
866
ĠbenÃ©fico
454
ĠcauÃ§Ã£o
ĠDEFERIDO
ĠTodas
ĠgeraÃ§Ã£o
8401
ĠFranciulli
Ġ556
Ġrique
quinha
Ġdetentora
AGO
ĠINEXIGIBILIDADE
Ġ380
Ġdelituoso
Ġdesestimular
laterais
ĠREELABORAÃĩÃĥO
Ġlou
Ġdecenal
0107
ĠFonte
ĠJurisdicional
ĠASSESSO
alares
ĠCrime
empresa
032164
Ġextrapol
Ġrejeitando
ĠKO
ĠPatrimÃ´nio
cumbe
ĠarremataÃ§Ã£o
Ġracionalidade
ĠANALISADA
ĠRelaÃ§Ã£o
Ġ354
Ġverte
Ġorto
ĠFALIDA
ĠargÃ¼
Ġcentra
ĠnumeraÃ§Ã£o
ĠretÃ³
IVADA
ĠoscilaÃ§Ã£o
Ġqueria
ĠVERIFICADA
Ġpequenos
ĠRODOVI
cursos
ĠCED
bia
ĠconseqÃ¼ente
brir
ĠDETERMINADA
ĠSUSTENTAÃĩÃĥO
ĠDEMAND
Ġsupracitados
Ġexclua
Ġmencionando
ĠinterpÃµem
Ġencontrou
ĠimplÃŃcita
ĠPRESERVAÃĩÃĥO
Ġabol
nc
ĠCORRUPÃĩÃĥO
ĠPECUNI
Mar
609
ĠinsolvÃªncia
Ġsp
ĠprÃ©vios
Ġ1985
ĠcoparticipaÃ§Ã£o
Ġalve
Portaria
ĠBase
ĠIntime
ĠXXXII
sex
Ġtransportado
ĠRESULTADOS
Ġsuperadas
Ġmicrossistema
Ġcomportam
Sch
ĠLIVRE
Apesar
Ġfixos
Ġgarantidos
ĠSustentam
Ġarrastam
Ġotim
ĠAtiva
Ġguarne
ĠINFLACIONÃģRIO
Ġtratarem
ĠestatuÃŃda
ritariamente
ĠAtualmente
Ġ841
Ġtemporais
lad
ĠResoluÃ§Ãµes
ĠCidadania
Ġgozar
ĠBÃģS
ĠPRESTA
ĠREPETITIVOS
TRIBUTÃģRIO
ĠPetros
ĠSucumbÃªncia
Ġ801
VEDA
Ġpluralidade
ulopatia
ĠPleiteia
Ġ509
Ġreproduzida
ficiais
Ġobservaria
ĠOdim
ĠNeg
cessos
793
anhas
ESTE
Ġdistrital
ÃįCIUS
ĠÃŃmp
destaque
Ġaliada
Ġmotivadamente
gressÃµes
MED
RPV
veio
Ġinterruptivo
oridade
ĠMul
derico
ĠComun
Ġconexos
Ġportas
AcÃ³rdÃ£o
Ġadote
Ġdesbor
Ġcolocou
ĠmutuÃ¡rio
Ġvoluntariamente
psia
ĠInvesti
ĠGMMB
cd
Ġ957
ĠADIN
Ġconformando
Ġcassado
ĠJurisprudenciais
ĠFirm
derÃ¢ncia
Ġ621
prÃ©
ĠADESIVO
Ġexecutivos
Ġpontuado
Ġpagando
Ġexpectativas
Ġcomin
ĠGMBM
681
ĠVig
Ġ8405
Ġproponho
GI
Ġalmo
ĠINFRAÃĩÃĥO
ĠÃįNTEGRA
823
Ġ013
apenas
Ġimplicitamente
ĠÃŃnsita
Ġfaixas
ĠTABELAMENTO
ĠResidencial
idores
Ġ399
IVAL
Ġentenderam
Ġ367
ĠesclareÃ§a
Ġiminente
0090
ITÃĵRIA
CLA
ĠBB
USI
ĠTRANCAMENTO
Ġresgate
ZEN
Ġobti
ĠIlegitimidade
ĠLID
ĠAPÃĵLICE
ĠPREVIDENCIA
ĠDesnecessÃ¡rio
Ġmarinha
validez
RETRO
Ġvotar
PART
ĠperiÃ³dicas
ĠhÃŃbrida
ÃĤNIA
FERN
585
TAS
UNICAÃĩÃĥO
Ġtrilha
466
Pla
ĠTRE
Ġauferidos
ĠComis
log
ĠconsiderÃ¡
Ġrevestem
URDES
ĠAbastecimento
ĠConsequÃªncia
concessÃ£o
ulaÃ§Ãµes
Ġtramitou
ĠprofissÃµes
Ãºlio
ĠameaÃ§as
Ġnuances
ĠREPONHA
ĠcausÃŃdico
PRIAÃĩÃĥO
plas
ĠAfasta
Ġengendrado
ĠPACH
Ġ442634
Ġdispensados
ĠREJEITO
mac
Ġcarreadas
926
Ġcic
Ġretornou
Ġentregues
destacamos
ÃŃssimas
ÃŃsica
Ġassistir
ĠdesÃŃgnios
ĠnullitÃ©
Ġpromulgada
Ġanatocismo
ĠOITA
MISSÃįVEL
Ġexcessos
Ġchamadas
ĠDetermino
Ġ1003
Ġbruto
ĠindÃºstria
Ġordena
Ġsilente
trabalhador
587
571
572
goa
Ġextenso
ĠVERACIDADE
03221
ĠLACERDA
ĠGILSON
Ġocasionou
Acerca
Ġjulguei
ĠconferÃªncia
ĠProcuradora
ĠÃŃntima
Ġpossivelmente
ĠREMUNERADO
ĠESPECÃįFICO
cili
ĠSENDO
ĠDelimitaÃ§Ã£o
Ġataque
Ġantecipar
Ġpassivos
Ġavulsos
Ġamen
Ġ796
contrataÃ§Ã£o
ÃįSTICA
Ġincrim
Ġprocurar
Ġcostuma
Ġreferenciada
ĠAmo
Ġinserindo
ĠÃ¡lcool
ĠTURNOS
575
789
Ġproduziram
eficiente
Ġdesto
ĠContinuada
ĠRESSARCIMENTO
ĠPonde
Ġpreservado
Ġinsucesso
ĠADERÃĬNCIA
Ġinexistem
ĠURBANO
Ġprotegidos
Ġsegmento
Ġtumulto
Ġsuperados
Ġenx
ĠexplicitaÃ§Ã£o
ĠAntecipaÃ§Ã£o
UTIVA
Ġlimitam
Ġindexadores
mÃ¡
ĠPORTU
Ġsemanas
Ġsurgir
Ġcoligidas
0073
ĠTarifa
Ġmerecia
ĠcientÃŃfica
Ġresultaram
iba
Ġinterpretados
Ġpotencialmente
ĠMagistrada
Inter
Ġcometer
PM
Ġinsculpidos
ĠEXECUTADO
Ġdescri
ĠprivilÃ©gios
Ġreservado
ĠCONTEXTO
MARI
ĠTENT
Ġtempestivos
Ġcumulativos
Ġdetectado
Pet
ĠtÃ¡b
Ġrecorda
705
Ġganho
Ġestivessem
Ġ314
qÃ¼ente
Ġmanuseio
ĠCivis
Ġencaminhada
bilizando
ĠanuÃªnio
Ġ733
DaÃŃ
ĠfaÃ§am
RISTA
Ġinformal
ĠpreponderÃ¢ncia
ĠXLVI
ÃįVO
Ġdesincumbindo
Ġfluir
Ġtendente
ĠextraÃ§Ã£o
ĠTHA
ITI
Ġafec
ĠMantida
Ġadministrado
Ġatualizadas
ĠXXXIII
586
893
ĠSINDI
ĠFrederico
ĠGAS
Ġdeliberadamente
Ġue
ĠILÃįCITA
Ġacumulados
Ġcerc
Ġbastava
Ġenfoques
tamb
ELLINGTON
ĠdiscriminatÃ³rio
Ġtroux
Ġobjurgado
ĠELETRI
AliÃ¡s
0089
Ġarticular
Ġpur
Ġdescabendo
ĠCÃŃveis
Curi
ÃļDO
ĠacidentÃ¡ria
Ġ955
Ġsocialmente
ĠParque
queri
ĠNICO
Ġsubordinada
ĠIdent
ĠMovi
Ġpercebidas
Ġassaltos
ĠMODIFIC
Ġ664335
Ġ651
ĠradiaÃ§Ã£o
Ġqualificar
Ġadmitem
Ġauferir
ĠFUNDADA
Ġconversa
Ġexcelsa
ĠDIL
UEL
ĠTAT
ĠConcedo
Ġrequerem
Ġcontrario
Ġinsurgindo
ĠpretÃ©rito
Ġinfantil
ĠConsiderou
ĠrechaÃ§ada
ĠpÃµe
ĠâĢ¢
girem
Ġ712
Ġ665
Ġnatalina
ĠprobatÃ³rias
ĠCHAGAS
Ġextrapolou
rosÃ£o
ĠPires
Ġ403
Ġrepercute
mÃ¡ticos
ĠAndar
Ġemancipado
Ġdesc
Ġanexou
Ġelidida
Ġdog
ĠPreto
Ġrecepcionada
Ġprevira
Ġ40652
Ġobtenha
Ġ577
ĠVITOR
ĠALEGRE
Ġsolicitando
Ġjuizado
2011405
Ã¡bio
Ġrespeitaria
ĠCan
Ã³x
Ġreputando
ĠTipo
ĠMAJORADO
Ġratifica
ĠDESINDE
634
ĠevasÃ£o
Ġquinto
QUIA
ĠLITERAL
percussÃ£o
RIANO
ĠBIAN
Ġaditivo
ĠNordeste
Ġ336
ĠPat
ĠJardim
Ġ727
RIDADES
istemas
Ġign
Ġopta
ĠlanÃ§ar
ĠCristi
voto
feriu
Ġdesmo
Ġpretenda
Ġ638
ĠMorais
Ġintegrou
Ġhospitais
ĠDESINDEXAÃĩÃĥO
Ġoperam
EJO
domÃ©st
Ġcervical
Ġconstado
ĠCONTEÃļDO
Ġesquerda
Fede
utÃ¡vel
UTÃĵRIA
ĠDELIMITAÃĩÃĥO
ĠmonetÃ¡rias
ĠMajoraÃ§Ã£o
Ġproporcionalmente
Ġfrequentemente
Ġcortes
Ġcontemplada
Ġ880
20198217000
Ġmanifestaram
ĠINSTITUCIONALIZAÃĩÃĥO
Ġimpositivo
ĠTramitaÃ§Ã£o
ĠinstruÃ§Ãµes
ĠDÃģ
ĠBIENAL
mblÃ©ia
PHA
IRR
ENDLER
920
ĠIvan
0114
ĠDebate
ferenÃ§a
ĠIMPROCEDENTES
Ġdisto
automaticamente
ĠMunicipais
Ġconfia
Ġconclusivo
Ġdesqual
ĠLONGO
ĠCONCENTRADO
PICIDADE
tize
ĠtraÃ§ada
ĠInternet
Ġexpondo
ps
ĠPRON
ĠIDENTIFICA
0111
QuestÃ£o
Ġsocioeducativo
Ġassertivas
Ã¢nt
fase
ĠsÃ©rios
ĠMPOG
ĠIRRETRO
Ġassinala
ĠPROM
ĠREVER
Ġarguir
Ġespecificadamente
sessÃ£o
Ġcooperativas
EGAÃĩÃĥO
lheu
[...]
