<s>
<pad>
</s>
<unk>
,
Ġde
.
Ġe
Ġa
Ġo
Ġque
Ġdo
Ġem
Ġda
Ġpara
Ġcom
Ġum
ĠÃ©
-
Ġuma
Ġno
Ġos
Ġna
ĠnÃ£o
Ġ(
Ġpor
Ġas
Ġmais
Ġse
Ġcomo
:
Ġdos
Ġao
Ġ"
Ġou
)
Ġdas
Ġser
Ġsua
O
ĠO
A
/
ĠA
Ġseu
Ġfoi
ĠÃł
"
ĠvocÃª
Ġ-
ĠsÃ£o
Ġmas
ĠtambÃ©m
Ġsobre
Ġtem
Ġpelo
Ġmuito
Ġpela
Ġnos
;
se
Ġpode
!
ĠestÃ¡
ĠâĢĵ
?
ĠjÃ¡
),
ĠatÃ©
",
Ġentre
Ġanos
Ġsem
Ġmesmo
Ġdia
Ġele
Ġisso
Ġbem
Ġainda
Ġseus
).
Ġeu
Ġquando
Ġfazer
Ġtodos
Ġter
Ġnas
Ġpessoas
Ġaos
Ġ1
ĠE
Ġforma
Ġtempo
Ġsexo
...
ĠBrasil
ĠR
Ġsuas
Ġvida
Ġano
Ġvai
Ġmelhor
Ġonde
Ġ2
Ġcada
ĠÃłs
".
o
ĠpornÃ´
Ġgrande
ĠsÃ³
Ġme
Ġoutros
h
Ġsempre
ĠSÃ£o
Ġela
Ġvez
ĠestÃ£o
%
Ġtrabalho
Ġonline
ĠhÃ¡
ĠvÃŃdeo
Ġapenas
s
Ġforam
Ġseja
Ġ3
Ġmundo
Ġparte
$
Ġprostitutas
Ġesse
Ġtudo
ĠserÃ¡
Ġmulheres
Ġempresa
a
Ġcasa
Ġassim
feira
Ġera
Ġmaior
Ġtodo
Ġquem
Ġdois
Ġqualquer
Ġpodem
Ġessa
Ġporque
Ġeste
Ġsite
i
ĠÃī
Ġsendo
Ġdeve
ĠOs
1
ado
Ġdias
Ġaqui
ada
Ġcontra
2
Ġcaso
Ġmeio
e
ar
Ġoutras
Ġminha
Ġcidade
ĠPara
Ġpois
Ġdurante
Ġtodas
ĠEm
Ġeles
Ġdepois
ĠPaulo
ĠalÃ©m
Ġconta
Ġ4
Ġnovo
Ġ5
ou
Ġmeu
am
Ġprimeiro
Âº
Ġhoje
Ġesta
Ġ,
Os
Ġ10
Ġqualidade
ĠNÃ£o
ĠNo
ia
Ġprimeira
Ġmulher
Ġmenos
Ġalguns
ĠserviÃ§os
ĠMas
Ġassistir
Ġnosso
Ġmercado
Ġfaz
3
Ġoutro
Ġnossa
Ġagora
Ġmomento
Ġqual
em
Em
ados
Ġpra
Ġprocesso
Ġduas
ĠinformaÃ§Ãµes
E
y
ĠSe
Ġdesde
Ġantes
Ġacordo
ĠC
C
ĠAs
ĠapÃ³s
ĠB
Ġprodutos
ĠtrÃªs
Ġver
Ġfotos
âĢ¦
ĠS
as
ĠatravÃ©s
Ġdisse
ĠÃ¡rea
ĠpossÃŃvel
ĠpornÃ´s
ĠD
p
ĠvÃŃdeos
Ġvezes
Ġpouco
adas
ĠsaÃºde
Ġpartir
Ġdados
ĠCom
5
Ġnem
ĠpaÃŃs
Ġpelos
Ġestava
Ġimportante
es
Ġsistema
Ġtoda
Ġgrandes
4
ĠmÃ£e
ĠPor
Para
Ġexemplo
Ġtipo
Ã¡
ĠDe
No
os
Ġfinal
Ġmil
ĠhistÃ³ria
lo
Ġuso
Ġvalor
Ġdireito
ĠT
m
Ġempresas
ĠEstado
Ġdentro
ando
Ġsegundo
Ġnossos
Ġbom
Ġdisso
P
ĠgrÃ¡tis
ĠP
ĠF
Ġpornografia
in
Ġfim
ĠrelaÃ§Ã£o
Ġnova
Ġprojeto
ĠRio
ĠtÃ£o
ĠentÃ£o
ĠopÃ§Ãµes
ĠDeus
f
Ġalgumas
ĠtÃªm
Ġnamoro
ĠM
T
D
M
Ġestar
Ġhomem
Ġquanto
Ġ20
Ġdar
Ġmelhores
Ã£o
ĠL
Ġlocal
Ġ6
Ġnesta
As
S
Ġpessoa
Ġlado
Ġfilme
ĠserviÃ§o
Ġdeste
c
Ġmuitas
ĠG
Ġnada
Ġpresidente
Ġgrupo
ĠpÃºblico
ĠnÃ³s
Ġ|
Ġmuitos
Ġgoverno
Ġlugar
Ġnome
u
Ġdesta
Ġboa
va
ĠseguranÃ§a
Ġfilho
B
io
F
00
ĠÃ¡gua
Ġdiz
Ġoutra
Ġfoto
Ãī
ĠnÃºmero
er
Ġsaber
Ġneste
Ġtinha
Ġ15
t
19
al
Ġprecisa
Ġenquanto
ĠNa
ĠEle
Ġsegunda
'
Ġ12
Ġquer
b
ĠmilhÃµes
com
Ġsemana
k
ĠregiÃ£o
is
ĠLei
re
Ġ30
Ġjogo
Ġ8
Ġprofissionais
Ġsocial
en
Ġpoder
Ġtanto
6
Com
Ġ7
Ġ'
Ġproduto
Se
Ġdiferentes
Ġcorpo
Ġcontato
aram
Ġhoras
d
7
Ġ.
Ġ/
Ġmesma
Ġ18
Ġfor
Ġclientes
ĠproduÃ§Ã£o
Na
ĠN
ir
Ġsido
Ġlivro
Ġequipe
Ġcoisa
ĠfamÃŃlia
ĠperÃŃodo
Ġartigo
ĠlÃ¡
an
Ġgente
G
ĠFederal
Ġalgo
Ġfez
Ġfica
g
8
Ġnum
Ġcoisas
l
ĠespaÃ§o
Ġdinheiro
ĠNacional
Ġtotal
Ġnunca
Ġn
Ġdesenvolvimento
Ġobjetivo
Ġfilmes
ĠserÃ£o
L
ĠV
amos
ĠComo
Ġfeito
ĠI
Ġte
V
Ġficar
Ġbase
Ġmeses
x
Ġacesso
ei
ĠAlÃ©m
ra
ĠUm
Âª
el
Ġalta
ta
ĠinÃŃcio
NÃ£o
ĠcrianÃ§as
la
n
Ġprograma
Ġteve
Ġvem
Ġfrente
to
Ġusar
Ġatividades
Ġcasos
ĠK
ĠH
Ġhora
(
Ġpelas
Ġp
Ġponto
ĠSaÃºde
Ġfora
Ġquase
Ġmaneira
Ġproblemas
ĠexperiÃªncia
Ġnovos
ĠvÃ¡rios
Ġtenha
Ġdizer
ĠEu
on
Ġestado
ina
Ġsociais
ĠaÃ§Ãµes
Ġproblema
&
Ġ9
ĠpreÃ§o
Ġnoite
R
Ġpontos
Ġcara
ĠmÃªs
de
Ġnuma
Ġex
ĠsituaÃ§Ã£o
ing
Ġtemos
Ġprincipais
Ġverdade
Ġhomens
."
9
Ġ...
Ġsimples
Ġpossui
Ġdevem
Ġencontrar
Ġquais
Ġamor
ĠDE
Ġs
ĠaÃ§Ã£o
]
v
Ġprofissional
ador
Ġtexto
ĠVocÃª
Ġgarota
ĠdÃ¡
mos
Ġambiente
Ġevento
Ġresultados
Ġcurso
ido
Ġlongo
ĠsÃ©rie
Ġfato
Ġseria
Ġbusca
Ġar
Ġtenho
Ġ2020
Ġquatro
Ġ11
ĠconteÃºdo
rem
Ġvolta
ĠvÃ£o
ĠPortugal
ista
Ġm
me
Ġrecursos
Ġpassado
ĠnecessÃ¡rio
us
Ġ100
Ġdesse
Ġ0
il
z
im
Ġpesquisa
Ġfalar
Ġalgum
ĠprÃ³prio
Ġgarotas
Ġnovas
ĠUma
Ġdireitos
Ġsob
Ġmarca
ĠprÃ³ximo
Ġir
Ġprincipal
Ġ24
Ġdessa
ĠfÃ¡cil
Ġfazendo
Ġb
Ġ14
Ġesses
ida
aÃ§Ã£o
I
Ġbastante
Ġtal
Ġjovem
or
ĠvÃ¡rias
Um
Ġcerca
ĠpoderÃ¡
Ġsabe
te
Ġmaioria
Ġ16
it
Por
Ġentanto
Ġmodelo
Ġtratamento
Ġresultado
Ġlhe
Ġ13
Ġgeral
Ġespecial
r
Ġajudar
ĠpopulaÃ§Ã£o
Ġpai
ĠpolÃŃtica
Ġfilha
Ġrede
H
De
Ġmuita
ĠcondiÃ§Ãµes
Ġdeixar
Ġpresente
Ġ17
ĠnÃŃvel
10
um
Ġcarro
ĠSul
Ã©
Ġpreciso
Ġalguma
Ġprincipalmente
Ġajuda
N
ĠâĢĶ
Ġsociedade
Como
res
que
Ġc
ic
Ġfalta
Ġmodo
ĠJ
Ġdiversos
Ġessas
ĠterÃ¡
Ġconhecer
Ġdele
Ġmim
Ġcomprar
Ġdiversas
Ġsucesso
Ġpapel
Ġnecessidade
Ġ25
Ġesposa
Ġminutos
at
ĠIsso
ĠÃ¡reas
Ġsim
Ġapoio
ĠprÃ³pria
Ġdemais
Ġmanter
Ġcriar
Ġ[
inho
Ġficou
Ġt
ĠpaÃŃses
Ġcliente
ĠUniversidade
Ġatendimento
Ġelas
Ġestou
Ġlinha
Ġd
Ġcontrole
Ġ50
Ġmal
Ġcausa
Ġbunda
ĠMinistÃ©rio
ĠÃºltima
ĠgestÃ£o
Ġamigos
Ġenergia
Ġhavia
ĠatenÃ§Ã£o
Ġ2019
Ġalunos
ĠquestÃ£o
Ġbuceta
Ġmassagem
Ġrisco
Ġabaixo
ico
Ġjogos
Ġcor
amento
inha
Ġmaiores
aria
ĠmÃºsica
ĠinformaÃ§Ã£o
do
ĠJosÃ©
Ġconhecimento
ĠconstruÃ§Ã£o
Ġ19
ol
30
Ġobra
Ġestudo
Ġsentido
ias
Ġnesse
Uma
ĠopÃ§Ã£o
ro
Ġrealmente
Ġprazo
ĠMunicipal
ĠdecisÃ£o
Ġdeu
Ġlei
ĠprÃ¡tica
Ġpassar
Ġoferece
Eu
Ġrealizar
Ġl
Ġtecnologia
0
Ġcinco
Ġjovens
ĠJaneiro
Ġreal
Ġpagamento
Ġinternet
ica
Ġsomente
ĠEstados
Ġautor
ĠJoÃ£o
br
ĠEducaÃ§Ã£o
Ġexiste
Ġfazem
Ġtarde
Ġlogo
ĠÃºltimo
Ġplano
ismo
ĠbinÃ¡rias
Ġpele
Ġcerto
Ġredes
Ġalto
Ġin
Ġrespeito
Ġnacional
ĠforÃ§a
Ġvista
eiro
id
Ġtendo
Ġfeita
Ġcapacidade
ĠQuando
Ġx
Ġvenda
ita
Ġsi
ĠGrande
Ġjunto
Ġdata
Ġprojetos
000
Ġdeles
Ġestamos
Ġsetor
Ġ&
Ġvalores
istas
ĠirÃ¡
w
Ġsexta
ĠCentro
Ġetc
Ġdevido
Ġcompra
Ġ2018
Ġlista
ram
adores
Ġcampo
Ġacima
Ġaumento
ĠpÃºblica
Ġmaterial
Ġideia
Ġreceber
Ġperto
idos
ĠmÃ£o
eira
ndo
ed
j
iam
Ġchegar
ĠÃ©poca
Ġsites
ino
ers
Ġnossas
Ġf
Ġquarta
ĠeducaÃ§Ã£o
Ġparece
Ġisto
ĠW
Ġclaro
Ġlivre
Ġpessoal
ĠCÃ¢mara
ĠmanhÃ£
Ġforte
Ġpermite
ĠformaÃ§Ã£o
Ġ#
Ġdiferente
le
ĠalguÃ©m
ĠediÃ§Ã£o
ĠMaria
Ġ21
Ġsuper
Ġ40
Ġatual
Ġcomum
ac
ĠJÃ¡
ĠimportÃ¢ncia
ĠnÂº
Ġmeninas
ras
Ġtrabalhar
ĠSanta
11
12
Ġestilo
Ġbrasileiro
Ġsejam
ĠporÃ©m
Ġvou
ĠmunicÃŃpio
Ġtema
Ġsala
ĠdifÃŃcil
Ġidade
Ġencontra
Mas
Ġfilhos
Ġ2016
Ġfode
Ġencontro
ie
Ġcaminho
ĠAo
Ġatividade
Ġensino
ante
Ġentrar
Ġpau
ĠresponsÃ¡vel
Ġcrescimento
ĠÃºltimos
Ġimagem
ĠparticipaÃ§Ã£o
ĠanÃ¡lise
ĠJesus
et
Ġserem
Ġmarido
ĠmÃ£os
Ġvamos
Ġnenhum
Ġpodemos
ĠEste
Ġescola
Ġmostra
Ġg
ĠJustiÃ§a
Ġpoderia
Ġlevar
ĠÃºnico
Ġmorte
AlÃ©m
ĠpresenÃ§a
Ġsou
Ġquinta
VocÃª
J
K
ĠpreÃ§os
Ġnatural
Ġrua
U
Ġjaneiro
Ġpandemia
Ġcapital
Ġdela
Ġmedida
ha
Ġequipamentos
Ġanal
ĠPorto
Ġfuturo
ĠirmÃ£
ara
idas
los
Ġgarantir
Ġcentro
Ġ22
ĠcriaÃ§Ã£o
Ġviagem
ĠAssim
ĠAl
ul
ad
Ġtermos
Ġseguir
Ġrealidade
ĠvocÃªs
Ġsuperior
Ġchegou
ĠfunÃ§Ã£o
Ġblog
Ġfase
ĠZ
Ġmedidas
Ġeram
Ġtipos
Ġbaixo
20
ĠnegÃ³cio
ĠcomeÃ§ou
ĠorganizaÃ§Ã£o
Ġpassa
Ġprocura
ĠÃºnica
ĠaÃŃ
Ġcolocar
ĠpÃ¡gina
Ġoportunidade
ĠcomunicaÃ§Ã£o
Ġprocessos
Ġobras
ĠSecretaria
Ġlocais
ĠdoenÃ§a
ĠmarÃ§o
Ġvia
ĠUnidos
Ġ2015
ine
Ġamigo
Ġpalavras
Quando
ĠEla
Ġpassou
ĠversÃ£o
Ġafirmou
ana
ĠSua
Ġbrasileira
ente
Ġsei
Ġimagens
Ġassunto
Ġpais
Ġdezembro
da
Ġmar
Ġpossa
ĠirmÃ£o
Ġ2017
Ġevitar
ĠmÃ©dia
ĠsoluÃ§Ã£o
Ġ23
Ġv
Ġimportantes
Ãµes
ca
Ġentender
Ġtime
era
co
Ġlivros
Ġacontece
Ġnatureza
Ġconjunto
ĠcomeÃ§ar
Segundo
Ġluz
Ġestrutura
Ġcerteza
Ġeconomia
Ġquantidade
ĠterÃ§a
Ġof
ma
idade
Ġmeus
ĠcabeÃ§a
Ġcultura
ĠVila
Ãª
Ġmenor
arÃ¡
Ġinteresse
Ġrealizado
Ġdomingo
ĠInstituto
Ġescolha
Ġ2014
Ġproposta
ĠCasa
Ġcidades
ĠTV
Ġresposta
Ġconforme
ĠmÃ©dico
Ġfosse
ĠNova
ur
ĠX
Ã§Ãµes
ĠMais
Ġpossibilidade
Ġprofessor
Ġfesta
Ġvontade
Ġinclusive
Ġmovimento
om
Ġpost
Ġsignifica
Ġpovo
Ġtotalmente
W
ĠU
ĠproteÃ§Ã£o
Ġentrada
nos
Ġideal
Ġmodelos
ais
ĠcoraÃ§Ã£o
Ġcomunidade
Ġinvestimento
Ġnessa
Ġpena
ĠtÃ©cnica
ĠPolÃŃcia
Ġloja
Ġre
Ġpedido
ĠcrianÃ§a
Ġexistem
ito
ĠprÃ³xima
Ġoutubro
Ġprova
ut
Ġtelefone
na
Ġaqueles
Ġformas
Ġsair
icos
ĠpeÃ§as
Ġrealizada
ĠsÃ¡bado
Ġ2021
Ġseguinte
ĠaplicaÃ§Ã£o
Ġcampanha
Ġ60
Ġpasso
Ġler
X
Ġaquele
Ġcozinha
Ġestes
Ġeventos
ĠEntÃ£o
Ġexcelente
Ġapresenta
Ġsetembro
Ġal
Ġpeso
Ġanimais
ĠSilva
Ġnovembro
Ġcusto
Ġacho
Ġfundamental
ĠmanutenÃ§Ã£o
Ġescolher
..
Ġseis
ĠninguÃ©m
Ġefeito
Ġmaio
ĠGoverno
Ġcontar
ĠSantos
Ġlinda
ec
Ġjunho
nd
ĠnegÃ³cios
Ġdigital
Ġ28
Ġdetalhes
Ġmateriais
Ġobter
Ġtraz
Ġoficial
Ġfevereiro
Ġolhos
Ġpensar
Ġpacientes
Ġfutebol
Ġentrega
indo
Ġco
ri
ĠrealizaÃ§Ã£o
Ġprocurando
ĠposiÃ§Ã£o
Ġincluindo
Ġjulho
Ã¡vel
Ġparceria
Ġusado
Ġdicas
Ġcores
Ġdesses
Ġplataforma
Ġbairro
ĠFoi
Ġnecessidades
ĠdisponÃŃvel
Ġregistro
Ġ26
Ao
Ġmomentos
Ġk
Ġestavam
oc
ĠdisponÃŃveis
Ġtransporte
Ġj
Ġconseguir
Ġ2013
JÃ¡
ĠusuÃ¡rios
ent
Ġcursos
ĠdiferenÃ§a
Ġtornar
Ġon
Ġterra
Ġgrupos
ĠCÃ³digo
Ġvale
ĠprÃ©
Ġespecialmente
Ġvendas
Ġtrabalhos
ÃŃ
Ġboca
Ġporta
ĠConselho
Ġreais
Ġanterior
Ġabril
Ġtrata
Ġfavor
ĠCarlos
15
18
Ġsexual
pe
Ġfala
no
Ġ>
ĠtÃŃtulo
ĠdÃºvidas
Este
Ġcrise
ĠbenefÃŃcios
Ġalimentos
ĉ
Ġagosto
://
Ġ27
Ġnuas
ĠQue
Ġpequeno
Ġapesar
Ġganhar
Ġbrasileiros
ĠoperaÃ§Ã£o
Ġtaxa
Ġconsumo
ĠTribunal
Ġestudos
Ġnorte
Ġdiretor
ĠSegundo
Ġprimeiros
Ġinterior
Ġcima
ĠdeverÃ¡
Ġacompanhante
Ġdiante
Ġcompleta
Ġteria
ĠatrÃ¡s
ĠmudanÃ§a
Ġtomar
ĠerÃ³tica
Ġprefeito
ĠreuniÃ£o
Ġembora
mail
Ġtempos
Ġarte
Ġcabelo
Ġ2012
Ġnenhuma
Ġafirma
ĠThe
Ġoferecer
Ġdiretamente
ĠrazÃ£o
iu
Ġlegal
Ġquarto
Ġdesempenho
ĠavaliaÃ§Ã£o
Ġefeitos
ĠTambÃ©m
Ġtamanho
ĠquestÃµes
SP
ĠdireÃ§Ã£o
adora
Ġaconteceu
Ġfoda
Ġpagar
Ġleitura
Ġprofessores
Ġconhecido
Ġcarreira
ĠEsse
ĠSocial
ĠpÃºblicos
ĠDepois
eu
Ġaumentar
ĠcomeÃ§a
ve
Ġperder
ĠEssa
ab
antes
ĠmudanÃ§as
icas
ĠRe
Ġresponsabilidade
Ġfunciona
ĠcÃ¢mera
Ġtorna
Ġapresentar
sa
inhas
ĠMar
Ġfundo
ros
ĠrÃ¡pido
Ġatender
ĠtÃ©cnico
Ġ:
Ġest
ĠJardim
Ġsistemas
Ġmostrar
Ġcasamento
Ġmelhorar
ĠsoluÃ§Ãµes
Ġtemporada
Ġvisto
ig
izaÃ§Ã£o
ano
Ġdefesa
ag
ĠcrÃ©dito
Ġdor
ĠEUA
ĠNorte
Ġorigem
Ġsol
Ġcompleto
ĠCivil
Ġfodeu
Ġconsegue
ĠreduÃ§Ã£o
ite
Ġordem
_
Ġquero
ĠutilizaÃ§Ã£o
ĠvisÃ£o
ĠPedro
Ġcontrato
Ġusando
Ġ+
Ġcasal
98
Ġcapaz
Ġpequena
ĠfuncionÃ¡rios
Ġdeixa
ĠcontrÃ¡rio
ĠveÃŃculos
ot
ĠEsta
Ġtrabalhadores
Ġinternacional
Ġtentar
Ġenorme
Ġaprender
Ġclube
Ġcelular
Ġportanto
Ġseguida
Ġvagas
Ġgosto
ĠsÃ©culo
Ġcategoria
ion
Ġputas
ĠSanto
he
vam
Ġluta
Ġinvestimentos
ria
Ġpalavra
Ġministro
un
Ġmudar
Ġcontas
Ġpoucos
ĠautorizaÃ§Ã£o
Ġ[âĢ¦]
Ġ29
eiros
ga
Ġparticipar
ĠSP
Ġescolas
Ġvivo
Ġtrade
Ġchamado
Ġrecebeu
Ġmedo
ho
);
ĠcaracterÃŃsticas
Ġdes
Ġfeliz
Ġmaduras
emos
ĠinstituiÃ§Ãµes
Ġveio
so
est
ĠpadrÃ£o
Ġvisita
son
ĠOu
ĠdÃºvida
ip
ĠhistÃ³rias
ĠmÃ¡ximo
Ġutilizar
Ġh
Ġmembros
Ġviver
Ġpequenos
mo
ĠEntre
ĠHÃ¡
Ġuns
entes
Ġ2011
>
Ġboas
Ġac
Ġinvestir
Ġcaixa
od
Ġunidade
ĠDireito
Ġbanheiro
ĠpolÃŃticas
Ġnovamente
Ġ2010
Ġaltura
ĠEuropa
ĠÂ«
ĠUniÃ£o
ĠPrefeitura
ĠIgreja
Ġprecisam
Ġrenda
ĠveÃŃculo
Ġpresentes
Ġaulas
Ġmesa
Ġmeia
qu
Ġq
Ġand
16
Ġauto
Ġhumano
Ġestudantes
ĠestratÃ©gia
ĠAmÃ©rica
Ġtais
Ġpartes
ĠTrabalho
Ġentrevista
Ġleva
ĠAgora
ap
ĠSenhor
ura
03
ĠmÃ©dio
las
Ġnota
17
Ġjogadores
Ġunidades
Ġpraia
amente
Ġtalvez
ĠMulheres
Ġmotivo
Ġsuporte
ĠdoenÃ§as
ĠsituaÃ§Ãµes
Ġsub
ĠUS
Ã§Ã£o
Ã¡rio
ĠcenÃ¡rio
ĠPrograma
Ġaquela
Ġpossuem
Ġthe
Ġencontros
Ġtirar
ĠfaÃ§a
Ġseguro
ĠEles
Ġelementos
Ġchega
Ġregras
Ġesteja
Ġinteressante
ĠSite
ĠcartÃ£o
Ġestiver
Ġdessas
ĠconfianÃ§a
Ġacompanhantes
Ġexplica
Ġqueria
Ġpartida
Ġmenina
ĠRepÃºblica
ĠCristo
Ġbanco
eiras
ĠtÃ©cnicas
25
Ġvi
ios
ira
ĠusuÃ¡rio
ĠnegociaÃ§Ã£o
ĠreferÃªncia
ch
ĠCovid
ĠfÃŃsica
ĠPÃºblico
ĠGoogle
ĠmatÃ©ria
Ġdocumentos
Ġmarcas
Ġpro
Ġcontinua
ĠfamÃŃlias
pa
ĠSem
ant
Ġhumanos
Ġcontinuar
âĢĵ
Ġdeixou
Ġlojas
Ġsentir
ĠmÃŃnimo
Ã³
ĠapresentaÃ§Ã£o
Ġprogramas
ĠDia
Ġ80
Ġkm
ĠbilhÃµes
Ġoriginal
ĠLisboa
Ġferramentas
Ġvoltar
ĠinglÃªs
Ġmassa
Z
ĠâĢ¦
Ġestas
Ġdesign
ĠindÃºstria
Ġporn
ĠpeÃ§a
Ġcerta
Ġliberdade
ce
14
ÂŃ
ĠAssociaÃ§Ã£o
Ġsimplesmente
ja
Ġfederal
13
ĠChina
Ġcomercial
Ġdando
Ġtroca
Ã¡veis
ĠdistÃ¢ncia
iz
ĠlanÃ§amento
21
Ġfui
lhe
Ġdelas
ĠatuaÃ§Ã£o
Ġperda
ter
Ġtornou
ĠAr
po
Ġcrime
Ġhouve
ĠexercÃŃcio
Ġnua
Ġdesenvolver
ĠpressÃ£o
st
ĠEscola
ĠinstituiÃ§Ã£o
ĠmunicÃŃpios
ĠseleÃ§Ã£o
Ġdocumento
ĠComissÃ£o
Ġdeputado
ĠpÃ³s
Ġgay
Ġabertura
ela
Ġlimpeza
Ġfodendo
iv
Ġat
ĠnÃºmeros
Ġolhar
Ġpossam
ĠgeraÃ§Ã£o
gu
Ġcuidado
Depois
Ġtrazer
Ġlugares
ĠpÃ©
Ġbaixa
Ġabrir
Ġutilizado
Ġmarketing
imos
%.
TO
Ġcargo
Ġbeleza
Ġlinks
OS
Ġbinarias
inhos
Ġreceita
ĠrelaÃ§Ãµes
Ġconseguiu
Ġmensagem
Ġimpacto
ES
Ġdez
Ġtenham
ĠBolsonaro
Ġ70
Ġ31
Ġato
Ġmetros
ĠpÃºblicas
Ġcentral
Ġali
Ġaplicativo
Ġporno
Ġ90
ĠprÃ³ximos
ĠoperaÃ§Ãµes
ens
Ġmesmos
Ġtrans
Ġseguintes
Ġpessoais
Ġcarros
Ġacabou
ĠvÃª
Ġfuncionamento
ĠcoronavÃŃrus
Ġacaba
ĠpoderÃ£o
Ġposso
ĠNatal
Ġfeitas
Ġveja
Ġfonte
02
Ġsal
RA
Ġideias
Ġsul
ĠprÃ¡ticas
ĠVeja
Ġsomos
Ġbasta
ĠTudo
Ġsede
ĠopiniÃ£o
Ġart
Ġsom
Ġzona
iva
ĠinstalaÃ§Ã£o
per
Ġdestaque
Ġto
Ġcompanhia
Ġmundial
Ġnormal
ĠnÃŃveis
Ġemprego
ĠBrasÃŃlia
agem
rar
Ġqueda
Ã§a
Ġbranco
ĠPro
Ġontem
Ġclasse
Ġparcial
ĠpolÃŃtico
Ġbanda
Ġquiser
Ġleve
Ġnomes
Ġviu
Ġocorre
izar
Ġforex
ApÃ³s
ĠadministraÃ§Ã£o
ĠII
ĠFrancisco
ĠmÃ¡quina
Ġadultos
ĠInternacional
Ġpaciente
Ġconforto
Ġfoco
Ġsete
Ġcandidato
Ġhotel
ĠPenal
ĠDesenvolvimento
Ġchamada
Ġpersonagens
ĠÂ»
ĠCh
Ġlink
.,
Ġlonge
HÃ¡
24
arem
ĠalimentaÃ§Ã£o
ĠcomÃ©rcio
Ġrelacionamento
za
Ġperfil
ĠTodos
ĠreproduÃ§Ã£o
ĠÃ´nibus
Ġvelocidade
Ġgratuito
ĠviolÃªncia
Ãªncia
Ġatualmente
!!!
Ġdeveria
Ġsemanas
ena
ne
Ġespera
ĠY
Ġan
Ġr
2020
Ġiniciativa
Ġvolume
Â°
ide
Ġcustos
Ġtela
ĠSÃ³
Ġterceiro
Ġmadeira
go
Ġcivil
Ġdeixe
Ġdeseja
Ġinicial
ivo
inas
Y
ĠcomentÃ¡rios
Ã£
mente
Ġparticipantes
Ġlindas
Ġmente
ĠOliveira
ĠEst
Ġprivada
ĠÂ·
Esta
Ġsangue
ĠCar
ĠlÃŃder
ĠMinas
Ġsexy
iar
Ġgosta
ĠmamÃ£e
iano
por
Ġpeitos
01
ĠcafÃ©
ĠDo
Ġbar
ĠVale
ĠTerra
Ġcanal
Ġplanos
ĠvitÃ³ria
Ġcinema
TA
Ġseios
Ġquerem
Ġferramenta
Ġ
ĠrÃ¡pida
ai
Ġcompletamente
man
Ġacontecer
Ġvice
Ġtemas
ĠviolaÃ§Ã£o
ĠFacebook
ĠPresidente
ate
ĠCosta
Ġrecebe
%,
Ġquadro
Ġessencial
Ġcontexto
ĠexecuÃ§Ã£o
Ġpersonagem
ĠGrupo
Ġconceito
Ġfatores
Ġitens
Ġsuficiente
Ġjogar
Ġvc
Ġgeralmente
Ġbons
Ġsegue
Ġpopular
Ġdificuldades
Ġminhas
ins
ER
ĠIn
Ġjogador
ĠRua
ĠCopa
's
ĠregiÃµes
Ġespeciais
ete
nÃ£o
ĠMulher
Ġla
ÃŃvel
22
Ġformato
vel
ĠsaÃŃda
ĠMundial
ĠDO
Ġrecurso
AR
ĠportuguÃªs
Ġnaturais
Ġcasas
ĠlÃ©sbicas
Ġcombate
Ġacompanhar
ĠhorÃ¡rio
Ġruas
tos
ĠQuem
Ġen
ĠBahia
Ġsegmento
ato
Ġcomputador
iana
iram
IS
Ġvoz
ĠBrasileira
Ġobjetivos
IA
ĠHoje
ĠprisÃ£o
Ġtiveram
ĠfunÃ§Ãµes
Ġpequenas
ĠTem
Ġoferta
Ġ2009
Ġnao
Ġficam
Ele
ĠestarÃ¡
Ġguerra
ĠEstadual
Ġpotencial
ial
Ġlonga
50
Ġmadura
Ġtiver
Ġoportunidades
ĠConfira
ula
nda
27
Ġch
ba
ere
avam
ĠespÃ©cie
Ġleite
ĠApÃ³s
Ġmoda
ton
Ġputa
Ġpartido
Ġbanho
ĠexposiÃ§Ã£o
eram
amentos
Ġjeito
Ġfiz
Ġextremamente
ĠHospital
05
Ġambos
ĠAc
idades
ĠpolÃŃcia
Ġcompras
rado
26
ĠfrancÃªs
Ġreduzir
ib
Ġcandidatos
ĠLuiz
ĠanÃºncios
Ġ35
Ġdado
ĠSistema
Ġaquilo
23
ĠdecoraÃ§Ã£o
Ġfoder
Ġcomportamento
Ã§o
Ġconsiderado
Ġpromover
Ġetapa
Ġigual
Ġlindo
if
Ġrosto
ĠDa
ĠAtÃ©
ĠCo
Ġaula
ava
2019
Ġservidores
Ġlembrar
TE
Ġouro
ĠAinda
ĠendereÃ§o
Ġtradicional
ĠÃ³rgÃ£os
ĠBrasileiro
ĠsecretÃ¡rio
Ġconhecida
Ġtratar
28
ĠexistÃªncia
ĠGeral
ero
Ġsonho
Ġouvir
art
ĠexperiÃªncias
rada
ge
ĠÃ³tima
nt
Ġshow
Ġimprensa
ĠresistÃªncia
ĠBanco
izado
ĠPÃºblica
Ġcuidados
des
Ġgarantia
ian
Ġrapidamente
Ġambientes
Ġartigos
Ġtrabalha
ĠfÃ©
dos
AS
ex
Ġ200
Ġteste
ĠSeu
Ġap
ĠprogramaÃ§Ã£o
Ġroupas
ĠAqui
Ġfeminino
Ġregime
ĠmissÃ£o
ĠespaÃ§os
Ġautorais
04
ĠdistribuiÃ§Ã£o
ĠpublicaÃ§Ã£o
ĠAdministraÃ§Ã£o
iado
ĠtendÃªncia
ĠmÃ©todo
',
Ġtive
Ġcama
ĠDr
Ġfizeram
ĠdisposiÃ§Ã£o
Esse
Ġfogo
07
Ġprazer
ĠpÃ¡ginas
Ġproibida
08
Ġexatamente
has
09
Ġlinhas
ĠSeguranÃ§a
Ġconosco
!!
ĠEl
ĠmÃ©dicos
ivos
Ġpretende
ĠÃ¢mbito
ĠtrÃ¡s
Ġperfeito
Ġvisual
mas
Ġreservado
ĠNeste
ĠCol
ĠDes
Ġ2008
uma
ĠServiÃ§os
ver
ka
Ġhumana
osa
Ġconcurso
Ġoito
Ġpar
Ġ184
Ġaf
ĠEnsino
Ġdesconto
ĠGestÃ£o
[
ĠsaudÃ¡vel
Ġtinham
ĠFernando
Ġdestino
Ġesp
06
ĠsessÃ£o
Ġmotor
enta
Ġtorno
ĠeleiÃ§Ãµes
Ġrepresenta
up
Ġsintomas
Ġglobal
Ġfinanceira
ĠPorÃ©m
MA
ĠcondiÃ§Ã£o
ĠcÃ³digo
Ġriscos
Ġcontou
Ġsoftware
Ġaberto
ĠbebÃª
car
Ġw
ĠsatisfaÃ§Ã£o
ĠalteraÃ§Ãµes
ĠprÃ³prios
Ãº
ivas
Ġgarante
ĠÃ³timo
line
ĠvÃŃtima
Essa
ĠhistÃ³rico
Ġestadual
ĠAn
ĠCongresso
ĠCentral
Ġlevou
Ġretorno
Ġdificuldade
Ġam
ĠCrime
Ġdemanda
ense
Ġcriado
ist
Assim
Ġjornal
Ġmeios
Ġfalando
Ġcitando
ub
ĠParque
AL
Ġcorte
Ġbuscar
Ġsinal
Ġespecialistas
ĠÃ³leo
ĠestratÃ©gias
Ġequipamento
Ġanimal
ini
Ġaspectos
Ġrealizadas
Ġdeixando
ob
ĠlÃŃngua
Ġ=
Ġoperar
Ġgovernador
tar
Ġmunicipal
Â²
az
40
Ġrevista
Ġdesejo
Ġinc
Ġpassando
Ġsolo
Ġtemperatura
Ġbola
Ġreforma
Ġjuntos
ĠescritÃ³rio
ĠAb
Ġinternacionais
ĠmemÃ³ria
das
ĠdÃ©cada
Ġfamiliar
Ġplanejamento
Ġusados
Ġtestes
Ġdownload
Ġcomer
Ġcar
ĠrelatÃ³rio
ru
Ġpesquisas
Ġdireto
Ġverde
Ġpublicado
Ġtermo
ĠresponsÃ¡veis
Ġchat
Ġfeitos
Ġjuros
ĠpolÃŃticos
Ġpedir
Foi
ĠRegional
Ġidentificar
ĠinstalaÃ§Ãµes
ĠpromoÃ§Ã£o
Ġi
Ġvir
Ġconsumidor
ĠrecuperaÃ§Ã£o
Ġautoral
Ġdupla
Ġestados
Ġconversa
ov
Ġcarne
Ġfamiliares
ĠMilitar
Ġcal
Ġcomuns
ola
Ġpedra
min
ĠnotÃŃcias
Ġpergunta
Ġresolver
Ġescrever
Ġcultural
*
ĠLula
29
Ã¡rios
ĠcompetiÃ§Ã£o
presidente
ĠMundo
ĠincrÃŃvel
ĠvÃŃrus
ĠLa
Ġvelha
ĠeconÃ´mica
Ġparticular
ard
para
Ġbreve
Ġrecente
Ġpior
Ġ01
Ġad
ĠimÃ³vel
Ġpropriedade
itar
Hoje
ĠinvestigaÃ§Ã£o
ĠFranÃ§a
Ġz
Ainda
Ġtra
iada
Ġpaz
ĠdecisÃµes
Ġdesafio
vo
Ġpodendo
asse
Ġdescobrir
Ġpassagem
Ġdeterminado
ĠcÃ¢ncer
Ġcarga
Ġprocedimento
Ġdesafios
Â»
ud
Ġvagabunda
ĠAd
IN
ĠorÃ§amento
www
ĠnecessÃ¡ria
ern
Ġusa
ĠpÃ©s
Ġfinanceiro
Ġvelho
Ġgrau
Ġobjetos
Ġhospital
IC
ĠBar
ĠProjeto
op
ĠterÃ£o
Ġro
ĠgraÃ§as
ĠLe
og
Ġsinais
ĠfÃ©rias
ĠdiscussÃ£o
@
ima
ĠSol
Ġvaga
):
rei
Ġprovavelmente
90
Ġcomerciais
ke
Ġ500
Ġeuros
Ġlocalizado
Ġinclui
ĠexpressÃ£o
Ġ?
Ġmetade
Ġper
Ġnormalmente
Ġprocedimentos
ĠInstagram
Ġweb
ĠpossÃŃveis
Ġamiga
Ġaproximadamente
ĠevoluÃ§Ã£o
Ġbens
Ġantigo
nte
har
Ġpoliciais
Ġautoridades
gue
ĠCultura
ĠsensaÃ§Ã£o
Agora
ĠCidade
ĠCaso
Ġadolescentes
Ġalegria
Ġaluno
Ġconstante
ane
Ġerro
Ġdestes
Ġcol
Ġesquerda
SÃ£o
ĠjustiÃ§a
Mais
Ġambiental
Ġconhece
Ġtrading
ĠprincÃŃpio
ĠAgÃªncia
Ġpraticamente
Ġganhou
Ġfodida
Ġigreja
ĠEduardo
Ġbaixar
Ġequipes
Ġanunciou
Ġmilhares
Ġentidades
ĠFoto
Ġfalou
elo
Ġterceira
Ġ9610
Ġperceber
av
Ġnormas
Ġinformou
Ġatriz
Ġquente
Ġcan
ĠDA
Ġgostaria
ĠPode
Ġmasturbando
Ġsex
Ġprovas
Quem
Ġgerar
Ġcompromisso
Ġmovimentos
ificaÃ§Ã£o
Ġartista
ĠInternet
rio
ĠconsciÃªncia
ĠassistÃªncia
Ġvender
uc
Ġprocurar
Ġobjeto
ĠmÃ£es
Ġtrader
Ġhaver
AC
izada
ĠeficiÃªncia
ĠgraÃ§a
ĠbenefÃŃcio
ĠFilho
Ġsabia
Ġocorreu
Ġinfantil
ĠtÃ©cnicos
Ġacidente
ĠEx
Ġexterior
ĠGerais
Ġfaixa
ĠGu
Ġvirtual
ĠGlobo
Ġagentes
Ġclique
ĠÃºtil
Ġartistas
Ġcm
AN
Ġtom
iÃ§Ã£o
Apesar
ativo
Ġnamorada
PE
Ã´
Ġprivado
ĠNovo
Ġacompanhamento
Ġadulto
Ġconstruir
Ġrio
Ġofertas
Durante
ĠlegislaÃ§Ã£o
OlÃ¡
ĠÃ³rgÃ£o
Ġverdadeiro
Ġmoradores
ĠCruz
ĠAna
ĠfÃŃsico
oso
Ġ45
Ġesteve
ĠPaÃŃs
Ġutilizados
ĠmÃ³veis
ĠagÃªncia
ĠConstituiÃ§Ã£o
Ġaproveitar
gem
ĠtransmissÃ£o
ÃŃveis
Ġ*
ĠcomeÃ§o
tou
Ġandar
Ġmicro
Ġtecnologias
ora
Ġvotos
RE
60
Ġazul
ĠSim
ĠCon
Ġrec
Ġso
endo
rando
ĠAm
pl
Ġesperar
Ġconsumidores
Ġmilitar
Ġaparece
ĠlocalizaÃ§Ã£o
Ġequipa
ĠmÃ¡quinas
Ġchegada
ĠfÃ£s
ĠQu
ĠNos
Neste
Ġbate
Ġporra
Ġexame
ĠVer
ĠnecessÃ¡rios
ĠsalÃ¡rio
cas
Ġchance
Ġpreso
mar
Ġvive
Ġrotina
Ġcurto
ĠCuritiba
Ġentidade
Ġcomigo
ron
Ġbancos
Ġentrou
Ġuniverso
ento
ĠsÃ©rio
Ġxxx
ĠverÃ£o
Ġamador
Ġrelacionados
Ġdebate
Ġmostrou
Ġtaxas
ĠFundaÃ§Ã£o
ĠPT
Ã¡ria
imento
Ġprimeiras
Al
PR
Ġpre
itas
Ġmotivos
Ġra
Ġmeias
Ġchefe
ies
ade
Ġclima
ĠterritÃ³rio
ĠNossa
ologia
Ġentra
ĠciÃªncia
ĠdivulgaÃ§Ã£o
tando
Ġnacionais
eno
ĠParanÃ¡
ĠServiÃ§o
iza
Ġsobretudo
Ġtecido
Ġenviar
Ġdanos
EN
Ġquartos
Ġvidas
Ġverificar
Ġprostituta
como
ĠforÃ§as
Ġbrasileiras
Ġcabelos
Ġsu
Ġapresentou
ĠlanÃ§ado
Entre
pt
ĠesforÃ§o
Ġmensagens
Ġcomida
Ġresponder
ĠMercado
ĠprevenÃ§Ã£o
ila
ks
Ġampla
ĠMesmo
Ġcaras
ĠSuperior
Ġroupa
Ġavaliar
Ġapresentado
Ġgordura
ice
ĠaÃ§o
Ġrecentemente
Ġpropostas
ĠNÃ³s
Ġtreinamento
Ġespecialista
ĠRegiÃ£o
Ġday
Ġtornando
Ġprofessora
ĠâĢ¢
one
Ġcobertura
Ã§
Ġparar
Ġanalisar
Ġfique
Ġcont
Ġteu
ĠLima
Ġcalor
ĠCampeonato
ĠmÃºsicas
ĠcomentÃ¡rio
bo
Ġca
Ġparecer
Ġvantagem
Ġdisco
ĠEspÃŃrito
Ġpiscina
ĠgÃ¡s
ĠnotÃŃcia
Ġlimite
Ġdizendo
RO
Ġpreto
45
Ġidentidade
Ġfestas
Ġmenores
Ġportas
ĠalcanÃ§ar
Ġconsigo
ĠanÃºncio
ĠApesar
ona
AM
eg
rou
Ġvisitar
ham
99
Ġcena
Ġmilitares
vi
Ġdireita
Ġfortes
Ġ2007
Ġdecidiu
Ġdestaca
ĠCurso
Ġfacilmente
Ġusada
35
Ġinteresses
Ġsetores
ĠimpressÃ£o
ĠSt
Ġ300
Ġreceitas
Ġplaneta
Ġutilizando
Ġparede
Ġdesenvolvido
Ġproduzir
Ġanteriores
Ġataque
Ġsai
Ġpensamento
ĠmÃŃdia
are
Ġprecisar
Ġcuja
Ġciclo
ĠNesse
Ġfiquei
itos
ĠaprovaÃ§Ã£o
ĠRede
Ġpeituda
Ġcujo
ĠEd
Ġextra
ya
ĠpornogrÃ¡fica
ĠorganizaÃ§Ãµes
Ġerros
Ġdrogas
ĠPortanto
ell
ĠCiÃªncias
Ġalma
Ġsaiba
Ġenc
Ġab
2016
ĠduraÃ§Ã£o
2018
remos
int
ĠÃºltimas
her
Ġperguntas
Ġrepresentantes
ang
Ġreserva
OR
ik
ĠconteÃºdos
Ġtrabalhando
Ġindependente
ĠcoleÃ§Ã£o
ĠDilma
Ġguarda
ĠSerra
hos
Ġloira
ĠForex
Ġproteger
Ġumas
Ġramo
Ġutilizada
Ġfins
Ġrefere
Ġantiga
Ġsorte
PA
raÃ§Ã£o
Ġgrave
Ġatingir
Ġtextos
Ġwww
ĠaniversÃ¡rio
Ġag
ĠinscriÃ§Ãµes
Ġbateria
Ġvariedade
ĠrecepÃ§Ã£o
Re
Ġchuva
Ġmedicamentos
Ġsaiu
atilde
ert
Ġmistura
Ġatua
Ġadolescente
Ġdica
q
Ġlinguagem
Ġesc
Ġpassada
Ġserve
Ġreconhecimento
ĠpreocupaÃ§Ã£o
+
Ġvantagens
ĠirÃ£o
Ġescrita
ral
ĠgÃªnero
Ġfontes
ĠcomparaÃ§Ã£o
Ġescondida
Ġfiscal
iados
Ġincesto
Ġdiscurso
Que
Ġluxo
Ġmembro
Ġinteiro
ĠinovaÃ§Ã£o
ĠVÃŃdeo
Ġpernas
Ġpronto
Ġtoque
Ġ02
Ġpositivo
Ġsabem
ire
ele
Ġplantas
Ã¡s
Ġalternativa
ĠintenÃ§Ã£o
ĠAlemanha
Ġbolsa
ĠIN
Ġfal
dia
pro
ĠSa
ess
ĠAlegre
ĠelÃ©trica
Ġperfeita
Ġdizem
nc
ĠinscriÃ§Ã£o
ast
....
ly
Q
tor
rÃ¡
ĠnecessÃ¡rias
Ġnasceu
Nos
ĠopÃ§oes
ĠPer
ĠÃ¡lbum
nde
jo
ĠtrÃ¢nsito
Ġcertamente
ĠSalvador
Ġcolaboradores
Ġhaja
âĢ¢
ĠdefiniÃ§Ã£o
Ġcausar
Ġnovidades
fa
Ġfinanciamento
Ġvacina
ativa
Ġviagens
Ġface
Ġdefinir
Ġescrito
Ġanti
Ġcria
Ġchama
Ġrealizados
ĠeconÃ´mico
ĠSal
ĠprevisÃ£o
Ġsegura
Ġativos
Ġeficiente
ĠmÃ©dica
ĠexercÃŃcios
ĠclassificaÃ§Ã£o
Ġconsulta
ry
Ġquerer
ĠvÃŃtimas
tu
Ġimediatamente
ĠMo
Ġcorrida
ĠcarÃ¡ter
icamente
ĠlÃ©sbica
TambÃ©m
Ġgol
Ġestudar
Ġacredita
Ġvidro
Ġjornalista
Ġrestaurantes
ĠdÃ£o
Ġaberta
Ġconhecimentos
Ġpermitir
ĠespÃŃrito
Ġvoltou
ĠMa
Ġia
ĠDesde
Ġjuiz
ĠepisÃ³dio
Ġcarta
ĠTecnologia
Ġatuais
ĠSaiba
Ġverdadeira
ĠNotÃŃcias
ff
ntes
ĠEncontre
ĠorientaÃ§Ã£o
Ġdispositivo
=
aÃ§Ãµes
Ġdieta
iss
Ġins
Ġiniciar
Ġdispositivos
Ġsexuais
ĠPlano
Ġescolar
Ġauxiliar
Ġatletas
Ġpossibilidades
ĠtÃŃtulos
ĠCal
inc
Ġaparelho
ĠDepartamento
Ġprefeitura
Ġestrelas
Ġarquivo
ĠresidÃªncia
ĠCampo
Ġacabar
Ġganha
Ġcontratos
ĠmantÃ©m
Ġindividual
inos
inar
Ġindustrial
ĠfrequÃªncia
Ġtivesse
Ġassistindo
Ġjornada
Ġrestaurante
ĠAssembleia
Ġassuntos
ĠAntÃ´nio
Ġterem
anos
Ġadvogado
Isso
Ġfatos
ĠHistÃ³ria
Ġsabemos
Ġplanta
ĠcontrataÃ§Ã£o
Ġapartamento
Ġfluxo
Ġrealiza
Ġarquivos
Ãģ
.[
ĠpropÃ³sito
ĠSu
ĠprincÃŃpios
ki
ĠocasiÃ£o
ĠReino
estar
Ġdepende
ĠAndrÃ©
Ġmostram
Ġleis
Ġacessar
ĠMe
ĠJorge
Ġdisputa
Ġtarefa
ĠParis
mm
Ġautores
Ġlegais
Ġperdeu
Ġexplicou
Ġfeminina
ĠacessÃ³rios
ĠCor
Ġabre
EL
imo
ĠPoder
ON
Ġcheio
ĠcÃ©lulas
CA
Ġescreveu
Ġafinal
Ġim
Ġlidar
Ġpassam
Ġav
ĠcomposiÃ§Ã£o
Ġestudante
Ġfigura
Ġguia
Ġlocalizada
ĠMan
Ġlendo
Ġachar
ĠEn
Ġessenciais
ĠprÃ³prias
ĠesperanÃ§a
Ġeficaz
Ġpediu
Ġbuscando
Ġfacilitar
Ġcriou
Ġmesmas
Ġorganismo
Ġenormes
Ġinferior
ĠSites
ĠprestaÃ§Ã£o
Ġencontram
Ġaplicativos
Ġqu
Ġjantar
ĠdiagnÃ³stico
ĠAssistir
ĠVamos
ĠRicardo
Ġtradicionais
ĠSuper
Ġvinho
ale
Ġeleitoral
iro
gas
con
Ġidosos
Ġcomando
ĠFerreira
ĠLuÃŃs
Ġdigitais
ps
ĠCada
ĠRoberto
Ġexames
Ġlevando
MG
ĠUn
Ã§os
ĠAg
ique
adoras
ĠirmÃ£os
ĠpadrÃµes
CE
ĠVerde
ular
ix
ĠeleiÃ§Ã£o
2015
ĠmÃ³vel
ran
Ġpreparar
ĠauxÃŃlio
2017
Ġchave
ĠPaulista
Ġcedo
Ġvagina
Ġterreno
ĠAt
Ġy
Ġamericano
ĠDurante
ĠestaÃ§Ã£o
Ġcanais
eb
Ġrespostas
Ġ36
Ġpiso
Ġpegar
ĠconclusÃ£o
ĠcontÃ©m
Ġvermelho
Ġestrada
Ġdestacou
US
Ġestreia
ĠresoluÃ§Ã£o
Ġtentativa
ï¿½
ĠTra
ĠidentificaÃ§Ã£o
Ġcriada
Ġhttp
Ġseres
ĠtelevisÃ£o
ĠdeverÃ£o
be
Ġcompartilhar
Ġpassos
Ġcomposto
ĠnÃ©
Ġficaram
ĠGuerra
Ġpassaram
Ġexpectativa
Ġparceiros
ĠerÃ³tico
Ġ2006
Ġcumprir
Ġredor
tas
ys
ĠÃŃndice
Ġingredientes
Ġdireta
Ġprecisamos
Ġadequado
Ġlimites
Ġespecializada
ĠEngenharia
ĠMunicÃŃpio
Ġfinalmente
Ġaumenta
Ġimporta
Ġmassagens
irÃ¡
ĠSenado
ĠaÃ§Ãºcar
ĠalteraÃ§Ã£o
Ġaspecto
Desde
ĠPereira
Ġcontribuir
Ġ32
ĠReal
Ġcapazes
Ġdormir
Ġindicado
Ġconferir
Ġacha
Ġvoto
Ġcompreender
Ġcrescer
Ġop
ĠsequÃªncia
irem
Ġfator
Ġdevemos
Ġcumprimento
Ġcategorias
Ġmin
ĠMarcelo
Ġconsiderada
Ġaplicar
Ġfios
Ġcadastro
Ġsonhos
ĠClube
ĠequilÃŃbrio
ĠcÃ©u
Pro
Ġcuidar
ĠfaÃ§o
Ġfornecer
ĠAv
Ġcrimes
ĠComunicaÃ§Ã£o
ĠDigital
ĠbotÃ£o
Ġaltamente
Ġfrio
Ġportuguesa
izados
ĠEspanha
ĠinfluÃªncia
Ġescolta
ĠmÃ©todos
ĠPolÃŃtica
Ġup
Ġis
ĠCaixa
Ġlhes
Ġcolegas
Ã¡tico
ĠcalÃ§a
ulo
Ġocorrer
ĠcomissÃ£o
ĠIsto
and
ĠItÃ¡lia
Ġindica
Ġdespesas
ĠchÃ£o
Ġachei
Ġcaseiro
ĠaplicaÃ§Ãµes
Ġvadia
ĠdÃ©cadas
Ġator
ive
les
ĠaquisiÃ§Ã£o
Ġsenhor
Ġcomunidades
ĠerÃ³ticos
ĠÃ¡
Ġleitor
Ġoral
Ġtentando
Ġgastos
ĠindivÃŃduos
Ġresto
gar
ĠespecÃŃfico
Ġcheia
Ġtrouxe
Ġencontrado
ĠCa
Ġfazia
33
esse
AP
ĠcidadÃ£os
ĠCearÃ¡
ĠAp
ĠVida
ĠextensÃ£o
Ġflores
Ġgu
Ãªncias
ĠBom
Ġexplicar
ĠBem
'.
Ġtransformar
Ġenfrentar
Ġferro
ĠreuniÃµes
|
Ġpasseio
ĠCampos
ass
Ġpopulares
ĠfarÃ¡
Ġdentre
Ġfeira
Ġritmo
ĠconexÃ£o
pre
ĠmÃ¡xima
Ġpensando
Ġconvidados
Ġfornecedores
Ġtabela
Ġvideo
Ġmanual
Ġespanhol
ĠWindows
Ġmeta
Ġrelacionadas
Ġpedidos
ĠPesquisa
Ġant
Ġtantas
Ġpolicial
Ġmercados
Ġgera
Ġinstrumento
Ġval
Ġservir
Ġclara
ĠclÃ¡ssico
ĠEra
Ġnove
Ġconf
pos
ĠFaculdade
âĢĶ
Ġpol
Ġjustamente
ĠLivre
Ã¡rias
Ġexemplos
ĠpÃ³
Ġinterna
31
entos
Ġabordagem
ĠBelo
Ġcu
EM
ĠlideranÃ§a
ĠindivÃŃduo
Ġposse
Ġfacto
Ġexige
Ġliteratura
Ġ03
Ġet
dor
enc
Ã¡tica
Ġtarefas
Ġadquirir
Todos
Ġlucro
ĠQual
Nesta
Ġ34
Ġcoloca
alizaÃ§Ã£o
ĠimpossÃŃvel
EntÃ£o
ĠtransferÃªncia
Ġrealizou
Ġapresentam
Ġmental
Ġteoria
Ġnotas
ĠhaverÃ¡
ĠVal
Ġalimentar
ĠjurÃŃdica
Ġjamais
ĠdeclaraÃ§Ã£o
ĠSerÃ¡
ĠcrÃŃtica
Ġinfraestrutura
Ġelenco
Ġass
sem
ĠimÃ³veis
RS
Ġescala
Ġpede
Ġjulgamento
ons
ĠrelÃ³gio
Ġinterno
Ġhabilidades
Ġareia
ĠPorque
Ġparque
Ġmenino
Ġdiariamente
Ġfacilidade
Ġconceitos
ĠdomÃŃnio
Ġoferecem
ĠfÃ¡brica
Ġgratuitos
ĠÃģfrica
Ġatos
ĠPol
ĠtesÃ£o
Ġby
Ġmusical
ĠBo
ĠintegraÃ§Ã£o
ord
Ġbranca
ĠligaÃ§Ã£o
ncia
Ã©m
Ġitem
Ġvisitantes
ĠCatarina
Ġatitude
Ġman
ĠcorrupÃ§Ã£o
Ġvereador
ĠSouza
col
Ġbela
ĠDefesa
ĠSh
ĠintervenÃ§Ã£o
ĠcompilaÃ§Ã£o
Ġcontrolar
ĠCap
ĠPre
ĠaudiÃªncia
Ġrevela
Ġpalco
Ġaprovado
zinho
Ġsolar
org
BA
ao
Ġmediante
Ġcorrente
Ġ38
Ġsente
Ġantigos
ĠEnquanto
Ġentendimento
38
Ġhumanidade
par
Ġtantos
Ġalvo
Ġprevisto
radas
Ġtomada
Ġfrancesa
Ġmorreu
Ġmostrando
ure
ĠEM
37
Ġchamar
ĠausÃªncia
Ġplataformas
Ġarmas
ĠDistrito
Ġcam
ĠatualizaÃ§Ã£o
Ġregra
Ġculturais
Ġfinalidade
uro
ĠmilhÃ£o
ĠespecÃŃficos
Ġlembra
Ġproporcionar
ĠCont
ĠespÃ©cies
Ġtransando
ĠMato
ĠGomes
Ġdel
Ġcomponentes
fe
Ġpapo
ĠRodrigues
Ġjuntamente
Ġfundos
ĠMelhor
Ġiria
Ġatuar
ĠtÃ¡
Ġassinatura
Ġ37
CO
Ġmaduro
Ġfabricante
iais
ĠvotaÃ§Ã£o
DE
ill
Ġassista
Ġnegros
Ġprodutores
Ġvelhas
Ġruim
Ġfio
rados
ier
ĠMP
Ã¢ncia
EC
Ġpodia
Ġabertas
ĠcritÃ©rios
2021
ĠrevisÃ£o
Ġmoral
Ġvigor
Foto
Ġestejam
Ġinteressados
ĠconfortÃ¡vel
Ġ2000
Ġsurpresa
Ġvestido
ua
Ġmudou
ĠtransformaÃ§Ã£o
Ġenvolve
Ġolho
Ġpropriedades
Ġint
dores
Ġ48
ĠOnline
ĠHenrique
iadas
Ġperspectiva
ĠAmbiente
ĠÃ¡guas
tes
Ġalternativas
Ġpesquisadores
Ġenvolvidos
ĠMac
Ġconsidera
Ġcenas
Ġorgasmo
Ġaquelas
Ġrodada
ĠsuperfÃŃcie
ĠprÃªmio
Ġcusta
ĠÃ¡lcool
Ġexcesso
Ġnegro
ĠMiguel
alidade
Ġret
Ġponta
ĠPreto
Ã©s
Ġposto
rom
ĠiluminaÃ§Ã£o
Ġpermitem
ĠAlves
Ex
ĠBranco
Ġadequada
ĠtraduÃ§Ã£o
ĠlanÃ§ou
Ġexclusivamente
Ġsabor
Ġmm
Ġrequisitos
ts
Ġturismo
Ġtua
Ġcair
Ġjudicial
Ġalerta
Ġamante
36
Ġsurgiu
ĠJogos
anc
der
Ġsentimentos
ĠlÃŃderes
ĠDecreto
Ġdestas
ĠTe
Ġsemelhante
ĠRodrigo
Ġfodido
Ġdura
Ġmoderno
Ġmelhoria
Ġfelicidade
Ġvencer
Ġnovidade
Ġimpostos
ĠDias
ĠtradiÃ§Ã£o
Ġcasais
Ġenvio
Ġmodalidade
esc
aro
Ġlazer
rac
ns
Ġfuncionar
Ġ)
ĠexpansÃ£o
ĠCiÃªncia
34
Ġ$
Ġja
ity
ĠdÃ³lares
Ġgratuita
Ġnaquele
ĠDaniel
Ġcargos
ĠYork
Ġpersonalidade
Ġficando
Ġportal
Ġnele
Ġma
ĠBR
Ġ08
ĠEsc
Ġsalas
Ġbonito
Ġrural
Ġsentimento
Sim
Ġservidor
Ġetapas
Ġdec
iou
Ġobservar
ĠdÃŃvida
Ġpintura
Ġdesenho
Ġvejo
Ġcarinho
Ġmel
Ġcirurgia
ĠtendÃªncias
eria
ĠfabricaÃ§Ã£o
ĠMuito
Ġchances
ĠComÃ©rcio
Ġinf
Ġhttps
Ġdito
Ġisolamento
Ġutiliza
Ġilha
iÃ§Ãµes
ĠdeficiÃªncia
Ġ2005
Ġestabelecimento
GO
Ġchegando
rat
Ġemail
Ġmortes
ĠsuspensÃ£o
Ġfamoso
ĠcomeÃ§aram
ĠIsrael
Ġcomp
Ġ150
eacute
Ġcorrer
ĠTemos
ust
Ġacredito
ĠEs
ĠconcentraÃ§Ã£o
ĠExecutivo
Ġdiminuir
Ġconsiderar
etas
Ġmunicipais
Ġdesc
Ġsono
ĠBlog
Ġsignificado
Ġvisando
Ġqueremos
ĠAlguns
Ġpago
Ġcorreta
ĠPortal
Ġconquistar
Antes
ĠfÃŃsicas
Ġcovid
Ġ33
Ġviajar
ĠprÃ©dio
ĠJapÃ£o
Ġmo
ala
Ġmod
Ġquebra
Art
Ġcabo
imentos
ez
Ġdada
Ġsolicitar
Ġpoucas
ĠEconomia
ĠWeb
Ġdaquele
Ġcantora
Ġplaca
Ġle
Ġpasta
ĠsalÃ¡rios
Ġcaiu
Ġmetal
Ġamar
Ġerrado
Ġparceiro
Ġsegundos
ĠMal
ĠconheÃ§a
Ġpaga
Ġmat
Ġdestinado
erem
Ġleitores
ĠGrosso
Ġun
tiva
ĠlÃŃquido
ĠMarketing
Ġesporte
Ġexistentes
Ġacabamento
ĠdiferenÃ§as
DA
ĠempresÃ¡rio
Ġamericana
cm
ĠMeu
Ġcura
Ġdemocracia
ĠinteligÃªncia
Ġinstrumentos
Ġassociados
Ġmandato
ilo
Ġacerca
Ġhomenagem
ĠprÃ³ximas
ĠTwitter
Ġconsiste
ĠeletrÃ´nico
ĠrÃ¡dio
ĠinfÃ¢ncia
ind
Ġcapa
ĠAndroid
Ġvisa
ccedil
ĠNas
Ġconseguem
PT
Ġregular
ach
Ġautoridade
ler
ĠAntes
ĠPC
erc
TI
55
ĠDireitos
Ġgorda
Ġclose
Ġgel
Ġreg
ĠDiÃ¡rio
end
ĠplÃ¡stico
Ġ<
Ġbonita
Ġintegral
ĠmasturbaÃ§Ã£o
eta
].
anas
Sem
Ġfechar
Ġamo
Ġagente
Ġnamorado
ĠprofissÃ£o
ĠoposiÃ§Ã£o
ĠAssistÃªncia
ĠBa
Ġmed
ĠSE
ĠSub
Ġpacote
Ġtopo
Ġpermitindo
NÃ³s
Ãªs
Ġrecentes
2014
Ġquaisquer
Ġprodutividade
ĠassociaÃ§Ã£o
ĠAvenida
tores
ĠrazÃµes
Ġvindo
Ġenvolvendo
Ġautomaticamente
ĠCampinas
Ġtia
ĠAfinal
Ġassumir
ĠFamÃŃlia
Ġimp
Ġai
Ġmotorista
Ġagenda
ID
Ġmoeda
ques
ama
Ġpublicada
cer
Ġel
Ġdiscutir
ĠamanhÃ£
Ġcarteira
ĠcÃ¡
ĠAL
ner
Ġcap
hi
ĠprevÃª
Ġajudam
Ġnegra
ĠLatina
ĠEstamos
almente
ĠRec
taÃ§Ã£o
Ġestabelecer
Ġanteriormente
ĠcompreensÃ£o
Ġfundamentais
Ġobrigado
uto
ĠcrÃŃticas
ĠdanÃ§a
ĠcombinaÃ§Ã£o
Ġref
Ġseguindo
ĠMedicina
ĠcirculaÃ§Ã£o
ĠagradÃ¡vel
ĠpreparaÃ§Ã£o
Ġpaus
PS
Ġabriu
Ġfrase
ĠPra
Caso
Ġfrutas
Ġdecidir
Ġhabitantes
IT
Ġfinanceiros
Ġseguidores
ĠestarÃ£o
ianos
Ġcausas
Outro
Ġimposto
Ġpoderiam
Ġpermanente
Ġdoce
ĠCarvalho
ĠEstou
ĠPai
Ġterceiros
ĠvÃªm
ation
ĠOrganizaÃ§Ã£o
Ġdores
ĠimplantaÃ§Ã£o
Ġtanta
AB
Ġaprendizagem
ĠversÃµes
Ġcostas
Ġrevelou
ĠFundo
ĠCan
Ġacompanha
isa
ĠcontribuiÃ§Ã£o
ĠMuseu
Ġmasculino
ĠSempre
Ġtenta
Ġtu
Ġentregar
ĠPernambuco
ĠAC
Ġespiritual
Ġ04
Ġcomplexo
ĠPo
ĠÃºteis
ĠSan
ĠBruno
Ġcampos
Ġmelhora
Ġaluguel
ost
ĠcientÃŃfica
ĠSupremo
UN
ĠPois
bl
Ġ07
Ġbaseado
Ġseriam
Ġbo
DO
ĠCO
Ġdivulgado
ĠPessoa
Ġcomposta
ĠMat
ĠPM
Ġcaro
bal
ĠEmpresa
Quanto
Ġdaqueles
ĠHorizonte
ĠTenho
Ġarma
ĠMinha
ĠAnt
Ġsaia
ĠelaboraÃ§Ã£o
ĠconsequÃªncias
ĠchÃ¡
ĠNew
47
Ġnisso
Ġlixo
80
Ġtira
ĠficarÃ¡
ĠEspecial
ĠTurismo
ĠpaixÃ£o
Ġcampeonato
ĠFestival
ĠQuanto
Ġfinais
ĠCl
Ġproduz
Ġproporciona
Ġincluem
ĠMarcos
Est
Ġama
Ġpo
lu
ris
Ġletra
Ġdefender
ĠCam
ĠMeio
ema
Ġbarato
ĠdiÃ¡logo
Ġaltos
Ġaceitar
Ġ!
Ġcoloque
ĠTrans
Ġorganizar
Ġvivem
Ġgaragem
ene
ĠemergÃªncia
ĠSenhora
Ġrep
Outra
Ġexclusivo
ley
Ġinformar
Ġativo
Ġ09
Ġpainel
Ġpartidos
Ġexpectativas
ramos
2013
Ġacreditar
ĠsustentÃ¡vel
Ġinforma
Ġdono
ED
Ġcabe
Ġconquista
Ġcouro
ĠcidadÃ£o
Ġfotografia
IO
ĠVitÃ³ria
Ġinvestidores
ker
ĠaparÃªncia
ric
Ġnascimento
Ġtriturador
ĠSer
Ġed
ĠPS
via
Ġquis
ĠerÃ³ticas
ĠHumanos
ret
ĠFazenda
Ġcoluna
Ġentende
ĠEmbora
Ġcriatividade
ĠHotel
Mar
Ġprivadas
Ġproduzido
ĠMon
ĠLeia
ĠCOVID
48
Ġdependendo
ĠSr
Ġsozinho
Ġelemento
Ġgraves
Ġ05
ĠPÃ³s
ĠMartins
Ġpensa
Ġcadeia
Ġpal
Ġperformance
Ġprofunda
Ġinverno
ĠRosa
Ġpassageiros
Ġjardim
itado
ĠRibeiro
ĠPraia
Ġcurta
ĠcÃ©rebro
IP
Ġfolhas
IM
Ġteatro
ĠGe
Ġmetas
esa
Ġne
ĠConheÃ§a
Ġ400
%)
In
Ġestruturas
Ġdestacar
Ġtitular
Ġhumor
Ġ06
ĠUnido
Ġexecutivo
Ġperante
Ġlateral
AD
dora
Ġrei
Ġaparecer
ĠesforÃ§os
su
Ġtrabalham
Ġfornece
Ġalcance
ise
39
Ġparticipou
Ġcantor
ĠbÃ¡sico
Ġconhecidos
ĠGoiÃ¡s
ĠresÃŃduos
ĠArgentina
Ġindividuais
ĠvacinaÃ§Ã£o
Ġsabendo
ĠempresÃ¡rios
Ġinter
ĠBoa
Ġapoiar
Ġroteiro
ĠDom
ĠGo
Ã§as
AtÃ©
Ela
Ġor
ĠHD
Ġconsiderando
ĠpotÃªncia
Ġesperma
Ġtrabalhador
Ġmarcado
ĠSociedade
Ġpista
Ġsemestre
Ġrico
Ġform
ĠInter
Ġensina
ĠQ
Ġgarantindo
ĠGal
ĠVÃŃdeos
Ġtrocar
ĠinclusÃ£o
Ġcontratar
SC
ich
ĠAuto
ĠposiÃ§Ãµes
ĠRÃºssia
ĠRos
Ġeleito
ile
Ġagir
OL
encia
ĠcÃ£es
Ġ2004
Ġprestar
Ġsujeito
Ġtop
Ġmoto
Ġhospitais
ĠdivisÃ£o
ĠreÃºne
SE
Ġdisponibilidade
ĠpreferÃªncia
pas
Ġtocar
Ġdeclarou
Ġporte
ĠApple
Ġdeputados
Ġmora
ult
Ġromance
ĠimplementaÃ§Ã£o
Ġautora
95
Ġconvite
Ġgays
Ġcolocou
Ġativa
land
ĠcondomÃŃnio
Ġliga
ans
ĠlanÃ§ar
zo
Ġcoletiva
ĠEuropeia
Ġlevantamento
arÃ£o
th
ĠhotÃ©is
ĠTal
Ġaeroporto
ĠEntretanto
ren
Ġsofrer
ĠMÃ©dio
Ġinv
Ġcontinuidade
Ġsequer
ĠZona
Ġmortos
Ġcamisa
Ġformado
Ġdormindo
ĠexcelÃªncia
red
ĠEsses
Ġaponta
Ġ55
Ġ75
Ġacabam
Ã©tica
ĠsalÃ£o
ĠrecÃ©m
Ġsinto
46
Ġzero
ĠclÃŃnica
atÃ³rio
Ġcl
Ġiniciou
ĠEstudos
ĠLondres
Ġpeito
Ġmaneiras
Ġansiedade
ĠLucas
<
Ġespecializados
Mesmo
Ġintuito
ĠhorÃ¡rios
Ġmerece
Ġempreendimento
Ġpagamentos
Ġgerenciamento
Ġfaculdade
Ġgols
ĠcompetÃªncia
Ġtreino
Ġoficiais
MS
Ġculpa
Ġfodem
ĠMaranhÃ£o
RJ
ĠIII
Ġfinanceiras
Ġmon
ĠFortaleza
Ġperde
ĠcampeÃ£o
Con
ĠPreÃ§o
Ġcolocado
Ġcentenas
Ġcadeira
ĠOr
Ġregional
ĠArte
Ġmuda
Ġclubes
ĠreflexÃ£o
ick
ĠNesta
Ġinteligente
ĠindicaÃ§Ã£o
Ġapp
Ġsenador
Ġartes
Ġdisposto
Ġaposta
Ġdiversidade
Ġoferecendo
Â§
agens
?"
ĠinÃºmeras
Ġarquitetura
Ġmoderna
Ġhouver
ĠuniÃ£o
Ġpromove
alizar
ĠespecÃŃficas
Ġportugueses
Ġforem
ĠDessa
ÃŃamos
Ġjanela
Ġind
ĠSÃ©rie
Ġindo
oca
ĠPraÃ§a
ĠocorrÃªncia
fer
Ġpasse
Ġpositiva
Ġreportagem
ĠLiga
Ġprevista
ĠpÃ£o
ĠquilÃ´metros
ĠalmoÃ§o
inado
ĠespecÃŃfica
Ġterras
Ġcriando
aacute
Ġcento
Ġestabelecimentos
ĠpornogrÃ¡ficas
ĠSTF
Ġcoletivo
isc
Ġexistir
ĠfiscalizaÃ§Ã£o
ĠcomeÃ§am
Ġ2003
ĠcÃ¡lculo
ĠdaÃŃ
Ġcontatos
Ġcontinuam
Ġtreinador
Enquanto
Ġamplo
ay
Ġbio
ĠDel
70
ĠSantana
Ġexterna
ĠavanÃ§o
Ãį
ativos
Ġprodutor
ĠProteÃ§Ã£o
Ġsalvar
Ġgovernos
Ġestaria
elas
ĠFlamengo
Ġapresentados
ĠPortuguesa
nder
Embora
ĠcolaboraÃ§Ã£o
500
Ġsa
Ġti
ĠÃģrea
ĠArt
Ġfechamento
Ġataques
Ġescritor
Ġpublicidade
ĠcalendÃ¡rio
Ġlivres
Tem
Ġusam
Ġcontam
ĠemissÃ£o
Ġrepresentante
ril
Ġconversar
izadas
ĠTodas
Ġmontagem
Ġpaulista
Ġbrilho
ĠJair
Ġanual
ĠRevista
Ġdose
Ġatende
Ġpegou
Ġconfira
Ġamizade
Ġfolha
ĠAno
Ġdentes
SA
ĠcobranÃ§a
ĠAtualmente
Ġambientais
ĠCON
Ġaventura
ĠAcho
ĠJohn
ĠFeira
ĠInc
75
ĠSobre
ĠCorpo
Ġrecuperar
Ġaparelhos
Ġaprendizado
Ġusadas
Ġdoses
Ġmet
Ġdivulgar
ariam
Ġmontar
Ġlook
ĠLuz
ĠJornal
cio
Ġconsiderados
ĠAlexandre
ĠvÃ¡
ĠbÃ¡sica
Ġnu
ĠNeto
fo
ĠeficÃ¡cia
Ġchocolate
ĠPR
ĠClaro
let
ĠFederaÃ§Ã£o
Ġcampanhas
Ġescolhido
ĠHomem
Ġlavagem
edor
Ġmapa
ĠsecretÃ¡ria
rad
Ġrequer
97
ĠconsideraÃ§Ã£o
ĠSp
Ġchegaram
Ġcombater
Sobre
Ġvelhos
Ġpen
Ġouvido
ĠAN
Ġprocuram
Ġvoc
ĠmÃ¡scara
Ġcoleta
Ġencontrou
Ġvisitas
ĠfÃ³rmula
uta
ĠIP
Ġacontecendo
Ġparecem
The
Ġrelativamente
ĠconservaÃ§Ã£o
Ġcentros
ĠIta
Ġsofre
ata
.)
etes
Ġarmazenamento
Ġextrema
assem
Ġlavar
rim
Ġutilizadas
EstÃ¡
alizado
Ġcorreto
Ġcaminhos
Ġdetalhe
Ġcorretamente
Ġampliar
val
Ġmoinho
gra
Ġes
ĠRa
Ġalimento
Ġincluir
Ġacidentes
ĠFaÃ§a
uz
Ġperfeitamente
ĠAlto
Ġigualmente
2012
ĠNe
Ġformar
ĠameaÃ§a
Estamos
Ġtivemos
ĠSou
IL
Cont
Aqui
Ġestoque
ĠOficial
Ġtratamentos
ĠreaÃ§Ã£o
Ġlar
ĠConc
ĠAlmeida
ĠmÃŃnima
ĠInformaÃ§Ã£o
Ġgostei
ativas
ĠRes
32
ame
Ġdeterminada
Ġdescontos
ĠBairro
ĠpatrimÃ´nio
Ġedital
ĠBarra
Ġbolo
Ġemocional
Ġitaliano
ime
ĠBlack
Ã§am
Ġgravidez
amb
ĠTo
ĠTh
Ġpat
Ġrecebido
Ġcum
Do
Ġterminar
ĠpetrÃ³leo
Ġbelo
ĠvovÃ³
ĠcaracterÃŃstica
rel
Ġ120
Ġexclusiva
Ġfomos
Ġli
Ġtriste
Ġinstalar
RI
Ġdating
Ġbebidas
ĠÃįndia
Ġconc
Ġcreme
Ġoperacional
ĠexploraÃ§Ã£o
Ġexecutar
ĠinteraÃ§Ã£o
Ġ@
ĠFotos
ĠTrump
Ġconcreto
ĠAntonio
ĠArtes
Ġuse
ĠaviÃ£o
ĠBraga
Ġatores
Ġboquete
Ġpostos
Ġfossem
ĠinterpretaÃ§Ã£o
Ġdesenhos
mais
ĠpÃªnis
ĠalemÃ£o
Ġindicadores
Ġmadrugada
Ġconsegui
eda
jar
atos
Ġencontre
Ġretirada
ĠCultural
ĠMin
Ġparedes
ĠhÃ¡bitos
ĠcartÃµes
ĠAss
iÃ£o
Ġ65
Ġvenceu
Ã©r
ĠFutebol
Ġ2002
Ġcomunicado
Ġbolas
SÃ³
Ġescort
eca
Ġnesses
Ġmensal
ĠEleitoral
of
Ġtrecho
ĠTrata
li
ĠPelo
Ġesclarecer
aremos
Ġvoo
ĠCas
Ġcertos
Ġdecreto
ĠreligiÃ£o
oro
Ġpresos
Ġpeluda
Ġretirar
iqu
Ġgerais
Ġmatar
Ġtrazendo
Ġfabricantes
Ġtornam
all
ĠÃĢ
Ġvendo
rias
Ġteremos
Ġintegrantes
Ġtoneladas
ky
Ġorganizado
Ġacompanhado
ĠRocha
Ġtravesti
Ġaumentando
ĠdiÃ¡ria
Ġcostuma
Ġpa
ĠNordeste
ĠrepresentaÃ§Ã£o
Ġoferecidos
Ġbarra
ĠInglaterra
ĠDavid
Ġopera
!"
ĠIm
ĠcÃ¢mbio
ĠPal
ibilidade
Ġpr
Ġregistrado
100
Ġped
Ġpiloto
ase
ĠOuro
#
ĠDesta
ĠemoÃ§Ãµes
Ġprov
Ġchamou
ĠTom
Ġreconhecer
Nesse
ĠForam
Ġalterar
ical
Ġrelevantes
ĠdinÃ¢mica
ĠMont
Ã©tico
ĠobrigaÃ§Ã£o
Ġestranho
ĠformulÃ¡rio
Ġfin
ĠInt
Ġcorre
Ġapresentada
Ġacademia
Ġbaseada
Ġduro
Ġsofreu
Ġpostura
Ġesquecer
Ġdisciplina
Ġfloresta
Ġcomprimento
Ġonda
ĠdispÃµe
Ġpobres
Ġdaqui
Ġadicionar
Ġgolpe
uras
ĠTer
Ġdezenas
ĠgraduaÃ§Ã£o
Ġestrela
Ġparlamentar
Ġfamosa
Ġligado
Ġmau
Ġprivacidade
Ġimpedir
Ġmonitoramento
Ġchegam
ĠRo
ĠEstÃ¡
iga
ĠdiÃ¡rio
ĠRecife
Ġcomentou
Ac
Ġbairros
Ġlevado
Ġrelevante
Ġmulta
Ġcoragem
Ġmarcada
ort
ĠSexo
Ġuniversidade
Bom
ko
Ġinfelizmente
Ġrespectivamente
Ġaltas
Ġsan
ium
ificar
ĠincrÃŃveis
ĠsÃ©ries
ĠGra
Ġfechado
Ġ("
âĢ¦.
Ġsenhora
Ġgordas
ulas
Ġmaravilhoso
Ġpensamentos
Ġpratos
Ġmorto
Ġfome
Ġprato
Ġelevado
Â».
Ġ39
entar
ĠprecisÃ£o
Ġmargem
Ġdemandas
Ġado
ĠcombustÃŃvel
ĠAbril
88
EI
rec
Ġmestre
ĠtensÃ£o
Ġmantendo
Ġautonomia
ĠtrajetÃ³ria
ĠContudo
age
An
Ġmini
udo
Ġconflitos
nto
Â®
Ġsegredo
Ġgozando
ĠdormitÃ³rios
Ġentregue
ĠPl
65
ĠCriaÃ§Ã£o
ĠProcesso
Ġcanto
ĠEmpresas
ĠcÃ¢meras
44
Ġpe
Ġcorporal
ĠSÃ©rgio
Ġshows
PP
Ġadora
enses
Ġpovos
ĠControle
ifica
Ġturno
ĠpromoÃ§Ãµes
ber
ĠProfessor
ny
Ġrecebem
Ġpraias
ĠsugestÃµes
igo
Ġsurge
ĠdÃª
ĠestÃ¡gio
Ġprocessamento
ĠperÃŃodos
Ġgama
Ġentretanto
Ġforno
Ġconselho
ĠCOM
Ġestaduais
ĠBÃŃblia
ĠRafael
Ġ;
Ġdeterminar
Ġnorma
este
Ġemp
ĠCD
Ġespero
ĠinvÃ©s
ĠsaudÃ¡veis
Ġimediato
Ġfiscais
Ġext
ET
Ġadicional
ĠjurÃŃdico
ĠconcessÃ£o
ĠMil
ĠTalvez
Ġba
Veja
ĠExistem
ĠEssas
Ã§ar
Ġsemelhantes
ĠMadeira
Ġperigo
ĠUnidade
Ġclicar
ĠSindicato
Ġtrem
ĠNO
ĠorientaÃ§Ãµes
Ġcertas
Ġderam
ĠoraÃ§Ã£o
ĠNem
ĠdenÃºncia
Ġempregos
Ġdever
Ġtrimestre
Ġpet
Ġdatas
ĠindÃŃgenas
adeira
rig
Ġvemos
Ġseca
ĠPar
Ġrel
Ġpedras
Ġst
ĠMaio
ĠInfantil
Ġambas
Ġpercurso
Ġbaixe
Ġoptar
Ġmac
ĠestÃ¡dio
ĠmanifestaÃ§Ã£o
ĠprejuÃŃzo
ĠBen
ĠCastelo
ĠAmor
ĠdifÃŃceis
ĠCompanhia
ĠidÃ©ia
Ġtentou
Ġha
Ġ00
ĠPartido
Ġfl
Ġmarcou
ĠProstitutas
Ġfruto
Ġdivulgou
Ġuniversidades
Estou
Ġestabilidade
ĠLogo
ĠTeatro
ĠMuitas
ĠLo
Ġinicia
Ġinteressantes
ĠPe
Ġconflito
Ġdefinido
Ġatleta
Ġdisponibiliza
Ġreceberam
ĠEsp
ĠBolsa
ĠlaboratÃ³rio
Es
ĠFelipe
Ġrelacionado
cos
Ġensinar
ĠAmazÃ´nia
ĠMendes
ĠhipÃ³tese
ĠcapÃŃtulo
Ġrapaz
Ġembalagem
ĠopiniÃµes
port
Ġol
Ġcorpos
Ġmarcar
ĠagÃªncias
Ġadministrativa
Ġaplicado
ĠDados
ĠmÃ¡
Ġcat
Ġterminou
Ġrosa
ĠproprietÃ¡rio
esta
ĠÃ¡rvores
ĠgrÃ¡vida
Ġcas
Ġpouca
ĠconsequÃªncia
Tudo
Ġpublicou
ĠatraÃ§Ãµes
Ġsustentabilidade
Ġadicionais
ÃĩÃĥO
Ġcrescente
ĠadaptaÃ§Ã£o
Geral
ĠalumÃŃnio
ĠPortuguÃªs
Ġnatal
Ġturma
ĠhistÃ³rica
ĠBe
ĠdimensÃ£o
ĠmatÃ©rias
Ġgratuitamente
Ġaceita
Ġcolega
ĠPARA
ĠJÃºnior
Lei
esp
Ġbat
ĠComp
ĠlÃ³gica
ĠBal
Ġconter
ĠNosso
ĠPrevidÃªncia
Ġsegmentos
Ġnaquela
ulaÃ§Ã£o
ĠBarbosa
Ġformada
ĠrefeiÃ§Ãµes
ĠIns
Nossa
ĠVieira
ĠespetÃ¡culo
ĠMicrosoft
atas
Ġconstantemente
ĠlanÃ§a
Ġtrama
Ġlados
ĠAnd
96
Ġregistros
Ġdesa
Ġpositivos
ĠepisÃ³dios
Ġconseguimos
ĠÃģgua
Ġsofrimento
Ġvereadores
Ġchamados
ĠReceita
ĠmanifestaÃ§Ãµes
ĠbraÃ§os
ĠCabo
ĠmultidÃ£o
ĠParaÃŃba
Ġarroz
Ġsubir
Ġjusto
Ġletras
Ġexperimentar
Ġcoordenador
Ġdaquela
ilha
Ġtor
Ġsin
ĠlocaÃ§Ã£o
Ġtecidos
Ġpecado
Ġdefende
isse
geral
ĠapresentaÃ§Ãµes
ĠProf
ĠinspiraÃ§Ã£o
Ġbolsas
ĠTÃ©cnico
ĠQuer
eraÃ§Ã£o
ĠJo
ĠTemer
ep
Ġcomecei
Ġempresarial
ode
Ġvos
Ġapostas
Ġbonitas
Ġatitudes
oma
una
ize
ĠMarÃ§o
Ġseguros
Ġcon
ĠinflaÃ§Ã£o
af
Ġsur
UL
Ġdeveriam
ĠLopes
Ġvirgem
ICA
Ġ42
Ġmilho
ĠMaia
Ġreferente
Ġcartas
ĠClique
Ġrumo
ĠEstes
Ġclaramente
ĠdepressÃ£o
Ġexterno
Ġenviado
ĠRÃ¡dio
oa
Ġestacionamento
ĠsessÃµes
2011
Ġvias
Ġpromete
ĠGabriel
Ġesperando
Ã§ada
Ġkg
cia
ĠAgricultura
ĠJudiciÃ¡rio
ze
Ġmodernos
Ġindicar
ĠprovÃ¡vel
Ġencontrados
Co
rios
ĠPa
tra
ĠBio
ĠTÃ©cnica
Ġcaminhada
ĠOutubro
ĠconfiguraÃ§Ã£o
Ġimpactos
Ġaplicada
ĠShopping
rit
Ġvento
ĠDesign
ĠgrÃ¡fico
Ġpreta
ĠCab
Ġbatalha
Ġvenha
Ġpoderes
Ġparecia
ĠreferÃªncias
ĠMÃ£e
Ġdi
Ġevitando
by
ĠdiminuiÃ§Ã£o
Ġ250
Ġkit
ĠSam
Ġestresse
Ġmedicina
Ġassegurar
rica
Ġpreparado
Ġ2001
itando
ĠÂ§
Ġfelizes
ĠWhatsApp
ĠTodo
Ġintensidade
Ġenfim
Ġ44
Ġiniciativas
Ġintegra
ĠCapital
Ġ-,
ĠDisney
Ġvacinas
Ġdeixam
ph
Ġurbana
Ġplena
ĠRed
Ġgostam
Ġengenharia
Ġlindos
Ġteto
pol
ĠadoÃ§Ã£o
ĠSetembro
Ġinteressado
ĠÃ¡udio
Ġperdas
nes
Ġdescoberta
oria
VÃŃdeo
idor
Ġgestores
ĠfazÃª
PC
Ġbuscam
ĠocupaÃ§Ã£o
aco
ÃĥO
ĠOrdem
ĠParÃ¡
Des
Ġdesenvolvida
ĠAP
Ġgerente
itam
und
Ġranking
Ġmorrer
ĠAntÃ³nio
Ġcaixas
ont
Ġindustriais
?!
Ġ600
Car
Ġconfirmou
ĠRE
Ġhigiene
ÃŃdo
Ġdizia
ĠSendo
ĠPrimeiro
Ã¡ticos
ĠAB
Ġnecessita
Ġvis
amp
ĠdescriÃ§Ã£o
Ġta
ĠYouTube
Ġwebsite
Ġbrinquedos
Ġdevidamente
ĠAzul
ĠDec
Ġfestival
ĠEr
Ġrica
Ġprioridade
Ġconsultoria
Ġhaviam
our
Ġesquema
ĠAmbiental
ĠtransparÃªncia
ĠsolicitaÃ§Ã£o
Ġempregados
Ġpossuir
olÃ³gico
ĠcolocaÃ§Ã£o
Ãĵ
ĠOeste
ug
Ġperdido
ĠdepÃ³sito
ĠdeterminaÃ§Ã£o
Ġajudou
Ġmasturba
Ġafirmar
ĠFolha
Ġfederais
Ã¡gua
ĠcompetÃªncias
Ġexplorar
aca
MP
Ġnela
Ġdiretora
ĠnegociaÃ§Ãµes
ĠacessÃŃvel
Ġolha
ĠLivro
Ġpop
ĠCur
Ġturistas
ĠAmazonas
Ġnovela
inal
ĠpercepÃ§Ã£o
Ġinicialmente
Temos
Ġparcela
ĠAM
Ġpl
ĠpreservaÃ§Ã£o
inada
Ġvinhos
Ġvizinho
Ġseguem
Ġganho
Ġpesquisar
Ġocorrido
Ã¡mos
Ġtv
Ġrock
ĠAcademia
inaÃ§Ã£o
ĠlicenÃ§a
ĠdocumentaÃ§Ã£o
izando
Ġparticulares
ĠMÃ©xico
Ġmobilidade
Ġfilosofia
Ġmoagem
Ġcientistas
americano
Ġsuperar
Ġencontrada
ĠFal
ĠPossui
Ġhome
Ġlevam
Nas
ĠElas
ĠfÃŃsicos
ĠMuitos
ĠCat
ĠFÃŃsica
ĠbraÃ§o
Ġcruz
Ġparis
sou
rÃ£o
Ġquadrinhos
Ġcontudo
ĠinÃºmeros
Ġfrutos
ĠcerimÃ´nia
Ġplacas
Ġmadri
ĠconfirmaÃ§Ã£o
ĠPalmeiras
ĠanÃ¡lises
Ġposteriormente
Existem
cl
49
ĠinfecÃ§Ã£o
ĠPr
Ġchamadas
II
Ġreduz
ĠdedicaÃ§Ã£o
alo
Ġchupando
ĠPaula
LA
Ġdiferencial
Ġfil
erg
ĠMonte
Oi
gado
Ġatento
Ġqualificados
Ġprofundo
Ġestrangeiros
Ġprepara
Ġdesejar
Ġpalestras
Ġer
Ġ46
Ġeliminar
Ġgastar
enas
Ġcitados
Ġlutar
Ġmuscular
itaÃ§Ã£o
iente
Ġbloco
Ġanda
ĠFernandes
ĠPat
ĠCastro
Ġcarnaval
Ġrendimento
ÃŃssimo
Ġbaixos
Ġbebida
Ġesperado
Ġlo
Ġrepresentam
Ġgostosa
ĠSala
ĠpornogrÃ¡fico
ok
Ġpega
ĠEncontro
Ġbater
ĠPA
Ġfree
Ġsenha
Ġestabelece
ĠestÃºdio
Ġgostar
Ġtomou
reg
Ġcostumam
ĠPalÃ¡cio
ĠÃ¡rvore
erar
66
ĠConhecer
vas
ĠtransiÃ§Ã£o
ĠOl
ĠCorte
Ġge
Ġcolocando
Assistir
Muito
Ġvitamina
Ġtons
ance
Ġpq
ĠGuarda
Ġaviso
ju
Vamos
ger
Ġcomputadores
ĠSch
Ġante
Ġimaginar
atÃ³ria
Ġcachorro
ĠreceberÃ¡
Ġpudesse
ĠfuncionÃ¡rio
Ġdano
Ġfico
ĠajudÃ¡
Ã³rio
Ġfer
ĠpraÃ§a
Ġfre
Ġantigas
lam
Ġassessoria
entando
elli
Ġcandidatura
Ġmecanismos
ĠAtendimento
Ġorgulho
,.
ĠManaus
Ã£s
ĠelÃ©trico
Ġfuturos
Ġprof
Ġbig
IR
Ġmelhorias
ĠEN
tivo
ĠPRO
Ġporto
ĠPed
ĠFÃ³rum
Ġtermina
Ġnus
Ġjornalistas
Ġindependentemente
ĠOperaÃ§Ã£o
ĠraÃ§a
Ġjaponesa
usa
ĠSo
Ġagricultura
Ġdiretoria
Ġespecificamente
Ġpalestra
Ġnegativo
ĠSC
ĠNÂº
Ġvermelha
Ġfrequentemente
Ġnarrativa
ĠcurrÃŃculo
Ġrestante
ĠLu
Ġvariados
ĠPetrobras
ĠcÃ£o
Ġmont
je
Ġmetodologia
Ġate
Ġsuperiores
ĠmineraÃ§Ã£o
HA
Ġbal
ĠJulho
Ġadvogados
ĠCha
Ġtestar
ĠiPhone
ĠRei
Ġabsolutamente
ĠProdutos
ĠOutros
ĠCR
Ġparticiparam
ue
Ġinteira
Ġprazos
ĠRecursos
Ġesportes
ĠtrÃ¡fico
Ġassociado
eco
ĠessÃªncia
ĠOnde
Ġapareceu
Ġdedos
ĠprÃ¡tico
Ġcertificado
ĠAlgumas
Ġcompanhias
ĠBenfica
fic
ĠsilÃªncio
Ġvinha
Ġsuave
Ġparada
Ġseco
Ġtrabalhamos
ĠOutro
Ġfornecimento
ti
ĠsubstituiÃ§Ã£o
Meu
abilidade
Ġconsultar
ĠÃ©tica
Ġpass
Ġu
Ġfamosos
Ġsac
Ġandamento
ĠDiretor
Ġtido
ĠfÃ£
Ġintensa
Ġcolher
ĠCunha
ME
Ã³s
Ġligar
ĠStar
Ġcerveja
Ġnaturalmente
ĠconstruÃŃda
ĠEnc
Ġnecessariamente
Ġreunir
Ġvinte
Ġcai
izou
ĠconcorrÃªncia
ĠbÃ¡sicas
Ġconsequentemente
Ġpassagens
Ġaparecem
;&
ĠAÃ§Ã£o
iando
Ġderrota
ÃŃstica
Ġconseguiram
Ġfases
anta
ĠconversÃ£o
Ġrespondeu
Ġaplica
ĠeletrÃ´nica
Ġvirou
ĠvalorizaÃ§Ã£o
Ġmaquiagem
Ġcamada
Ġestimular
ulos
Â´
ĠRoma
Ġoriginais
Ġprotagonista
Ġmata
Ġovos
ĠPapa
Ġfazemos
Ġreferentes
etos
Ġexcelentes
GA
Ġcond
Ġ99
ĠcristÃ£os
78
Ã§ado
Ġacusado
ĠrenovaÃ§Ã£o
Ġvariadas
Ġriqueza
ĠsubstÃ¢ncias
Ġ47
uda
Ġsuspeito
Ġfrases
orn
ĠrestriÃ§Ãµes
Ġquerendo
Ġseguido
Ġwebcam
ĠNovembro
DF
ĠdeclaraÃ§Ãµes
Ġindicador
ĠSoares
ĠMachado
Ġqueira
Ġ\
Ġajuste
ĠexceÃ§Ã£o
ĠseÃ§Ã£o
ĠVista
ĠProduto
Ġintervalo
ĠFormaÃ§Ã£o
],
Ġparticularmente
Ġgreve
Ġadotar
Ġpeixe
ĠavaliaÃ§Ãµes
Ġbrasil
ĠAraÃºjo
ĠMed
Ar
ĠgravaÃ§Ã£o
Ġfaixas
ramento
Ġautoria
Ġresolveu
Ġvaria
ĠdimensÃµes
king
Ap
olÃ³gica
ĠÃ³culos
Ġbicicleta
ani
ĠData
Ġcondicionado
ĠLava
Ġligados
Ġtorcida
ĠDeputados
ĠVia
ude
Ġdigo
ĠIndustrial
ĠinstruÃ§Ãµes
ĠbÃ¡sicos
Ġmeninos
Ġassistem
Ġrodas
ĠconstruÃŃdo
ĠSousa
Ġnoiva
nta
77
200
Ġtr
ĠResoluÃ§Ã£o
Ġescolhas
Ġgal
ish
ĠNA
ese
ĠrelatÃ³rios
ĠredaÃ§Ã£o
ĠcaminhÃ£o
Ġpropaganda
igu
ĠinvestigaÃ§Ãµes
Ġgangbang
Ġatuam
ĠMarco
ĠXX
ificado
iel
ĠdiversÃ£o
Ġrecebimento
ĠsentenÃ§a
ĠPan
eto
Ġrelacionamentos
ĠBol
ĠatraÃ§Ã£o
ĠexigÃªncias
Ġcab
IG
ĠsabÃ£o
ĠestÃ©tica
Ġganhos
Ġent
Ġprevenir
ĠRS
Ġmaravilhosa
ĠTempo
Ġresistente
Ġatraso
ĠVou
ĠCoimbra
tion
ĠPen
lhes
vos
ior
ĠedifÃŃcio
out
Ġdisseram
oss
ĠHa
Ġmolho
Ġsignificativa
Ġartificial
Portanto
Ġqueijo
ministro
ĠVol
Da
Ġestilos
ĠdÃŃvidas
Ġsp
Ġpraticar
Ġaprovada
ĠjaponÃªs
ĠNunca
Ġlitros
Ġtrilha
Ġnegociar
ĠOutra
ĠNaÃ§Ãµes
Ġvoos
ĠindÃºstrias
Ġdetermina
ific
ĠsÃ³cio
Ġricos
ĠBel
Quer
ĠConf
Ġvalidade
itados
Ġhonra
Ġconstantes
Ġcresceu
Ġpenal
ĠFonte
Sou
Ġcelulares
Ġpartidas
Ġatrair
ÃŃcio
Ġprop
ĠcooperaÃ§Ã£o
Ġparlamentares
2010
Ġcomplementar
ĠEnergia
Ġponte
Ġmedicamento
Ġcompletar
Ġnot
Ġfalam
ĠQUE
ĠManuel
En
ĠTa
ĠobrigaÃ§Ãµes
ĠComercial
Ġagradecer
Ġpauta
ĠMax
Ġressaltar
Ġdoces
Ġbaratas
ĠfenÃ´meno
Ġdis
chave
ev
CC
Ġconquistou
Ġfugir
Ġjornais
Atualmente
ores
Ġflor
Ġvivendo
Ġpres
Ġacontecimentos
erto
ĠDezembro
Qu
cons
ĠLuc
Ġbases
Ġexistente
ĠemoÃ§Ã£o
Ġcontando
ĠAugusto
Ġelevada
ĠgrÃ¡ficos
Ġdesenvolve
Ġaqu
ĠliberaÃ§Ã£o
ĠFilmes
ĠLoja
Ġclasses
ĠincÃªndio
gens
ĠampliaÃ§Ã£o
ĠIs
OpÃ§Ãµes
Ġelegante
ĠLegislativa
Ġrepresentar
Ġus
alizada
Ġquadros
Ġleves
ĠFil
Ġder
ĠEncontrar
Ġamericanos
Ġconcluir
Ġinternos
ĠAD
Ġpedindo
Ġtomadas
han
ĠAir
Ġpersonalizado
ivamente
TV
Ġsementes
Ġmodernas
tora
ĠcomeÃ§ando
ĠeletrÃ´nicos
ional
orre
erado
Ġestivesse
adamente
Ġequivalente
Ġregistrou
ĠsÃŃmbolo
.;
Ġdedicado
GraduaÃ§Ã£o
Ġconduta
Ch
Ġtomando
ĠdiscussÃµes
Ġteor
Ġtravestis
Ġlimpa
Ġdurabilidade
Ġoferecemos
Ġfizemos
ĠalgodÃ£o
Ġpobre
Ġcha
xo
ĠHe
Ġmorena
vis
Ġintenso
ĠApenas
Ġcookies
ĠSegunda
Ġgatos
Tenho
Ġapresentadas
ĠMag
Ġpleno
Ġleia
Ġpronta
Ġpapai
Ġcr
Ġhabilidade
tica
ĠpresidÃªncia
LE
ator
Ã¡ticas
85
ÃŃda
ADO
ĠPrÃªmio
ĠmÃ¡scaras
41
Ġru
Ġfarinha
ĠIndÃºstria
Brasil
ĠnoÃ§Ã£o
Ġcontendo
Ġ49
ute
IF
Ġbro
ĠadversÃ¡rio
Ġguitarra
Cada
Ġpermanecer
ĠNews
Ġprivados
ĠcritÃ©rio
Ġsubstituir
Ġmenu
ĠMA
au
Ġminuto
Ġfalhas
ĠobrigatÃ³rio
ĠanimaÃ§Ã£o
ĠBasta
Ġmonte
ĠIV
Ġ43
Ġfamosas
Ġcortes
Ġ41
Ġnegras
inh
ĠJunho
Ġchuveiro
tado
olo
ĠAlberto
Ġgaroto
Ġfuncional
Ġsombra
itada
rol
ĠProfissional
Ġsalto
Ġfrete
Ġrecebendo
Alguns
ĠCorinthians
Ġgato
Ġ95
ĠNÃĥO
Ġconstitucional
Ġusou
ĠIlha
Â»,
Ġaumentou
ĠtrÃ¡fego
ĠdiÃ¡rias
Ġpreencher
Ġtranquilidade
Ġutilizam
Ġ1990
ĠInd
Ġparcerias
Ġteriam
Ġvadias
Ġnutrientes
ĠtÃªnis
Ã£os
ven
Ġrurais
ong
ĠTI
Ġvirtude
Ġcheiro
ĠfÃ³rum
Ġdona
ĠBl
ĠCarnaval
erta
Ġentrando
ulares
Ġsmartphone
Ġ85
alizados
UF
Ġregistrar
Ġvariar
IV
ĠÃ¡cido
Ġprata
Ġapresentando
Ġtransforma
Ġmoedas
ĠUN
ĠGar
Ġintelectual
Ġbarriga
Ġtemperaturas
Ġlimpar
ĠValor
lar
graduaÃ§Ã£o
ĠDescubra
cao
ianas
Ġprevistas
ĠSociais
ĠCel
Ġteclado
ĠDeixe
ĠReis
Ġrecomendado
Ġencontramos
imas
Ġburaco
Ġcotidiano
tro
Ġbrilhante
ĠclÃ¡ssicos
ĠfÃ¡ceis
ĠcircunstÃ¢ncias
ĠEspaÃ§o
Ġdecorrer
ĠcoordenaÃ§Ã£o
Ġgra
ulado
Ġevidente
Ġpasseios
Ġconversas
Ġatrizes
eras
Ġestiveram
Ġvo
ves
ÃŃs
americana
Ġdepartamento
var
Ġgen
gos
Ġgame
Ġfalamos
Ġacaso
ĠestaÃ§Ãµes
ĠgeraÃ§Ãµes
ĠBon
ĠavÃ³
ĠObrigado
ĠcapacitaÃ§Ã£o
Ġquentes
Ġbelas
Ġburacos
Ġrecorde
Ġrota
Ġexercer
eit
Ġdesejos
%),
Ġperca
Ġlav
olas
ĠlÃ¡bios
jam
Ġvergonha
Ġfo
Ġvistas
Ġdesenvolvidos
Ġfuncionam
ĠtÃ³pico
Ġprocure
ĠCanadÃ¡
Ġtransparente
ĠQualidade
jas
Ġpermanece
eral
Ġdivertido
Ġlambendo
ĠGonÃ§alves
Ġcircuito
ĠPortaria
Muitas
ĠvÃ¡lido
for
ĠprÃªmios
Ġfalha
ĠvariaÃ§Ã£o
cam
ĠlesÃµes
ĠGuimarÃ£es
Ġvoltado
Ġtese
ĠCA
ĠSeja
ĠadesÃ£o
ĠDi
ĠSc
ĠMestre
ĠlesÃ£o
Ġespecializado
Ġcre
ĠVenda
Ġlongas
du
Ġdistrito
Ġbanheiros
Ġgerando
ania
utos
ĠAra
ĠAndrade
Ġreconhecido
itadas
Ġdefine
Ġatingiu
Ġoficialmente
ĠPessoas
Ġnomeadamente
Ġtrazem
Ġunhas
Ġdivulgada
qui
ĠFesta
Ġcarbono
Ġdesejam
ionar
ĠÃŃndices
Ġavalia
ĠMÃºsica
Ġindependentes
ty
Ġrefletir
ĠsuÃŃte
iÃµes
ĠCatÃ³lica
Ġdemonstra
Ġfirme
ĠrecomendaÃ§Ãµes
nas
yl
Ġdan
tante
Ġobrigada
Ġpoderoso
ĠGen
ĠVai
Ġadoro
42
Ġacreditam
Ġpercentual
ĠEditora
ĠqualificaÃ§Ã£o
tivas
Ġsuspeita
Ġreino
Ġloc
El
Ġora
Ġdedo
Ġdu
Ġautos
Ġcur
ual
Leia
ĠMichel
Ġatacante
Ġinstalado
Ġreservas
Ġproduzidos
ĠpropÃµe
ĠvitÃ³rias
ĠdÃ³lar
gada
Ġintegrar
Ġbarcelona
ĠPaul
Ġterapia
Ġbeber
Ġinformado
Ġreuniu
ioso
Ġiguais
Ġbrincar
ĠmotivaÃ§Ã£o
ĠTeixeira
Ġpoesia
Ġfotografias
Ġadministrativo
Ġcomunicar
Ġstatus
Ġconfronto
ĠBatista
Ġsoja
Ġlucros
bit
Pode
ĠFevereiro
Ġbomba
Ġvencedor
Eles
Ġconhecidas
Ġresponde
Ġassumiu
Ġentrevistas
rav
ece
ono
Ġnotar
Ġestando
ĠGil
Ġfibra
amo
Ġbolso
Ġbeira
Ġpu
Ġnessas
hes
Ġacontecem
Ġparto
Ġmol
Ġtimes
Ġsenso
Ġcuriosidade
ĠâĢĭâĢĭ
ĠpaciÃªncia
Ġanuncia
Ġcobre
Ġsujeitos
ĠNegÃ³cios
elos
Ġbol
ect
Ġrealizando
Ġfortalecer
ĠCons
Ġgigante
Ġigualdade
ĠcelebraÃ§Ã£o
ĠMel
di
hor
ites
Ġdistante
Ġob
Ġsozinha
Ou
Ġmecanismo
ĠâĨĴ
ĠesqueÃ§a
ĠCompre
rs
Ġmorar
Ġperguntar
ĠpublicaÃ§Ãµes
Ġdemonstrar
ĠSA
Ġgraus
xa
Ġaposentadoria
Ġfranquia
Ġfilhas
Ġcons
ĠTrÃªs
ĠsÃ©culos
ĠAtlÃ©tico
")
Ġ[...]
Ġnuvem
cha
ĠRock
ĠNada
Ġposts
ĠSeus
ĠSab
Ġorganizada
ĠProduÃ§Ã£o
ĠpapÃ©is
net
Ġban
anÃ§a
Ġempregado
adinha
ĠquÃŃmica
Ġeuropeu
Ġvieram
PM
Ġaquecimento
ĠRJ
Ġmanteve
rico
ĠcanÃ§Ã£o
Ġcalorias
Ġgostoso
ĠFC
eng
ĠContas
ĠPresidÃªncia
Ġsensibilidade
isto
ĠOn
ics
Ġbandeira
ĠNetflix
ĠEX
Ad
ole
Ġproporcionando
pec
ipe
ĠlogÃŃstica
2009
Ġagilidade
osos
ĠAngola
ĠseparaÃ§Ã£o
ĠparÃ¢metros
ĠdoaÃ§Ã£o
Ġprofundidade
Ġensaio
ĠquÃª
Ġdev
43
ĠemprÃ©stimo
Ã¼
Ġressaltou
Ġsorriso
Ġestabelecido
ĠEsporte
Ġprovar
Ġministros
Ġroda
Ġouviu
ĠurgÃªncia
76
59
ificada
Ġtre
Ġajudando
ĠmovimentaÃ§Ã£o
ego
Ġlarga
Ġprecisava
Ġmu
arei
Ġcriados
Ġgalo
ux
Ġcomplicado
Ġtamanhos
Ġcho
QU
ĠcÃ³pia
ĠAcesso
hou
Ġdesemprego
Ġrelacionada
Ġrecomenda
Ġlevantar
ĠcientÃŃfico
ĠGuilherme
cont
ĠAmazon
ĠAproveite
Ġcasar
UR
ĠDra
Ġdiabetes
hando
Ġeuropeus
ari
Ġvotar
Ġsenti
Ġ64
ĠprovidÃªncias
Ġres
ĠAgosto
ings
Ġconsum
Ġbu
Ġpreocupar
Ġdirigir
Ġefetuar
iaÃ§Ã£o
ĠAR
ĠelÃ©tricos
ĠPIB
Ġargumento
Ġapartamentos
wa
Ġlembro
Ġtranquilo
itou
ĠPet
Ġdom
Ġsec
ecirc
ĠCE
Ġalugar
Ġondas
ĠCruzeiro
den
itu
Ġdef
Ġvila
ĠBombeiros
fal
ĠeconÃ´micas
Ġilegal
ĠLuis
ĠFer
ĠONU
erv
ides
??
Ġlongos
Ġurbano
Ġvende
Ġabertos
Ġcurtir
ĠministÃ©rio
Ġrelator
Ġrecomendo
PI
ign
Ġvira
inga
Ġconformidade
Ġgrav
Ġcomentar
ĠremuneraÃ§Ã£o
Ġgeneral
Ġmor
ĠAos
Ġfiguras
Ġsaindo
oda
Ġcontinue
Ġrevistas
ĠForÃ§a
Ġ1999
ĠMinistro
ega
ĠacontecerÃ¡
Ġmandar
Ġth
Ġsab
ĠIdeal
Ġconfirmar
ĠcanÃ§Ãµes
Ġconsiga
isco
ĠnaÃ§Ã£o
Ġposicionamento
Ġbandas
ĠUSP
ress
jos
Ġespelho
Ġenvolvimento
Ġpossamos
\
Ġassociada
Ġpeixes
ĠComitÃª
Ġpostagem
Ġobjetiva
Ġbundas
ĠPlanejamento
Ġtribunal
ĠApoio
ĠMor
Ġsuspeitos
Ġgostosas
ĠexplicaÃ§Ã£o
Ġfrango
Ġhospedagem
Ġcompor
Ġlote
anha
Ġsolidariedade
Ġincentivo
Ġvar
HO
Ġdeterminados
Ġtorneio
Ġbr
Ġdevo
Ġpanela
ĠbalanÃ§o
Ġpura
ĠconfusÃ£o
Ġatualizado
ck
Ġassinado
Ġsel
ĠBernardo
ĠsugestÃ£o
Ġsup
Ġvirar
Ã´nica
Ġlaranja
ĠquÃŃmicos
Ġfibras
ĠColÃ©gio
.:
Ġgestor
ĠconfiÃ¡vel
ĠautomÃ¡tico
Ġinstitucional
Ġescreve
isso
Ġconcluiu
Ġhip
ĠavÃ´
Ġras
Ġsugere
Ġperdendo
ĠQuero
acional
Ġamarelo
Ġcortar
Ġtro
Ġcamadas
Ġpobreza
ĠviolÃ£o
Ġenf
Ġculturas
oco
Ġencontrei
Ġcompanheiro
Ġpertence
Ġempregada
Ġtalento
69
ĠconduÃ§Ã£o
Ġprojecto
PorÃ©m
ĠPlay
Ã©is
ĠestÃ¡vel
ĠmÃºsculos
idamente
pp
Sempre
Ġformal
Ġoferecido
ĠreforÃ§o
ĠhÃ¡bito
Ġ180
ividade
ĠobservaÃ§Ã£o
Ġfemininos
ÃŃssima
ĠcÃ¢mara
Ġprofundamente
Onde
ĠSecretÃ¡rio
ĠdarÃ¡
Ġcompletos
ĠWorld
NA
Ġselecionar
Ġproduzida
Ġleitos
Ġmult
Ġsubiu
ĠarmÃ¡rios
Ġdest
osas
VA
ĠrevoluÃ§Ã£o
Ġcomenta
ĠInformaÃ§Ãµes
ĠGoiÃ¢nia
Acho
Ġvivemos
Ġvendidos
jÃ¡
emb
ĠrefeiÃ§Ã£o
Ġremover
Am
ÃŃstico
Ġexceto
Ġprogresso
Ġentretenimento
gen
Ġleg
Ġsurgir
Ġ1998
Ã¡l
ĠUnidas
ĠCoelho
Ġbarco
Ġolhando
Ġganhando
Ġstreaming
Ġmotores
Ġros
Ġobserva
ĠSemana
ĠbebÃªs
ĠFreitas
ĠcrÃŃtico
Ġempate
ĠreforÃ§ar
Ġsoma
Ġvendido
Ġacrescentou
Ġsapatos
Ġdeixaram
ĠcrÃ©ditos
raram
ĠlanÃ§amentos
Ġmusicais
Ġafeta
Ġpercebe
Ġdoentes
Ġpassei
Ġocorrem
Ġsentidos
Ġcome
Ġdefinitivamente
Ġnestes
Ġpac
Ġcorresponde
Ġcombinar
ĠconfiguraÃ§Ãµes
67
Ġdava
Ġcombina
Ġviva
eitos
anh
Ġmotoristas
Ġanunciar
ĠediÃ§Ãµes
ĠBig
ĠRef
Ġregionais
ĠFiscal
Ġatuando
Todas
Ġfronteira
ĠReg
rib
Ġpessoalmente
ĠeconÃ´micos
ĠbÃ´nus
Ġborracha
Conforme
iste
idÃ£o
ĠPsicologia
ĠChile
Ġtoma
ĠpenetraÃ§Ã£o
Ġbrancos
ĠautomÃ¡tica
Ġtinta
Ġesquerdo
Ġsaldo
ĠMu
ĠGustavo
Ġfixa
Ġretomada
iador
ĠAustrÃ¡lia
Bem
ĠRenato
Ġcontribui
Ġconto
Ġdiferenciado
Ġpublicar
ĠExÃ©rcito
Ġpenso
Ġlimpo
tam
ĠBento
ĠproteÃŃnas
ĠdestruiÃ§Ã£o
ĠremoÃ§Ã£o
Ġfornecedor
Ġimediata
lim
ĠPL
ĠPrimeira
Ġbasicamente
ĠrelevÃ¢ncia
ĠSeguro
ĠMÃ¡rio
ĠMichael
ĠsubstÃ¢ncia
Ġfacilita
Vale
ĠbÃªbada
Im
ĠlanÃ§ada
ĠJato
CI
Ġpesado
Ġressalta
ĠTor
ĠOscar
Ġnoites
Ġretro
ĠPaz
Ġbas
Ġpermitiu
ĠBranca
entado
ĠRousseff
Ġprotocolo
ĠCara
ann
bra
Ġcomportamentos
comp
Ġregistrados
Ġradio
BR
Ġocupa
Ġdignidade
Ġadaptar
Ġconstitui
ĠÃ³timos
eros
ĠincidÃªncia
ĠexibiÃ§Ã£o
Ġdefinida
Ġchupa
Ġduplo
Ġblogs
Ġreconhecida
lin
Ġabra
pon
Ġgasolina
Ġcomerciantes
Ġbancada
Ġdelegado
ĠindependÃªncia
ĠZÃ©
TU
Ġ69
tivos
Ġconcelho
Ġdiga
ĠRui
ĠOne
Ġjuntar
ĠMoreira
ĠnavegaÃ§Ã£o
ĠbactÃ©rias
Ġ--
ĠsÃŃtio
ĠrecomendaÃ§Ã£o
ĠconferÃªncia
ĠManutenÃ§Ã£o
tem
Ġnavegador
Ġmodalidades
ĠMarques
vio
ĠEventos
Ġpagos
grafia
cho
Ġguardar
Ġsofrem
Ġdesenvolvidas
86
ĠBelÃ©m
Ġestradas
ĠInf
Ġconcorrentes
ĠaliÃ¡s
ĠRamos
Ġpag
Ġsabedoria
Casa
ĠRelaÃ§Ãµes
ĠIt
pr
Ġresenha
Ġ360
Ġlingerie
Ġagu
ĠprÃ©via
Ġexpressa
ĠTipo
Ġigrejas
ĠGuia
Ġexc
bol
ĠMovimento
Ġpossibilita
ĠpescoÃ§o
Ġbiblioteca
ecer
ĠNet
hado
izam
Ġtornaram
ICO
ĠPalavra
Ġprol
Confira
Ġreformas
ĠJoaquim
ĠcontribuiÃ§Ãµes
Cl
kg
Ġdiretrizes
ĠFÃ¡bio
sas
Ġcomplexidade
Ġpublicados
ĠintroduÃ§Ã£o
ĠcertificaÃ§Ã£o
Ġidioma
ĠcorreÃ§Ã£o
Ġdepender
Ġbra
Ġpensei
Ġminerais
Ġlamber
ĠAvaliaÃ§Ã£o
Ġprontos
Ġrelatos
Ġdemo
Ġassume
gua
hada
Ġlevaram
Ġjogando
Ġtextura
Ġinimigos
Ġprevistos
GE
Ġmilf
Ġgratis
ĠficÃ§Ã£o
Ġtratado
alh
Ġcalma
Ġazeite
ĠsofÃ¡
Ġzonas
ÃŃcia
Ġrepente
Ġpaisagem
Ġcivis
Ġdecide
iosa
Ġreligiosa
ĠchinÃªs
Ġconsideradas
Pre
Ġjo
che
Ġmuseu
Ġchinesa
Ġfila
ĠTop
":
Ġimpede
Ġchuvas
Ġentregues
ĠproprietÃ¡rios
yn
ĠAh
ĠpÃ´r
ĠIr
ĠJunior
Ġjuventude
ĠfavorÃ¡vel
Ġrs
Ġvestidos
Ã´nia
ĠSomos
Ġpastor
ella
gan
ĠBas
ĠsenÃ£o
ĠdomÃ©stica
uri
Ġresumo
ĠprejuÃŃzos
ĠtemÃ¡tica
illa
Ġrusso
Ġligada
Ġtri
Ġescuro
Ġadianta
Ġneg
Ġdisc
ĠConstruÃ§Ã£o
ĠencontrarÃ¡
Ġlim
Ġcomprei
Ġquadra
Ġpneus
Ġaparentemente
Ġjanelas
Ġamigas
ĠcomercializaÃ§Ã£o
Ġsacanagem
Ġcompletou
ak
Ġvaranda
Ġconsciente
ĠâĤ¬
Ġacompanhando
ENTE
Ġanunciado
Ġvimos
Ġideais
ĠInglÃªs
Ġbares
ĠobtenÃ§Ã£o
Ġquantos
Ġvisibilidade
ĠindispensÃ¡vel
Ġquantas
Ġdebates
Ġefetiva
ESP
iane
Ġtrabalhou
Ġprim
Ġobtidos
ĠÃģ
Ġgasto
Ġgaleria
ĠproteÃŃna
ĠFluminense
Ġquantidades
Ġitaliana
gal
Ġout
Ġbel
ĠMara
ĠAliÃ¡s
Ġdesenvolveu
ĠTur
Ġperfis
Muitos
Cam
Ġpresencial
Ġmontante
Ġselecionados
way
Ġemergencial
Ġgarantiu
Cons
Ġconsultas
Ġdemora
ĠHome
Ġtransmitir
ĠNÃºcleo
Ġamantes
tal
ĠNeves
Ġdebaixo
Ġcomemorar
CN
ĠAdvogados
Ġtiro
ĠSeleÃ§Ã£o
bi
Ġlembrou
Ġiniciais
ĠBarcelona
Ġbe
Ġev
ĠcotaÃ§Ã£o
Ġuniversal
ST
utas
Ġefetivo
PL
ĠUF
Ġservem
ĠPinto
Ġaut
Ġcosta
eios
ment
Ã³logo
Ġapostar
Ġgordo
ĠOrÃ§amento
ĠmÃŃdias
ĠPortas
Ġvizinhos
ĠFlÃ¡vio
Ġconvidado
Ġexperientes
Ġesperava
rea
UM
odo
Ġclassificados
Ġcorrespondente
ĠameaÃ§as
ĠcontÃŃnua
ĠCardoso
Ġsolteiras
ĠvisÃŃvel
Ġcavalo
Ġresidencial
ĠNossos
ĠRural
acao
Ġemissora
Ġsolteiros
Ġmercadorias
Ġles
Ġeleitores
Ġmant
Ġ:)
Ġ56
ĠPrefeito
ĠligaÃ§Ãµes
Ġ54
enos
ionado
jado
ĠLetras
Ġabastecimento
ĠDF
Ġingressos
Ġinteressa
ĠdenÃºncias
iÃ¡
Ġresulta
ace
Ġtubo
ĠSec
ĠvariÃ¡veis
Ġcidadania
Ġsemi
ĠsobrevivÃªncia
Ġbrincadeira
Ġpreparo
Minha
ĠVara
SO
ĠRet
ĠpreocupaÃ§Ãµes
Ġ52
Ġnegativa
set
ĠaÃ©reas
ĠLegislativo
umb
Ġconfirmados
Ġmesas
ĠconcepÃ§Ã£o
Ġmorre
Ġfantasia
pia
Ġcontacto
Ġapresentaram
ĠFM
ĠAlex
Ġgo
ĠPornÃ´
ĠCPF
MO
Ġefetivamente
entemente
Ġingresso
Ġparticipa
ash
Ġdescobriu
Ġharmonia
Ġtende
Ġdestinados
Ġfazenda
ĠdocumentÃ¡rio
Ġcelebrar
bilidade
Ġencerramento
Ġcant
ĠLeite
Ġblocos
wn
Ġsaco
Ġcomponente
ung
Ġdeclara
Ġrevelar
Ġfavoritos
Col
ien
Ġinterface
Ġamostra
ĠMG
Ġextras
Ġconsumir
erna
Ġdesfrutar
ĠparabÃ©ns
uss
Ġluzes
Ġfebre
Ġnamorando
ĠGa
ĠcenÃ¡rios
Ġcaps
Ġeventuais
ĠOpÃ§Ãµes
Ġdescanso
Qual
Ġargumentos
ĠavanÃ§ar
Publicado
Ġpermitido
Ġtratados
Ġvarejo
ĠJa
Ġpreservar
ĠInovaÃ§Ã£o
ĠVasco
ume
Ġtoca
Ġoferecidas
Ġaprovou
ĠLED
ĠCu
ĠQualquer
Ġvirtuais
ĠAlta
Ġhumanas
Ġ800
foto
ĠClub
Todo
Ġcresce
Ġdestinos
Ġenvolvem
Ã¡vamos
Ġgarganta
Me
Ġcitado
Ġeditora
ĠDois
Ġindicada
Ġpuro
Ġinvestidor
Ġumidade
Ġeventual
km
Ġcontos
Ġpromovido
Ġraiz
Ġvariam
Ġpacotes
Ã´nico
Ãł
ĠJames
ĠsÃ³cios
Ġditadura
ĠDelegacia
Ġacham
Ġjusta
erno
Ġexigir
Ġabuso
ĠavanÃ§os
Ġcausada
Ġeconomizar
Ġfiltro
Ġsafada
ulados
Ġcompetente
ĠFinanÃ§as
Ġfiel
Ġpuder
itÃ¡rio
ĠSamsung
Ab
Ġexp
Ġenvolver
ĠLÃ¡
Ġquebrar
ĠVicente
ĠLinha
Ġ57
ĠlimÃ£o
ĠAnÃ¡lise
Sua
Nosso
ĠtributÃ¡ria
Ġatinge
Ġintegrado
ientes
Ġsentem
use
ĠdependÃªncia
Â«
bar
ismos
Ġgran
Ġcancelamento
Ġfalei
IB
Ġdonos
Ġfacial
Ġmerda
Ġquadrados
Ġquarentena
56
Ġpromessa
Ġwhatsapp
Ġsorteio
Ġconcursos
Ġdesp
Ġgravidade
Ġnariz
Ġmanchas
ĠEspero
Ġ51
ÃĩÃķES
ĠKit
Ġmam
PSDB
Ġcopo
ĠPadre
Ġintegrada
ndas
Ġfol
ĠcontarÃ¡
Ġmetro
Ġsuco
Ġresgate
ĠcaÃ§a
ĠSUS
ĠmecÃ¢nica
Ġinciso
Ġfaria
Ġreconhece
Ġreferido
ĠAeroporto
Ġsegu
prefeito
ose
ĠalemÃ£
mann
Ġit
Pois
Ġdefendeu
ĠexigÃªncia
Ġvibrador
Ġsentindo
uf
Ġil
ĠXIX
Ġouvi
ĠhistÃ³ricos
vida
Ã´s
Ġcarioca
LO
Ġinscrever
PO
Ġvegetais
gov
Ġprovocar
Ġpoeta
entada
Ġoficina
ws
ii
ĠFaz
Ġmasculina
Ġretornar
ĠLua
ĠPSD
ĠMelo
Ġcriminosos
essa
%).
Ġsignificativo
Ġep
low
ĠHer
urar
Ġdem
ĠÃ³dio
ĠLeonardo
ĠassociaÃ§Ãµes
ĠFor
Ġsanta
Home
ĠMesa
ĠconheÃ§o
Ġmes
OM
ĠPÃ¡gina
ĠprÃ©vio
Ġparou
58
ence
ĠocasiÃµes
Ġincentivar
ĠMoro
Ġgoza
Ġpred
ĠproduÃ§Ãµes
cional
Ġfuncionalidade
ĠfinanÃ§as
ĠcompÃµem
Ġbi
ĠPost
Ġdoente
ĠcomemoraÃ§Ã£o
ĠMicro
Ġ1980
inf
ĠMarc
atura
raÃ§Ãµes
Ġestarem
Ġoeste
Rio
Ġinternas
encial
Ġcinza
Ġatmosfera
atar
ĠCity
Ġcompre
Ġrelato
Boa
ĠautomÃ³vel
Ġanime
Ġposterior
Ġcurtos
Ġfita
ack
MT
Ġcontinuou
Ġempreendedores
ĠOS
Ġbrancas
ĠDiego
ĠContinue
Ġcent
ĠNessa
ĠLeste
Ġline
Ġmaduros
Ġ1000
ĠfundaÃ§Ã£o
veis
ĠSistemas
Ġfria
Ġfuncionalidades
.</
57
Seu
hn
ij
Ġdomin
ĠBotafogo
Ġcausando
ĠautomÃ³veis
uros
ĠMO
Ġencontradas
ivel
Ġplanejar
Ġgarrafa
Ġdecorrentes
lus
Ġflexibilidade
DI
Ġdeb
Ġset
Ġrios
87
jada
berg
ĠlÃ©sbico
Ġdroga
Ġtrio
Ġpano
";
Ġlaterais
Ġsent
itor
els
Ġjulgar
Ġpreviamente
ĠeliminaÃ§Ã£o
ĠES
Ġpraticidade
ĠNunes
quer
Ġestre
ĠBur
Ġcorretor
erra
ĠCC
Ġroubo
Ġligadas
Ġreb
iÃªncia
ĠmatemÃ¡tica
ĠEstas
ĠavÃ³s
Ġdiretores
Ġcupom
Ġdet
ĠbilhÃ£o
Ġconst
Ġaprovados
Ġuniforme
Ġgoleiro
TER
Ġnegativos
Ġesgoto
Ġsurgem
Ġvitaminas
ĠPDF
ĠCEO
EP
Ġembalagens
Ġcelebridades
Ġfinalizar
Ġvolante
Ġobteve
Ġmag
Ġidentificado
ĠFA
Ġcomparar
entados
men
Ġeixo
Ġgabinete
Ġabsoluta
Ġimplica
Ġbriga
Ġtreinos
Ġinvestigar
Ġcimento
ĠWashington
Ġfu
ĠCP
Ġcondenado
ĠlÃª
Ġfundada
ĠCinema
Ġdep
Ġdesf
tura
Ġbloqueio
ĠNascimento
quinho
Ġexternos
ĠlicitaÃ§Ã£o
Ġavenida
Ġast
ĠLocal
Ġcintura
ml
ÃŃn
Ġdeterminadas
ĠverificaÃ§Ã£o
Ġsurgimento
Ġconquistas
Ġinicio
Ġpart
Ġcargas
ivar
Ġsoc
Ġcrescendo
urb
Ġexclusivos
Ġexplic
ĠconvÃŃvio
ĠAtravÃ©s
Ġpadre
Ġsecretaria
Ġcondutor
Ġenredo
ĠChico
ĠAf
Ġviol
ĠatualizaÃ§Ãµes
At
Ġcadeiras
ĠBarros
ĠFranco
ĠFora
ĠINSS
ĠParabÃ©ns
ĠirmÃ£s
iacute
Ġdepoimento
idores
Ġrelativas
Ã³ria
ĠmistÃ©rio
ĠPiauÃŃ
Ġcontrolo
ĠToda
Ġdivulgados
2008
ĠescritÃ³rios
Ġsuficientes
Ġtristeza
ĠtransaÃ§Ãµes
Ġpreconceito
ĠGrÃªmio
Ġoperacionais
Dia
Ġrol
Ġinscritos
ĠavanÃ§ado
Ġverdadeiramente
ĠMariana
ĠimaginaÃ§Ã£o
Ġlibert
ĠClÃŃnica
Ġengenheiro
Ġiremos
ĠinfecÃ§Ãµes
Ġjoga
ĠSport
Ġjeans
ĠaÃ©rea
ĠTre
Ġplacar
ĠCÃ©sar
Ġ1997
Ġ58
Ġneve
ĠViana
Ġdividir
Ġelaborado
Ġresponsabilidades
ĠnÃºcleo
Ġvoltada
Ġbot
imar
Ġficamos
Ġhard
Pelo
ilidade
ĠGlobal
Ġprecisamente
Ġpoderosa
Ġexigem
Ġoficinas
ĠexÃ©rcito
Ġcorretora
ĠbÃªbado
Ġinimigo
Ġaproveite
ĠCristina
ĠinquÃ©rito
ax
Ġestatal
aliza
arc
Ġdist
esso
ĠOAB
ĠaceitaÃ§Ã£o
ĠMay
Ġsanto
Ġbaixas
Ġespec
RAS
Ġficava
enda
Ġfale
its
ĠFo
Ġconfere
ĠLou
Ġconselhos
Ġportaria
ĠDos
Ġgelo
Ġbacana
DescriÃ§Ã£o
ĠImposto
ĠartÃŃstica
ĠFre
Ġpont
ilar
ĠÃ¡rabe
Ġfrota
IZ
IDADE
ipo
ds
omo
entou
rais
ĠDisponÃŃvel
ĠMoraes
Ġrespectivos
ĠRel
ĠMod
Ġsimilar
ĠLimpeza
Ġorientar
old
ĠantecedÃªncia
Ġbordo
ĠContra
ĠFord
Ġ72
ĠVigilÃ¢ncia
ĠcristÃ£
Ġdisciplinas
Ġidades
Ġpensam
iso
ĠComunidade
Ġfundador
ĠâĢĵ,
Ġcujos
Ġtendem
Ġlimitado
Ġcontinente
ng
Ġtelefones
Ġeducacional
Ġfuncionando
Ġmestrado
Ġpares
eses
Ġlooks
oni
Ã©rio
Ġformando
ĠcompetiÃ§Ãµes
Ġleste
ĠestatÃŃsticas
amar
Ġparcelas
Ġmanteiga
ĠUE
ĠMoura
Ġimpor
VÃŃdeos
TC
68
met
ah
ĠFlorianÃ³polis
Ġapaixonado
ĠOb
ĠEconÃ´mica
Ġesqu
Ġsalvo
Ġlargura
Ġeng
Ġnet
ĠMy
Ġdevendo
ĠDVD
Ġfuturas
Ġsh
mails
ĠMS
Ġfechada
hal
ĠabraÃ§o
we
Ġpic
Diante
Ġresolvi
Ġremoto
aba
ĠPSDB
ĠTel
Ġrever
Ġraiva
Ġatendendo
ĠÃģsia
Res
Ġpas
ĠVargas
Ġdeus
Ġdei
Ġterror
Ġprocuro
ĠcompatÃŃvel
ĠciÃªncias
Ġchapa
Ġvaler
Ġapontam
Ġacesse
Ġbateu
89
Ġrapazes
Ġcompromissos
ĠCN
Ġfacebook
Ġreflete
Ġvideos
idar
Ġviram
!)
Ġpromovendo
ĠDem
Ġcorrendo
Ġcarregar
Ġsalarial
Ġlitoral
far
Ġrelativa
Ġpesquisador
ĠNome
ĠBiblioteca
ni
Ġgr
ump
ĠFa
ĠCenter
ĠCAR
Ġperspectivas
iver
Ġacordos
Ġregistrada
ĠcarvÃ£o
Ġrecorrer
Ġenfermeira
ĠinstÃ¢ncia
ĠFazer
uso
oga
ĠFica
Ġconectar
ĠpermanÃªncia
Ġcitar
ĠAssis
Ġindicam
UC
ĠforÃ§ado
Â·
ĠBet
âĤ¬
pes
entaÃ§Ã£o
Ġvirgindade
Ġfa
Ġpreparados
ĠMonteiro
ĠvariaÃ§Ãµes
ĠarticulaÃ§Ã£o
Ġyoutube
Ġtorre
ĠArena
Ġacompanhada
ĠmetrÃ´
Ġdiscos
Ġshopping
Ġpesca
Ġcoco
Ġcasamentos
AT
ĠsensÃŃvel
Ġrepetir
Ġviveu
Ġatacado
velmente
Ġmega
Ġamplamente
Ġmeados
commerce
Ġdestaques
ĠprostituiÃ§Ã£o
Ġconhecem
Ġ1988
Ġregularmente
ĠfixaÃ§Ã£o
ĠvisualizaÃ§Ã£o
Ġdoutrina
ĠTro
Ġcaminhar
Ġescolares
Ġjuntas
Ah
anto
Ġtreinar
Ã³n
Ġred
Ġqualidades
Ġsamba
cul
Ġtalentos
Ġfruta
ĠVenezuela
ĠSuas
urado
ush
ĠporquÃª
ĠfaÃ§am
Ġsoube
Ġlutas
ĠImÃ³veis
Ġfortalecimento
ĠJean
Ġfaturamento
ĠRonaldo
ĠsalvaÃ§Ã£o
ĠbritÃ¢nico
Ġchurrasqueira
ĠclÃ¡ssica
ĠGeorge
EX
Ġ(...)
Ġtiros
Apartamento
ĠÃĢs
Ġsopa
Ġultra
ĠreaÃ§Ãµes
ĠquÃ£o
Ġviola
ĠBer
Ġdevia
ĠvoluntÃ¡rios
Ġextremo
Ġevita
Ġtec
Ġfina
Ġprobabilidade
ĠLos
ĠCarta
Ġtirou
Ġentram
ĠPinheiro
ĠPark
54
ĠUs
VI
Ġpap
Ġcriadas
ĠConferÃªncia
Ġmama
Ġaldeia
Ġjudiciais
Ġdirigentes
onia
ĠFilme
Ġrespeitar
ival
Ġesportivo
Paulo
Ġprecoce
Ġpensou
Ġlogin
ĠModa
Ġ1996
Ġ53
Ġdedicada
ĠmÃºsicos
ĠprecisarÃ¡
vol
Ver
51
Ġaliados
ĠdoaÃ§Ãµes
Le
ĠDu
ĠAz
Ġpresenciais
Ġvendedor
Ġida
Ġpreventiva
ĠPela
Ġfortemente
Ġestiverem
Ġcomemora
ĠidÃ©ias
Ġnormais
oo
iosos
ĠCrianÃ§a
ĠBra
Ġvistos
Ġescolhida
Esses
ĠIsabel
Ġencomenda
Ġatualizar
Ter
ĠPonte
Ġganham
Ġescolheu
ĠBitcoin
Ġconhecemos
ago
ĠSob
Ġ96
essem
Ġcachorrinho
ĠQuais
Ġconte
Ġbeneficiar
Ġmargens
ĠproporÃ§Ã£o
Ġenvelhecimento
Ġpilotos
ĠarrecadaÃ§Ã£o
ĠgrÃ£os
ĠtÃ©rmino
tico
Ġvertical
ĠnaÃ§Ãµes
Ġcolocados
Ġenviou
EIRA
ĠOutras
SerÃ¡
ĠBu
Ġadiante
Ġempreendedor
ĠParece
Ġmandou
Ġdisto
ceu
ĠSalÃ£o
Ġentregou
ĠevidÃªncias
Ġoc
unc
Ġindicados
Algumas
ĠestratÃ©gico
ilia
ĠManual
Ġamostras
Ġsmartphones
ĠexportaÃ§Ã£o
uÃŃ
ĠcristÃ£o
ensa
ĠContabilidade
ĠPres
ĠFÃ¡tima
Ġcapitais
Ġtablet
Ġatendimentos
orm
Ġmensais
Ġcausados
ĠBase
ĠedifÃŃcios
Ġjudeus
Ġinteligentes
erÃ¡
Ġvazio
ĠSin
ĠCrianÃ§as
Ġchupar
Ġaplicadas
Ġenfrenta
Ġnavio
ĠclitÃ³ris
ĠclÃŃnicas
ĠEuropeu
Ġimplementar
!!!!
ĠVI
ates
Ġformam
Ġcobrar
Ġestrangeiro
Ġintegridade
sal
uru
hs
Ġproximidade
ĠraÃŃzes
Ġnar
ĠUTI
Ġprecisando
ĠMoÃ§ambique
Ġrastreamento
Ġenergias
entas
bas
Ġexpor
ĠvigilÃ¢ncia
ome
Ġboletim
Ġexplora
Ġsoldados
INA
ĠturÃŃsticos
Rec
Ġrelativos
RN
ĠobrigatÃ³ria
Ġpos
Ġcompanheiros
Ġsociedades
ĠRobert
ĠThiago
quinha
ĠmÃ³dulo
Ġadequados
ĠMc
ci
Ġmagia
ĠabsorÃ§Ã£o
Ġcriativo
ĠindicaÃ§Ãµes
Ġperguntou
Ġassistente
Ġlac
ĠcaminhÃµes
Ġraios
mes
Ġgarantem
ĠMarina
Ġgira
reira
Ġbaratos
Ġseletivo
Ġexpressar
Ġsobreviver
Ġmanda
Ġfalo
arm
ĠEnfermagem
Ġ98
ĠvariÃ¡vel
Ġlibertino
ĠDireÃ§Ã£o
Ġocupar
Ġtrinta
Ġparques
Ġdisputar
Ġoperadora
ĠEuro
Ġserv
ÃĢ
Ġnecessitam
ĠRibeirÃ£o
rito
ĠTiago
ĠafirmaÃ§Ã£o
Ġreta
Ġcircular
ĠcalÃ§as
Ġcredibilidade
Ġcantar
Sal
Ġfac
Ġfechados
ĠtecnolÃ³gica
GB
ĠremÃ©dio
ĠDiretoria
Ġfixo
Ġreduzido
Ġaborda
ĠSant
ĠSporting
Ġconcorda
Ġaproximar
Ġinform
ĠvÃŃnculo
Ġho
ĠInfelizmente
Ġdesinfetante
NO
Ġreajuste
Ġvapor
Ġinserir
ĠCafÃ©
,...
ĠRenda
?",
Ġdefinidos
Ġaves
Ġsons
ĠMarinha
Ġcorrigir
ĠpainÃ©is
Ġchoque
ulada
ĠpopulaÃ§Ãµes
Ġur
Ġce
ĠCampus
2007
Ġbritador
Ã
ĠRecord
ĠcomplicaÃ§Ãµes
Ġ1970
ĠmÃ©dias
DEM
Ġimpressionante
Ġouvidos
Ġjornalismo
Ġmaus
Ġpercebeu
Ġbeijo
ĠprÃ©dios
ĠAT
Ass
ĠAS
Ġvisualizar
ney
ĠlimitaÃ§Ãµes
Ġcentrais
Ġsobrinho
Ġformatos
Ġcompostos
Ġpreenchimento
atÃ³rios
ĠConceiÃ§Ã£o
Ġviv
Ġconduzir
ĠcondenaÃ§Ã£o
Ġcreampie
Ġlocalidade
ÃŃlio
Ġutilizadores
Ġlive
Ġtente
Ġcob
ĠID
Ġchef
Ġesconder
rador
Ġarm
ĠHelena
ĠOriente
Ġconhecia
Ġquerida
mat
ĠdecorrÃªncia
Ġdocente
Ġâ
VE
Ġdisponibilizar
Ġinglesa
ĠPE
PMDB
Ġfechou
dio
ĠindenizaÃ§Ã£o
Ġencaminhado
Ġaliado
Ġseguiu
ĠEv
ĠAqu
Ã¢nia
Ġexternas
ĠNinguÃ©m
ĠEnt
ĠmÃºsico
anal
ĠusÃ¡
Ġreligioso
Ġsegredos
ĠRam
Ġgastronomia
Ġgostos
Ã§ando
ĠLÃŃngua
lic
ĠJuventude
ater
ĠEstÃ¡dio
Entretanto
ĠTim
Ġeletro
ĠBand
Ġequ
Ġelaborar
quei
erada
Ġtranquila
Ġresolve
ĠTransporte
Ġparecido
Ġhem
ĠreforÃ§a
ĠlÃ¡grimas
ĠfiÃ©is
ĠatribuiÃ§Ãµes
ESS
ĠhidrataÃ§Ã£o
ĠProjetos
Ġclaras
Ġdelicioso
Ġfemininas
Ġesfera
ĠSom
ĠVi
Ġgozar
53
ĠresidÃªncias
ĠFernanda
Ġpouquinho
ĠSac
ĠRita
Ġlimitada
ÃŃa
ĠcontÃŃnuo
ĠEstaÃ§Ã£o
ĠÃļnico
ĠPopular
Ġmarco
ĠCozinha
Ġlog
ĠJu
Ġvivos
ĠacessÃŃveis
iante
ĠimobiliÃ¡rio
Ġtransportes
riam
Ġordens
Ġgames
Ġcoordenadora
Ġdividido
ĠfranÃ§a
Ġdeixado
EF
quem
Ġsonora
ĠcatÃ¡logo
Ãªnio
ĠÃ³bvio
Ġconv
ĠGeraldo
ĠPRE
ĠFin
Ã©n
book
Ġparentes
Ġmalha
ĠregulamentaÃ§Ã£o
Ġsc
Ġprotesto
ĠTrabalhadores
itÃ¡rios
arias
ĠoxigÃªnio
ensÃ£o
press
TS
inados
Ġintegrante
BC
Ġcel
ĠEscolha
Ġdesejado
Ġfrontal
ĠCalifÃ³rnia
Ġfund
ĠRegistro
Ġferiado
Ġpotenciais
Ġ1995
ĠBr
ĠMata
Ġcriativa
orte
Ġfizer
ight
til
Ġministra
Ġrevis
Ġpropor
Ġnov
Ġgostou
ĠEdiÃ§Ã£o
Ġpostar
Ġdrama
ĠVivo
emente
Ġdistanciamento
ĠPOR
Ġcontratado
Aos
ĠparÃ¡grafo
riz
ĠNota
Ġinstante
ĠTorres
ĠÃĵ
ĠUSB
Ġprestados
Ġadulta
sos
Ġquinto
ĠJr
Ġvasta
cal
ĠlÃŃnguas
ĠRod
ĠcardÃ¡pio
Ġfraude
ĠFl
itiva
ĠPodemos
elar
Esc
Ġtrigo
inam
Ġcomandante
Ġenvolvidas
ĠCaps
Ġbarata
ĠVelho
ĠMad
ÃŃdos
Ġacrescenta
Ġenfermagem
Ġfutura
Ġvalorizar
Ġaz
ĠmÃ©rito
rava
CON
ĠSantiago
Ġnobre
Ġafetar
ĠTransportes
Ġacervo
Ġtorcedores
Ġva
ĠMiranda
52
Ġalho
Ġenviados
Ġobviamente
lex
Ġpartilha
Ġrapidez
Ġgigantes
ĠAÃŃ
ĠdevoluÃ§Ã£o
Ġtrav
Ġquilos
ĠmemÃ³rias
ĠPira
Ġdedicar
Ġsil
ware
icidade
ital
ĠJuiz
ĠespecializaÃ§Ã£o
ĠalianÃ§a
ĠCaetano
olÃ³gicos
ith
adinho
Ġgl
Ġide
ink
ius
Ġpimenta
CM
iÃ¡rio
Ġauxilia
ĠOp
Ġchaves
ĠVan
ĠPorta
Ġbur
Ġfavorito
Ġ700
ilhas
ĠinformÃ¡tica
Ġgeladeira
Ġmaconha
ĠcombustÃŃveis
ĠhÃ³spedes
Ġprejudicar
ĠPF
Ã§ao
aras
Ġquantia
ĠCidadania
Ġhd
Ġprotocolos
ĠAst
Ġespanhola
ificando
Ġfronteiras
ĠCamp
TR
Ġlib
Ġcontribuindo
Ġenvolvido
Ġeditor
Ġdestacando
Cor
Ġfiquem
Ġsed
rest
tec
iÃ§a
ĠIF
Logo
urg
ey
PB
ĠlideranÃ§as
ĠMadrid
Ġgravar
Ġcheck
ĠRom
ĠcÃ³digos
Ag
Ġsiga
ĠConta
ĠParlamento
ĠMoto
act
Ġtreinamentos
ĠjurÃŃdicas
ĠDon
Ġmodos
Ã³r
uk
Ġcriador
ĠBac
iosas
ĠDay
rip
Ġcomece
ĠÃ³bitos
ĠNatural
Ġenviada
Ġvestir
ĠSta
ĠICMS
mal
Ġparticipante
rir
ingu
ĠTab
Ġconsulte
Ġperna
Ġobtido
EA
Ġcolo
ĠreclamaÃ§Ãµes
ĠLibertadores
ĠestimaÃ§Ã£o
Ġsabores
Ġconsta
Ġconvencional
Ġcronograma
ĠÃºnicos
ĠArthur
olÃ³gicas
ĠCast
Porque
Ġdiminui
ĠEconÃ´mico
enha
ore
Ġmineral
Ġrussa
Ġassassinato
Ġvisitante
ĠAll
ĠcontemporÃ¢nea
ĠEnrolar
Ġmorais
Ã³polis
Foram
ĠPlanalto
64
ĠEdital
Ġunir
ĠconstituiÃ§Ã£o
papo
ĠMetal
ĠÃ³timas
ĠRob
ĠpremiaÃ§Ã£o
ĠinauguraÃ§Ã£o
Ġsentiu
Ġpresa
ĠAÃ§o
ĠHolanda
Ġcozinhar
Ġovo
ĠABC
gues
ĠcontaminaÃ§Ã£o
Ġaventuras
ĠUso
Ġexerc
ĠmobilizaÃ§Ã£o
Ġcheguei
Ġdaquilo
ĠParte
ĠTrÃ¢nsito
Ġcomplementares
Ġaltera
form
ĠclÃŃnico
Ġprefere
Ġcausado
edia
Ġ1994
Ġcurva
ĠIb
ĠCond
Ġprovoca
Ġdirigido
ville
Ġ66
Ġimensa
Ġ59
Ġben
Ġprocurador
UT
Ġaproxima
Ġmorreram
ĠBÃ¡sica
ĠPass
ĠflexÃŃvel
mod
ĠShow
Ġdescobre
Ġrodovia
Ġimpeachment
ĠintervenÃ§Ãµes
Ġcalcular
ender
Ġatualidade
ĠVerÃ£o
Ġrestantes
ĠDiv
ĠprevisÃµes
???
Ġmg
ĠprÃ³
ĠpolÃªmica
Ġobjectivo
Ġestabelecidos
Ġdesenvolvendo
ĠtÃŃnhamos
Ġacabei
Ġrevestimento
Ġracismo
Ġsimultaneamente
PÃ¡gina
Ġmostraram
ĠVis
ĠremÃ©dios
Ġanualmente
Ġregulamento
Ġensaios
Ġmostrado
ĠReforma
Ġalimentares
ĠConsumidor
Ġsinta
Ġpragas
ÃŃp
Ã©ia
Ġeficazes
Ġcostume
Ġfalso
Ġtentativas
ea
ĠconvivÃªncia
imp
Ġlua
Ġbucetinha
inte
Ġresultou
Ġmontanha
ĠLeÃ£o
Ġenfrentamento
ĠglÃ³ria
ĠCondomÃŃnio
ĠTurma
Ġencontraram
ĠCH
Ġ67
ĠLivros
Ã¢nica
Ġcomprou
Ġapontou
Ġpun
Ġtransformou
ario
ĠDES
Ġadequadas
Ġlegumes
rosa
ĠÃªnfase
ĠWe
ĠDesc
Ġcasado
Ġbrutal
Ġtentam
Ġlembre
ĠgrÃ¡vidas
Ġdeterminou
ĠcoraÃ§Ãµes
ĠGel
Ġgirl
adeiras
Ġdivertir
Ġmatriz
Ġfrequentes
ĠHel
Ġdaquelas
ĠDJ
Ġdivertida
Ġselo
icar
Ġbaix
Ġgalera
rop
Ġcul
ĠMarvel
ĠobstÃ¡culos
Ġgerenciar
Ġdisponibilizados
Ġimenso
Ġreligiosos
ITA
CD
ĠObrigada
ĠtragÃ©dia
Ġsimilares
Comp
ĠMateus
Ġpratica
Ġdestinada
Encontre
Ġfacil
Ġassociadas
Ġparticipam
Ġmedir
ilh
2006
Ġeventualmente
ĠJac
ĠEvangelho
Ġiniciantes
Ġobservado
Ġsaem
Ġqualificado
Ġesposas
ĠUse
Ġartesanato
Somos
ĠMatemÃ¡tica
Ġentradas
ĠBan
ĠBat
ares
Ġcomplexos
adura
aliz
Ġverdes
ĠingestÃ£o
enho
ĠJovem
Sa
Ġpare
Ã©l
CH
Ġbuscas
Ġdescobri
Ġdestruir
Ġresta
ĠTanto
Ġcolocada
Ġesco
ĠVictor
Ġrendimentos
Ġcupons
Ġ62
ĠBA
ĠacadÃªmica
ĠpontuaÃ§Ã£o
ĠclimÃ¡ticas
Ġtb
ĠrestriÃ§Ã£o
ĠimportaÃ§Ã£o
ĠPedra
Ġfama
izaÃ§Ãµes
ĠImpÃ©rio
Ġcomparado
tÃ³ria
ĠlÃŃquidos
Ġajustes
zes
ĠextinÃ§Ã£o
Ġsupera
ĠÃ¢nus
Ġalc
Ġrealizam
DS
Ġapaixonada
Ġcharme
hia
Prostitutas
Ġafastar
ĠEgito
Ġginecologista
Ġsignificativamente
Ġmassas
ĠbancÃ¡rio
Ġju
Ġtrechos
ĠBorges
ĠColÃ´mbia
Ġtol
Ġimpl
ografia
emp
Ã³rias
Ġcapacidades
ĠYoutube
ĠCursos
ĠvÃ³s
ĠPlus
Ġ..
ĠdemonstraÃ§Ã£o
ĠlaboratÃ³rios
Ġestabelecidas
Ġcurtas
itude
Artigo
Ġpersonalizados
ĠnutriÃ§Ã£o
Ġtab
Ġboceta
reta
Ġafirmam
Ġadequadamente
iol
ĠbancÃ¡ria
Ġemagrecer
ĠDNA
Ġcorretores
ĠaproximaÃ§Ã£o
Ġempreendimentos
ĠherÃ³i
Ġfranceses
Ġverdadeiros
Ã³logos
ĠRogÃ©rio
Ġpontas
ConheÃ§a
Ġpan
ĠconexÃµes
Ġeficientes
Ġpreferir
Ġelite
Ġhospitalar
ilho
ĠPort
Ġentraram
guei
âĨĳ
Ġcurioso
ndia
Ġvital
ĠVeÃŃculos
ĠrÃ¡pidos
ĠBot
Ġabordar
Ġapoia
Ġgratuitas
ĠjuÃŃzo
ech
ĠelevaÃ§Ã£o
ĠUnidades
onas
Ġassinar
ĠModelo
Ġcast
Ġaproveitamento
Ġdestacam
radores
Ġnascer
Ġpersonalizada
Ġdistintas
Ġgases
Ġtratando
Essas
ĠMaior
Ġquerido
Ġabrindo
Ġfatura
Ġengan
ĠNelson
ĠUniversitÃ¡rio
Ġemb
vÃŃdeo
zinha
Ġmig
doras
Ġcurvas
Ġcompetentes
ĠOf
ĠvÃ¡lida
Ġapelo
Ġvasos
pal
ĠBH
Ġcobrir
ĠMult
vid
Ġesf
Sexo
Ã³rios
ĠRoc
Ġ110
inda
Ġcausou
Ġestuda
Ġreduzida
Ġpreparada
ĠExiste
Ġjogou
ĠestratÃ©gica
Ma
Ġacelerar
Ãļ
ĠasiÃ¡tica
zi
Ġdorme
Ġlam
Ġcadela
ĠPais
ĠAutor
Ġaud
ĠarmÃ¡rio
Ġflagrante
ĠcrÃŃticos
91
ĠinserÃ§Ã£o
Ġadorei
ÃŃm
ĠMunicÃŃpios
Ġimun
Ġpolegadas
icando
Ã©ticas
ĠretrÃ´
Ġsurpreendente
Ġsupermercados
Ġrecebi
Ġanalisa
Ġaproveitou
Ġmontanhas
ĠLuciano
ilson
ĠVar
Ġsatisfeito
Ġimagina
Ġvegetal
ificaÃ§Ãµes
Ġproibido
Ġreduzindo
ĠNÃŃvel
Ġtraseira
Ġpercebi
Ġrom
ĠWordPress
Ġusei
Ġcarrinho
enÃ§Ã£o
PF
Ġnasce
ĠRainha
ĠDeve
umo
Ġtirando
Ġidosas
entam
erados
Ġexecutado
Ġprojetado
tt
ADA
Ġfalsa
Ġvidio
Ġlas
ĠFundamental
Ġestimativa
Ġcompara
Ġlocalizados
Ġinstalada
ĠSomente
Fotos
ĠcrÃ´nica
300
93
Ġcrises
ĠofÃŃcio
ĠGarcia
ĠexpressÃµes
Ġlava
Ġend
Ġbox
Ġinteiramente
Ġvoce
ĠCoraÃ§Ã£o
ĠGol
ĠagrÃŃcola
ĠemissÃµes
Conc
ĠMaterial
Ġprodutivo
ĠMartin
iti
Ġcinemas
ĠmanipulaÃ§Ã£o
Ġelevados
Ġmarc
Ġhavendo
ĠManoel
ĠCEP
eremos
oraÃ§Ã£o
Ġdespertar
item
Ġgerou
ui
ĠAtenÃ§Ã£o
veja
Tra
Ġpassava
eiÃ§Ã£o
Ġcin
Ġfrequente
iem
Ġteorias
Ġlido
Ġcorretoras
ĠÃªxito
back
ĠMiss
ĠaconteÃ§a
Ġyou
Ġculto
Ã©ticos
ĠGÃ¡s
ĠJan
Ġcolar
ĠpermissÃ£o
Ġsindicato
ĠapreensÃ£o
JoÃ£o
cion
ĠLib
Ġmamas
ificados
ĠexposiÃ§Ãµes
ĠEp
ĠconstruÃ§Ãµes
Ġbab
Ġfraco
Ġoffice
Ġbdsm
Ġexecutivos
ĠÃ³leos
pi
Ġtelas
Ġcomprometimento
ĠCF
Ġcop
Ġatingido
Ġconfirmado
Ġdeliciosa
ĠObras
ĠprojeÃ§Ã£o
Ġrainha
Ġregisto
ĠevidÃªncia
udos
fil
Ġdesen
InÃŃcio
orno
Ġpude
ones
ĠdomÃ©stico
ĠendereÃ§os
ĠValores
ĠArquitetura
Ġtampa
ĠisenÃ§Ã£o
Fi
ĠexportaÃ§Ãµes
Ġconfirma
Ġmetabolismo
ĠviÃ¡vel
Ġpisos
ĠpedaÃ§o
ĠconsiderÃ¡vel
Ġprodutiva
ardo
Ġtortura
uar
Ġperfume
Ġloiras
ĠSup
Ġraio
Ġsant
ĠJul
Ġgarantias
ĠpedaÃ§os
Ġid
reiro
ĠcapÃŃtulos
Ġdesigner
Ġirregularidades
ĠCarolina
UA
alizadas
Ġconduz
Ġentregas
Ġpiores
Ġfino
Ġfuga
Ã¢m
iras
Ġcham
esas
ĠpoluiÃ§Ã£o
Ġprotege
Ġdescrever
inando
Ġtel
inadas
ĠAcessÃ³rios
Ġescritos
ades
ĠmatrÃŃcula
ĠWi
ape
Ġcebola
Ġanel
FA
Ġswing
Ġpense
ĠverÃ¡
Ġprec
ĠcÃŃrculo
ĠplenÃ¡rio
ye
ĠavanÃ§ada
ĠConte
Ġlembrando
ĠGuedes
Ġagradar
ices
ef
posiÃ§Ã£o
Ġsigla
ĠGrÃ©cia
Ġterminal
Ġrepresentando
omb
Ġpel
Ġcaptura
Ġotimizar
vers
Ġilhas
ĠexclusÃ£o
Ġcaos
eita
Ġdisp
ĠpassarÃ¡
GU
Ġpsicologia
Ġdiploma
ĠjuÃŃzes
ĠagrÃŃcolas
Ġdensidade
Ġclicando
ĠHo
van
Ġgesto
ĠestÃ¡vamos
ĠMAR
Ġeuro
Ġinstituto
Ġvoltadas
Ġsafra
ĠÃģguas
ĠAparecida
conc
rot
Ġcompartilhamento
Ġentendo
Ġconcorrer
ĠForm
Ġcriminal
Ġlistas
Ġvinda
ĠOpen
iria
Ġoperando
ĠIC
ĠAdministrativo
Ġminimizar
ĠfarÃ£o
elh
Ġcasada
ĠmÃŃnimos
Ġage
vido
inst
Ġalegre
Ġcontabilidade
atu
aga
cada
cendo
Ġsuplemento
ĠEpisÃ³dio
Ġrelata
Ġcujas
ĠsÃŃndrome
americanos
Ġdescreve
Ġmantido
entaÃ§Ãµes
Ġfaziam
Ġplanilha
Ġdiria
iona
ĠRondÃ´nia
ĠAfonso
ĠPeÃ§as
Ġliminar
ĠrestauraÃ§Ã£o
ĠbotÃµes
ats
Ġdespre
ĠIR
ĠPMDB
ted
Ġflu
UD
ĠConcurso
Ġtrailer
ĠSeria
ĠSO
Ġnascido
Ġamei
Ġinovador
ĠPart
ĠleilÃ£o
entre
Ġdesgaste
Ġmoradia
Ġpreparando
Ġson
Ġlaser
ĠdistribuÃŃdos
Ġmand
Ġcompositor
Ġglobais
Ġraro
Ġinfra
ĠSeminÃ¡rio
inger
FaÃ§a
ĠgestaÃ§Ã£o
Ġmantenha
ĠLaboratÃ³rio
cel
ĠsuÃŃtes
tada
ĠportfÃ³lio
ĠSER
Ġprioridades
ĠSegu
ĠSimples
Ġlago
Ġfaltar
ĠAlagoas
Ġprima
http
Ġcem
ĠMark
Ġwith
Ġsentia
Ġconheceu
Ġindic
ines
Ġoriginalmente
ĠPessoal
ĠWilliam
ĠintenÃ§Ãµes
Ġpdf
ĠJos
Ġcolocam
ĠcientÃŃficos
Ġvisuais
Ġcobra
ĠSebastiÃ£o
Ġconsentimento
ĠSha
ĠNum
Ġdistintos
Ġclipe
esto
ĠHugo
ĠHomens
ĠculinÃ¡ria
Ġoperador
Ġmundiais
Ġbon
ifique
ĠUniverso
Ġpassamos
sol
bre
Ġespacial
Ġseparar
ĠCin
Ġri
Ġlivrar
Ġrap
Ġqueima
ĠKing
Ġdeputada
Ġmira
71
Ġpositivas
otes
Ġnegar
ĠautomaÃ§Ã£o
Ġgarantido
olog
Ġarco
Ġutilizador
Ġcaseira
61
Ġcreio
eter
Ġinfantis
Ġliteralmente
Ed
ĠespecificaÃ§Ãµes
La
Ġsupermercado
Ġcapitalismo
Ġobesidade
Ġbucetas
ling
alize
Ġperigoso
ĠDef
ĠConforme
ĠcaptaÃ§Ã£o
ĠDC
ĠCampanha
Ġacabaram
ende
ĠOut
Ġconheci
Ġlance
Mo
Ġexpandir
Ġtio
quia
Ġlev
Ġeleitos
Ġagricultores
Ġok
Per
ĠhipÃ³teses
Ġacrescentar
ross
fia
Ġimpac
ĠOrlando
ĠimprescindÃŃvel
Ġdesaf
Ġvolumes
Ġespanholas
pres
Ġgostava
ndos
Ġ000
92
Ġrussas
orra
Ġsaint
Ġempenho
dem
Ġmultas
ĠtecnolÃ³gico
Ġsingle
ĠViva
oacute
ĠPower
ĠPires
quando
ĠCorre
Ġampl
Ġvendedores
ĠAveiro
Ġescravo
ĠQuinta
gio
ĠEquipamentos
Ġlu
uns
ĠTocantins
Ġdocentes
Ġassalto
Ġafastamento
Ġdepoimentos
Ġmaternidade
Ġcontribuinte
Ġclareza
Ġequipas
ello
ĠCaxias
Ġadquirido
ĠfantÃ¡stico
Mulher
Ġbarreiras
ĠPÃºblicas
ĠDuarte
Ġcontribuem
Ġsofrendo
ĠLeg
ĠEt
rever
bro
ĠprovÃŃncia
Ġidoso
ĠadversÃ¡rios
ĠRO
Ġvol
ĠGrÃ¡tis
ĠPeru
Ġpossivelmente
enso
ĠdiÃ¡rios
Ġachou
Ġabrigo
Ġlegenda
Ġduelo
ĠGB
Ġconseguia
Ġchegamos
ĠLagoa
Ġcorridas
Ġtur
72
ĠPÃ¡scoa
ipa
ĠHar
Ġaborto
Ġprotestos
ĠApartamento
vado
Ġjulgado
ĠrepercussÃ£o
Ã¡lia
Ġpistas
ĠdÃ©bito
}
Ġemocionante
Ġaprende
ĠSÃ¡
Ġrev
ions
Ġcaseiras
ĠForÃ§as
Un
Ġurgente
ĠTraduÃ§Ã£o
Ġgrosso
gre
Ġresidentes
ĠDivisÃ£o
Ġmentira
Ġembaixo
Ġec
Ġve
ĠSuÃŃÃ§a
ĠDonald
Ġven
</
Ġmasturbar
Ġtestemunho
Ġoferecida
Ġcoberta
ĠsÃ©ria
ĠAlgarve
Ġbarulho
Trans
nch
ĠasiÃ¡tico
ĠMer
Ġvigente
Ġossos
ĠBre
Ġfundamento
Ġconvida
ĠmediÃ§Ã£o
ĠArm
Ġtotalidade
tom
ĠcrenÃ§a
ione
chi
ĠDen
ĠMetropolitana
Ġsuportar
Primeiro
ĠhomicÃŃdio
Ġrepro
Ġbatata
ĠcrenÃ§as
Ġhon
Ġinsetos
Ġbronze
ĠRen
ĠBob
ĠStore
Ġdevida
ĠDis
Ġestima
ĠMT
Ġcomplexa
Ġreferida
Ġhectares
Ġtrajeto
Ġaonde
Ġcompetitivo
Ġparado
ĠMestrado
iros
Ã¡b
Ġdefinitiva
ĠfotÃ³grafo
Ġhom
turas
Ġprestes
Ġtrabalhista
Ġconfigurar
Ġpia
ĠproibiÃ§Ã£o
Ġrelativo
iri
ocar
inou
Ġvoltados
Ġcertificados
"?
Ġabsurdo
Mulheres
erm
ft
ĠreparaÃ§Ã£o
ĠPreÃ§os
ĠcompensaÃ§Ã£o
ĠrobÃ´
Ġarterial
Ġdurar
ati
ĠPovo
hem
Ġ63
izador
Ġsaudade
Ġentendeu
Ġtestemunhas
Ġ68
PrÃ³ximo
ket
Ġinvest
ĠreputaÃ§Ã£o
Ġdefeito
Ġexperiente
Ġ61
reto
ule
Ġaumentam
ĠminÃ©rio
Clique
Ġmanga
Ġsum
ĠSmart
ĠNat
ĠdemissÃ£o
Ġdescobertas
ĠRevoluÃ§Ã£o
ĠgenÃ©tica
hÃ£o
Ġutilize
ĠRep
ting
Ġaplicados
Ġvcs
mel
Ġgorduras
ĠAG
ĠapuraÃ§Ã£o
arg
Ġopcoes
Ġare
ĠbinÃ¡ria
ĠPas
Ġmudando
ĠInternational
Ġconsultor
ĠNov
lado
Ġsao
Ġreciclagem
ĠSetor
Ġdefeitos
Ġbest
alvo
Ġapel
Ġconseguindo
ĠSen
ĠMello
Ġrelaxar
itivo
emia
ĠexplosÃ£o
ĠGilberto
ĠacusaÃ§Ãµes
Ġmix
Ġexposto
Ġexistia
ĠWilson
Ġproduzidas
ĠespanhÃ³is
×
Ġbakeca
Ġgovern
ĠliÃ§Ã£o
ÃŃdas
Ġestabelecida
Ġconfirmada
Ã´nicos
Ġvencimento
Int
ĠrepertÃ³rio
atÃ©
Ġdispostos
Ġbritagem
ĠsinalizaÃ§Ã£o
Ġpatamar
Ġgalos
ĠÃŃcone
ĠRap
ĠdiÃ¢metro
ĠDicas
Ġboleto
ĠGO
ĠÃºnicas
Ġestampa
ĠGl
ĠemprÃ©stimos
Ġpaisagens
Ġolhada
ĠKa
ĠBro
"),
ĠadolescÃªncia
ĠPeter
Ġeuropeia
Ġmanifestar
ĠtransformaÃ§Ãµes
ĠretenÃ§Ã£o
Ġficado
ette
Ġdispensa
Ġamadores
Ġurbanos
Ġsoftwares
ĠVermelho
ĠestÃ´mago
Ġlevada
ĠSte
Ġpodes
Ġprefeitos
Ġlentes
Desta
Ġpublica
Ġvivastreet
Ã§ou
ĠQuÃŃmica
ĠLiberdade
Ġdecidiram
Ġjustificar
Ġdesculpas
ĠPh
Ġpes
Ġgozada
Ġsensor
Ġhuman
Ġdefin
ilos
Ġirregular
Ġcoloquei
ionÃ¡rio
Ġrealizaram
Ġrequerimento
ĠDOS
Ġbrincadeiras
Ġml
prima
Ġeleitorais
Tags
Ġcasadas
Ġpresta
ÃŃcios
ĠDan
Ġdesfile
Ġactividade
Ã§ados
Ġbastidores
Ãªm
ĠConteÃºdo
ĠExt
ĠDavi
Ġreligiosas
Ġvan
Ġsuma
ĠPrÃ©
Ġsepara
Ġprecisou
Ġpreocupa
Ġcolesterol
ĠEnem
ĠacadÃªmico
ji
Ġtomate
Ġradical
Ġsindicatos
ĠrÃ¡pidas
Ġexclusivas
Jo
Ġapresentador
ĠclÃŃnicos
Sendo
ĠportÃ£o
Ind
Ġconsiderou
ĠfeijÃ£o
Ġadministrador
ĠUM
Ġfocar
Ġgerado
Nunca
ĠGeografia
hon
ĠMÃ©dico
Ġiniciado
Ġsaque
ĠDomingos
ika
Ġescravos
Ġquintal
issem
ÃĹ
ĠrespiraÃ§Ã£o
Ġtava
Ġvozes
Ġprotetor
Ġassinada
Ġtar
Ġcuida
Ġconclui
Nem
62
94
ĠDal
Trata
ĠConsultoria
ĠCorreios
Ġhabitual
Ġencerrar
Dois
ĠreposiÃ§Ã£o
Ġgourmet
Ġfalava
Forex
Ġcorrentes
ĠAzevedo
Ġcomprador
Toda
Ã¶
Ġconfiar
ĠComprar
ĠartÃŃstico
Seja
ĠforÃ§ada
Ġencarar
Ġdecorar
Ġempregador
Ġmilhas
ĠmarcaÃ§Ã£o
Ġneta
Ġrecebidos
ĠMusic
ĠreflexÃµes
Ġmarcante
Ġsatisfazer
ĠMand
icultura
Ġcaseiros
Ġacontecido
ĠcomÃ©dia
ĠChar
ÃŃna
Ġnecess
Ġtemplo
uv
eias
ĠhigienizaÃ§Ã£o
ĠSur
cor
Ġpeludas
Ġacompanham
Ġapreciar
ĠDar
ĠCliente
Ġmanifesta
Ġdecidi
ĠISO
Ġdescrito
ĠNegra
estrutura
Ġmala
ĠalemÃ£es
rato
iÃªncias
get
Ġconstru
ĠPonta
Ġconseguido
Excelente
iologia
box
Ġmandado
ms
ĠFun
ĠcomunicaÃ§Ãµes
sim
ĠGalaxy
Ġnervoso
ĠVit
Pr
ĠconfortÃ¡veis
ĠtradiÃ§Ãµes
ĠMen
ĠFÃ³rmula
ĠIguaÃ§u
uo
="
Ġsolucionar
uca
Ġinterpretar
Ġinspirado
ĠRN
ĠHol
Ġcaipira
ĠCabral
ĠBela
Ġimigrantes
ĠFerro
ĠLO
ĠMelhores
Ġsensual
Ġded
ĠpermitirÃ¡
ĠnotificaÃ§Ã£o
Ġcompreende
ĠCartÃ£o
Ġcostumes
ĠEstatuto
63
ĠEstudo
ple
Talvez
Ġabsoluto
ĠTar
urs
ÃĬNCIA
Ð
Ġtorne
forma
Ġsingular
ificou
ĠinovaÃ§Ãµes
Ġrespectivas
Ġtoc
ĠTr
400
Ġfachada
ĠpoupanÃ§a
Ġcone
ĠFoz
ĠAcre
ĠGreen
Ġtarifas
Ġacertar
ĠEmpresarial
Ġrelatou
ĠherÃ³is
Pra
ĠintercÃ¢mbio
Ġvossa
Ġjaponeses
Ġdif
orr
Ġsituado
Ġpersonalizadas
ĠiOS
Ġbonitos
ĠRegulamento
Ġdadas
Ġplan
rum
anÃ§as
Ġparcialmente
ĠconscientizaÃ§Ã£o
ĠInÃ¡cio
Infelizmente
ĠPER
Ġenxergar
eceu
ĠJack
ĠHarry
Ġfoc
!",
ĠocorrerÃ¡
ĠAtividades
Dessa
ĠMaster
Inc
Ġmentais
ĠNot
Ġamarela
Ġmamilos
Ġneto
ĠacusaÃ§Ã£o
TOS
Ġcabos
Ġproposto
gon
''
ĠsÃŃmbolos
Ġitalianos
Ġfecha
estre
Ġindicando
ĠAnderson
Ġchorar
ĠrazoÃ¡vel
TAS
Ġpiscinas
Ġregistradas
Ġprever
ĠcontinuarÃ¡
Ġatacar
Ġpresidencial
ĠgravaÃ§Ãµes
emas
ĠImagem
Ġsilicone
ĠromÃ¢ntico
Ġpreocupado
Ġplant
omas
Ġsector
ĠME
ĠDona
Ġsms
fas
ĠVo
ĠMario
Ġgramas
Ġeterna
ĠheranÃ§a
posta
Presidente
ĠVolta
Ġlento
ĠAngeles
Ġfalsas
Ġprovenientes
ses
Ġconsideram
ĠCuba
Ser
Ġnestas
oli
ĠUruguai
Bar
Ġga
ĠAires
ĠFilosofia
Ġlevados
Ġcuzinho
ĠDiante
USP
Ġficaria
cida
Ġcultivo
ĠÃįndice
Ġoff
assistir
tre
RAN
och
ĠSei
Ġcompradores
fl
ĠcosmÃ©ticos
Ġcard
ĠGrades
ĠArtigo
ĠEco
Ġracional
ison
Ġgar
Ġpico
Ġcolaborar
Ġcarnes
Ġdoze
ĠauditÃ³rio
Ġsor
Ġbarreira
ĠFlor
ĠEscolas
ĠexplicaÃ§Ãµes
Ġgesso
nia
ĠSho
Ġdebater
Ġgrego
Ġentenda
Nessa
Ġfat
Ġcontagem
Ġdeslocamento
Ġdecorre
Ġproceder
Ġestranha
Ġsaneamento
ĠinstruÃ§Ã£o
Ġinfluenciar
Ġerrada
Ã¢ndia
alha
ĠLeandro
acho
Ġescapar
Ġbuffet
Ġdescansar
ĠPrivacidade
ricas
ĠindÃŃgena
Ġsupostamente
ĠestÃŃmulo
ĠFinal
Ġgovernamentais
ĠMagalhÃ£es
ĠMot
ĠSTJ
ÃŃssimos
Ġcolabora
Ġinst
Ġ1992
Ġcausam
Ġadv
Ġero
Ġlegado
Ġvirada
xe
Ġjunta
ĠSk
Ġvoltando
Ġcensura
Ġtent
irar
Era
cara
ĠConst
ĠCre
ider
Ġcompetitividade
segu
ĠTJ
ĠdiscriminaÃ§Ã£o
Ġtrabalhistas
acion
ĠProcuradoria
Ġmerecem
ĠLinux
ĠAlc
ĠWest
Ġ1960
Ġpesada
Ġpesados
itaÃ§Ãµes
ser
Ġserviu
ĠLiteratura
ĠBusiness
Ġfe
Ġrival
Ġgarotos
Ġconstituem
ĠbritÃ¢nica
Ġaleg
Ġparceira
Ġcaros
Ġfresco
anho
ĠSara
Ġdeserto
urada
orar
Ġdivina
sp
ĠInterno
Ġsemanais
ĠLive
Ġmere
Ġ2022
Ġempreendedorismo
ĠPiracicaba
Ġinterc
ĠelegÃ¢ncia
ĠcolÃ©gio
Ġruins
Ġdelegacia
ĠDas
74
ips
Ġher
Ġmadrasta
ĠFund
ĠCrÃ©dito
ĠGame
ĠCoronavÃŃrus
Ġliberado
sen
ĠsaÃŃram
eir
Ġimprimir
ĠJogo
ĠGraÃ§as
ĠFeminino
ivaÃ§Ã£o
Ġteus
ĠmoÃ§a
ĠPel
Ġestrutural
ĠRem
Ġdou
ĠversÃ¡til
ald
Ġidentifica
ÃŃsticos
Ġcost
Ġcostura
alizando
utor
Ġpadres
ĠDesentupidora
ĠenergÃ©tica
ĠCr
iÃ¡ria
Ġvim
Ġautorizado
Nova
Ġchamam
ĠCro
ĠGold
Ġrodovias
Ġsolicitado
ste
ĠEL
Ġbaseados
Ġdesculpa
usÃ£o
Ġprest
ĠpsicolÃ³gico
Ġmapas
ionais
ĠCanal
III
Ġdorm
Ġtocando
tis
Ġcumpre
ĠGovernador
Ġmore
cem
ĠPEC
Ġidentificados
ĠMol
Ġagrad
ĠStreet
Ġescolhidos
Ġelogios
Pela
Ġargentino
bu
Ġhe
Ġdesconforto
Ġinspira
Ent
Ġbaterias
ĠAssista
Deus
ĠsinÃ´nimo
Ġsurgiram
Ġresidenciais
Ġvosso
Ġengajamento
pet
ĠdemocrÃ¡tico
ĠinvasÃ£o
Ġnavios
ĠHom
Ġadministrativos
Ġconsistente
SS
ĠtÃ³picos
Ġ....
Ġaguardar
elha
Ġconsenso
ĠÃ¢ngulo
ĠPapel
Ġacordar
ĠConfederaÃ§Ã£o
Ġperderam
ĠPac
ĠPolÃŃticas
BO
Ġdesconhecido
Ġsobe
Ġdecorrente
ĠUniversal
Ġacab
?".
Ġtambem
reiros
âĢĭ
Ġoperadoras
Ġten
ĠJust
Ġsurpreender
Reg
ĠTri
Ġdeclarar
ĠLtda
ĠgrÃ¡fica
ĠLev
ĠCharles
Ġtransformando
part
Ġescolhe
Ġmorador
ster
Ġsaf
ĠXbox
ĠPromoÃ§Ã£o
ĠperdÃ£o
ĠMart
Ġocorra
pot
tÃ³rio
Ġreflexo
ndendo
ĠeconÃ³mica
Ġtribunais
ull
ĠraciocÃŃnio
Ġcantos
Ġvencedores
ÃŃsticas
Ġtag
STF
ille
Ġbbw
Ġmotiv
ĠLar
ĠtransaÃ§Ã£o
Gu
fort
Ġprofundas
Ġmonitor
Ġlouco
icia
82
Ġlambe
Ġdificilmente
Ġalmas
Ġguitar
ĠmÃ©dicas
ĠCoreia
ĠFale
Ġespuma
ĠBinÃ¡rias
Ġmexer
ĠMira
Ġsolteira
Ġenx
Ġradicais
eles
Ġvulnerabilidade
ĠLab
ĠhabitaÃ§Ã£o
nÃ§a
ĠTurquia
Ġadquiridos
Ġnegou
Ġconjunta
ock
ĠGuarulhos
Estes
ĠpensÃ£o
ĠTavares
bel
Ġrevel
ĠCard
ĠEng
2005
ĠterritÃ³rios
ĠsatÃ©lite
enÃ§a
rog
roso
Ġ1993
84
Ġfidelidade
AtravÃ©s
Ġveem
Ġconvencer
ĠperfeiÃ§Ã£o
Ġamadoras
Ġoposto
Ġcorredor
Ġbagagem
iÃ¡rios
Ġutilidade
Ġcana
ĠBC
mb
ĠcerÃ¢mica
Ġmacio
ĠClara
Ġpermita
Ġatuou
ĠterrÃŃvel
rante
ecido
Ġsentar
ĠconvÃªnio
pira
Ġjustifica
Ġcita
ll
Ġrussos
ÃŃmos
Ġpromessas
Ġcheios
ĠsensÃŃveis
ĠEscolar
Ġmagn
ĠsÃŃntese
ĠÂ
Ġprodutora
Ġmatou
ek
Ġdestinadas
Ġidiomas
,,
ĠNogueira
usc
elle
Ġficha
Ġcriam
Ġabrangente
Ġamam
Ġcaracteriza
Ġencerra
Ġqualificada
Ġcomodidade
ĠSony
Ġabandonar
Te
ĠalÃŃvio
Ġgas
mer
Ġlix
itores
Ġ1991
Ġchineses
ĠSon
Ġadotado
roc
Ġ130
ĠrevelaÃ§Ã£o
ĠInformÃ¡tica
ĠaplicÃ¡vel
zar
ĠCS
Ġtrocas
ivelmente
Ġfuncion
ĠNatureza
ĠfÃŃgado
ĠbeneficiÃ¡rios
Ġsimplicidade
83
Ġemitir
iÃ¡vel
ĠdomÃ©sticos
adÃ£o
ĠlaÃ§os
gn
Ġdobro
ĠhÃŃmen
Ġselvagem
Ġtratada
ĠLago
ĠInst
Ġdesvio
ĠâĢº
rÃ©
ĠLer
Quero
med
ĠmodificaÃ§Ã£o
ĠsuicÃŃdio
Ġesportiva
Ġentendem
Ġactual
logia
Ġtrabalhado
voz
Ġeducacionais
ĠcÃ¡lculos
Ġselecione
Ġcerebral
Ġaceit
Ġinsumos
ĠInicial
Ġchinesas
Ġnegativas
lat
ĠcondomÃŃnios
ĠConstitucional
ĠParaguai
Ġenvia
ĠReferÃªncia
ĠIl
ĠmissÃµes
ĠTesouro
ĠHot
ĠFiquei
Ġbor
Ġquestion
Contudo
Ġcapilar
ĠVereadores
ultura
Ġsermos
ĠJÃºlio
ĠRodoviÃ¡ria
Ġbombeiros
ĠfÃ¡bricas
Ġoperadores
Ġfr
ĠPop
Ġpensado
Ġplenamente
ĠQU
ester
Ġvolte
Ġ78
ĠPonto
Ġferidas
ING
Ġespecialidade
Ġcarboidratos
Ġapontar
Ġencara
ĠtemporÃ¡ria
Vou
Ġabrange
ĠPasso
ami
Ġadministrar
ĠHonda
Ġdesl
Ġconcentrar
entadas
Ġbrinquedo
ĠMarca
Ġobriga
Ġjardins
ĠColoque
Ġgripe
Ġbarras
https
Ġbeb
inais
Ġjog
ĠejaculaÃ§Ã£o
Ġpostagens
Ġgrade
ĠporÃ§Ã£o
ĠcÃ¡lcio
Ġocorreram
Ġsalva
iba
Ġjaponesas
Ġmanejo
Ġadministrativas
ĠcapitÃ£o
ural
ĠdepÃ³sitos
Ġtru
ĠWal
ank
Ġessencialmente
Ġcaval
Ġcomprovar
eradas
Ġreto
Ġcorreio
ĠGran
ĠDivulgaÃ§Ã£o
Curso
Ġsucessos
Ġregresso
ĠCuiabÃ¡
").
Ġfaca
Ġtot
Ġsantiago
Ġgarrafas
Ã§adas
Ġiniciada
Ġestimula
ĠÃŃntima
Ġfur
ĠHollywood
Ġfrequ
Ã´m
ĠgÃªneros
Ġpagando
ames
Ġaliviar
Ġamadora
ĠCho
Ġquestionamentos
ĠmÃ³dulos
Ġfundamentos
hum
ĠSet
ĠCoordenaÃ§Ã£o
ĠtraÃ§os
ĠcientÃŃficas
Ġtranstornos
ĠConsultado
Ġdesistir
ĠFree
ĠAtu
ĠMini
ĠCand
ĠEscritÃ³rio
ĠJerusalÃ©m
ĠincluÃŃdo
ĠElÃ©trica
ĠExame
ĠLembre
pÃ©
ĠBraganÃ§a
Ġgeram
Ġvaso
ĠpartÃŃculas
ĠFab
Ġfazerem
sando
TES
Ġrest
ĠpreferÃªncias
Ġprotegido
Ġcomendo
ĠsÃ©rios
ĠSoftware
Ġparalelo
VO
Ġexibido
ĠtrarÃ¡
ĠmÃºltiplas
ĠDentro
Ġpecados
Ġpul
ĠIdade
Ġcare
Ġrespeitando
Ġregistra
ĠTratamento
Ġaproveitando
Ġsurpresas
Ġsentado
79
ĠnomeaÃ§Ã£o
Ġtarifa
Ġombro
Ġaprendi
Ġcontraste
ĠsuperfÃŃcies
log
ĠlembranÃ§as
Ġinovadoras
Ã¢nico
ĠONG
Ã¡c
Ġanalista
ĠconclusÃµes
Ġarquiteto
itÃ¡ria
ĠLE
Ġdoutorado
Ġcomprometer
Ġdefinidas
ĠDeputado
ĠSergio
Ġprimavera
ĠcÃ³pias
Ġproximidades
ori
sh
Ġpromocional
Ġresultar
ĠSand
Ġdente
Ġinstalados
Ġ350
Ġtraduz
ĠacÃ§Ã£o
ĠMÃ¡rcio
ss
ENT
Ġaeronave
ĠLegal
Ġ160
Ġrecolher
Ã´nio
Ġdire
ĠAluguel
Ġmarcha
Ġdesigualdade
ĠFranc
rap
73
ĠlanÃ§ados
Ġregist
Ġmotos
ĠCT
Ġcastelo
cc
Ġobservando
Ġatra
ĠAnvisa
ĠreabilitaÃ§Ã£o
Ġassembleia
Ġdisponibilizado
ĠOra
Ġrentabilidade
ĠQueiroz
ĠPN
ÃŃt
Ġinformando
Ġbanca
Ġtivessem
Ġang
Ġdiretos
ĠSel
ĠGrand
Site
IX
ĠLoc
lia
elho
Ġfar
Ġexcepcional
Pl
Numa
ĠPrata
ĠCL
Ġespanha
ĠextraÃ§Ã£o
Ġconduzido
VER
Ġassinou
ĠExcel
Ġsituada
ĠreeleiÃ§Ã£o
Ġlat
Ġferiados
ĠperseguiÃ§Ã£o
ĠprevidÃªncia
ĠAssessoria
rey
ĠtÃŃpico
Cal
Ġmercadoria
Ġsensuais
Ġdesespero
Ġprincesa
Ġorigens
Ġtend
ĠMercedes
Ġplantio
ĠDoutor
Ġverifique
Ġaceito
ĠResidencial
Ġilust
â
Ġinferiores
Ġdescer
isÃ£o
Ġcad
Isto
ndi
Ġrevelado
Ġcriminosa
ĠCOMP
ĠDÃ¡
ĠNeg
ĠSw
Ġcombinado
Ġsuc
Ġpot
Ġobservou
hu
Ġmelhorando
kes
ĠturÃŃstico
ĠCB
Ġreceba
ref
Ġgrama
Ġ%
Ġempresariais
Ġactividades
Ġmot
ĠDeclaraÃ§Ã£o
Ġpopularidade
Ġplanejados
ĠVirtual
Ġfacilitando
orda
ivado
ĠBRASIL
BS
Ġrib
Ġanimado
ĠescravidÃ£o
Ġfocado
Claro
Ġmorta
Ġqueriam
Ġultrapassar
Ġadoram
unda
ĠBor
ĠPornografia
ĠCelso
ĠAlice
site
ĠsÃ³lida
Ġsemanal
Ġterrenos
Ġelevar
Ġlatino
Ġaprimorar
Ġvest
ĠcomissÃµes
ĠGua
Existe
Ġdemonstrou
otas
Ġmodificar
Ġretomar
ĠEnfim
ĠTamanho
ionados
ĠvigÃªncia
hy
Ã©trico
Ġrespectivo
ĠacessÃ³rio
ĠInteligÃªncia
Lo
ĠConjunto
Ġmetais
Ġfrom
alizaÃ§Ãµes
Ġlocalizar
Ġvenho
ĠConvenÃ§Ã£o
Ġamizades
Ġrecomendamos
sÃ£o
ðŁ
Ġpetista
ĠinflamaÃ§Ã£o
resc
Ã©trica
muito
Ġgravado
eirÃ£o
adia
Ġmer
Ġjoelho
Ġdiesel
Ġabandono
ĠadiÃ§Ã£o
Ġfodidas
Ġgarantida
Ġhardware
Ġcolorido
ĠRH
alizou
Ġcolaterais
Ġexal
Ġafirmando
ÃģRIO
Ġquestionar
Ġadultas
Ġnuclear
Ġexibir
Ġadotadas
Ġ77
Ġcasca
ĠExperiÃªncia
Ġcachorros
Ġandando
ten
Ġfiltros
Ġcomprando
Ġsenadores
Ġinovadora
ĠDownload
vendo
ĠConv
ĠorgÃ¢nica
Ġ1989
Ġfan
Ġsenhoras
ĠmeditaÃ§Ã£o
ĠSent
ĠProfissionais
ĠsanitÃ¡ria
Ġdependem
ĠascensÃ£o
Ġinox
Ġelevador
Ġtens
Ġeco
Ġenfrentam
ĠEmprego
Ġlig
Ġportugal
Ġimpressora
Ġleu
Ġtelhado
Ġtributos
Ġcontribuintes
Ġespecializadas
Ġrecorrente
Ġdiv
Ġdivulga
ĠKim
ĠvalÃªncia
ĠhorÃ¡ria
ĠSilveira
itivas
Ġcontratados
atÃ³rias
Ġviajantes
][
Ġconcret
Ġmuseus
ĠalcanÃ§ou
Ġvs
Ġ''
Ġloucura
ecÃ§Ã£o
Ġmi
ĠvegetaÃ§Ã£o
ĠconfecÃ§Ã£o
Ġpropriamente
ĠDecoraÃ§Ã£o
Ġtapete
Ġpod
ĠdomicÃŃlio
ĠNazarÃ©
Ġbaseadas
ĠpuniÃ§Ã£o
Ġocidental
Ġjust
,"
asc
Ġconquistando
Ġpartilhar
Ġpartituras
Ġsantos
TRA
fi
ilizaÃ§Ã£o
Ġcolheita
ĠUsuÃ¡rio
ota
Ġacessos
arn
Ã¢ncias
ĠconfiÃ¡veis
Ġcarregamento
ĠconcluÃŃdo
Ġconfesso
Ġnotebook
Ġlouca
ĠFlores
Ġauditoria
Ġsanar
ĠFac
Ġcandidata
ĠRev
ental
guem
ĠConhecimento
Ġpretendem
ĠCent
Ġlenta
Ġassiste
Ġdivulgadas
ĠHy
Ġdetectar
enn
Ġperf
Num
Ġber
ĠObama
Ġdescont
Ġkits
Ġcruel
Ġprotagonistas
Ġdon
Ġemenda
ĠRelatÃ³rio
Ġmodelagem
ĠHistÃ³rico
ĠMacedo
ĠcontemporÃ¢neo
Ġhot
ranc
ĠficarÃ£o
fica
Deixe
Ġpossibilitando
ĠmilÃ£o
Ġajude
tava
Ġ140
ĠPUC
ĠFeliz
Ġaba
ĠFrente
ĠRedes
Ġtrabalhava
Ġesportivas
Ġdeuses
Ġinteragir
ĠCNPJ
ĠLat
Ġtomado
Ġcadastrar
ĠSU
ĠÃ³bito
Ġajustar
Ġperdida
ionÃ¡rios
ĠCombate
ĠFUN
Ġcac
Ġverbas
ĠacadÃªmicos
Ġfracasso
ĠsÃ³dio
Nota
Ġdedica
zz
ĠUp
Ġpersonalidades
ÃŃc
Ġcamiseta
ĠcontinuaÃ§Ã£o
Ġprem
ĠChaves
itantes
ford
Ġdependentes
Ġescritores
ĠApp
ĠÃŃndios
Ġconverter
ncias
Ġlentamente
Ġpodiam
Ġcavalos
ĠFonseca
Ġresistentes
ĠDuas
Ġsocorro
ĠconsolidaÃ§Ã£o
ĠXavier
ping
Ġfaltam
Ġvintage
ĠsÃ³lidos
ĠPare
ĠSorocaba
UP
ĠVice
ild
Ġtransferir
Ġperu
Ġestupro
ĠdisposiÃ§Ãµes
acionais
Projeto
ĠTO
Ġrod
vÃŃdeos
Ġgozam
Ġpermanecem
Ġsuposto
ĠIBGE
Ġfaleceu
Ġcrucial
ĠdemocrÃ¡tica
Ġatentos
venda
Ġinex
Ġbombas
Ġcomprado
Ġproduzem
Ġenviadas
ĠClÃ¡udio
ĠCant
Ġpilares
Ġpoema
Ġrevelam
Ġden
Ġverdadeiras
Ġautoestima
Ġaeroportos
ĠOd
Ġconcedido
aldo
Ġreproduz
rut
ĠYou
ĠEsportes
Ġreembolso
Ġbomb
Ġdespesa
ĠTour
CR
ÂºC
Ġimpulso
Ġrigor
Ġcientista
Ġlevantou
ĠMÃ¡quina
ĠMassagem
ĠDevido
acos
Ġmortalidade
Ġaliada
iner
Ġcola
Ġliberar
Ġger
ĠMaurÃŃcio
Ġatualizada
Ġinovadores
Ġ001
Ġrein
Ġescondido
into
ĠSIN
Ġ74
ĠhabilitaÃ§Ã£o
olar
ĠSerÃ£o
Ġresgatar
ĠAmaral
ĠImp
lig
ĠUniversity
Ã´mica
Ġ97
ĠAgu
unha
Ġaprovar
Ġavaliados
Ġinferno
tados
Ġdecepcion
Ġlida
Ġsignificativas
ĠdisseminaÃ§Ã£o
Ġdiss
Ġacessibilidade
osta
ĠPesquisas
Ġregul
ĠdeixÃ¡
ĠLourenÃ§o
Ġescal
Ġadapta
ĠaviÃµes
Ġmerc
ĠfusÃ£o
Ġcorredores
Ġcapacitados
Ġciclos
Is
ĠCop
ĠMega
Ġnegoc
Ġdenominado
Ġinflam
Ġlic
ĠCe
Ġpapa
Ġsuprir
eraÃ§Ãµes
ĠmodificaÃ§Ãµes
Ġmus
Ġtutorial
bio
Ġtransportar
etro
Outros
vent
ĠsaÃŃdas
Ġvic
Ġdiminuindo
quet
Ġmotocicleta
Ġ82
81
Ġentrevistados
{
Ġbanana
ĠOffice
Ã©c
Ġunanimidade
Ġbic
Dec
Ġamericanas
Ġmonitorar
Ġesperam
uno
Ġrender
ĠMÃ³veis
Ġexemplar
Ġaroma
Ġmencionado
Ġcav
JA
AMENTO
orde
ĠMEC
ĠcitaÃ§Ãµes
Ġapropriado
Ġjustificativa
Ġlayout
ĠreclamaÃ§Ã£o
ĠMapa
tais
Ġestimado
Ġflag
arÃ©
Ġsigilo
icado
Ġlidera
Ġescura
Ġcomunica
ĠlimitaÃ§Ã£o
Î
Ġdescubra
ĠReproduÃ§Ã£o
Ġdaria
ĠLin
ĠInterior
Ġusamos
Ġinteriores
Ġcontroles
Ã´n
ĠSabe
Ġaparecimento
ĠLam
ĠTenha
ĠfarmÃ¡cia
Ġtest
ĠregulaÃ§Ã£o
idente
Ġfeiras
ĠÃītica
ĠEduc
Ġpinturas
ĠHIV
ĠmÃ¡gica
Ġhaveria
Ġderivados
ĠruÃŃdo
Ġdiscursos
¼
ĠAnos
Ġjogada
ĠTimes
endas
Ġnuvens
ĠSolar
Ġabst
ĠComentÃ¡rios
Ġeconomista
Ġeletricidade
ĠincluÃŃdos
Ġespessura
Ġpublicadas
ĠMoisÃ©s
Ġeis
Ġpuderam
ĠPassos
Ġmolhada
Ġconcordo
Ġprocessador
Ġparticipando
Empresa
Ġcomparecer
ĠGT
ĠSampaio
ordo
ĠEf
ĠSergipe
kk
Ġarmazenar
Ġatraente
Ġintestino
Ġescada
ĠDor
Ġentorno
ĠÃ¡gil
Ġgaita
Pa
Ġanalistas
Ġdividida
Ġrolo
Ġpunheta
Ġfranc
Ġencontrava
ĠRegina
Ġrotas
Ġprocurado
Ġpedem
ĠPlataforma
Ġaprendendo
Ġfalsos
Ġdelicado
Ġchegado
plica
ĠfarmÃ¡cias
Ġtransa
Ġadicione
Ã±
Ġaguarda
Ġestadia
eso
ĠVera
itz
Ġverifica
Ã³gico
ĠdanÃ§ar
quim
ĠAmerican
Ġbl
ĠdetecÃ§Ã£o
ĠagressÃ£o
Ġcaindo
Ġcred
ĠotimizaÃ§Ã£o
Ġlucrativos
ĠComplementar
cap
igas
Ġback
Ġvizinha
Ġreferir
Ġresultando
Ġregulares
Ġcolaborador
Ġpreferem
Ġdita
Ġprocurou
Ġnavegar
ĠengraÃ§ado
ulando
Ġalt
ĠAula
ĠGostaria
Ġhorizontal
Ġretorna
Ġcron
ory
igos
Ġincidente
rita
Ġsequ
ĠdÃ©ficit
Ġintitulado
Ġzagueiro
Ġtour
ĠLeague
Ġestreou
Maria
Ġensinamentos
ostos
fre
Ġpatente
Ġcuidadosamente
Ġfornecidos
urou
Ġinspirar
Ġesmalte
Ġricas
dez
pra
ĠAmericana
ĠFol
Ġquad
Ġexpostos
Ġcontrola
Ġhouvesse
Ã³tica
ĠNE
ĠBrasileirÃ£o
ionada
Ġcheias
ĠsustentÃ¡veis
ĠGer
Ġdispor
ĠpropagaÃ§Ã£o
ĠasiÃ¡ticas
Ġarqu
Ġficarem
ĠAbreu
Ġcomerciante
PD
ĠRol
ÃŃtica
ĠInfraestrutura
Ġplaneja
ĠPO
Ġlocalidades
Ġcert
mil
Ġcoletivos
ĠTermos
ĠProte
Ġamado
Ġ71
Ġervas
ĠconstituÃŃdo
ĠSanitÃ¡ria
ulaÃ§Ãµes
Ġdominar
Ġcarrega
Ġanexo
apa
ĠseminÃ¡rio
ĠintermÃ©dio
Ġcomb
ĠmecÃ¢nico
ĠSudeste
Ã£es
Ġguard
Ġgast
Ġtranstorno
ĠrobÃ´s
Ġrepleto
ĠcardÃŃaca
uls
ĠindÃŃcios
Ġconvencionais
ĠThomas
ĠÃ¡s
ĠPi
ĠGeneral
Ã³f
ĠbalanÃ§a
Ġconvidou
ĠÃŃntegra
Ġgalerias
Melhor
Ġseduziu
Ġpec
Ġventos
ĠadequaÃ§Ã£o
ĠorgÃ¢nicos
Ġ76
Ġcopa
raz
Ġsolicite
ĠChrist
Ġatualizados
Ġengenheiros
ĠLav
Ġpint
Ġdispara
undo
ĠdiscÃŃpulos
Ġrir
ĠTorre
uais
ĠOperaÃ§Ãµes
Ġeditorial
Ġdobra
ĠProc
Ġprefeita
ym
Ġhipo
Ġdemasiado
Ġsigno
Ġorgia
pare
ĠinesquecÃŃvel
Ġfilm
Ġobtidas
Ġpoderosos
Ġliberal
Ġrepresentado
Ġafro
Ġcartaz
Ġcasual
IST
imes
Ġestabeleceu
ĠalcanÃ§ado
Ġpromovida
Ġexam
brasil
Ġseparados
Ġirre
Ġbatendo
Ġofereceu
uas
ĠreceberÃ£o
Ġcod
Ġdomingos
2004
Ġpublicamente
mica
Ġcomprovada
ĠFred
Ġ84
ĠterÃ§o
ĠsemelhanÃ§a
Ġpego
Ġorganismos
ĠGab
ĠGeralmente
Ġclassificado
onha
Ġbandidos
Ġconectado
ĠRead
Ġrecebemos
Ġreceio
Ġesperamos
Gostaria
Ġcaracter
itÃ¡rias
Ã´nicas
ĠTermo
Ġacumulado
Ġapo
Ġanjo
Ġviaja
Ġcavaco
ĠajudarÃ¡
Ġmanuais
Ġrecusa
Ġexclusividade
ĠliÃ§Ãµes
Ġencontrando
Ġrecon
Ġpenas
etti
ĠEdson
ĠinjeÃ§Ã£o
Ġafins
Ġesclarece
ĠVideo
Cap
Ġ220
orro
ĠLista
ĠinseguranÃ§a
ĠDentre
iei
ĠSoluÃ§Ãµes
Ġ73
Ġ88
Ġtratam
Ġachava
Ġexist
eli
Ġsuf
Ġombros
Ġsentimos
Ġcuriosa
Ġtitulares
Ġconjuntos
Ġsofrido
ĠPodem
Ġadotada
Ġagro
ĠLÃºcia
Ġcampus
Ġdurou
Ġmover
Ġfornecido
Ġservido
ĠCasas
Ġfechadas
itch
ĠtecnolÃ³gicas
Ġpensamos
Ġartesanal
ike
Ġpudessem
ĠBeira
ĠholandÃªs
ĠFaria
Ġcaus
ĠUOL
Ġintimidade
Ol
ĠPag
Ġfinanciar
Ġinvestig
Ġsogra
Ġdevolver
ĠDaÃŃ
ĠrepÃ³rter
estas
ĠConclusÃ£o
ĠSustentÃ¡vel
Ġvidros
ble
tadas
ĠHora
Ġtentei
omp
ĠXVI
Ġpsic
Ġapetite
Ġfalado
ĠOficina
Ġsexualidade
sÃ³
ĠinspeÃ§Ã£o
.).
ĠgratidÃ£o
reas
ĠFilipe
Ġdoutor
Ġsuplementos
ĠAcordo
jet
Ġartic
ĠWill
Ġplanejado
tudo
ĠVendas
Ġlou
ĠmÃ¡gico
Ġcriaturas
Ġflorestas
Ġlicenciamento
ĠtecnolÃ³gicos
Ob
Ġdefinitivo
Ġevoluir
ĠVocÃªs
ĠetÃ¡ria
Ġcorda
2000
Ġaeronaves
Ġganharam
estes
Ġadeptos
ĠMunicipais
ParabÃ©ns
Ġintegram
ĠAlimentaÃ§Ã£o
ĠTaÃ§a
DR
Ġvisam
Ġadmite
Ġaprofundar
Ġestranhos
ĠMassa
teis
JosÃ©
ariamente
Ġraramente
Ġsaga
Ġenvie
Ġdivorciadas
Ġespirituais
Ġapresentadora
Ġurina
Ġcarb
ĠprÃŃncipe
Ġportadores
vil
ĠpÃ´de
Ġlos
Ġukulele
cionais
Saiba
Ġpoemas
Ġequilibrada
ĠTec
ĠBrito
Ġposs
Ġhorizonte
ĠViagem
Ġvag
Ġacompanhou
ï¿½ï¿½
ĠcombinaÃ§Ãµes
Ġmantida
vÃª
Ġresist
Ġcarreiras
Ġdistribuir
ĠsupervisÃ£o
ĠfavorÃ¡veis
ĠÃį
dic
ĠfogÃ£o
Ġimpresso
Ġcoroa
ĠocorrÃªncias
iadores
Ġdeixo
Ġverba
Ġdemorar
Ġaprendeu
Ġarran
Ġeducadores
¹
Ġ(-
embro
ĠNegociaÃ§Ã£o
Ġsindical
ĠGuinÃ©
Ġvaz
Ġlotes
ĠItaÃº
Ġamada
ÃŃtico
Ġrenovar
ĠGraduaÃ§Ã£o
ĠFar
ĠJackson
Ġsegurar
Esp
CL
MC
ĠlÃ¡pis
Ġbaseia
Ġconcedida
ped
ĠPinterest
erei
ĠrejeiÃ§Ã£o
ĠAli
Ġescrevi
iadora
atro
PRO
Ġ]
Ġreform
Ġrem
kin
RAL
Ġquadrado
ĠTemporada
Ġanunciada
Ġrecomendada
ĠMorumbi
âĢĭâĢĭ
ĠBill
rinho
Ġdescoberto
bia
ĠComando
ĠÃ
ĠSÃŃria
orado
ĠpÃ¢nico
ĠdistinÃ§Ã£o
ĠLocaÃ§Ã£o
Ġescap
Ġpis
Ġouve
pera
ĠCob
base
tamente
ĠBerlim
Ġhiper
Ġcapit
Ġcriadores
ricos
Ġtome
ĠPatrimÃ´nio
Ġgranito
ĠprÃ¡ticos
ĠBezerra
ĠPos
Ġgerir
ĠTotal
sex
ĠMet
ĠArmadas
Ġmergulho
Ġgiro
Ġconversando
ĠInstituiÃ§Ã£o
Ġdocum
Ġproporcionam
Ã³lico
ÃĢs
Ġesportivos
Ġcro
ĠAÃ§ores
Ġtrilhas
ĠKo
Ġexato
BB
Ġacreditamos
Ġdirigente
ĠOi
ogo
Ã´metro
GS
Ġsubmetidos
Ġbebe
ĠcomprovaÃ§Ã£o
Ġ79
ĠAlb
ĠDirecÃ§Ã£o
Ġpartiu
ĠsanitÃ¡rio
vem
ĠHid
Ġreservar
Ġnomeado
ĠGP
ĠextraordinÃ¡rio
Ġpanorama
ertas
Ġtantra
ĠreligiÃµes
ĠPÃºblicos
Ġpoderemos
ĠMus
Ġleituras
ĠFarmÃ¡cia
Ġmisture
ĠelÃ©tricas
ĠsÃ¡bados
Ġom
Devido
irei
ĠGarantia
ĠgÃ©nero
entista
mento
Ġdesm
Ġost
estÃ£o
ibe
CIA
Ġjato
Ġmarcados
ĠextraordinÃ¡ria
ĠLondrina
Ġtemporadas
Ġprot
Ġeditar
ĠcalÃ§ados
Ġanim
Ġpleito
Ġabsor
Ġobrigados
fos
Bo
Ġencaixa
ĠRedaÃ§Ã£o
Ġorganizacional
Ġstartups
ĠAmbos
obra
Sistema
Ġsaudades
Ġsustentar
ĠTeresa
ĠportÃ¡til
Ġps
hen
Ġdisponibilizadas
Ġporcentagem
ĠFGTS
Ġlimitar
Ġpassear
Ġfocada
ĠpraÃ§as
Ġfam
ĠPP
Ġguias
Ġpotente
Ġresistir
ĠSIM
idem
Ġserra
Ġestariam
Ġara
ĠarticulaÃ§Ãµes
Ġproduzindo
ĠCaio
Ġfuncionais
ĠavanÃ§ados
Ġsecar
ĠPin
Ġirei
Ġmuro
Ġ87
Ġcriminoso
ĠLda
ĠSil
Ġcontrolada
Ġpagam
loc
Ġafetam
Ġpsico
ĠincÃªndios
Ġincapacidade
ĠestÃ¡gios
ĠNuma
ĠconsultÃ³rio
Ġtanque
Ġesferas
Ġmul
arte
Ġescol
essÃ£o
ĠEstrela
Ġcobrado
ĠformulaÃ§Ã£o
Ġassessor
Ġcirurgias
fim
Ġcorporativo
ĠMarinho
trans
ĠtransferÃªncias
Ġpens
Ġresolvido
Tal
Ġocorrendo
Ġrespeita
Ġagrada
Ġcomandos
ĠPAR
Ġrelaxamento
Ġlaudo
ĠsensaÃ§Ãµes
¸
Ġcometer
ĠimpressÃµes
ĠAcesse
well
Ġarrum
ĠTime
strong
ĠGabinete
Ã¡r
ĠBuenos
Ġsuspenso
rez
ĠMedeiros
bios
Ġanc
ĠÃºtero
Ġprestado
Ġult
fin
Ġestampas
ĠSBT
ĠGrandes
egas
Ġaceitou
Ġrecolhimento
Ġestender
Ġlevemente
Ontem
ingo
Ġsolteiro
taÃ§Ãµes
ĠIrÃ£
ĠVaticano
ĠinÃ©dito
Ġocas
ls
ĠCria
Ġrepet
Ġbotas
EIRO
Ġexperim
tantes
Ġbelezas
ĠCaldas
eder
duz
ĠcansaÃ§o
Ġferidos
Ġcriaram
ĠSete
ĠplÃ¡stica
Ġconcerto
Ġpressa
ĠprÃ³stata
Ġplanejada
ĠST
Ġbackup
Ġcrie
ĠacÃºmulo
ĠChe
Ġvig
Ġexecutiva
Cas
Ġhab
ÃŃg
Ġrocha
Ġsacada
Ġavaliado
Ġcruzamento
ĠmÃ©dios
Ġmast
Ġfeedback
Ġpremium
ĠBloco
ĠSaint
ndeu
ĠHP
ĠAQUI
Ġcompartilhada
ĠRad
lan
ĠExcelente
ĠInstalaÃ§Ã£o
Ġtiverem
ĠWagner
Ġcarentes
Ġreality
Ġanalisados
ĠcomeÃ§amos
uba
ĠconvocaÃ§Ã£o
Ġamb
ĠAlimentos
IDA
Ã©lio
Ġsubida
ĠCass
Ġestrangeiras
PSB
DC
ĠinevitÃ¡vel
Ġinterpreta
Ġvel
ĠNintendo
Ġacolhimento
Ġletivo
gados
Ġindicou
ĠBO
Ġdesenhar
Ã³grafo
Ġindividualmente
ilaÃ§Ã£o
Ġbil
Ġestive
ĠFe
ÃŃssimas
ĠAlt
ĠLog
Ġproc
Ġliv
ĠsolicitaÃ§Ãµes
?)
Ġestudando
ath
ĠagradeÃ§o
Ġcrer
Ã³gica
Ĥ
ĠPAULO
Ġtreinados
Qualquer
Ġpuma
Ġing
Ġperguntando
Ġinstagram
ĠCM
ĠvivÃªncia
Ġgolpes
bat
ĠconsÃ³rcio
ĠJuliana
Ġvoltaram
ĠPot
ĠcoleÃ§Ãµes
ĠFui
Ġvenham
Ġobserv
Ġport
Ġdistantes
ĠmantÃªm
Ġdependente
Ġhum
Ġimped
chefe
Ġemocionais
ĠFreire
ĠEstatÃŃstica
ĠNenhum
Ġachando
ĠAng
Ġ89
Ġescritora
ĠJunta
aran
Ġblack
Ġsolares
Ġdourado
Ġsonhar
ĠLight
ertos
Ca
Ġestruturais
Ant
Ġideologia
Ġjunt
Ġsuporta
Ġatu
Ġreconheceu
ĠfantÃ¡stica
Ġpalha
2003
ĠagronegÃ³cio
Ġbispo
ĠDomingo
Ġdivididos
ĠMauro
ÃŃl
Ġmaqu
Ġmencionar
Ġvac
Ġpoeira
Parece
Ġtraseiro
Ġadmira
ocaÃ§Ã£o
Ġpc
ĠsolidÃ£o
âĢİ
Ġfuck
ĠSantarÃ©m
si
ĠconseguirÃ¡
ĠMi
ĠeconÃ³mico
ĠSky
Ġprovocou
ĠcomunhÃ£o
ĠCorreia
Ġpad
ĠsacrifÃŃcio
Ġpizza
Ġapag
Ġtorcedor
ĠinteraÃ§Ãµes
ĠlevarÃ¡
atia
ĠDiogo
Ġvazamento
ĠImprensa
Ġdesembargador
Ġcustom
ĠRu
issa
Ġpreferido
Ġholanda
rof
yo
ĠCamargo
cido
ĠAcredito
ĠturnÃª
Ġdesloc
ives
entaram
Ġlenda
berto
Ġcitou
Ġdecidido
ĠLeiria
Ġusufruir
Ġnutricionista
itamos
ĠFel
Ġpercorrer
Ġinvestigadores
Ġhorror
queiro
Ġreside
Ġinspirada
Ġmodel
600
idado
Ġpagas
ologista
Ġrespeit
Ġcoro
ĠEstava
ĠAdriano
Ã©ria
Ġdig
grÃ¡fico
Ġretrato
Ġmen
Ġvid
ĠXXI
tual
Ġabordados
Ġurbanas
ĠatribuiÃ§Ã£o
Ġgerados
Ġinternado
Ġcriptomoedas
Ġafetados
rie
ĠPap
Ġcondicion
ĠveterinÃ¡rio
Ġsimpl
Ġvivia
Ġmontado
wer
Ġacontecimento
ĠSEM
ĠCia
Ġchar
Ġquedas
ionista
ndem
Ġinteressadas
ĠaÃ©reo
vindo
ÃŃb
can
Ġtbm
Ġestatuto
raria
ĠPremium
ĠCI
rag
Ġreclamar
ĠcÃ©lula
ĠSuÃ©cia
Ġdesenvolvedores
Ġprosseguir
orada
acto
benefÃŃcio
ali
Ġdesejada
Ġagendamento
Ġlavanderia
mon
COM
Ġinvestindo
Ġsabonete
Ġeterno
Ġconveniente
Ġmito
ĠGre
ĠavanÃ§a
Ġdeixei
Ġmagra
ĠCla
ĠCOR
Ġcontrapartida
ĠlibertaÃ§Ã£o
Ġativar
Ġdemonstram
ĠNovos
Ġvermelhas
Ġimplem
vest
ĠHip
nce
ĠcabeÃ§as
Ġcontinuamente
ÃŃsmo
Ġpedal
real
Ġconhecendo
ĠMerc
ORES
pla
TURA
800
Ġled
Ġrat
ĠPic
ĠCac
Ġesquina
Ġcolonial
Ġmoldes
Ġmanip
Ġfortal
Ġvoltam
ĠComb
ĠMiami
EST
Ġdepos
ĠBanda
jados
gam
Outras
ĠnotÃ¡vel
Ġpiano
Ġsimpatia
Ġratos
Ġdespedida
alt
ificadas
ĠhistÃ³ricas
Ġfornecem
Ġintim
Ġprocessual
ĠBaixar
Ġempatia
Ġmanifestantes
ivados
ebra
ildo
Ġfis
ĠconsistÃªncia
Ġcancelar
Conf
ĠIrlanda
ĠMagn
Âł
ĠrÃ©u
Ġrevol
Ġdomina
Ġcandidaturas
Ġesclarecimentos
ĠJoe
!".
Ġaparente
Ġbicicletas
Ġsaias
Ġadmitir
ĠIvan
Ġalinhamento
Ġoportun
ĠtolerÃ¢ncia
ĠDig
Ġsolenidade
Ġnoivos
Ã¨
governador
Ġorig
Ġsuposta
Ġ92
Ġferimentos
ĠcivilizaÃ§Ã£o
Ġguerras
ĠrÃºssia
idora
Ġquartas
ĠorgÃ¢nico
Ġintens
Ġpraticado
Ġprimeiramente
Ġexerce
Ġprender
ĠprescriÃ§Ã£o
Ġmacia
hop
Ã©rico
Ġpeludo
Ġpintar
Ġpress
Ġfreguesia
ĠEstÃ£o
Ġabordado
Ġtroc
Ġequipado
Ġreverter
ĠUr
Ġinserido
entamos
Ġconfiabilidade
ĠapreciaÃ§Ã£o
ĠprivilÃ©gio
Ġpagou
ulam
Ġvoar
Ġestrangeira
Ġhist
Ġswingers
EE
rinha
Ġsen
Or
ĠGr
ĠcomÃ©rcios
Ġhabil
Ġatributos
Ġens
Ġtenhamos
ĠplantÃ£o
Ġtubos
Ġprivilegiada
versa
Ġcaridade
ĠMAIS
lor
Ġpromocionais
ĠNoite
Ġmarrom
Ġacompanhados
Ġsensores
Ġcabeludo
ĠEspeciais
Ġouvindo
Ġafastado
ĠdinÃ¢mico
ĠilustraÃ§Ãµes
Ġparadas
Ġmarcantes
Ġentusiasmo
ĠAmo
Ġtornado
ĠEP
ĠFox
Ġatrai
ĠHouse
Ġ(âĢ¦)
ĠnotificaÃ§Ãµes
ĠmÃ¡s
ĠNegro
Ġcoloridas
ĠparticipaÃ§Ãµes
Ġfigu
ox
Ġanjos
Ġcomplexas
Ġchegue
Podemos
ken
Ġanimados
ĠSuporte
Ġcrit
Ġestoques
ĠPrecisamos
Ġconselheiro
Ġanuais
vin
Ġbico
ĠteÃ³rico
burg
une
iliz
equ
Ġneles
AG
ĠFiat
ĠCadastro
Vol
mit
Ã³nica
orias
Ã¡g
ĠLazer
ĠmaÃ§Ã£
Ġduvida
Ġvendendo
Ġstress
ĠLas
ĠProva
Ġextrato
Ġassegura
Ġmodern
ĠvÃŃcio
hÃ¡
ĠpÃµe
Ġdestina
Ġ[[
ĠconstituÃŃda
ĠSebrae
ÃĩA
ĠfenÃ´menos
Ġsemente
ĠHist
ĠSEO
ĠtÃŃpica
Ġlutando
Ġpresc
Ġplay
Ġcru
ĠUV
ube
Ġvela
Ġautorizada
Ġpreocupe
ulho
ĠcomposiÃ§Ãµes
ĠvocaÃ§Ã£o
pois
Ġportuguesas
Ġcomumente
Ġdespe
Ġescuta
ĠradiaÃ§Ã£o
Ġperigos
ĠParticip
Ġderrotas
imb
ĠcoloraÃ§Ã£o
ĠbalcÃ£o
Ġlinear
ĠinterrupÃ§Ã£o
ĠinfluÃªncias
Ġtropas
Ġprofissionalismo
ParÃ¡grafo
ĠPronto
ĠlÃ¢mpadas
Ġrece
ĠVem
Ġtelefonia
Ġune
Ġpausa
ĠMÃ©dica
Ġturmas
Ġextensa
Ġvelas
sk
Ġrola
Ġcomplicada
ĠSamuel
Ġacresc
ee
Ã¡cio
Ġcv
Ġretorn
Ġprote
Ã³rica
ĠLuiza
Ġatendem
Ġestende
PornÃ´
Ġclaros
Ġabordagens
Ġacabado
Ġjun
reve
Ġmilfs
Ã§u
ĠLee
Ã³g
Ġfabricado
Ġmissa
Ġtam
į
Ġadvocacia
ĠWalter
Ġdeveres
Ġespalhados
Ġ83
Ġlet
Ġquarenta
att
Ġsens
Ġinvestido
lav
Ġaconchegante
Ġpend
feiras
Ġroubar
Ġdetalhada
Ġcinto
Ġdivide
Ġpoup
ĠLi
ĠsanÃ§Ãµes
ĠbinÃ¡rio
Pol
ĠPreta
ĠMendonÃ§a
Ġdecid
Rel
Ĳ
entais
Ġexemplares
Ġdominante
Ġnutricional
ĠTrade
ĠlembranÃ§a
ainda
Ġpresidentes
Ġsensacional
ĠFrank
Ġperfeitas
ĠGonÃ§alo
over
ĠZo
ĠtÃ´
Ġisolado
quete
ĠsuperaÃ§Ã£o
ĠvirÃ¡
rup
ĠMedida
Ġquinze
Ġatendidos
Ġresp
Ġced
ĠSat
Ġcircul
rina
Ġcritica
Ġresidente
Ġvit
ĠdistÃºrbios
idÃªncia
Ġinstal
Ġescrevendo
Ġpeg
Ġrevolta
ĠespÃŃritos
Ġdentista
Ġmov
Ġfinalizou
Ġembarque
Ġqueimar
Ġidosa
Ġperc
Ġpensava
Ġsauna
Ġmisturar
Ġpassageiro
Ġimunidade
EB
ĠdiretÃ³rio
ĠFlex
rose
Ġseguras
ĠSales
ĠAbra
ĠEletrÃ´nica
Ġinstitucionais
Ġpreparou
Ġfos
Ġcult
Ġprimordial
Ġarrumar
Ġdefiniu
ĠFOR
ĠpareÃ§a
Ġretira
ĠcorrespondÃªncia
ĠregularizaÃ§Ã£o
top
pod
ĠMAN
culo
Ġadorar
OC
Ġtutela
ĠVen
Ġsubs
Ġrequis
ĠÃ©pocas
Ġexperimental
ĠsimulaÃ§Ã£o
QUE
Nada
Ãªnia
ĠGama
ĠSind
ĠNormalmente
ĠcrÃ´nicas
Ġorienta
ĠmodernizaÃ§Ã£o
Ġretirado
Ġdenuncia
Ġconviver
ĠKe
ĠPont
iÃ§o
ĠEstrada
Ġusava
Pal
ĠFreguesia
Ġcalc
ĠprimÃ¡ria
Ġtemporal
Ãºr
Ġlente
Ġcolheres
MB
Ġsobra
ĠOpera
ĠAtlÃ¢ntico
Ġseguidos
Ġeh
Ġbilhetes
ĠAle
jando
Ġapps
ĠIp
ĠContrato
ĠoraÃ§Ãµes
ĠMore
ĠparalisaÃ§Ã£o
Ġemitido
Ġmodernidade
Ġencher
Ġpromotor
Ġcristal
Ġpermaneceu
Ġadvogada
ĠUrbano
ĠPad
Ġcamisetas
Autor
Ġperdo
Ġapurar
Ġ81
Ġabriga
ĠMostra
ravam
ĠðŁĻĤ
Pod
ĠDisc
ĠBeach
Ġcalcinha
Ġemagrecimento
Ġhost
Ġcuidadoso
Ġtire
segunda
Ġviolento
Ã³is
eth
ĠJovens
Ġburocracia
Ġsombras
oura
Ġdomiciliar
ĠFique
Ġton
ĠLove
ĠNÃºmero
Ġmedalha
IAS
Ġpeguei
lei
ĠGPS
ĠPenha
Ġ1950
Ġformou
Ġfaculdades
Pass
Enfim
Ġcongresso
ĠCapitÃ£o
Ġgerador
ĠDesse
Ġapagar
tambÃ©m
Ġexigido
ÃŃram
ĠprimÃ¡rio
ĠcarÃªncia
ĠlÃ¢mpada
essos
Ġagar
ĠDescriÃ§Ã£o
Ġconcentra
Ġexcessivo
Ġobt
Ġidiota
osto
Ġpromoveu
Ġcarn
ĠBlue
Ġencomendas
ĠPatrÃŃcia
ĠAlianÃ§a
ĠaperfeiÃ§oamento
Ġbrig
Ġrespirar
ĠPassa
Ġoptou
ĠVitor
ĠSoc
ĠmÃºltiplos
ĠcorporaÃ§Ã£o
Recentemente
Ġinfluencia
Ġacusados
ĠVerdade
Ġcolunas
ĠEqu
ugu
ĠVelha
Ã¢nea
Ġcorporativa
Ġprovid
Ġlocalizadas
iquem
Ġsar
Ġespetacular
ĠsucessÃ£o
ĠcÃ©us
Ġperdem
uraÃ§Ã£o
board
Ġtit
ĠEmpre
Ġtatuagem
Ã³lica
fund
Ġbarba
ĠKar
Ġconserv
ĠPena
pressÃ£o
Ġesfor
ĠÃ¡lbuns
dom
ĠMarta
Ġmaturidade
ĠMoinho
ĠCarneiro
Ġquesito
Ġmijando
ĠContinuar
pen
Ġincentivos
ĠEletrÃ´nico
Ã©rica
Ġ900
Ġcomunic
Ġfisc
Ġic
Ġcausadas
Man
ĠCarol
enes
Ġgado
Ġseio
irm
ĠStudio
Ġfraudes
Ġabrem
Ġcontempla
Ġqueridos
ĠOk
ĠProv
ĠinÃ©dita
Ġprefiro
Ġinveste
Programa
ĠConsulte
Ġrepouso
cimento
ĠpeÃ§o
Ġritual
ĠLA
conf
Ġseparado
ĠInclusive
ĠBÃ©lgica
ĠDanÃ§a
Ġepidemia
icl
Compre
ĠPrÃ³
ĠMateriais
ĠAÃ§Ãµes
END
antas
Ġband
ĠSmith
Ãªn
ĠLit
ĠExtra
Ġtotalizando
Ġbolos
ĠNOS
Ġchefes
Ġtoalha
Ġramos
Ġsexto
ĠArquivo
ilton
Ġmilagre
ĠcomemoraÃ§Ãµes
ĠinfraÃ§Ã£o
ĠTam
Ġ93
Ġfrag
Ġobrigatoriedade
Ġseguidas
Ġsof
Ġciente
Ġconsidero
Ġvoltas
ĠconvicÃ§Ã£o
.....
âĢ
ĠlÃ³gico
Ġilum
ĠGetÃºlio
Ġlot
ĠimpÃµe
ots
Ġcoberturas
ĠESP
ĠespetÃ¡culos
Ġestip
ĠSalas
ĠHoras
Ġcolocadas
Ġfilmado
Ãºn
Ġencerrou
Ġfornecendo
Ġvence
ĠMedia
ĠDAS
Ġsuspender
ct
Desc
Ķ
Ġpodcast
ĠcontÃªm
Ġabal
Ġcriatura
Ġ1985
Ã³loga
ĠComplexo
ĠmantÃª
2002
ĠMC
Ġemendas
ENTA
Ġlivremente
ĠpsicolÃ³gica
Ġinformados
ĠInte
Ġcit
ĠxÃŃcara
Ġtermin
Ġarbitragem
Ġmalas
ĠCristiano
yst
ange
ĠJun
AgÃªncia
Ġ86
ipos
VID
vidas
Ġsofisticado
Ġvas
enciais
Ġatras
ĠMant
Ġran
ĠRichard
Ġdiferenciada
Ġvirgens
ĠCÃ©u
ĩ
ĠOMS
ĠCost
Ġhumilde
ĠFiz
Ġintegralmente
ĠUSD
ĠliterÃ¡ria
eck
Ġexista
iosamente
Ġautarquia
Ġverbo
Ġexcessiva
Ġpalma
rama
Ġusina
ĠPVC
Ġlisboa
Ġalterado
ĠestratÃ©gicos
ĠRA
Ġlist
Ġeconomias
ĠdistribuÃŃdas
Ġmassagista
Ġobtida
Ġentendi
ĠAO
zas
Ġcompletas
Ġchip
Ġdemonst
ramentos
Ġaval
tarem
ĠlÃŃquida
Ġ1986
--
ĠPrÃŃncipe
ĠcÃ¡psulas
Ġviabilidade
Ġligeiramente
Ġsobremesa
Ġflash
ĠJuan
Ġsusp
Ġvelocidades
Ġdent
Ġsecos
ĠcentÃŃmetros
Ġassento
ĠconcessionÃ¡ria
ĠTerapia
ĠSl
ĠLim
idad
ĠGroup
ĠMora
Ġef
ĠcatÃ³lica
feito
Ġtabelas
ĠgrÃ£o
ÃŃcias
Ġresistiu
Ġfisicamente
ĠPaiva
Ġ94
ism
ivada
ĠCad
Ġclipes
Ġunidos
ĠLGBT
Ġclass
Ġrotinas
ĠquÃŃmico
Ġbatom
Ġcelebra
ĠVir
Ġvencedora
Ö
ĠtraiÃ§Ã£o
Ġestaremos
Ġgolos
ĠjurÃŃdicos
zer
amba
ku
º
Ġdigno
Ġvasto
ĠReserva
ĠavanÃ§adas
Ġformados
Ġconstitu
zen
Ġreconhecidos
ĠCidades
ĠDer
Ġressal
ĠTu
ĠGrav
erd
Ġprestig
ĠDiz
ĠassÃ©dio
Ġdenominada
Ġprometeu
Ġbrilhantes
abe
Ġsurpreendeu
ĠHouve
Ġorganizadores
Ġconceder
ĠbebÃ©
ĠilusÃ£o
rantes
..."
Ġsam
Ġlap
ĠsecundÃ¡rio
IDO
Novo
Ġlanche
Ġassal
Ġmundos
ĠWh
Ġproporcion
Ġtuas
Ġeixos
ĠdelÃŃcia
Ġeleitor
ĠEis
ĠpoderÃŃamos
ĠAgro
ĠcontrataÃ§Ãµes
ĠEquipe
Ġpublic
ĠKm
Ġrestaura
ĠperÃŃcia
Ġtransmitido
St
Faz
Ġcotas
ĠTerreno
Ġincerteza
Proc
Ġsenhores
Ġprecise
Ġbelos
Estas
Ġsatisfeitos
bos
Super
ĠRou
ĠtelecomunicaÃ§Ãµes
Ġmasculinos
Ġazuis
ificam
Ġram
ĠdesperdÃŃcio
ĠvulnerÃ¡veis
ĠTeoria
`
Ġreparos
ĠconvenÃ§Ã£o
ĠuniversitÃ¡rio
Ġdietas
Ġperuanas
Ġorganiz
Ġrecompensa
ĠalcanÃ§a
Ġsat
ĠNav
pass
ĠPress
Ġego
Sabe
Ġbloque
ject
ĠCasamento
entava
Oeste
Ġpoupar
Ġmassage
Ġhidro
ĠprovisÃ³ria
ĠNiterÃ³i
Ġmestres
Ġpercebemos
ury
ĠSun
ĠDet
Ã³ide
Ġut
Ġmedia
Ġpav
ĠBolÃŃvia
pu
ĠmisericÃ³rdia
ĠsecretÃ¡rios
Ġorganiza
ĠAjuda
ĠShe
Ġdesenvolvem
Ġaprenda
ĠRub
And
ĠMorro
Ġqueiram
Ġcaneta
Ġvisitou
Ġrepara
Ġabus
ĠmonetÃ¡ria
Ġorganizados
ĠJones
Ġcolapso
Ġminim
udio
Ġdeix
inheiro
hat
Ġrelacionar
ĠventilaÃ§Ã£o
ĠOU
ĠPia
Ġdeco
ĠEstrutura
ĠRenata
¡
ĠLaura
ĠIB
ĠaplicÃ¡veis
Ġmetodologias
Ġtecn
ĠCle
resse
ĠBradesco
ĠTreinamento
Ġcordas
logista
Ġmobiliz
inta
ĠtemÃ¡ticas
Ġeuropeias
ĠCarmo
Ġvivido
ĠZero
Ġdiscute
cher
pelo
Ġlamb
ĠPIS
ĠFloresta
Ġpromovem
ĠinsuficiÃªncia
Ġdrenagem
ĠFÃ©
2001
Ġfinas
Ã³c
ĠimpecÃ¡vel
ĠtÃ©rmica
Ġfestivais
Ã³l
ĠplÃ¡sticos
Ġproduziu
Ġzo
¥
Ġ125
Ġenfrent
ĠAmigos
Sinopse
Ġsoberania
ĠÃŃntimo
ĠIorque
Ġseriedade
Ġjuntou
posto
Ġconfinamento
ĠCaminho
Ġmudam
Ġintegrados
Ġmetropolitana
ote
Ġsurf
ĠÃ¡cidos
Ġandam
orou
Ġmarcaram
ĠVER
Ġconden
ĠfinalizaÃ§Ã£o
ĠvilÃ£o
ĠBuffet
ionÃ¡ria
Fil
Ġaltern
Ġmaterno
ĠvisualizaÃ§Ãµes
ĠReceb
ĠMenezes
Ġmagistrado
ĠGuara
Ġsafadas
Ġvendeu
olor
ition
ĠRaul
Ġfabrica
Ġcurt
Ġligue
ĠsofisticaÃ§Ã£o
Ġoutono
uel
ĠCup
ualmente
Ġsujeira
SÃĥO
ĠAut
Ġdesper
ĠPlenÃ¡rio
ĠDoc
ĠChefe
Ġconver
Ġassinaturas
encias
jou
ĠFire
ĠPinheiros
Ġescova
ĠFu
Ġinvestiu
PG
ĠHab
ĠcomputaÃ§Ã£o
ĠinoxidÃ¡vel
ĠimunolÃ³gico
posiÃ§Ãµes
ecas
Ġmostre
ĠXVIII
ĠobservaÃ§Ãµes
Ġcoberto
ires
ĠvÃ©spera
Ġocupado
Ġsubmetido
Ġsuperficial
ĠWall
pto
Ġrepresentada
culos
ĠAssuntos
Ġfraca
Ġsr
ĠLeve
Ġfib
idez
Ġforro
ĠFigueiredo
Ġvaleu
Ġresultante
elhos
Ġperfeitos
Ġrecipiente
ĠbancÃ¡rios
porte
Ġrecebida
Ġmartelo
ĠParaÃŃso
ĠNovas
Ġesguichando
Ġenvolvida
Tom
ĠTan
Ġsw
ĠBiden
Ġconfigu
Ġestreita
ĠCoutinho
Ġpriv
tur
Ġido
radora
Ġpolo
Ġdr
Ġdoar
Ġdirigida
Ġestup
Ġconserto
Ġflo
Ġengano
Ġbitcoin
Ġgolo
Ġcart
ĠVaz
eirinha
Ġatingindo
ĠEncontros
ĠTendo
Ġconsult
Ġcoletivas
faz
Ġcriativas
Ġcontinu
Ġcompetir
Ġneu
Procurando
Ġmacho
Ġeleita
Fonte
ĠAÃ©cio
Ġdecis
ĠPalm
Ġimpuls
iat
]]
eric
ĠSessÃ£o
IAL
gia
Ġlegislativo
ĠPeso
Ġfitness
Ãĩ
iment
Ġbilhete
vocÃª
Ġtrato
ĠprÃ©mio
ĠKong
ĠmigraÃ§Ã£o
Ġsurto
ĠAbaixo
Ã§amos
Ġterritorial
Ġconcedeu
Ġsaud
Ġoceano
Ġperdidos
ĠBox
Ġconclu
aval
Ġcamp
Ġdelicada
Ġ365
Vai
Ġfilas
ĠPom
prostitutas
Ġestim
ĠEC
rif
ģ
Ġorgasmos
ecimento
Ġaguardando
ĠEstratÃ©gia
Ġpassados
gadas
Ã¢neos
ĠFuturo
ĠAdriana
ĠartÃŃsticas
ĠsubstituÃŃdo
edes
Ġpiada
ĠhormÃ´nios
ĠVenha
ĠreconstruÃ§Ã£o
Ana
ĠcatÃ³licos
ĠNeymar
Ġcheg
stitu
gr
ĠprofissÃµes
encion
Ã³t
ĠOlÃŃmpicos
Ġevangelho
gl
Ġidentificada
Ġot
Ġinsulina
ĠIv
Ġescutar
Ġintelectuais
Ġalvos
Ġente
ĠOrgan
ĠGas
Ġcaralho
Ġatravessar
Ġpesar
Ġvindas
Ġverdades
itava
ĠIntegraÃ§Ã£o
ĠconveniÃªncia
ĠCarla
icida
Ġcomprovante
Ġcla
Ġativ
Ġrecrutamento
win
ĠIraque
Ġdescobriram
ĠhipertensÃ£o
Ġimag
Ġreun
ĠBatalhÃ£o
Ġdesmatamento
omos
Ġdecisivo
Ġreferindo
Ġbarb
Ġdefendem
ĠpossuÃŃa
ĠAuxiliar
uladas
ĠCamila
Ġexcluir
reia
Ġencaminhar
onde
Ġsubstitu
rin
ĠAnimal
issÃµes
Ġreab
Ġenfrentando
ĠUrbana
Ġtax
Ġmonstro
ĠGarota
ĠtributaÃ§Ã£o
ĠrelÃ³gios
Ġracial
Ġcontrolado
Ġmist
Ġimportar
ĠfÃ´lego
Ġseg
social
Ãĥ
ÃŃdio
erais
Ġcompartilha
Ġmaquina
ndes
alista
ĠignorÃ¢ncia
Ġvinc
ĠcontÃ¡bil
ĠNamoro
ĠRenan
ĠCPC
Ġabast
Ġjejum
Ġcompare
Ġpraticados
Ġmera
ĠPequeno
ear
ĠvinganÃ§a
ĠUFC
ĠMotor
ĠExpress
ĠEsperanÃ§a
ĠSeguros
Ġsurpreende
Ġrepleta
Ġvara
Ġ450
ĠClassificaÃ§Ã£o
Ġpersegu
bem
Ġadesivo
ĠPsic
Ġnega
ĠAdminist
Ã©ricas
Ġgerada
Ġurnas
atina
ĠAlguÃ©m
ĠDep
Ġmochila
Ġstartup
lon
inaÃ§Ãµes
ĠViv
Ġobst
ĠOri
aÃ§a
ĠFra
ferÃªncia
Ġatendidas
ĠIG
Ġpossibilitar
Ġobed
ĠNike
Ġdengue
Ġprovocando
Ġcontribuiu
ĠvisÃŃveis
Ġingressar
Ġbob
Ġlitro
idi
Ġpretas
Ġfantasias
Ġche
Ġdirec
Vis
Ġcoment
Ã³rico
ĠÃ³
Ġmonstros
Ġreconhec
ors
Ġtestemunha
Ġincertezas
ges
ĠPrevenÃ§Ã£o
Olha
isp
pdf
Ġlata
lay
Ġcumprindo
Ġnat
ĠRG
ĠGosto
ĠTSE
unic
Ġadequar
ĠBandeira
Ġchamando
ĠMary
ĠTÃªnis
Ġlibera
Ġlit
Ġbenefic
ĠtraÃ§Ã£o
igar
ĠTR
ernas
ĠPau
AssociaÃ§Ã£o
Ġmede
Ġandares
utar
uÃ¡rio
ĠsinÃ´nimos
Ġadaptado
ĠDestaque
Ġexibe
plic
Ġ91
Ġalojamento
ntos
Ġarra
eito
ĠFestas
Ġmeramente
Ġdestru
uÃ§Ãµes
Ġinveja
Ġnews
ĠVel
~
PN
itÃ¡
ĠColeÃ§Ã£o
ĠprorrogaÃ§Ã£o
TAR
Ġ1987
ĠExtensÃ£o
onst
ĠpÃ¡tio
ĠvibraÃ§Ã£o
ĠCriminal
ĠMam
Ġasas
ĠDisse
Ġsuspeitas
Ġ1964
ĠMarx
ĠInverno
DES
AF
Ġcriticou
Ġhes
ĠparaÃŃso
urgia
Ġtesta
ĠterraÃ§o
ĠMos
Fal
fÃ©
Ã³ides
ĠUber
Ġinvestiga
ĠBarreto
ĠvestuÃ¡rio
gando
PSD
ĠNuno
ĠFrete
Ġjoelhos
Ġviabilizar
ĠGames
!).
Ġcapitalista
ĠCarro
pat
usto
Ġpassadas
Ġinstru
Ġpremissa
Ġsubm
Ġturb
Ġroma
Ġespalhar
Ġignorar
Ġnoturno
Ġcompacto
ĠFerrari
Ġdivino
Ġcopos
Ġrespectiva
Ġluvas
ĠconcluÃŃda
Ġcapas
Ġporco
ĠlevÃ¡
inham
Ġleveza
icada
Ġvestibular
Ġaconteceram
ĠAprenda
Ġsoldado
Ġasfalto
Ġsolicitou
ĠbancÃ¡rias
Ġverso
Ġencant
cast
Ã¤
Ġdelib
Ġalarme
Ġtransmitida
ĠraÃ§as
Ġiam
just
Ġperd
ĠCAM
cu
Ġnicho
ĠPit
dades
ĠMÃ©dia
ĠMatheus
Ġevite
Ġcriticar
ĠsanitÃ¡rias
Ġprimo
MI
Ġembarc
Ġtocou
Ġescadas
Ġcriamos
ĠCoordenador
ĠElias
ĠJoana
ĠWhite
Ġmudaram
ĠLeis
Ġcoloridos
Ġvariedades
Ġterm
Ġpermitida
Ã¢
ĠInternacionais
Ġenvolveu
ĠAnal
ĠImagens
enh
ĠDam
ĠfumaÃ§a
Ġsocialista
Ġatrasos
ĠCloud
Ġï¿½
Ġtram
ĠcompatÃŃveis
iaÃ§Ãµes
ĠDantas
Ġswinger
Corre
Ġcautela
alho
Ġmultiplic
ĠJoinville
Ġassocia
Ġpros
Ġtambm
Ġgre
educ
Ġtraindo
ĠJe
ĠtÃ©rmico
RAÃĩÃĥO
ĠResultado
ĠQuase
Ġmobile
Ġruiva
Ġseduz
ĠdifusÃ£o
ĠecrÃ£
ets
Ġlima
dec
Ġfomentar
Ġpertinentes
Ġmato
ĠinterferÃªncia
Ġcomidas
amas
Ġfavorece
iet
Ġmanuseio
antar
Ġcoinc
ĠVilla
Ġincl
Ġgram
Ã¡stica
ĠMetro
Ġcorrespondentes
any
field
Ġmedos
ulto
Ġcineasta
ĠcaÃŃram
Ġposta
ĠAnimais
Ġcondutores
Ġpassivo
ĠShop
ĠSchool
Ġgordos
Ġbiodiversidade
Ġsubstituto
Ġsolos
Ġanimada
Ġov
Ġtorn
ĠsanguÃŃnea
Enc
verde
ĠTestamento
Espero
Ġaguda
sia
Ġimprovis
Sub
ĠsubsÃŃdios
Ġrecebidas
Ã´micas
Ġcofres
Ġprontas
ĠMacau
Ġ",
issÃ£o
ĠcampeÃµes
ĠCos
ĠtributÃ¡rio
Ġfug
Ġdesastre
condicionado
Ġcabine
Ġmoro
xos
Ġquiserem
ĠWhatsapp
Ġ1984
unho
Ġarro
nca
ADOS
Ġmove
vamos
ĠtaÃ§a
tel
Dentro
eri
Ġapontado
Ġrara
Ġprojectos
Dos
Ġensinou
Ġusos
Ġmandados
ĠDest
ĠBrown
Ġexaust
Ġinstabilidade
ĠjurisprudÃªncia
ĠBeleza
ĠBBB
onos
Ġajudaram
ulg
ĠestatÃŃstica
Ġpossu
Ġbrincando
ĠPs
Ġexata
Ã³ticos
bras
Ġespectador
Ġglobo
ient
ĠGraÃ§a
Apenas
Ġsofreram
iedade
Ġcaptar
Ġlisa
ary
Ġobservados
ĠSMS
Ġromances
ĠescÃ¢ndalo
sexo
Ġatendido
Ġassist
ĠclÃ¡usula
ivismo
jamento
xx
ĠexpediÃ§Ã£o
ĠRaimundo
ĠPiso
ĠconstruÃŃdos
ĠMÃ©dicos
Ġmaria
Ġsignificados
Ġautoriza
cular
ĠcocaÃŃna
Ġrestos
ĠcontÃ¡gio
ĠTER
HistÃ³ria
ĠcitaÃ§Ã£o
Ġbatatas
visÃ£o
Ġcomprometido
Ġacidentalmente
Ġbeijos
Å
ÃŃnio
Ġfornecidas
ĠAchei
Ġtona
Ġmanifestou
Ġhumildade
Ġpreliminar
ĠEnte
Ġconcorrente
Ġdemonstrando
Ġadmitiu
ĠUltra
ĠCerca
Ġarrisc
Ġelaborada
Ġsugerir
rasse
ĠinternaÃ§Ã£o
Ġbicho
Ġvot
ĠaceleraÃ§Ã£o
ĠBeto
Sol
Ġescolaridade
Ġesquecido
Ġpostou
Ġbeneficia
Ġsalada
HS
Ġbuc
hip
Ġconstruindo
ĠrotaÃ§Ã£o
Centro
ĠCientÃŃfica
Ġmouse
ĠNutriÃ§Ã£o
Ġecossistema
Ġtablets
erte
001
ķ
ĠHall
ĠasiÃ¡ticos
ovo
ĠMasculino
Ġrenal
Ġfracos
nov
ĠPolo
Ġsagrado
Ġmara
ĠPOS
Ġdesporto
Ġnude
ĠChat
Ġreproduzir
Ġconsideravelmente
queira
Ġparecida
atividade
Ġfix
Ġdisputas
cin
Ġanex
Ġhosped
ĠLy
ĠProcura
ĠEg
ĠTelefone
inÃ¡ria
Dentre
DOS
ĠDouglas
Considerando
Ġrodadas
Resumo
Ġarredores
dire
ht
ĠdefiniÃ§Ãµes
Ġreparo
Ġmake
Ġcurar
Ġconfia
Ġcalibre
ĠimobiliÃ¡ria
ĠRay
Ġbang
ĠCG
ĠvÃ¡lidos
Ġconfiante
rela
Ġandroid
Ġchato
Ġquil
Â
UB
Ġpretendo
Ġprefeituras
ĠTinha
Ġboneca
Ġpux
Ġprocessar
ijo
intos
ĠEspecialista
yan
ĠSertÃ£o
ĠCris
more
ĠdiÃ¡logos
Ġinvestigado
Ġmensalmente
Ġrefugiados
Ġespectadores
ĠrepressÃ£o
Ġpegada
Ã³ia
Ġfofo
Ġbanheira
Ġimplantar
ĠFÃ¡cil
Ġsapato
ĠAmaro
Ġdefensores
Ã´mico
ĠDedetizadora
ĠSandra
RAM
ĠChris
Ġarbit
todo
ĠNote
Ġ).
ĠCarros
ĠdeixarÃ¡
Ġsustenta
oce
ĠCategoria
ecem
ĠÃ©s
ĠreivindicaÃ§Ãµes
Ġreag
Ġdildo
ÃŃlia
Ġcomprovado
mulher
ĠAgenda
cios
ĠCapÃŃtulo
ĠEU
âĦ¢
ĠHem
Ġacrescentando
TrÃªs
Ġchurrasco
Ġimport
Ġviral
ĠInstitucional
Ġelevadas
Ġcopiar
Ġperson
Ġmineiro
ĠpedagÃ³gica
ĠHor
Ġcaminha
Ġlogotipo
ĠcompÃµe
Portugal
Ã§amento
tina
Ġexig
iques
ĠClasse
ĠpatrocÃŃnio
ĠcolÃ¡geno
itaram
ĠIntel
ĠOferecemos
Ġperturb
Ġdemorou
sc
ratos
Ġcelebrado
ĠjuÃŃza
Ġsubmeter
><
Ġcorporativos
TT
ĠDP
ĠOriginal
Ġexpediente
ĠÃ¡rbitro
ĠdomÃŃnios
ĠFort
Ī
abo
izante
Ġdemonstrado
ĠAÃ©rea
Ġdirecionado
Ġexpresso
Ġespere
Ġperdi
Ġadesivos
Ġassum
ĠBebÃª
ĠBB
Ġalegando
ĠBag
ife
Ġcota
ads
Ġgestos
iliar
Ġanalisado
Ġtele
ĠchegarÃ¡
Ġconsole
ĠBull
ĠMorais
Ġpaulo
ĠÂ©
duc
Ġparticip
ĠfilÃ³sofo
Ġesclarecimento
Ġantioxidantes
Ġconfront
Ġvinculado
Ġcomplet
Ins
.),
Ġlargo
Ġapto
Ġcontextos
Ġsignificativos
TOR
ulta
»
ĳ
ĠtÃ¡xi
ĠimunizaÃ§Ã£o
ĠmisÃ©ria
Ġquadril
Ġperigosa
Ġselecionado
Ġesconde
ĠCham
Ġsegurado
ĠLife
ĠDissertaÃ§Ã£o
Ġmoinhos
ĠaudiÃªncias
Ġcolombianas
ĺ
ĠReuniÃ£o
Ġnumero
ĠPrimavera
tox
ĠpropÃ´s
Ã³nia
Ġafricana
ĠLic
ĠquÃŃmicas
Ġraras
Ġcapric
ĠLojas
Ġtento
Ġbandeiras
ĠTodavia
Ġapos
Ġacess
ĠResponsabilidade
Nossos
istente
ĠLet
Ġimpostas
ĠSuperintendÃªncia
uth
yr
ĠsÃ³lido
ĠTIM
FC
Ġinconsciente
ĠTeresina
ĠIS
Ġacion
rime
istem
Ġprovimento
ĠmedicaÃ§Ã£o
Į
Ġnamorar
ĠJohnson
ĠPrÃ³ximo
Ġfalecido
Ġrodar
Ġfavorita
ensivo
Ġneuro
Ġconstitucionais
ĠÃ¡rabes
ĠCiclo
Ġrealize
Ġaplique
Ġrestrito
Ġcaf
Ġamplia
Ġsimbol
Ġhistoria
Ġaderir
ĠFriday
ogrÃ¡fico
dar
Ġhidratante
Ġabri
ĠInvestigaÃ§Ã£o
ĠLDA
Ġproveniente
Ġmudas
ĠdependÃªncias
CP
Ġassassino
Ġimpossibilidade
Ġverbal
Ġseguimento
ĠproporÃ§Ãµes
Ġtemporariamente
ritos
Ġtoa
Ora
boy
vaÃ§Ãµes
Ġavaliou
Ġacionistas
ĠArqu
Ġcompensar
Ġrepasse
Ġencaminhados
ĠForte
Ġatrativos
ĠdinÃ¢micas
Ġimportados
ĠimaginÃ¡rio
Ġcamisas
Ġvisite
Ġdesin
Ġfuncionou
Ġrot
Ġferido
Su
Ġinsta
Ġaprimoramento
Ġdefend
Ġfic
Ġmit
ban
ĠQueremos
Ra
ĠgovernanÃ§a
ĠDEUS
Ġescondidas
Ġrecord
ĠQuatro
Ġquadrilha
Ġreuniram
ĠAmorim
ĠPSB
Ġmoram
Ġlimita
terapia
Tendo
Ġagradeceu
econ
Ġautorizados
Ġincomum
dy
Ġregularidade
ĠCesar
ĠPrado
Ġ170
ĠBruna
Ġterrestre
ĠProfessora
ĠCondiÃ§Ãµes
Ġilegais
Ġborda
izaram
Ġester
ĠAnÃºncios
quinta
Ġrealizamos
Ġtratava
Ġabusos
pop
alizam
ĠWar
quarta
ĠnataÃ§Ã£o
ĠprestaÃ§Ãµes
Ġassust
acidade
Ġconju
Ġapaixonados
Ġlavabo
Ġcomplemento
Ġetanol
ĠLG
Ġosso
ĠConstru
blog
Instituto
CS
ĠExecutiva
Ġvil
Ġdamos
Ġprogram
Ġcansado
Ġjogado
Ġactu
Ġiniciando
ĠrealizarÃ¡
Ġcoletar
ĠrÃ©
ĠASS
Ġvindos
Ġsho
Ã©lia
Ġpassaporte
Ġresume
Ġala
ĠWars
sto
Ġsugerem
Ġarriscar
Ġcamb
Ġpedi
Ġagregar
Ġargentina
Ġpresas
Ġsecreto
Ġetiqueta
Ġtransf
Ġescassez
ĠEmenda
ernos
sexta
Ġinternautas
Ġpertencem
Ġgestantes
Ġpant
ÃĬ
Med
gmail
Ġdial
Ġaer
Ġdetalhadas
Ġexib
Ġrolos
uch
off
Ġdesat
Ġentrei
UE
Ġconselheiros
ï¸ı
Ġtentaram
ĠSesc
rent
ĠberÃ§o
ĠBatalha
Ġpatrimonial
Ġproced
ĠMatos
Ġlatina
bon
Ġingrediente
Ġsecretarias
Ġrealista
Ġatrativo
ĠmediaÃ§Ã£o
ĠMarte
Ġdoc
Ġintroduzir
Ġinduz
ĠRoger
ĠjÃºri
ĠchapÃ©u
Ġdormia
Ġdil
unt
ĠSeÃ§Ã£o
ĠRAM
Ġbusc
Ġparalis
ANDO
Ġadquire
Ġutilizou
Ġrevelando
ĠOlha
ray
ĠProfessores
ĠcolocÃ¡
Ġdiferenciais
ĠBaixe
Ġterminais
Ġencora
Ġisolada
Ġadministradores
Ġglicose
Ã³licos
ĠPainel
tendo
Ġreagir
Ġcort
ader
ĠuniversitÃ¡rios
Ġvip
ĠBru
ĠGarotas
ĠMill
ĠComments
Ġinjet
Ġlevanta
Ġrabo
Ġcasados
ĠMeg
email
Grande
Ġremo
Ġvendem
ĠCampina
work
Ġinda
Ġlegitimidade
Ġreclam
ħ
Ġindireta
ĠPlan
ĠProvisÃ³ria
Ġfrancesas
rata
Ġpersonalizar
ĠliterÃ¡rio
ĠiPad
Ġsuperou
Ġdispens
Ġsignificar
vidos
Ġdesigualdades
Part
Ã³gicos
ĠrÃŃgido
inÃ¡rio
Ġproporcional
Ġprecis
ĠlanÃ§ando
Ġbiografia
ĠÃłqueles
Ġvarias
Ġinterferir
Ġfinanc
Ġintervalos
Ġpalm
Ġformais
Ġgaranta
Ġ101
ĠMAC
Ġcorrem
Ġcut
ĠAmizade
Ġtranc
ĠdominaÃ§Ã£o
Ġ1974
Via
ĠÃŃntimos
Ġdedicados
Ġremete
ĠvalidaÃ§Ã£o
Ġcano
Ġfizesse
ĠON
Ġmorenas
Ġaposentados
ĠComun
Ġdefensor
Ġdiabo
Ġgasta
Ġtodavia
ĠpatrimÃ³nio
ĠginÃ¡stica
Ġherd
ecidos
Quais
Ġmex
ĠabundÃ¢ncia
ĠsustentaÃ§Ã£o
agar
ĠDiretora
Ġmina
EUA
ĠatribuÃŃdo
ĠSap
Ġenfermeiros
Ġ{
Ġprior
Ġsinceramente
ĠpÃ¡ssaros
CAR
Ġrsrs
ĠdormitÃ³rio
Ġaltitude
ĠMeninas
ĠCLT
Ġdegrad
ĠSÃĥO
Ġment
Ġinfectados
Ġprecedentes
Ġdiscutido
ĠDetox
Ġruptura
Ġliso
Ġcalculado
ĠMÃ¡quinas
ĠSelec
dois
Ġcaminhando
Ġespada
Ġativamente
ĠAce
Ġdenunciar
icion
Ġsign
Ġfed
Ġarre
izo
ĠDedetizaÃ§Ã£o
mg
ndente
ĠutensÃŃlios
Ġviaj
ĠCPI
olina
enciado
ĠfalÃªncia
Ġinforme
Ġconcordar
Ġfrios
ĠBrazil
ĠpsicÃ³logo
ĠTorn
ĠfrÃ¡gil
Ġexpl
ĠCai
.-
ĠCertificado
ĠenergÃ©tico
âĢ¦"
Ġdesafia
Ġpotencialmente
quinhos
todos
ĠDead
Ġajudado
ĠTrindade
ĠHong
ĠimpÃ©rio
ĠPorn
aix
Ġexpress
idaÃ§Ã£o
Ġcamisinha
ĠPintura
ĠChicago
quis
Ġsupervis
ĠmÃºsculo
Ġsozinhos
Ġ!!!
Ġsk
Ġvoyeur
ANA
Ġadquiriu
Ġtrabalhadora
Ġcompartilhado
ĠLand
ĠEspec
Ġarrem
Ġvistoria
ĠId
Ġcontidas
Ġdro
Ġfeio
ĠpoÃ§o
Ġcontratual
FER
Ġrelevo
ĠIntroduÃ§Ã£o
ĠInvest
ĠFI
Ġnordeste
Ġinterd
Ġmic
Ġagradecimento
ĠAnna
ĠAguiar
Ġvalem
Ġviria
ĠCompet
Ġarrast
ĠtraÃ§ar
Ã³tico
Ġlegalmente
Ġgovernantes
Ġtransmite
erando
Ġgirls
Ġabandonado
abora
Ġshampoo
Finalmente
Atu
Ġqueixa
ĠginÃ¡sio
ĠUnited
ticas
Ġconsegu
Ġtias
Ġexpostas
Ġmaravilhosas
alizador
ĠÃģlvaro
Ġmineira
Ġbibliotecas
inn
ĠVolkswagen
Ġbeurette
ĠBaixo
Ġsoftcore
ĠRoupas
Ġmud
ĠVirgem
Ġtetas
ĠtemporÃ¡rio
primas
Ġsecas
Ġservindo
fotos
Ġcresc
ĠcÃ¢maras
Ġagregado
AND
ĠAud
ÃŃdeos
ĠRosÃ¡rio
ĠelÃ¡stico
Ġnorm
Ġpositivamente
Ġespiritualidade
ĠVig
rinhas
Ĩ
ĠSar
Ġdepartamentos
icular
ĠPerson
Ġnovelas
asa
Ġ~
Ġselecionadas
Ġentes
Ġgrana
Ġpegando
Ġmorava
Ġdesempenhar
ĠBab
ĠestratÃ©gicas
Ġluc
emo
ĠProcure
Ġpesquisadora
Ġnetos
ĠGlÃ³ria
Cerca
Ġespectro
Ġdeixamos
Ġfotografar
Ġcomunista
Ġexplicando
ĠangÃºstia
Ġatenta
Ġobserve
gh
ĠDoce
Ġconquist
ativamente
Sabemos
Ġira
Ġnoturna
ĠpretensÃ£o
Ġproclam
Ġversatilidade
ĠtornÃ¡
ars
Ġnarrativas
ĠÂ°
Ġcalcul
RC
ĠCare
Ġrealidades
inde
Ġpareceu
Ġproveito
ĠSuc
Ġcantando
150
Ġtim
Ġcigarro
Ġvaloriza
ĠMatriz
ĠCorreio
Ġmundialmente
Ġcaput
ĠRon
ĠReceitas
Ġeleger
Ġacariciando
Ġcoopera
fone
Ġimpedindo
Ġinovar
ĠÃ³tica
Ġapoiado
Ġsolicitando
Ġbrutalmente
Ġfixar
Ġprende
Ġbolsos
Ġvarejista
Ġcontratada
Ġgradual
Ġchamamos
Ġvereadora
MAR
ĠPensando
Ġapoios
Ġbrindes
ĠVidro
ĠNational
ÃŃticas
Ġsintoma
hei
Ġcombat
?,
ĠTÃ¡
Ġqueim
Ġpermitam
Ġgrit
ĠBNDES
incluindo
Ġencargos
ĠCrist
Ġvendidas
Ġbruta
Ġremota
Ġbatalhas
ĠMÃ´nica
Ġultima
Ġprosperidade
rich
Ġmole
NinguÃ©m
ĠrepresentaÃ§Ãµes
Ġfisting
Ġrelax
ĠMaracanÃ£
ĠdanÃ§ando
Ġvermelhos
anismo
Ġcompromete
ĠmobiliÃ¡rio
ĠArtigos
Ġexpressamente
Ġreferem
Ġcompetitiva
ndar
Ġcorreu
ures
Ġderrubar
Ġexecut
ĠEST
Ġpermanentes
ĠEntrega
Ġprecisas
Ġcanela
ĠHaddad
Ġcog
Ġlegalidade
Ġinterv
Ġequilibrado
Ġfurto
ĠfotogrÃ¡fica
rus
icaÃ§Ã£o
Ġrugas
Ġbatepapo
Ġprefer
ĠTabela
ĠMPF
Ġdourada
Ġcomun
Ġdedetizadora
deu
ĥ
Ġpin
NT
Ġavisos
Ġcolorida
Po
INE
ĠMineiro
Ġcole
ĠPod
Ġpoliticamente
Ġvinagre
Ġsincron
ĠCorrÃªa
ĠSaber
eme
Ġhardcore
Ġpercebido
ĠOsasco
,âĢ¦
ĠSiga
ĠpetiÃ§Ã£o
ĠRegime
ĠBispo
Ġfab
Ġprev
nome
ĠLuciana
Ġliquidez
Ġhel
ĠAF
ĠCentros
Ġfaltando
Ġfirmado
ĠAlan
ĠreestruturaÃ§Ã£o
Luc
Ġrab
Ġresum
Ġrestaurar
ĠdÃ©bitos
Ġalm
sho
ĠAdorei
Ġatendeu
GRA
umin
Ġsoltar
Ġajud
leg
Ġfatal
Ġceleb
Ġescritas
ĠLeo
dou
ĠDol
ĠMaringÃ¡
Ġfum
Ġnobres
Ġcontigo
Duas
Ġenvolvente
ĠlicenÃ§as
ĠacrÃ©scimo
ĠPu
Ġpediram
ĠDist
ĠtÃª
Ġassinal
BI
mesmo
terÃ§a
¿
ĠInvestimentos
redo
ĠpersonalizaÃ§Ã£o
Ġcheque
Ġdesempenha
ĠprotecÃ§Ã£o
Ġsacos
ĠÃīvora
Ġperceb
ĠUMA
Ġlec
Ġcapac
[âĢ¦]
Ġobrigatoriamente
ĠPortÃ£o
Ġrela
Ã¡cia
Ġrecus
Ġput
Ġespalhadas
Ġgrega
ĠinvisÃŃvel
ĠBBC
reiras
ĠTol
iscos
Ġtransce
Ġgoste
ĠtramitaÃ§Ã£o
Ġpesos
Ġfadiga
Ġconsultores
put
hÃµes
ĠCircuito
ĠRose
Ġresol
ASS
Filmes
ĠDeix
POR
Ġolymp
ĠRenault
bert
ĠvoluntÃ¡rio
Ġ1982
Ġtesouro
Ġignora
Ġenvelhec
ĠCriador
Ġadm
Ġprogressiva
Ġatribuir
Ġaproxim
ĠProcuro
core
Ġfilhotes
Ġfolga
rov
ĠdegradaÃ§Ã£o
lio
Ġcriativos
DecisÃ£o
ĠSÃ³crates
Ġindicadas
ĠAdolescente
Ġassisti
Ġesperada
ĠFranca
Ġexibida
ISTA
hados
amental
VES
Ġmicrofone
otilde
Ġoriental
ĠRestaurante
Ġultrapassa
Sob
Ġdivid
Ġvendida
Ġcantores
ĠBoletim
Ġconsidere
ROS
Ġmedalhas
porta
ĠContinu
Ġpreocupados
Ġmold
Ġarmado
ĠHard
Ġpneu
Ġcoronel
eller
ĠdirecÃ§Ã£o
ionou
ServiÃ§o
ĠVa
Ġprovocada
Ġtempestade
á
ĠagressÃµes
ĠEconom
Ġrecado
Dire
Ġesm
Ġmentalidade
Ġacampamento
ĠvÃ¡lvula
Ġvin
Ġreparar
ĠadmiraÃ§Ã£o
ĠObter
Ġvoltei
fera
ouro
Ġtampouco
Ġderram
Ġcaracteres
Ġgovernadores
ION
ĠcemitÃ©rio
Ġsujo
ĠMB
ĠMeus
ĠdivÃ³rcio
Ġafetadas
ĠCAS
Ġnut
Ġfotograf
Ġprateleiras
Ġabdominal
ĠFlash
view
Ġveremos
Ġdetido
Ġincapaz
ĠFicou
Ġmusculares
ĠCapa
Ġip
ĠRic
Ġdigna
Ġquebrou
Ġrele
Ġlut
ĠAlf
arada
ilhar
Ġrobo
Ġpatroc
Ġrebaixamento
Ġconstituir
Ġonze
ĠraÃ§Ã£o
Ġsabiam
mina
erante
ĠSL
acia
ĠCÃ¢ncer
Ġdesentupimento
Ġmitos
Ġhomossexuais
Ġvend
ĠControl
Ġmangas
Ġcondenados
Ġafeto
ĠColor
Ġsitua
enÃ¡rio
Ġstand
ĠConservaÃ§Ã£o
Ġequipada
Ġnoivo
ĠrepetiÃ§Ã£o
ĠbÃªbadas
Ġanalisando
ĠHigh
Ġafricanos
Ġib
Ġdesej
ĠromÃ¢ntica
Ġfreio
Ġacreditava
Ġhid
Ġcumprido
Ãºs
ĠHamilton
Ġbasquete
row
Ġdescritos
Ġdesab
Ġfabricados
Ġauge
ĠAurÃ©lio
Ġparadigma
Ġrochas
Ġespecialidades
Ġ1975
ĠAquele
TP
Ġcasting
Ġcassino
Ġgrand
Ġacumular
Ġreunidos
Ġpiorar
Ġ1979
Ġanalise
ĠBMW
Ġinstitu
ĠprisÃµes
Ġdescol
rid
Ġobservada
Ġfasc
Ġdesn
uacute
html
Ġapost
Ġorg
Ġprojetada
Ġemergentes
orc
ologias
ĠantecipaÃ§Ã£o
Ġrecheio
Ġinerentes
Ġelimina
ĠJornalismo
Homem
Ġapertada
Ġyour
Ġfen
Ġfungos
Ġpretos
Ġbota
Ġabsorver
Ġcervejas
Ġcaderno
Ġaproveita
Ġadormecida
Ġpergunt
ĠElet
Ãªnt
EG
Ġneo
ĠfotogrÃ¡fico
Ġagendar
ulador
ĠconsideraÃ§Ãµes
Ã¡stico
gum
Gra
Ġpreconceitos
uck
ĠIntegra
âĢ¦)
Ġpeneira
Ġinaugurado
Ġatira
Ġeleg
ĠRaquel
ĠorÃ§amentos
ĠFlu
Ġusinas
Ġcontamos
Ġfofa
Ġartesanais
ĠÃŃntimas
ĠðŁ
essas
Ġpercentuais
ĠHal
ĠporÃ§Ãµes
atal
ĠInterna
Ġ240
ĠIndustriais
ĠExpo
Ġhahaha
Ġtomam
Ġmentiras
Ġacertou
ĠSecretÃ¡ria
ĠIlhas
Ļ
Ġgritando
ĠCarl
ĵ
ĠBarroso
ody
ĠestÃŃmulos
ĠEducacional
InformaÃ§Ãµes
Ġpoderem
Ġtriunfo
Ġgritos
ĠaviaÃ§Ã£o
ĠNaturais
ĠmaÃ§
Ġrotterdam
ĠIndependente
Ġsecreta
porque
Par
ĠAssistente
Ġcompet
Ġluto
ĠSilvio
ĠSimone
Ġcampeonatos
Ġrenov
ĠGaleria
TIVO
Ġmanc
ĠLapa
ĠNor
Ġaumentado
Ġpunho
ĠBarÃ£o
Ġsuor
ĠilustraÃ§Ã£o
Ġinterpre
Ġtransm
Ġcirc
ĠGilmar
fac
ogra
Ġolhares
house
Ġacumula
Ġaprova
Ġobstante
Ġprotegidos
Ġsintonia
NegociaÃ§Ã£o
Ġgan
Ġdeixem
Ġcertame
Ġrequisito
ĠBay
Use
ĠCaribe
Ġurban
MÃ£e
Ġpere
illo
Ġconstruiu
ĠKat
Ġconvidada
uÃ§Ã£o
Ġmovimentar
ĠprogressÃ£o
Ġindiretamente
Ġseminovo
Ġvaginal
ĠdistÃ¢ncias
ĠAlbert
ĠincorporaÃ§Ã£o
ĠÃŃcones
.(
Ġamsterdam
gi
ĠFaro
Ġpincel
Ġutilizamos
rer
istÃ£o
Ġfalecimento
Ġestatais
ĠprojeÃ§Ãµes
Ġhaha
Ġindec
ail
Ġidentificou
ĠCachoeira
Ġgovernamental
HE
eis
Ġversos
ĠConde
Ġsacerdote
Ġtransfer
dis
Ġax
SM
Ġblusa
Ġapresente
Ġreflexos
Ġrejeit
ĠCabe
Ġmilitantes
ĠTest
ĠAmerica
ĠToyota
ĠNam
Ġtraduzir
istÃªncia
how
Ġprejudicial
ĠsaÃŃdo
Ġapontando
ĠIM
ĠsÃŃtios
Universidade
ĠSor
not
ĠDiniz
ĠreforÃ§ou
Ġcoletados
Ġmanualmente
ĠConquista
vert
Ġhistor
Acredito
Ġminas
uaÃ§Ã£o
Ġconquistado
RIA
ĠdistribuÃŃdo
Ġreceb
Ġsuja
Ġvetor
plo
Ġrendeu
ĠVermelha
Fazer
Ġiriam
ĠBeatriz
Ġjazz
Ġconfund
ĠItu
neg
Ġdiscreto
Ġfavorecer
ĠSex
Ġimpulsionar
Ġfumar
Ġtransferido
Ã§aram
ĠED
ĠIndependÃªncia
Ġrespira
RIO
Ġouv
ĠconstruÃŃdas
ĠRoyal
Ġroup
ĠREC
Ġgoogle
Ġfortuna
Ġtexturas
ĠCy
ĠEmp
Ġconectados
Ġeconom
Ġexport
Ġorient
ĠomissÃ£o
urn
Ġfraldas
TIC
ĠLeitura
Ã©rios
Ġ),
Ġcaldo
egar
ĠPrime
Ġsonha
doc
ĠplÃ¡sticas
ĠRadio
ĠFinanceira
xi
ĠTÃ©cnicas
Ġfals
ĠApres
Ġencaix
Ã©t
Ġarranc
ĠOB
Ġste
Ġchamas
Ġentendemos
ĠComum
edida
SI
Ġjoias
Ġcontava
Ġrecupera
ĠbiolÃ³gico
Ã³d
ĠCanc
rativos
Ġmarcador
Ġdrive
ĠCamb
ĠSD
olh
Ġadu
Ġsolic
ĠdetÃ©m
Ġaprovadas
orrer
Ġescrav
Ġpeludos
Ġneutro
Ġacolher
ĠDouro
ĠAutoridade
Ġduplas
pode
Ġparcelamento
ĠBoca
dade
Precisa
Ġrumores
Ġata
ZA
Ġgru
Ġtributo
Ġalimenta
ĠdelegaÃ§Ã£o
taram
ĠquestionÃ¡rio
Ġpreservativo
ĠPotter
Ġdescumprimento
quina
Ġsuspensa
Ġoriundos
Ġfluxos
âĢĳ
Ġcumpriu
ĠCarteira
ficiÃªncia
Ġmulti
Ġbaiano
Ġdefendendo
ĠMec
nie
iÃ§
ĠproliferaÃ§Ã£o
Ġcooperativas
Ġpulseira
TAL
Ġnew
yd
Ġinformal
Ã¢n
)?
Ġgrandeza
Ġsint
ĠadaptaÃ§Ãµes
Ġcaracterizada
ĠRespostas
ĠFÃ¡brica
Ġliquidificador
HC
MDB
Ped
tac
ĠParticipaÃ§Ã£o
Ġnec
Ġbichanos
Ġdespacho
Ġcera
sub
ulou
Val
Ġdali
ĠResultados
ĠimigraÃ§Ã£o
ĠcontÃ¡beis
ĠAlfredo
Ġbacia
Ġlibertar
Ġdescre
ĠcomitÃª
ĠMov
Ġwannonce
Ġdetalhado
ĠHam
Ġconsequente
san
ĠXV
Ġpt
Ġenganar
ĠintermediÃ¡rio
Ġretrata
Ġbucal
cond
corre
Ġadquirida
ĠpÃ£es
Ġsujeita
ĠSabemos
ĠLÃ©o
ĠprestÃŃgio
ĠWa
iores
Ġdetox
ľ
Ġful
Ġpertencente
Ġalo
Ġhol
ĠimplicaÃ§Ãµes
ĠAplicaÃ§Ã£o
Sab
ĠsubmissÃ£o
ĠSB
ĠMissa
Ġdisparos
ĠManchester
ĠrÃ¡dios
Ġauxiliares
Ġbuscou
Ġcore
Ġbruto
Ġretra
ĠvovÃ´
ĠRot
ĠLU
ĠAmÃ©ricas
Cara
aros
lab
Ġbarcos
arca
Ġpica
Ġocupam
lusÃ£o
Ġarmados
ĠGostei
ecos
mond
Ġdesfecho
Ġlama
eres
Ġlargos
ĠBia
len
Ġdevedor
ĠQuarto
ĠvÃ¡cuo
Ġintern
CB
ĠBras
.Â»
Ġmom
ĠalÃ§a
Ġclar
ĠVasconcelos
ĠDetran
Ġperpet
ĠalianÃ§as
Ġpesadas
Ġmantidos
Ġorganizadas
ĠcafÃ©s
cat
ĠCoronel
Ġbloquear
Ġdevagar
ĠLac
Ġarranjos
ĠHumberto
Ġprotected
Ġreferiu
ĠFen
Ġatravessa
Ġamarel
Ġgross
Ġpremiada
iÃ¡veis
ĠMorte
ĠlegÃŃtimo
ĠformaÃ§Ãµes
Ġescorre
Ġtailandesa
Ġinocente
Ġcapturar
Ãºm
leo
yer
Ġdirige
To
Ġpescadores
Ġmencionados
Ġassassinado
ĠmÃ¡rmore
Ã¡culo
ĠDoenÃ§as
Ġsomar
ĠmistÃ©rios
Ġerotismo
Ġtropical
Ġaltar
Ġ123
Ġbrinca
Ġisol
Ġfranquias
ĠINTER
Ġacred
ĠBatman
ĠIntegrado
Ġaceitam
Ġvivas
iense
ĠavanÃ§ou
ĠvoluntÃ¡ria
Ġcompreend
atado
list
Ġgang
Ġpom
Ġquestiona
NE
Ġmortal
Ġperigosos
Ġretornou
ĠTÃ³quio
ĠcertidÃ£o
ĠCompleto
ĠObra
ĠdenominaÃ§Ã£o
Ġpadron
Ġall
Ġpertencentes
Ġintestinal
ids
Ġvocalista
ĠLigue
iao
estado
ĠSÃ©
ĠamigÃ¡vel
Ġrecolha
Ġlingu
abil
Ġexperimento
Ġpolit
Ġarquitetos
ĠVisual
Ġod
Ġbeta
BL
Ġexecutada
Ġaposentado
ĠPessoais
Ã³p
Jesus
Ġensa
ĠExc
Ġtransformado
Ġimagin
Ġcristianismo
Ġassina
Ġdivert
ĠRab
Ġdesaparecer
ĠvisÃµes
ĠLine
ĠMaceiÃ³
Ġsolta
Ġmusica
ĠCatedral
tr
Ġtransform
ĠAntigo
ĠcartÃ³rio
ĠEric
ĠCampeÃµes
Ġcinquenta
icio
ĠsistemÃ¡tica
ĠFrei
itei
Ġolhou
Ġfrust
Ġfinalidades
Av
quias
Ġfirma
ĠEF
Ġgata
ĠadmissÃ£o
Ġtap
Ġpressionar
Ġextremos
DB
ĠFull
Tanto
Ġnoivas
Ġbarro
Ġexecutados
Ġsitu
ENS
trÃªs
Ġpromet
ĠPrim
Ġdevidas
Ġcomprometida
ĠDino
Ġrompimento
Ġdiferenciados
ĠParÃ³quia
ĠprivatizaÃ§Ã£o
ĠcontenÃ§Ã£o
Ġapre
Ġescut
emin
Ġ;)
ĠSi
Ġcometido
Ġpreocupada
ĠPublic
ĠLusa
ĠcriaÃ§Ãµes
Ġequivale
Ġpontes
Ġbac
Ġapresentava
ĠcalÃ§ado
Ġroubado
ĠVe
eman
Ġpreocup
Ãµ
Ġmt
ĠAnexo
ĠAdo
ĠPiscina
Ġunicamente
Ġsecagem
Ġmass
Ġpalmas
Ġtomaram
ĠDuque
ĠfrustraÃ§Ã£o
Ġduras
Ġarmazenados
Ġdesigners
ĠEva
ĠAbastecimento
ĠtensÃµes
izer
Ġdeclarado
ocas
ĠDanilo
Ġmut
Ġcitada
Ġafetado
riu
anga
uber
Ġenga
Ġconvoc
Ġlinf
ocado
ĠVereador
ĠcÃºpula
ĠUlt
"...
Ń
Ġpastores
Ġarg
ĠðŁĺ
Ã´micos
Ġtraduzido
Ġcontrad
Ġdebat
iremos
atra
ĠPorno
ĠHan
Ġdescarga
Ġsemifinal
Ġdevidos
estra
Ġplana
ĠpedagÃ³gico
INO
Ġ1983
ĠpropÃ³sitos
Ġpublico
Adorei
rix
Ġcomem
Ġcorri
Ġcadastrados
ĠcampeÃ£
iamento
ward
ĠinchaÃ§o
Ġelet
Ġobsc
Ġjulg
Ġviatura
Ba
don
ĠTi
ilas
ensos
Ġpromo
vela
ĠAk
ĠCertamente
Ġstock
ĠQuad
mico
Ġgozo
ĠPosto
Ġconstatou
irÃ£o
ĠGuard
ĠServ
gs
inÃ¡rias
Ġreferidos
Ġelog
prof
IMENTO
Ġdesma
ĠCord
Ġpers
etr
ĠPublicado
Ã¢nicos
ĠMÃ©todo
ĠPastor
ĠTeam
Ġrefor
Ġraros
ĠNar
Ġplateia
Ġcooperativa
ĠTony
ĠMUITO
Ġapresent
ĠfreqÃ¼Ãªncia
ĠDez
Ġchoro
ĠfarmacÃªutica
ĠPav
ĠDoria
foi
Ġsuperintendente
Ġprovedor
Ġafet
Ġharmon
Ġespre
ĠÃ³ssea
gou
ITO
ĠBerg
Ġmach
Ġtestado
ionamento
ĠEmergÃªncia
Ġvisu
Ġamores
Ġlimp
ĠjudiciÃ¡rio
ĠDutra
ĠtÃŃpicas
Ġextrair
ĠencontrÃ¡
Ġaumentaram
entei
Ġater
Ġentendido
ĠrÃ³tulos
Ġengravidar
ĠTais
Ġreis
ĠViseu
Ġflora
jan
Ġdescarte
ĠinterpretaÃ§Ãµes
ĠInv
soc
ĠFogo
Ġcamas
Ġexigindo
amina
ancia
Ġpremiado
Ġtamanha
Ġprestadores
ĠOxford
ĠinstÃ¢ncias
ĠEquador
my
Ġcoorden
ĠTaylor
ĠIng
Ġsentada
ĠGente
Ġtronco
Ġdiferencia
Ġcust
mÃ£e
ĠVeterinÃ¡ria
Ġcomprido
Ġcliques
Ġaceite
Ġpovoado
ĠAlbuquerque
nec
ĠSexta
ĠAte
!,
ĠdedetizaÃ§Ã£o
Obrigado
Ġ1976
Ġparceiras
Ġalegou
Ġimpressa
Ġvent
ĠBÃ¡sico
ĠVanessa
ĠSocorro
Ġsucos
Ã³b
ĠVII
ĠentrarÃ¡
ĠScott
Ġfraqueza
ĠsÃ©timo
Ġdecidimos
Ġapertado
ĠInstruÃ§Ã£o
Ġcustar
Ġenriquec
ĠConsidera
ĠNele
ĠPacheco
ĠLobo
ĠcolisÃ£o
ĠrenÃºncia
inador
ĠcoligaÃ§Ã£o
ĠTap
ĠLinda
Ġfauna
Ġseminovos
nem
Ġposteriores
Ret
Ġtip
ernal
ĠTon
Ġreflet
ĠAta
ĠJud
Ġcacau
ĠteÃ³rica
ĠLargo
ĠHospitalar
Ġavis
ĠSign
enter
Ġsafado
Ġafetada
Ġperme
Ġprofeta
ĠmuÃ§ulmanos
ĠprivaÃ§Ã£o
ĠClass
ificador
Ġproib
Ġ1930
Ġ105
ĠrecomendÃ¡vel
Ġbondade
rick
Ġalterada
Ġdiminu
ĠMilÃ£o
ĠNoel
ĠOfertas
ĠSarney
ĠBenefÃŃcios
ĠCordeiro
Ġestimul
ĠAtlÃ¢ntica
Ġinclus
Ġpercorre
Ãºria
Pensando
Ġmontada
Ġcombinam
guas
del
Ġsuspense
Ġremet
ĠBut
Ġfinaliza
ĠesperanÃ§as
ĠpornogrÃ¡ficos
ĠnÃºcleos
Ġconvidar
ĠPes
Ġposicion
Ġadotou
Ġpedestres
Dr
ĠGabriela
Ġlinguagens
Ġinstaladas
ĠSenador
ĠCore
ĠMarÃŃlia
Ġprivativa
Ġinfinito
ĠLen
Cha
ĠglÃºten
Ġequilibrar
Ġcuriosidades
Ġvencido
hist
ĠPerf
Ġidentificadas
Ġacelerado
som
icidas
Ġaceder
Ġconvites
Ġmaravilhosos
erias
ĠJundiaÃŃ
Ġetiquetas
Ġacne
Ġcanadense
Ãºl
jadas
fit
ĠImpressÃ£o
Ġescopo
Ġcarto
Ġnativa
TM
Ġcompanheira
ĠGerenciamento
Ġperiferia
Ġleque
Ġsta
ĠBiologia
Ġinclu
Gostei
Ġtou
Ġavaliada
ĠSustentabilidade
Ã¢neo
ĠCONS
ĠPele
ilda
php
ĠDefensoria
odes
Ġprecip
Ġstrip
Ġcompens
cerca
Ġaudiovisual
Ġsubindo
ĠBern
Ġescrava
Ġiniciaram
ĠpressÃµes
ations
Ġemprest
PDT
Ġconcreta
AliÃ¡s
ĠMÃ³vel
Ġnave
Ġsegurando
ionando
Ġdeslocar
ĠCarioca
ĠturÃŃstica
Ġsep
ĠMogi
Ġ1973
ĠCine
Ġgramado
ĠFinanceiro
EstÃ£o
ĠPlayStation
Ġconsolidar
Ġprejudica
ifa
Ġplanetas
ĠmenÃ§Ã£o
Ġbin
Ġvenc
Ġseparadamente
Coloque
rang
itt
Ġseparadas
ĠFerramentas
Ġelo
Ġgostamos
ĠEnd
Ġconform
Ġafricano
Ġfundado
Ġsubmet
Ġviaturas
Ġfacilidades
ĠFed
Ġtruques
Ġsusc
ĠpavimentaÃ§Ã£o
Ġplural
ĠfÃ³runs
Ġconsecutivo
meu
Ã³st
wo
ESC
ĠestÃºdios
Ġfinos
Ġtintas
ĠCirurgia
toras
ĠPromo
Ġreabertura
ĠZelÃ¢ndia
Ġapresentamos
Ġrivais
Ġmorrendo
ĠExterior
estou
Ġisolados
ĠLouis
Ġpermit
Ġxadrez
Ġseguiram
Ã©nio
Ġconsome
ĠAlumÃŃnio
RU
ĠClaudia
Ġassumindo
rece
Ġcontrol
Ġsap
ĠaglomeraÃ§Ãµes
Ġmortas
Ġefetu
ĠFotografia
Ġeducativo
Ġconvenc
ĠMilton
Blog
Ġquadras
Ġriquezas
Ġbag
Ġrelat
Ġreserv
ĠPosso
Ġredonda
ĠCir
ÃŃmetro
Ġnl
Ġond
Ġbando
ĠFamiliar
star
tÃ³rios
ĠEspera
...)
Ġrepresentou
elly
Ġerrar
hora
ĠVin
Ġtorres
ĠflexÃŃveis
Ġdetergente
GEM
Ġcomemorou
ĠconferÃªncias
Ġantrop
Ġaromas
Ġviolenta
Ġph
Ġempur
Ġresponsabiliz
ĠConsult
ĠPrat
anhas
ĠBaby
iantes
Ġtiras
quÃŃmica
Ġdiretas
ĠTecnologias
Ġcontador
Ġestudou
cf
Ġbata
ĠÃģustria
ĠProgramas
Ġbiom
Ġsugeriu
XX
Ġencaminhada
Ġconcentrado
ĠAdvocacia
bom
ĠCNH
ĠEc
Ġfalaram
Ġmanobra
Ġgostado
ĠFunciona
ĠSy
Ġcesta
Ġacord
Ġalertou
irim
ĠCort
ĠfragrÃ¢ncia
ĠPref
ĠGaia
Ġveicular
Ġsindicais
ĠUcrÃ¢nia
ograma
ĠpalÃ¡cio
ĠintolerÃ¢ncia
Ġdesce
ĠindignaÃ§Ã£o
ĠBack
Ġcrescem
ington
ĠdigestÃ£o
Ġcerc
ĠZen
Ã©u
ĠdeclÃŃnio
Ġnamoradas
Ġpague
ĠPablo
fol
kers
ĠRota
Ġpastas
Ġjac
Ġprojetar
ĠparÃ¢metro
ĠcirÃºrgico
Ġobservadas
ĠRevisÃ£o
Ġmolhado
Ġcos
Ġ190
Ġvier
Ġ1968
ĠHu
Ġcot
ÃŃrem
Ġpoderosas
Ġpreocupante
CU
Ġlimitadas
ĠPermanente
ĠimportaÃ§Ãµes
Ġshoppings
ĠClÃŃnicas
Ġdiplom
ĠliquidaÃ§Ã£o
Ġmelho
ĠKal
700
ĠAma
Pe
ĠCÃ¡
Ġconduzida
vista
Ġliberais
Ġcarregado
Ġreve
ivaldo
Ġincorporar
ĠhormÃ´nio
Ħ
Ġexposta
Ġtrilogia
Ġplanej
ĠComputaÃ§Ã£o
ĠTen
Ġorelha
Ġferida
Ġmisto
Ġtex
OMS
ĠLogÃŃstica
Ġportos
ĠJuazeiro
ĠaudiÃ§Ã£o
ĠTricolor
ĠBÃ¡rbara
ndido
Ġmos
Ġpular
Carlos
Ġcong
Ġespanc
Ġuva
Ġvotado
Ġdiminuiu
Ġatrapalhar
pada
Pedro
Ġcantinho
Ġgenes
Ġdesligar
Ġporem
quad
Ġcortina
Ġtratadas
Ġdeva
Ġ(+
Ġdeslig
ĠgeogrÃ¡fica
itivos
Ġfundadores
ĠParlamentar
Ġalguem
ĠDEM
ĠreÃºnem
Ġtrens
ĠMecÃ¢nica
ĠsÃ©rias
Ġpesquis
Ġconversou
ities
ĠInfÃ¢ncia
±
ĠFlorestal
Ġalega
Ġcontemplar
Ġacrescente
Ġgotas
Ġdifere
Ġincomod
Ġrecordar
ĠRecomendo
ĠProgram
ĠHavia
oth
Ġantecipar
Ġpacto
Ġexecuta
Ġdesist
Afinal
ĠmolÃ©culas
Ġpreferidos
Fui
Ġmaster
ogia
ĠinvenÃ§Ã£o
anÃ§
Ġpossua
ĠFO
Ġestruturado
Ġcometidos
ĠamamentaÃ§Ã£o
ĠTimor
Ġestarmos
ĠcomeÃ§arÃ¡
ĠCooperaÃ§Ã£o
ĠOR
kh
Ġaplicando
Ġtransportadora
Ġparam
Ġbullying
novo
ĠPÃ£o
Ġganh
Ġcompro
ĠgaÃºcho
Ġnativos
ĠSteve
candidato
Ġnam
Ġradic
Ġtorcer
Ġfamilia
ĠHabitaÃ§Ã£o
Ġinvestidos
ĠBell
ĠMach
DP
ĠdomÃ©sticas
ĠRecentemente
TRO
ĠalÃŃnea
ĠAnton
Min
Ġbara
isas
Ġtrono
Ġcriminalidade
ĠTeremos
Ġnacionalidade
Ġinseridos
etor
ĠAto
Ġsubstitui
Ġneglig
cre
ĠMemÃ³ria
Ġprovocado
Ġstrapon
Ġnaquilo
Ġcitadas
ĠindispensÃ¡veis
ĠLeon
Ġcums
ĠBrÃ¡s
ĠParede
ionistas
Ġefetuado
ĠAmapÃ¡
ĠabenÃ§o
Ġfra
ĠSint
ĠInstituiÃ§Ãµes
ĠCamilo
Ġpret
Dados
RES
Ġautomotivo
ĠRegul
Mod
Ġdirigiu
Ġelaborados
ĠLind
ivers
Ġ1978
Ġagua
µ
iff
Ġfactos
Ġterrorismo
Ġdisputado
Ġlembram
ĠpsicÃ³loga
lock
Ġestufa
Ġestimativas
Ġcolocaram
uter
Ġusaram
101
Ġinaugurada
Ġmero
Ġexec
guinho
Ġavisar
ork
pap
Ġcobertas
Ġdetrimento
Ġmaravilhas
ĠGE
ĠFran
Ġembal
Ġmultidisciplinar
Ġforum
ĠMossorÃ³
ĠCBF
ĠconvÃªnios
Ġfugiu
ĠalÃŃquota
ĠAnti
Fiquei
eirense
Ġacert
ĠClÃ¡udia
ĠBuc
Ġfixos
Ġrelembrar
iche
ĠBlumenau
ĠTerceira
Ġcereais
Ġextenso
ĠFigueira
rena
Lev
Ġdestac
Ġmosquito
cil
ness
Ģ
Ġvinil
ĠAlentejo
ĠRodovia
nam
Ġalme
Ġpuxar
Ġaliv
aa
ĠinocÃªncia
ł
Ġconsumido
Ġrefletem
quinas
CT
Ġauxiliam
noite
Ġincidentes
ĠDescob
Ġsorvete
ĠacÃ§Ãµes
ĠFan
Ġqueix
Ġindign
Ġfran
Ġmad
Ġmexendo
ĠexceÃ§Ãµes
ª
Ġescalada
auto
ĠMissÃ£o
Ġacredite
ĠDistribuiÃ§Ã£o
Ġenviando
Ġpartindo
Ġpresentear
Ġarras
ĠAlo
Ġuvas
Ġobedecer
Ġcans
Ġcontados
ĠBalneÃ¡rio
Ġmentes
½
ĠTijuca
anca
Ġxixi
ĠSofia
ndentes
fet
Ġ1969
Ġgrossa
Ġ".
ache
Ġfaltou
ĠdestinaÃ§Ã£o
ĠimposiÃ§Ã£o
Ġsocialmente
ales
Ġacerto
Ġfaltas
Ġcorta
ĠBarb
ĠToledo
Ġamamos
ĠuniversitÃ¡ria
900
Ġfirmeza
sÃ¡bado
ext
¨
ĠtrofÃ©u
Ġengolir
ĠSai
ĠFlo
ADE
Encont
ĠMinistros
ĠhorrÃŃvel
**
ĠCod
Ġabsol
avo
ĠBoas
Ġinterromper
lt
Ġganhe
ĠConsiderando
aire
Ġexigentes
ĠTrading
ĠPCP
Fre
ream
Gal
Ġincrivelmente
urso
HOS
Ġatac
gÃªn
Ġinformada
ĠAgostinho
ĠPokÃ©mon
ĠcompressÃ£o
ĠanotaÃ§Ãµes
Ġcego
ĠMota
Ġdistinguir
iquei
izamos
ĠacomodaÃ§Ã£o
Ġingerir
"!
·
Ġposicionar
ĠVic
ĠutilizÃ¡
Ã³m
ĠSeries
Ġcultivar
Ġterroristas
Ġinternacionalmente
ĠescuridÃ£o
ĠSamba
Ġbuscamos
Ġempol
Ġpulso
Ġexplicado
ĠCV
Ġacabamentos
ĠComunicaÃ§Ãµes
ENTO
Ġsuaves
nÃ§as
Ġtransparentes
ĠpublicitÃ¡rio
ĠRPG
ursos
vÃ£o
ĠdÃ©cimo
ĠLemb
Ġms
ĠMuita
Ġcanta
ĠResort
Ġpassiva
ĠJornada
ĠLiv
ĠPapai
Ġsacerdotes
ĠEleiÃ§Ãµes
ĠPlaneta
ĠFood
Ġpreferencialmente
¤
raft
semana
Ġquestionado
Ġalertar
Ġgordinhas
Ġnelas
Pessoas
Ġliderar
Ġdeficientes
ĠFamalicÃ£o
ĠdÃ³i
Ġjogadas
Ġpilha
ĠRES
ĠGram
ĠaperfeiÃ§o
Ġantecipada
Ġquestionamento
ĠCRM
Ġcometeu
ĠsecÃ§Ã£o
ĠirrigaÃ§Ã£o
Ġtapetes
Ġgrita
financ
izem
Ġrituais
ĠcircunstÃ¢ncia
Ġuniformes
Ġtanques
Ġclassificar
Ġcaia
Ġacorda
ĠsÃ©tima
Ġerotica
ĠServidores
Ġespionando
autor
Ġexistam
iÃ¡trica
ĠAPI
ĠComarca
Ġcorrespondem
ĠbiquÃŃni
ĠAda
Ġinteressada
Bissau
Ġresid
Ġfaciais
minha
ensor
ĠMesquita
ISA
Ġadicionado
ĠHTML
Ġtabuleiro
ĠIgu
Ġdissol
enza
Ġdestacado
Ġcreche
ĠcomunitÃ¡rio
VocÃªs
Ġ1981
ĠFeminina
ĠobtÃ©m
Ġerva
Ġdistingu
ĠSÃ¡bado
ĠBaixada
Ġtentado
able
Ġover
Ġquadris
ĠtraÃ§o
Ġconfrontos
gol
Ġ750
ionÃ¡rias
Ġaprendemos
ĠrÃ³tulo
Ġtratou
ĠlaÃ§o
ĠLum
Ġboi
Ġdescendentes
Ġimpossibil
Ġvaca
ĠPalmas
Ġvinculada
ĠPalavras
Ġreservados
PSL
ĠFlÃ³rida
Post
ieta
unas
ĠCidadÃ£o
Ġhospitalares
Ġtigela
Lembre
ĠMobilidade
Ġliderado
ĠtÃŃpicos
Ġtumor
Ġcontinuo
Ã§oes
ĠclÃ¡ssicas
Ġvossos
Ġcunnilingus
ĠMEI
Ġaptos
ĠFerraz
Ġmagro
Ġsalientar
ĠCabelo
ĠArtur
ĠGro
Ġpedida
ĠServer
Ġpousada
ĠAssemblÃ©ia
Ġimper
unÃ§Ã£o
ĠpH
Ġergu
ĠjurisdiÃ§Ã£o
ĠBastos
ĠPB
ivista
Ġthat
Ġagressivo
Ġsocio
ÃŃticos
Ġderrotado
ĠLink
Ġdeterminante
Ġcurricular
ĠElizabeth
Ġeditores
hec
ÃŃd
assa
Ġcloset
mor
Ġinfluenciam
books
Ġcadeias
ĠEtiquetas
Ġturista
Ġgradualmente
Ġtosse
Ġcoma
ĠsanitÃ¡rios
ĠIrmÃ£o
Ġatualizadas
Ġsop
ĠJon
Ġsincero
ĠTRE
INS
lad
Ġsoluc
Ġ!!
ĠcaracterizaÃ§Ã£o
div
Ġnudez
°
ĠBaixa
Ġquebrado
Ġmagistrados
ĠMur
Ġcustam
sobre
Ġqueixas
ĠpÃ³dio
Ġplantar
Dom
Ġverduras
rite
Ġparlamento
Ġliderada
Ġworkshops
ı
Ġfadas
SD
RP
Ġajudem
eix
Ġsomam
ĠpotÃ¡ssio
Ġresultantes
ĠFinalmente
Ġequilib
Ġfort
azar
Ġatingidos
Ġfod
Ġinformativo
Ġcoerente
uco
ĠJim
Ġquim
ĠCred
ĠLot
ĠeletrodomÃ©sticos
Ġdesconf
Ġcenoura
Ġflorestal
Ġalternativo
ĠBauru
Ġreduziu
Ġjura
ĠâĢĶ,
Ġpi
Ġcompartilhou
izadores
Ġquart
Ġestacion
jud
ĠDIA
Ġveracidade
inÃ¡rios
Ġjul
ĠSENHOR
Ġfof
obre
Ġfrequentar
ĠDin
ĠArruda
Ġdepara
ĠdidÃ¡tico
ERS
ĠFla
Ġdick
Ġcircuitos
ĠWilliams
Ġaluna
Ġtriagem
ĠfÃ³rmulas
ĠFIFA
ĠPeÃ§a
Ġcorporais
Ġbran
Ġleit
Ġmapeamento
Ġfortalece
ĠOcidental
ĠObservatÃ³rio
Ġrepresent
ĠequaÃ§Ã£o
Ġfatia
gram
Ġpintor
ribu
Ġfilmagens
ĠvoltarÃ¡
ĠHistÃ³rias
Ġdescritas
ĠFrio
ĠSucesso
ĠVac
Ġmedieval
ĠacrÃŃlico
Ġregimes
Ġsolicitados
Ġdoggystyle
ĠWood
Ġmisterioso
ĠrepÃºblica
Ġregulamentos
Ġfres
Ġsurg
Ġcolunista
ĠsubsÃŃdio
Ġenquad
Ġexag
ĠincluÃŃdas
Ġfrentes
ĠMBA
Ġfunk
Ġchegava
Ġbala
erou
ĠabraÃ§ar
Ġ230
Ġanalisou
Ġefetivos
Ġimposta
Ġdesvios
ĠRoraima
Ġenrolar
IOR
ĠcalÃ§ada
Ġdisfar
Ġfazendas
igaÃ§Ã£o
Ġpeculiar
Ġexigidos
Ġpreferida
TEC
Ġdesprez
Cr
Ġrigoroso
ĠcontrÃ¡ria
ĠanÃ©is
ĠSports
sur
ĠNobel
Ġartificiais
ĠCAP
Ġestudado
Ġcoroas
ĠbiolÃ³gica
Ġconnosco
ĠBola
Ġocorrida
ĠedificaÃ§Ã£o
ĠprÃ©mios
Ġestat
ĠAlckmin
Ġelegantes
Ġdental
ĠnoÃ§Ãµes
Ġchorando
ĠSav
ĠSag
ĠURL
Ġfecho
Ġviajando
ĠmilionÃ¡rio
itÃ©
ĠEngenheiro
ĠCaval
Ġlistados
rativas
Ġaspira
Ġautenticidade
Ġsujeitas
eite
Ġperiodicamente
ĠAlemÃ£o
ĠLed
Ġcache
eliz
Ġachamos
ļ
250
ĠWellington
ndemos
Ġconcede
ĠRealmente
Ġexor
etal
Ġcurte
Ġmonito
ĠcotaÃ§Ãµes
Ġatentado
mi
aste
VAL
ĠladrÃ£o
ĠRegimento
Ġincomoda
Ġacompanhadas
idados
ring
Ġdelim
ĠmangÃ¡
Ġcenter
ĠImÃ³vel
ski
rense
ĠChrome
Ġcall
usos
Ref
ĠTy
Ġhierarquia
ĠdicionÃ¡rio
ĠAdicione
Ġtransc
Ġcondutas
Ġassinantes
ĠDed
Ġcoz
ferÃªncias
Grupo
ĠTerminal
vindas
Ġinternamente
ĠativaÃ§Ã£o
ĠSantander
ĠAdoro
ĠAgende
Ġconfuso
Ġdesconhecida
ĠcirurgiÃ£o
Ġestabelecendo
ĠCav
VC
ĠgenÃ©tico
ĠPastoral
Ġantioxidante
ELO
Ġalavancar
ĠUberlÃ¢ndia
Ġenfrentou
ĠcontribuÃŃram
ĠOperacional
ift
Ġsolicita
Ġtub
ĠAnalista
ĠMix
ĠAreia
Ġverificado
Ġconcertos
Ġaj
Ġcontente
ĠMisericÃ³rdia
Ġfel
Ġacademias
metragem
Ġfisioterapia
anes
cr
ĠMai
Ġren
Ġzomb
Ġescrevo
Ġcer
Segu
IMA
ĠdeficiÃªncias
ĠEscrituras
Ġantic
Ġfake
iller
iii
ĠPrÃ©mio
ĠportÃµes
Ã©dio
Ġminist
ĠestÃ©tico
Ġefectu
ifico
Ġgrito
tle
Ġiniciante
Ġavisa
Ġimaginava
icadas
ĠCome
ĠResol
Ġprometem
ben
Ã©dica
ĠIrmÃ£
Ġvisitando
Ã©d
Ġrasp
Ġviabiliz
Ġinterpretado
Ġdigamos
ĠMIN
ĠLitoral
atch
ĠFont
ĠAbel
urados
Ġgravou
Ġinsuficiente
ning
uti
ĠrecessÃ£o
Ġenrol
ĠAline
ĠCÃŃvel
urais
Ġconcord
iveis
´
Ġregulam
ĠEmbrapa
Ġbarragem
Ġapoiando
useram
Ġleads
ĠSantuÃ¡rio
itarem
aso
Ã©dia
ĠembarcaÃ§Ãµes
ĠAnual
Ġlind
Ġthis
Ġprocuradores
Ĵ
Ġpedimos
Ġhal
ĠVent
Ġdescrita
ĠprevalÃªncia
Ġvinham
Ġatingida
Ġromper
ĠPÃ³
Ġlamenta
Ġpaladar
alar
Ġfom
ĠcomunitÃ¡ria
Ġaliment
Ġcaminhadas
Men
ilizar
Ġadiant
Ġlatim
ĠExteriores
Ġrins
Ġconvers
ĠatendÃª
Ġvolum
Ġconscientes
Ġrostos
ĠFL
Ġtrocando
ĠOswaldo
ĠexpÃµe
Ġbatida
ĠSUV
Conhec
Ġconven
ĠÃĵleo
ICAS
Ġprofundos
Ġobjectivos
Ġprocurados
Pat
Ġagindo
Ġpresidenta
Ġaguard
Ġretire
Ġprepare
ĠCru
Ġhomenage
Ġblo
Ġconstatar
diretor
Ġfomento
Ġencaminhamento
Ġ1977
ocal
ĠmÃŃnimas
Ġvejam
ĠconstrÃ³i
Ġcord
ĠOdebrecht
Ġsatisfaz
umes
Ġnegocia
ĠPDT
horÃ¡rio
Form
ĠPetrÃ³polis
Ġdistribu
Ġadministrado
Ġpenet
Ġtrip
Ġpato
onista
ĠLira
Ġaquecer
ĠGalo
ĠREG
!.
Ġnaqueles
ĠRegionais
Ġlab
£
Ġjus
FO
Ġconfeccionado
Ġamplitude
ENA
Ġvantajoso
Ġmortais
Ġsuprimentos
Ġbras
Ġespiando
Ġacabamos
Ġtempera
Negociar
Af
ĠJer
Ġsl
ents
ĠExemplo
ĠAcompanhe
Ġhistoriador
plan
inco
Ġapreendidos
Ġceder
JO
Fin
Ġportador
Ġabrigar
Ġident
Ġselvagens
Ñ
Ġonc
Ġinterlig
Ġefetividade
ĠIPTU
Ġtorneios
ticos
Ġcompensa
LP
Ġprendeu
rimento
ĠVers
Ġmandatos
ĠEstar
Ġagulha
Ġinserida
Us
ĠabrangÃªncia
ĠStra
ĠLan
Ġfixado
ĠEUR
ĠUrbanismo
Ġating
Ġrespondendo
alhas
ĠUru
Ãµem
ĠsimpÃ¡tico
Ġgola
Ġincluiu
mundo
Ġexigente
Ġordenamento
Ġacompanhe
ĠterceirizaÃ§Ã£o
Ġexaminar
Ġeducar
ĠconvenÃ§Ãµes
Ġmolde
ĠLeal
Ġreportagens
ĠOc
ĠaperfeiÃ§oar
ĠLinks
ĠEstadÃ£o
enciar
Ġlocaliza
ĠFontes
ĠGlob
Ġtradicionalmente
Ġfavoritas
Ġesteira
ĠAdministrativa
guer
Ġmai
Ġoperam
Ġcorretas
lib
Ġensin
ĠBomb
atizaÃ§Ã£o
Ġlevava
Ġworkshop
Ġtraga
Ġmusic
Ġimpedimento
Ġmarcando
ĠinjustiÃ§a
ragem
ĠaceitÃ¡vel
ĠreservatÃ³rio
fra
Ġpossivel
BRA
Ġpip
Ġrosas
Ġemissoras
ĠmecÃ¢nicos
ĠCategorias
0001
lice
Ġlucrativo
Ġbike
ĠMarket
Ġcontag
Ġjunte
ĠWeek
ecida
rida
ĠCecÃŃlia
Ġcaem
ĠXP
Ġrecusou
Ġtrouxeram
ĠSens
Ġpreval
Ġrecusar
inhe
Ġdesaparecimento
tÃ¡
ĠAV
Ġbusque
ĠVegas
ĠCub
ĠIndÃºstrias
ĠsutiÃ£
ĠBolsas
Ġfacilitam
Ġmergulhar
Ġdilu
usas
wood
ĠRTP
Ġutiliz
Ġpreparadas
Ġlema
Ġentrevist
ĠWatch
Ġescuros
ĠterapÃªutica
ĠrefrigeraÃ§Ã£o
Pres
Ġirrit
Ġamoroso
Ġlyon
eve
veu
Ġintensos
Ġcaracterizado
Ġcasou
Ġbiologia
Ġlances
Ġapelido
Ġsirva
nova
Ġapropriada
Ġdividendos
ĠautÃ´nomo
Ġquestionou
ĠTexas
¦
Ġhipot
Ġhein
Ġfirm
Ġestarei
hl
ĠPublicidade
Ġdeson
ĠcompaixÃ£o
ĠHumano
ĠMeta
Ġhistoricamente
ĠespontÃ¢nea
hol
domingo
band
Ġrast
Ġprecioso
Ġesclarec
Ġexperimentos
LL
Ġnamorados
ĠCusta
Ġintensas
Ġdescon
Ġescultura
Ġconservar
chen
Ġdirig
ĠOt
conhec
......
ionadas
ĠOcidente
Ġfilhote
anna
ĠJonas
ĠTeste
Ġdescida
ĠPrem
ĠforÃ§ar
wan
alidades
ĠSEN
asso
Ġintra
mada
ĠvulnerÃ¡vel
ĠPlanos
Ġafim
Ġconcretizar
Ġcortinas
Ġaprecia
Ġblogue
Ġsenhas
Ġspray
Ġalertas
Ġcomanda
ĠBanheiro
ANO
ĠLembrando
icais
key
Ġinde
omes
Ġassociar
ĠPrudente
Ġafora
Ġsaberes
Ġcremes
ĠNF
Ġlibertine
Ġestamp
Ġnormalidade
ĠVinÃŃcius
ĠcorporaÃ§Ãµes
Trabal
ĠdivisÃµes
ĠSof
Ġculpado
ĠEdifÃŃcio
IZAÃĩÃĥO
ĠBandeirantes
Ġvirtudes
Ġinteressar
ĠInÃªs
Ġcilindros
Ġmilagres
Ġexecutadas
Prefeitura
ĠMÃ¡rcia
Ġcapela
Filme
ĠpreguiÃ§a
ĠRica
Ġapont
Ġdesperta
Ġmantidas
ĠRisco
Ġprejud
ries
Ġmeter
Ġfresca
Ġpreliminares
otos
Ġarc
ĠBrandÃ£o
ĠSintra
pend
Ġbeneficiados
uza
Ġfechando
ĠhumilhaÃ§Ã£o
ÃĤ
ĠAracaju
ĠtÃºnel
Ã³nico
ĠcorrelaÃ§Ã£o
Ġleito
ĠImag
Ġmaridos
Ġafasta
nco
Ġqueijos
Ġingleses
Ġmagras
oman
Inst
ĠExplore
Ġprete
Ġsucedido
itoria
Ġfoge
Ġescuras
Ġderrotar
ERO
ĠESTA
ĠOff
Ġadiantou
Ġengol
ĠMoscou
Ġpreventivas
ĠambiÃ§Ã£o
ĠdiagnÃ³sticos
ĠNick
Ã³licas
erente
Ġativado
ches
ĠPlane
ĠAwards
ndida
Ge
Ġpotencializar
ĠSÃŃtio
iki
Ġvivenc
Ġespa
ĠnÃ³
arda
Ġofensiva
Ġimpressionantes
aturas
ĠMontes
Ġdisplay
Ġderiva
tions
uladores
ĠSimÃµes
ĠCompra
Ġexigida
preÃ§o
Ro
Ġpresidenciais
estos
pondo
Ġdisciplinar
entro
udes
Ġpioneira
Ġroteiros
Ġsutil
ĠpoliÃ©ster
Ġdigit
Red
apenas
Ġexistiam
ĠProcessos
Ġboquetes
Ġprontamente
Auto
Americana
Ġampliando
Ġdiscrim
Ġdesviar
Ġassistiu
Ġdolor
Ãºrgica
hard
ĠPadrÃ£o
ĠPET
valor
ĠsÃŃ
Ġembaixador
ŀ
Ġestivessem
ĠmenstruaÃ§Ã£o
Ġpromotores
ĠQueria
ĠBueno
Ġdesignado
ĠagradÃ¡veis
ĠordinÃ¡ria
ĠeletrÃ´nicas
ĠTE
Ġestabiliz
Ġfitas
ĠÃļ
ĠKir
ĠSobral
Ġcasaco
ĠDani
ĠTailÃ¢ndia
hamos
Ġeliminado
ĠAngel
Ġanunciaram
ĠconcessÃµes
ĠSystem
leta
Governo
Ġcartazes
ĠOntem
Ġprotocol
Ġatropel
volta
Ġ0800
Ĺ
hadas
Ġanalisadas
Ġmart
ĠatribuÃŃda
ĠtelemÃ³vel
Ġacal
Br
ĠsintÃ©tico
Ġincentiva
ĠNobre
ĠdisponibilizaÃ§Ã£o
ĠContato
Ġchamava
ĠvovÃ³s
ĠViolÃªncia
Ġescolhi
identes
ĠWil
Ġintitulada
Ġafl
Ġfrigideira
Ġvariante
Ġrealiz
ĠJurÃŃdica
ĠBeijos
Ġlutam
Ġencaixe
ĠmusculaÃ§Ã£o
Ġlanc
ĠJoel
ĠLil
ĠExposiÃ§Ã£o
ĠResumo
Ġdog
Ġfezes
Ġtric
Ġavenidas
ĠproÃŃbe
Ġparticularidades
ĠDrive
Ġprivilegiado
ĠpÃ©ssimo
Ġmelhorou
Ġgregos
ĠecolÃ³gica
Ġconfigura
Ġemitida
ĠBlu
Ġvazia
ĠJava
Ġalergia
Ġevidencia
Ġpur
Ġdetermin
Ġaumentos
Ġpermanec
Ġcorreria
Ġpedreira
ĠYoga
ĠBall
Ġarque
Ġfrut
Ġsupor
POS
Ġlares
ĠChÃ¡
Ġrevog
Ãºc
Ġmaravilha
ĠMike
ĠFut
Ġtelef
Ġlevadas
ĠXVII
Ġense
Ġcomi
ĠCONTRA
ĠVÃ¡rios
erativa
ĠmandÃŃbula
ĠIA
Ġtrauma
Ġdiferenciar
Ġopcional
Ġtentava
ĠCoisas
Net
Ġantigamente
ĠTele
ĠPaes
ĠRoque
ĠDinheiro
Ġimagine
ĠAniversÃ¡rio
Ġfrisou
rativo
ĠSarah
Ġsexualmente
Ġreserve
Ġirregulares
idera
Ġgordinha
anz
ĠadoraÃ§Ã£o
Ġmanobras
Ġmascara
Ġbakeka
ĠDeste
ĠDinamarca
ĠDistÃ¢ncia
ĠDesigner
Ġfiscalizar
ĠQuadro
ĠpecuÃ¡ria
ĠmagnÃ©sio
Ġpalcos
imentar
web
cent
Ġfermento
Ġcarteiras
ĠReserv
Ġliberados
ĠMic
Ġdisputada
ĠDIS
ĠWord
Ġempreender
Ġrepete
ĠAssist
ĠpsicolÃ³gicos
Ġultimo
Ġtornarem
Pornografia
ĠNoruega
iolÃ³gicos
Ġcandidatar
graf
ĠBil
Ġotimista
Ġquant
leia
ĠobstÃ¡culo
Ġconstar
ĠTrav
pida
Ġexibidos
ĠprivilÃ©gios
Ġesperados
Ġrecorda
ĠJen
Ġdeixava
ĠAgente
Ġincorre
Ju
ĠcobranÃ§as
Ġprogramar
etta
icon
ĠMÃ£es
Ġprotagonismo
ĠSra
Ġfragilidade
Ġacomet
heiro
Ġalf
ambu
ĠPeixe
Ġfantas
ĠFashion
ĠtÃ¡tica
Ġdisposta
ĠTÃ©cnicos
ĠDI
Ġcunho
Ġfinanceiramente
ĠcaÃŃdo
ocup
Ġdesac
Ġhort
Ġanais
Ġlimburg
ĠFarm
ield
Ġrecorrentes
Ġesquece
Ġaus
ĠðŁĺī
ĠMourÃ£o
Ġ128
Ġcatal
ioc
antos
ĠalcoÃ³licas
Ġcontactos
Ġdigitar
ede
ĠMadalena
ĠRomano
ĠlÃ¢mina
ĠFico
Ġintensamente
ĠinÃ©ditas
ĠGalvÃ£o
ÃŃnica
Ġiq
Ġvinculados
ouros
ĠAlencar
ĠtraduÃ§Ãµes
ball
Ġinfinidade
Ġmacro
Ġdemand
ĠPay
Ġapoiadores
Ġdiziam
Ġestranhas
tex
ĠHenry
ĠirritaÃ§Ã£o
xt
Ġinjust
uts
ĠAlgo
Ġdur
umbo
ĠFio
ĠTags
ĠPedagogia
Ġunha
Ġpiadas
Ġcuidando
watch
iani
Ġvib
ĠbeneficiÃ¡rio
Ġlong
GR
Ġ1967
Ġtransformam
eitas
Ġhavido
istentes
Inf
Ġbre
ĠviÃ©s
ĠJournal
Particip
rologia
Ġprotegida
Ġsobrinha
²
Ġfaremos
Ġdirecionar
Ġdivertidas
ĠPequim
Ġjuro
Ġacus
Queremos
Ġacordado
plastia
ĠseÃ§Ãµes
pem
Ġfogos
Ã©sia
Ġusu
Ġmentir
Ġporcelanato
ĠJoseph
Ġcrist
Ã¡n
Ġcoordenadas
Covid
inu
etivo
!),
orados
Ġdobrar
Ġeducativas
indic
ĠcoincidÃªncia
Ġacordou
Ġrequerem
versÃ£o
ĠBluetooth
ĠSetÃºbal
Figura
Ï
ĠBE
ĠInvestimento
Th
ĠOlÃ¡
Ġintegradas
Ġenfatizou
ĠKan
ĠTat
queiros
Ġdeitar
Ľ
ĠhonorÃ¡rios
ĠrevolucionÃ¡rio
Ġtumores
Ġocup
itante
AA
Ġcostumava
Alt
Ġvera
irt
DU
ĠAnjos
LC
Ġprojet
rido
Ġopin
Ġdivulg
ĠFec
ogrÃ¡fica
ĠCuidados
opera
Ġchup
Ġsist
Ġdefesas
Ġdelito
ĠestÃ¡dios
lit
Ġsolto
AtenÃ§Ã£o
arts
Ġleio
ĠHealth
ĠconcessionÃ¡rias
Ġcertifique
Ġrea
ĠVinho
arde
ĠPetrobrÃ¡s
Ġgalinha
ĠJulio
ĠImagine
ĠSaneamento
ĠConsegu
ĠMÃŃdia
Ġsuficientemente
Ġasso
Ġadapt
ĠcolchÃ£o
Ġacelera
ĠmÃ©tricas
ĠPRA
mart
Ġsustent
ĠCart
ĠPix
ĠsanÃ§Ã£o
ULA
plicar
Ġsalv
Ġhonesto
ĠJacob
Ġperfumes
Ã¡t
Ġvigentes
ĠNR
ĠhomicÃŃdios
Ġhomenagear
Ġbordas
fere
ĠinventÃ¡rio
Ġanticorpos
iaria
lou
Ġdespro
Ġmasturbam
Ġdelivery
Ġcardiovasculares
DivulgaÃ§Ã£o
Ġocupando
ĠMid
Ġcarreg
Ġprolongado
ĠbenÃ©fico
ĠGM
ÃģRIA
ĠRossi
ĠMamÃ£e
missÃ£o
hone
ĠFigura
ĠinsatisfaÃ§Ã£o
Fl
Ãµe
Ġdesped
Ġaplicam
Ġhonestidade
urno
ĠNorma
ĠAmar
Precisamos
ÃŃculas
Ġmovim
ols
Ġcontabiliz
Ġexercitar
ĠtornarÃ¡
Ġcompetitivos
vana
ĠNik
Ġcruzeiro
ture
ĠInfin
ĠdesequilÃŃbrio
Ġdecl
Ġansiosa
Ġfocos
Ġchamo
Ġdiscut
Ġpopulacional
Ġox
Ġacontecia
Ġresina
ĠrentÃ¡vel
Ġrespondem
Ġconstam
Nov
ĠFX
ĠdistribuÃŃda
Valor
ĠMinho
Ġritmos
ĠvÃŃnculos
Ġtoques
ĠAcompanhamento
riaÃ§Ã£o
ĠAi
rana
ĠDivino
Ġcestas
sor
ĠdisfunÃ§Ã£o
Ġpioneiro
Ġefetuada
Ġcinzas
ĠAval
Ġhomossexual
Ġautoconhecimento
Ġfone
ĠGod
Ġvocal
illy
udas
Ġ1972
ĠhelicÃ³ptero
Ġtraders
Ã³nimo
SaÃºde
anco
Ġrespeitado
Ġguiar
Ġvolt
ĠClaudio
Ġtrava
ĠsaberÃ¡
ĠSto
sar
ratizaÃ§Ã£o
ĠlicitaÃ§Ãµes
ĠLacerda
Ġcirco
Ġtran
Ġbeijando
Ġotimismo
Ġestudiosos
ĠVisÃ£o
Ġgritar
Ġsatisfeita
Possui
pido
Ġamplos
tempo
Ġiogurte
Ġauxiliando
etria
ĠAntunes
Ġimperador
ensiva
Ġmuros
ĠterÃŃamos
ĠVinicius
ĠAmericano
ĠSÃŃndrome
Ġinternados
Ġtucano
ĠinclinaÃ§Ã£o
Ġalmeja
Ġocupada
Ġconectividade
Mat
Ġrumos
Jul
Ġgeradores
ĠFeito
Ġcompac
Ġporos
ĠrespiratÃ³ria
ServiÃ§os
Ġinfeliz
aixa
ĠglobalizaÃ§Ã£o
ĠvedaÃ§Ã£o
gaÃ§Ãµes
grÃ¡ficas
Ġlegislativa
Ġgor
ĠOpÃ§Ã£o
ĠcarÃ¡cter
Ġcomporta
ÃŃf
Ġdeliciosos
Ġsurpreend
ĠGMT
ĠGuarani
ĠimersÃ£o
Buscando
Ġcomemorado
Ġrenome
ĠChristian
ĠFit
Ġconsol
Ġmeteor
Ġconfundir
Ġ1971
ĠJaime
Ġdesktop
Ġguitarrista
ĠCross
Ġefet
Ġincon
Ġconhec
Ġresenhas
Ġrubro
ĠaminoÃ¡cidos
Ġdispon
ĠCÃ¢mera
ĠSum
Ġcoxas
Ġanalis
ĠEAD
Ġafirmaram
Ġlargada
ĠcÃŃlios
Ġmetod
Ġmax
ĠLTDA
Ġrolar
ĠCadeira
SUS
Ġrelaxante
Ġbadal
Ŀ
Ġocupados
Ġ1940
Ġligou
Ġdiscreta
ĠUtiliz
ĠDemocracia
quesa
Ġfood
Escol
Ġensinando
LS
Ġfest
Ġseparamos
ĠBad
Ġfocados
Ġtemor
Ps
Ġreflex
Ġciclistas
ĠPRF
Ġsaibam
ĠConhec
ecendo
ĠteÃ³ricos
ĠOx
Ġparanaense
ĠSIC
Ġgota
Sh
Ġinvestigados
Ġrelaciona
mag
Ġflex
...,
Ġcompartilhe
Lib
ardi
Ġrecorre
Ġgozadas
Ġdelegados
Ġveneno
ĠOh
ĠCelular
Ġganhei
Ġbast
Ġcorreios
Ġatl
Ġpadrasto
ĠIsa
ĠDocumentos
Ġfrescos
Ġempregadores
qÃ¼
Ġbord
mont
Ġspa
ĠGrupos
ĠJurÃŃdico
ncial
iÃ¡rias
Ġmoderada
Ġacionada
Ġconviv
ĠapariÃ§Ã£o
Ġhookers
oney
ĠChef
Ġopte
Ġperdemos
Ġindiano
Ġtwitter
ĠApre
Ġadminist
Ġvolatilidade
Ġcalmo
utores
ĠrefÃºgio
pont
ĠseminÃ¡rios
Ġteatral
ISS
ĠMembro
douro
1999
alizaram
Cham
Ĭ
Ġchegarem
ĠLuzia
ĠobediÃªncia
ensÃŃvel
Ġtrevas
Ġamp
Ġgovernar
ĠCompany
Ġsanc
ĠSeletivo
Ġcoordenar
Ġgengibre
Div
aux
Ġacolhe
ĠFim
Ġdesenvolveram
Ġocidentais
Ġnominal
ĠPAC
Ġcontrolador
ĠestruturaÃ§Ã£o
ĠDog
Ãªnica
Conv
ridade
Ġdesrespeito
izantes
Ġseguia
Ġparticipado
ĠDaniela
ĠMenino
ulso
Ġaten
anch
Ġincremento
ih
anne
rano
ITAL
Ġmun
ogar
roupa
orreu
ĠconcretizaÃ§Ã£o
ĠOrquestra
ĠsolidÃ¡ria
vc
Ġvivida
iÃ§os
Ġprost
Ġlembrado
Ġcomprados
ĠcardÃŃaco
ĠOption
ĠReserve
ĠCode
ĠGerente
Ġdecote
ÃŃfico
Ãªmica
Ġplanejando
ĠPequenas
Ġrecolhidos
Ġorientado
Ġpergunto
Ġrapper
Ġdiab
Ġfit
Ġmales
rativa
Somente
ĠEletro
ĠCopacabana
Ġsentou
ĠBruxelas
Ġpenteado
ĠOrganizaÃ§Ãµes
Ġativas
Ġach
ĠVoz
ĠTÃŃtulo
ensÃµes
FF
Ġtomb
Ġcolocamos
ĠIndonÃ©sia
Ġmonumentos
å
Ġautorizou
Ġposte
Ġagradece
Ġtang
ĠImobiliÃ¡ria
ĠfraÃ§Ã£o
ĠIluminaÃ§Ã£o
essor
Ġevangel
rosos
Ġestimada
ĠVeneza
ĠaderÃªncia
Ġconcent
Ġmorrem
ĠFiscalizaÃ§Ã£o
ĠMarcel
Ġadult
Ġcresceram
ĠHÃ©lio
Ġagrav
Ġindefin
Ġprovoc
ĠmetÃ¡lica
Ġcorreia
iac
Ġaveia
Ġproferida
etra
ĠPaixÃ£o
Ġlagos
Ġaldeias
Ġapareceram
grande
Ġesmaltes
aixo
Ġpraticantes
Ġchal
Ġespanol
ĠSQL
umba
Ġcorrig
Go
ĠalienaÃ§Ã£o
Ġconstrutora
Assista
ĠInstitute
ĠPolicial
Fiz
Ġdeline
ĠMercosul
Ã´r
Ġelasticidade
ĠCanto
ĠBrad
Sam
Ġtotais
Ġpureza
ĠapresentarÃ¡
Ġzinco
Eng
voluÃ§Ã£o
ĠCit
ĠOrientador
Ġdit
Ġfinanciamentos
idada
ocando
Ġfilmagem
Ġmanifesto
Ġfast
Ġmidi
Op
Ġmaratona
Ġveste
Ġeditais
bac
Ente
ĠÎ
Ġdesconhecidos
ĠAtl
ĠCamboriÃº
Ġhidrog
Ġoculta
enciamento
ĠsaÃŃ
Ġvalia
Ġdirecion
ĠQuest
Ġpolu
ĠCasal
nio
Ġconservador
Ġaproximando
ĠNotas
bÃ¡
ĠTecnolÃ³gico
VIS
Ġcatarinense
Ġreclame
ĠSelic
ĠGramado
Ġdeliciosas
ĠBest
Ġconjuntura
ĠGeraÃ§Ã£o
ĠCapela
Ġlin
ĠestereÃ³tipos
ĠArmando
Ġmista
Ġmudado
ĠTemplo
seguranÃ§a
Ġtecnicamente
Ġpretendia
Ġseda
Ġfluido
ĠFase
ÃŃam
ĠDÃª
ĠMeia
Ġcredores
Ġbis
ĠideolÃ³gica
ĠBy
Ġfrasco
eitar
Ġcomprimidos
Ġindex
Ġdosagem
Ġfuncione
ĠEstÃ¡gio
ĠFGV
assim
ĠBus
Ġtransam
Ġoutrora
Mon
Ġassassinatos
ĠFrancesa
Ġcomplem
Ġcearense
Ġmensalidade
Ġprecisos
ĠrealizaÃ§Ãµes
ĠArÃ¡bia
rega
Ġengloba
ĠMedidas
pero
Ġimperial
Ġdivididas
ĠArch
Ġacomodar
ĠOrigem
cs
ĠKen
Ġbanhos
Ġplanilhas
ĠTEM
ĠManagement
Ġmanifest
Ġshorts
Ġtatuagens
ĠLes
nica
ĠofereÃ§a
Ġconcretas
Ġfascinante
ĠJulia
Ġformatura
Ġnaval
ĠRico
ĠDispÃµe
ĠGouveia
Ġconcorre
Ġarranjo
ĠEsco
Ġeleva
pÃ£o
Ġbolinhas
ĠVid
ĠSelecione
qual
jamos
Ġvazamentos
Ġexagero
Ġzel
ĠNacionais
Ã©tricas
Ġretirados
CF
ĠorÃ§amentÃ¡ria
ĠAprendizagem
ĠJane
ĠtentaÃ§Ã£o
mando
ĠAtividade
Ġusufru
Ġdistribuidores
ĠtransmissÃµes
Ġpolar
ĠGood
Ġaluc
Ġpneum
ĠpoÃ©tica
ĠHuman
Ġconcebido
Ġbut
Ġencaixar
arado
ĠtubulaÃ§Ã£o
ulsÃ£o
ADOR
Ġ1500
Ġhospedar
Ġfavorec
Ġparecidos
Ġprincip
bil
ĠTexto
ĠCiro
Ġterminando
Ã©rias
ĠÃ©bano
ĠBarcelos
Ġequipados
Ġbaiana
Ġseparada
ĠseleÃ§Ãµes
pio
Ġfaltava
ĠMineraÃ§Ã£o
Ġconfeccionada
Ġconsecutivos
Ġocorridos
ĠMenina
ĠformulÃ¡rios
ĠNesses
Ġmago
Ġjuvenil
ĠdelaÃ§Ã£o
Ġrestrita
ĠseguirÃ¡
ĠjunÃ§Ã£o
ĠDefin
ĠsalÃµes
Ġnivel
ĠRubens
Ġaro
Ġacabando
ĠlÃ£
Ġskype
izz
ĠPul
vir
Ġcompatibilidade
ĠClientes
Ġolhe
Ġpil
Ġclub
ĠNeu
Ġbatizado
ĠbalÃµes
Ġfut
ĠConselhos
riana
Ġgerenc
Ġintervir
ĠhomologaÃ§Ã£o
0000
Ġpote
FOR
ĠChÃ¡cara
Ġsucessor
odos
Ġalturas
ipes
oi
ĠautÃ´nomos
ĠCer
","
Ġpicada
Ġrepor
ĠNight
ĠLut
ĠProposta
Ġtac
Ġpolitica
Ġdificulta
ĠMAS
ĠAgropecuÃ¡ria
ĠjÃ³ias
Ġmancha
ĠAmanda
Ġconsigam
Ġmergul
tei
Ġlegendas
ĠHitler
emat
ĠBi
Ã¢nicas
ONA
Ġtes
lie
Ġfeed
ĠdemonstraÃ§Ãµes
ĠContÃ¡bil
Ġazar
ĠafirmaÃ§Ãµes
Quase
ĠSena
Ġadota
ĠTecn
Ġamarrado
Ġvalendo
ĠMarcus
ĠSeg
Ġalgoritmo
ĠFur
Ġsudeste
Ġpulmonar
ĠPlÃ¡stico
quista
Ġmister
AÃĩÃĥO
ĠincluÃŃda
usse
Ġdesvantagem
Ġdesapare
Ġarticular
Ġprodutivos
istos
ĠvizinhanÃ§a
Ġocupantes
ĠFER
ĠMetrÃ´
ĠPrecis
ĠPouco
irou
ĠPubl
ĭ
ĠPrÃ¡ticas
ĠAndre
TJ
ĠIntern
Ġinger
orial
ĠCot
Ġcorrom
Ġrecheado
Ġcertificada
Ġole
Ġnascidos
Ġdesapareceu
Ġpeles
Ġturnos
rÃ¡s
Ġenquadramento
dias
eiÃ§Ãµes
Ġmy
Ġferver
ĠagitaÃ§Ã£o
ICAÃĩÃĥO
Ġsurgindo
ricidade
Ġresort
ĠFifa
Ġmajor
Ġsessenta
ĠSiqueira
ĠGast
ĠVagas
ĠfotÃ³grafos
ĠReb
Ġouvimos
ĠvÃ´o
Ġinesperado
alos
ĠBeb
Ġbanh
ĠLanÃ§amento
Ġsacar
Ġ135
Ġcag
zinhos
imi
Ġmeg
ĠilÃŃcito
Bra
Ġcrentes
ĠVisa
::
ĠrescisÃ£o
Ġservo
Ġargumenta
ĠIQ
ĠNY
Ġpercebem
ĠAdam
Ġhor
Ġmonitores
Ġapart
ĠGaragem
Ġsimulador
Ġatravess
Ġdespo
Ġfun
Ġinscrito
Ġpla
ĠTaxa
Ġcozinhas
Ġeternidade
Gente
yu
Ġimpedem
ĠDS
ily
ĠVÃ¡
Ġbaile
Ġembarcar
Ġfirmes
unk
empre
Ġrepresentados
ĠDimensÃµes
ĠMagazine
ĠvÃ¡lvulas
Ġprovis
py
Ġcapacitar
ÃŃficos
ficiente
Ġ115
Sei
Ġrecordes
Ġtrat
Ġpermanentemente
ĠquilÃ³metros
Ġengole
IDE
ĠcÃ´modo
ĠHumanidade
ĠModerna
ĠMÃ¡scara
ĠMobile
Ġseme
ĠESC
ĠDream
Ġmost
Ġliberada
Ġconfessou
ĠconcentraÃ§Ãµes
Ġestud
ĠbiolÃ³gicos
Ġsusto
Ġagilizar
Ġtabaco
ĠEss
Ġamenizar
Ġprovedores
Ã¢nio
Ġrecuperados
Ġpesquisando
Ġamorosa
So
Ġemitiu
Ġsintam
Can
Ġlibras
Ġsang
Ġtransexuais
ĠFarias
Ġespant
ĠAssociados
Ġ_
ĠÃ©tico
Ġcomparada
ÃŃdia
Ġemit
Ġperfum
izes
Ġalternativos
ĠTemp
ĠSimon
ĠGovern
Ġmensalidades
Ġcompil
ĠempresÃ¡ria
ĠÃ¢ngulos
ĠTech
ĠMAP
enÃ§Ãµes
ĠQuarta
Ġoption
Ġperigosas
cou
ĠPresente
ĠEstilo
ucci
ĠalcanÃ§ados
OP
ĠvocabulÃ¡rio
Ġencerrado
Ġento
ĠGara
eio
ify
Ġsoro
Ġjustos
imentaÃ§Ã£o
Ġtomei
Ġraparigas
play
Ġansioso
ĠMessias
ĠinspiraÃ§Ãµes
ĠconstataÃ§Ã£o
ĠOlÃŃmpico
Ġprestando
eren
Ġcontinuada
Ġmorada
ĠMusical
ĠpulmÃµes
Ġsolicitada
Ġvirtu
ĠDur
Ġdesempregados
ĠPaÃŃses
ĠPrÃ¡tica
Ġcolon
Ġine
Ġje
Ġfalas
Ġprojetados
Ġnasceram
Ġvotou
Ġformul
Ġentendendo
adinhos
erador
ĠEstudantes
Ġverificou
Ġteologia
ĠForn
ĠService
Ġdistra
ĠChevrolet
ĠimprovÃ¡vel
hosa
Ġchapas
Ġlegislativas
Ġarrependimento
Ã³dromo
Ġsubt
Ġbrinc
erica
Ġapura
ĠSaraiva
)",
unes
ĠecolÃ³gico
raf
ĠVIII
Ġdirigindo
Ġresolveram
ĠvÃªem
Ġbolha
Ġhumilh
ĠestÃ¡tua
Ġcoloco
Ġestrear
ĠpsicÃ³logos
Ġprob
ĠvirÃ£o
ĠClassificados
120
Ġreutiliz
Ġcontactar
ĠmetÃ¡licas
Ne
ĠEvite
Rua
Ġrequerer
Ä
Ġcora
ĠRecuperaÃ§Ã£o
Ġobtendo
ĠAnc
ĠcontemporÃ¢neos
ĠItajaÃŃ
ĠResende
Ġcondenou
ĠacÃ³rdÃ£o
ĠprecipitaÃ§Ã£o
ĠdesignaÃ§Ã£o
Ġhabit
ĠÃŃdolo
ĠPio
Ġsouber
Ġarrecadar
ĠGrÃ£
ĠMig
ĠdescartÃ¡veis
ĠStone
Ġmis
Ġperceberam
Ġterei
Ġamplas
Ġincont
Ġassustador
Ġcand
Ġbiscoitos
vie
ĠaquisiÃ§Ãµes
ĠGi
ĠpelÃŃcula
anel
Def
ĠpapelÃ£o
Ã©f
Most
Ġsevilha
ĠCaracterÃŃsticas
Ġatenda
Ġhit
Ġcoordenado
Ġemprestado
ĠUnicamp
Ġtraum
ĠPens
ĠCOMO
Ġescolhidas
Ġastro
Ġfloral
cinco
Ġadiamento
ĠContemporÃ¢nea
Ġatingem
Ġescalas
ĠcatÃ³lico
Ġpesa
ĠedificaÃ§Ãµes
Ġrepresentatividade
Ġsocialismo
}}
Ġalem
Ġcomunistas
ĠressurreiÃ§Ã£o
Ġembr
Ġesgot
Ġdisputou
Ġentregando
Ġestrategia
ĠatuaÃ§Ãµes
ĠTomÃ©
Geralmente
Ġenfoque
Ġmest
Ġsn
Ġinspirou
Ġabundante
Ġeliminando
Ġclassific
Ġdevolv
Ġinib
Ġcontada
Ġagem
ML
Ġpadaria
ement
hr
erva
Ġpavimento
Ġdenom
Ġpalestrante
Ġalien
ĠOlimpÃŃadas
ĠveterinÃ¡ria
Ġdum
olares
ĠcolÃ´nia
Ġadicion
ĠSolidariedade
Ġcontinental
Concordo
ĠiniciaÃ§Ã£o
Il
ĠEditor
Ġapurado
ĠBasto
ĠEspecializaÃ§Ã£o
TIVA
ĠpaixÃµes
ĠSalÃ¡rio
Ġprogramado
Ġferra
tim
Ġdemonstraram
Ġmotivado
Ġprocessuais
Ġcadastrado
Ġantecipado
tua
Ġenfatiza
ĠPimenta
arina
ĠcelebraÃ§Ãµes
Ġpastel
Ġgeneralizada
ĠpÃ´s
ndÃªncia
ĠGonzaga
Ġcomet
Ġincorpo
Ġinfec
Mil
aneiro
Ġpercebo
ebre
Ġespalha
Ġguardas
ĠviolaÃ§Ãµes
Ġprestam
Ġreceptor
Ġcontorno
ĠpassarÃ£o
ĠlouÃ§a
Ġmemor
Ġreunindo
Ġauxil
ĠViver
inz
Ġimpactar
ĠVil
Ġdra
ĠAmarelo
ucas
Ġjogam
Ġfeminista
İ
zy
ressÃ£o
Ġfabricar
oque
Ġcanc
ĠIpiranga
ĠLicenciatura
Ã¢ntico
Ġultimamente
ĠPeixoto
ĠSalomÃ£o
Ġved
Ġrepensar
ĠPRES
ÃĩO
pac
ĠSed
ĠPolÃ´nia
Ġcircula
Ġvul
Ġrecomend
ĠterapÃªutico
Ġlow
Ġlight
ĠEdu
xima
ĠHO
Ġcristais
Ġconecta
ieri
Dicas
ĠPedras
usp
ĠSOL
agora
Ġcruzar
uÃ¡rios
Er
ĠTive
ĠABS
Ġestimulando
Ġcaminhoneiros
ĠIg
erativo
Ġmoderado
Ġrez
Ġcomandada
Ġcoordenadores
ĠPrest
ĠpersistÃªncia
Ġmto
ĠLCD
ĠPrincipalmente
Ġlanches
ĠShar
ĠMist
rep
Fica
Ġassentos
Ġdescom
Ġdisponibilizamos
Ġalmofadas
Ġeconomicamente
ĠAcontece
Ġtribos
Ġdecorado
ĠManhÃ£
ĠhidrÃ¡ulica
ĠrenovÃ¡veis
ĠBul
Ġsignos
ĠCou
ĠcÃ´njuge
ĠlegÃŃtima
Ġindiana
Ġsuspensas
ĠPil
Ġrato
Ġmatando
acas
Ġreit
ĠTribunais
ĠpÃªnalti
Ġmultip
Postado
ĠAdÃ£o
ĠClar
ĠMauÃ¡
ĠTran
Ġexpressiva
Ġinsiste
Ġaprec
tus
ĠCoordenadoria
Ġreconhecidas
ĠdigitalizaÃ§Ã£o
Ġsugerido
Ġplug
Ġprometido
ĠSalv
Ġfornecida
americanas
ĠpartidÃ¡ria
Ġpronunciamento
Ġacel
Ġargila
Ġaprendem
ĠcoerÃªncia
ĠConvers
ĠBI
Ġemitidos
Ġadotados
Massagem
Ġdivertidos
ÃĶ
iko
onte
ĠChave
ĠvivÃªncias
Ġtoxinas
Disc
Ġasp
Ġenfraquec
unga
Ġparecendo
Ġkkkkk
Ġnervos
Ġdedicou
ĠZan
Ġsm
nds
Ġviviam
Ġagreg
Ġeletr
Ġsuj
Ġreduzidos
ividades
Ġpropina
ĠExpresso
ĠTejo
Ġeditado
ĠpulmÃ£o
Ġpreparamos
Ġenvergon
ĠStock
amor
ernidade
Ġcastigo
Normalmente
Ġquisesse
Realmente
Ġactualmente
Ġmiss
ĠFelizmente
ĠInicialmente
ĠHerm
ĠSAN
Pesquisa
Ġbacalhau
iter
ĠdevoÃ§Ã£o
Ã³ricos
Ġdesfiles
Apres
ĠministÃ©rios
Ã¢mico
duÃ§Ãµes
ĠviÃºva
Ġpontuais
ĠautÃªntico
Ġsomando
entem
Ġassomb
Ġcloro
ĠPesca
ĠGazeta
ĠVas
Dica
ĠFace
ĠzÃŃper
ĠdetenÃ§Ã£o
ront
Ġgentil
Ġredondo
Ġbanner
SB
Ã©tricos
Ġabandonou
ibra
Ġautorizadas
ĠPantanal
cient
ĠrevitalizaÃ§Ã£o
ĠBin
orando
Ġrecomendar
ĠConsulta
Ġendure
ĠsairÃ¡
Ġsag
Ġsera
ĠMatt
Ġelevadores
Ġpresum
ĠKu
Ġlag
Ġsatisf
ĠOlinda
Ġflorestais
ĠCorn
ĠLady
Ġemails
super
Ġautomat
IÃĩÃĥO
ĠEspecializada
Ġinstitutos
Ġcostumo
direito
Jornal
ĠdesconfianÃ§a
Ġescolhendo
Ġromano
ĠSemi
Ġtat
Ġleon
ĠCertificaÃ§Ã£o
ĠrodoviÃ¡rio
Ġpetrol
quil
hel
Houve
Ġsuite
uni
ĠPÃ©
ĠSS
Ġciclismo
PER
Ġrestring
ĠPOL
ĠSpace
ĠinadimplÃªncia
ĠEntenda
Ġpir
????
Ġfrat
Ġarcar
Ġorientada
ĠFala
ĠsÃªnior
Ġabelhas
nico
Ġrecorte
sta
Ġestritamente
Porto
ĠBrand
ĠMob
Ġandava
Ġatingiram
Ġlip
ĠLEI
Ġfichas
Ġcolec
entÃ¡rio
ĠCura
ĠElis
andro
gueira
ĠBoston
ĠFalcÃ£o
Ġciviliz
Deve
Ġconseguinte
Ġapara
gico
ĠArco
cado
Ġinsere
ĠJab
mulheres
Ġsaltos
Ġtricolor
cÃ£o
ĠJose
ĠFrancÃªs
ĠErnesto
Ġestra
ĠBolo
ĠBeja
ĠBernard
ĠHarvard
quinhas
ĠdesagradÃ¡vel
Ġcontinuem
Ġaparecendo
Procura
HU
Ġprodutivas
Ġdesvantagens
ĠSaudita
Ġbrinde
Ġcalamidade
ĠDependendo
ici
ĠSatanÃ¡s
Ġsorrir
Ġcountry
Ġgrupal
ĠLara
Ġuzbeque
ĠLocalizaÃ§Ã£o
bot
Ġaumentada
Ġtrilhos
inhar
ENTES
ĠvisitaÃ§Ã£o
Abaixo
ĠAlma
Ġmarcadas
ostas
ĠElo
racia
Ġadaptada
Ġdeck
ĠproblemÃ¡tica
ĠUnimed
ĠEB
utou
ĠTha
incia
isÃµes
Ġinventar
Primeiramente
Ġcurs
Ġgraf
Ġpegue
ĠTratado
ĠJam
Ġmarcam
ĠFrederico
EU
ĠleÃ£o
ĠcabÃŃveis
ĠHon
ĠOdontologia
Ġtort
ĠCinco
ĠGU
Ġincent
Ġqueimadas
ĠVerifique
Ġrebanho
Plano
Ġ2030
Ġscript
Ġseguimos
Ġalu
ĠPense
ariana
ĠEvento
ĠEspanhol
Ġlouvor
casa
Ġfertilidade
Ã©rcio
ĠExecuÃ§Ã£o
orrida
Ġsequest
ĠAnel
Ġdirecionada
ĠCoca
Ġfelizmente
ĠModelos
ÃŃaco
Ġaluguer
Ġdesenvolvedor
ĠInform
ĠApresentaÃ§Ã£o
Ġcotidiana
Ġacidez
Ġeconomistas
ĠLembro
Ġerot
ĠMex
Ġluminosidade
rice
ĠCarm
Ġrsrsrs
ĠBrinquedos
Ġnarra
Ġidentific
MAS
Ġdesfazer
ĠMÃ£os
Ġotim
Ġproibidos
Ġobjet
MEC
ĠRick
hoje
his
Ġqueimado
Ġcentavos
Ġterapeuta
Ġtransplante
ĠProvavelmente
Ġcertificar
ĠSede
Ġ155
Ġhomolog
ĠIntegral
Data
mentada
Ġrad
ĠpÃ©ssima
ĠForma
ĠAbraÃ£o
criÃ§Ã£o
osamente
Ġcomiss
Ġtrazido
Ġshort
Ġcumprida
Ã³x
Ġrecuo
Ġensinam
rast
Dem
Ġ102
ĸ
Ã³nicas
Ġacalmar
Livro
Ġapertar
Ġincluso
Ġplenitude
Ġpertinente
Ġnit
STJ
ĠsimbÃ³lico
ĠPant
Ġrotin
eixo
Ġespelhos
Ġchic
ĠgaÃºcha
ĠPrincesa
Ġbul
ĠONGs
ĠBenjamin
ĠHill
ĠLong
Ġcontinentes
azes
ĠPerc
Ġvalioso
Ġantecipadamente
riar
ector
ĠMarisa
obs
ĠsecundÃ¡ria
Ġcontempl
ĠservirÃ¡
yle
Ġjulga
ÃŃfica
ĠCupom
News
ĠEdward
algo
Ġconscientizar
Ġbei
hab
xas
ĠcirÃºrgica
Tempo
ĠBlo
Ġdevast
Ġfumo
Ġelabora
Ġlemb
Ġparticiparem
Ġmord
Ġfeia
INHO
ĠestÃ¡s
Ġpov
Ġtestosterona
ĠNormativa
Ġconvocados
Ġrevelada
Ġando
Ġconvid
ied
Ġdecidem
ÃŃaca
ĠBud
ĠlanÃ§aram
ĠCemitÃ©rio
ĠaglomeraÃ§Ã£o
Ġresultam
Ġobtenha
Ġclassificada
ĠRamalho
Ġeducador
Ġnoticia
Ġenfermeiras
Ġliqu
Ġcommodities
EstratÃ©gias
Ġeduc
Ġfura
ĠHorÃ¡rio
Ġpp
Ġataca
Ġcobram
Ġapaixonar
ĠTiradentes
ĠAndrea
ĠPecuÃ¡ria
quetes
ĠguarniÃ§Ã£o
junto
ĠGarantimos
ĠSpa
ĠrespiratÃ³rias
ĠÃ´nus
Ġnad
ĠGrÃ¡fica
ĠLavagem
ĠpolÃªmicas
Ġcontrata
Ġcancro
Mal
Ġexistiu
RF
Ġcient
Ġlamentou
Ġdesportiva
Ġreclama
Escola
Ġlareira
Modelo
ĠcomeÃ§ado
Das
Ġwebsites
ĠbritÃ¢nicos
Ġacionado
Ġfantasma
Ġdubl
Ġfundou
ĠLÃŃder
Ġfeminismo
Ġorelhas
Ġrenovado
ĠVital
Ġpautas
ĠKam
Ġbrigas
Ġcomandar
ntemente
Ġtrein
Ġ1920
Ġintroduz
Ġangust
Ġentro
Ġcompete
Ġtrituradores
idÃªncias
Ġconsoante
Ġitalianas
Ġtreinadores
ĠVoc
Imagine
Ġrob
Ġxp
Ġatrasado
ĠGolden
ĠintermediÃ¡rios
ĠTCE
Ġassegu
Ġnovinha
ĠhÃŃbrido
Ġtestados
EducaÃ§Ã£o
Ġimpressos
ĠExper
hua
Ġavaliadas
ĠescalÃ£o
Ola
Ġalug
ident
ĠDifere
Ġminoria
Ġtorque
ĠDragÃ£o
ĠfarmacÃªutico
Ġcooney
alismo
AnÃ¡lise
Ġone
ĠRess
Ġdefinem
Ġact
Ġretiradas
Ġpaulistas
ĠSurf
olf
Ġadiar
ĠDourados
ĠclimÃ¡tica
¬
Ġpreenchido
ĠruÃŃnas
gueiro
ĠDelta
Ġtemplos
ĠCDS
ĠNut
estino
Ġlotado
jus
§
etic
ÃŃrio
ĠladrÃµes
ĠRiver
GP
enham
ĠJO
ĠAlm
Ġfrias
ĠNBR
ilio
Imagem
roll
ĠinÃºtil
ĠTereza
Cidade
ĠOriental
Ġcercado
Ġresponderam
rod
adinhas
ĠMass
filmes
erapia
ration
Ġsintet
elhas
Ġdinam
Ã©ricos
ĠperfuraÃ§Ã£o
ĠAqueles
idinha
ĠPED
Ġindeterminado
Ġsatura
ĠLatino
Ġvide
ĠKey
pora
ĠTODOS
ĠexcluÃŃdos
Ġabriram
enz
Ã¡gio
ĠIX
Ġdesencade
Ġconverse
Ġmorro
Ġencen
Ġdocumental
Gosto
Ġrevestimentos
Ġrecomendados
Ġdepre
produÃ§Ã£o
ixo
ĠAlzheimer
AI
Ġtravessia
Ġ210
tin
Ġamarrada
Ġ104
Ġinvadir
Ġabras
____
Perce
Ġexpressivo
Ġacostumado
ĠInÃŃcio
ĠPerd
Ġprocessados
ĠRemo
Filho
ĠNenhuma
ery
Ġcorrespo
ĠMED
Ġsilenc
Ġtocante
Ġautomotiva
ĠNeo
melhor
ĠPatrick
Ġlendas
Ġativistas
ogado
Ġdoloroso
Ġcortado
reo
ĠColetivo
Ġmarchas
ĠHuawei
Ġtecla
Ġimplantado
Ġfech
Ġelenc
Ġseremos
ĠdireÃ§Ãµes
Ġviajante
Ġvertente
ĠfederaÃ§Ã£o
Slide
Ġmanto
ĠrodoviÃ¡ria
Ġcrom
ĠmultimÃŃdia
.",
Ġconceb
Ġvers
Ġgerentes
ĠDetalhes
Ġempates
Ġcri
Ġdoutr
ĠProtocolo
ĠconvÃ©m
tuais
ĠCouto
ĠConselheiro
Ġincentiv
ĠAdobe
ĠGall
Ġmorf
ĠSenac
Ġseguradora
Ġtribo
Ġfarmac
ĠBook
Ġamort
ĠAnjo
ĠEdgar
ĠPacÃŃfico
Ġprotagon
valdo
Ġroubos
estÃ¡
vez
ĠBord
ĠDark
ĠIdeias
^
stein
ĠReinaldo
Ġgrat
Ġimaginou
Ġcomportamentais
Ġgravada
Ġorganizadora
Tipo
Ġah
Invest
Ġcorresponder
Ġacreditando
intas
ĠERP
1998
light
Ġcontratou
ĠExcelÃªncia
Ġdianteira
Ġdeter
ĠFederais
Ġ::
ĠPriv
ĠLemos
Ġlimpos
Ġcomparando
Ã³i
Ġmorando
Ġortop
Ġ1966
Ġfabricada
Ġconcretos
ĠImperatriz
ĠseduÃ§Ã£o
Ġcarregador
unidade
Ġredirecion
ĠStephen
govern
Ġemerg
ĠFoco
ĠRun
Ġcompreendido
Ġliberou
Ġadversos
ĠBrother
Ġromanos
ĠbinÃ¡rios
andra
emar
Ġdiscutidos
Ġatendida
Ġeducativa
Ġclassificou
Ġconcordou
cham
ĠembarcaÃ§Ã£o
Ġcontida
Ġaplaud
ĠantibiÃ³ticos
ĠcinematogrÃ¡fica
ĠProt
tualmente
Ãªnico
Ġprejudiciais
ĠmuniÃ§Ãµes
bs
Ġvariantes
ĠaptidÃ£o
Ġpriorizar
ĠSN
Ġburro
ĠTRA
Ġcareca
Ġreferidas
Ġencar
ĠtriÃ¢ngulo
PAR
Ġdificil
ĠDisp
Ġencantar
ĠTheme
Ġsust
stru
Ã³citos
Bol
ĠCompara
ÃŃlico
Ġnucleares
Ġinverso
Ġmarinha
Ġarru
ĠKevin
Ori
Ġrobusto
odi
ĠObserve
Ġviajou
ĠbÃªnÃ§Ã£o
ĠCompras
Ġorla
tamos
ĠOrig
urgo
Ġtan
Ġprat
Ġcontrolados
Ġpareciam
Ġfront
Ġficasse
Ġdirectamente
Ġrevenda
Ġcompartilham
ĠRest
ĠSociologia
ĠQuartos
Ġcobrada
Ġseletiva
Ġarena
ĠFunda
zan
Marc
Ġzaragoza
Rep
Ġexper
TH
Ġfetiche
ĠbalÃ£o
Ġagravamento
ĠWork
Hz
Ġreport
Ġmanipular
Achei
Ġchumbo
Ġparciais
ĠTriturador
PJ
Seguindo
ĠVIP
Ġfoderam
icano
ĠNASA
Ġdiur
udou
Ġtorneira
ĠDesporto
ĠPrepara
Ġ>>
Ġfatias
Ã¢ntica
estres
Ġliberdades
Ġbook
Ġboate
lov
ĠGaspar
ĠprocedÃªncia
Ġsubl
PRE
Ġtirei
Ġlobo
ĠOlymp
Ġacumulada
ĠBienal
Ġaprend
ĠEinstein
Ġgratificante
Ġtenerife
ĠContÃ¡beis
Ha
Ġmencion
Ġaborre
ĠParticular
vemos
ĠAberta
ĠCÃ¢ndido
ĠvideoconferÃªncia
GraÃ§as
Fora
icaÃ§Ãµes
ĠdiferenciaÃ§Ã£o
On
ĠDiretrizes
ĠrÃ©us
ĠCert
ĠdemÃ´nios
Kit
Ġalegrias
Ġjudeu
Ġperdidas
pin
Ġvet
Ġinterm
Ġronda
Ġprodu
ĠGuer
DM
Ġesqueceu
ĠTrabalhista
ĠAuditÃ³rio
Ġimpressoras
ĠAviso
ĠBateria
ister
Ġpostal
pornÃ´
Ġfashion
ĠÐ
Ġcustou
SerÃ£o
ĠTeve
Ġestante
lah
Ġinfluenc
Ġpiora
antemente
Ġnegativamente
Ġbusiness
BBB
Ġlegitim
Ġnecessitar
ĠcassaÃ§Ã£o
ĠNBA
ĠReuters
ĠtraÃ§ado
ĠlanÃ§adas
ĠconciliaÃ§Ã£o
Ġcontextu
Ġsobrenome
Ġesto
Ġampara
Ġendere
ĠFreud
Ġglam
Ġendo
Ġterrorista
ĠÃ©ticos
ĠdidÃ¡tica
Ġaguentar
Ġdecisiva
LÃ¡
Ġexclu
ĠproprietÃ¡ria
card
Ġtristes
Ġ(@
cis
Ġmonumento
Ġventre
ĠSILVA
ĠPaÃ§o
Ġabertamente
ĠHungria
Ġpreferiu
Ġaumente
ĠinfraÃ§Ãµes
ĠSagrada
Wh
Comprar
kan
ĠDeficiÃªncia
Ġjulgamentos
gil
Ã¡sticas
rsrs
Ġtipicamente
ĠHub
Ġrelatar
Ġprom
Ġultrapass
Ġenjo
ĠvÃ´lei
ĠLins
Ġrapariga
COR
Ġpopularmente
Ġbit
TAM
ĠJunto
atou
Ġprover
ĠTransparÃªncia
Ġpoetas
Ġentreg
eiramente
Ġplus
Ġnascem
Ġprovocam
Utiliz
Ġcomercializados
Ġdisponibilizada
Ġafinidade
Ã³gicas
ÃŃcula
IAN
Ġdoutora
ĠintÃ©rprete
ĠLuxemburgo
Ġcomandado
ĠHay
Ġtrago
Bio
Ġorden
ground
Ġpraga
ĠIndividual
Ġassessores
Ġcombinada
ĠÃºmido
ĠIrmÃ£os
Ġmachuc
Ġlimpas
Obs
ĠCariri
Ġtransmit
caso
Ġperguntei
Ġsurpreendido
ĠChega
ĠexpulsÃ£o
Ġcelulite
Ġrecolhe
ĠDire
sey
ĠestÃ©ticos
ĠChagas
Ġdelicadeza
ĠBrasileiros
Secretaria
Ġsubsc
ĠInterc
Ġhero
Ġrelacion
Dez
ĠclÃ¡usulas
Ġatentar
ĠDev
ĠEscol
Ġlenha
Ġgravadas
ĠPagamento
Ġativista
toria
Ġsincera
ĠagrotÃ³xicos
Fernando
Ġregistraram
Ġcomboio
ĠRoss
Ġlona
Ġdistritos
icial
Ġbits
Ġviolentos
Ġapresentarem
idro
Ġexpulso
Ġacomod
ĠSco
Ġgradu
Tenha
atorial
Ġacostum
ĠObs
ilidades
Ġassistentes
Ġmares
Ġvaginas
Ġgenro
Ġinformaram
xto
ĠAsh
edas
ITE
ĠdegustaÃ§Ã£o
Ġdepressa
ĠFabric
aza
ĠTributÃ¡rio
Ġatribui
Ġouvintes
ĠcerimÃ³nia
Ġarrepend
Ġterminado
ĠDicionÃ¡rio
Ġanseios
ĠFez
ĠAmb
Aprenda
Ġsertanejo
ĠAgradeÃ§o
Ġdesejamos
ĠÃ¢nimo
Ġtorta
Ġparafusos
Ġbrevemente
Ġdimens
Ġpostado
ĠTelecomunicaÃ§Ãµes
Ev
Ġsara
Ġlevant
Ġcansada
Ø
Ġdotado
Ġfragmentos
ĠDiocese
ugh
ĠTod
iciais
Ġcup
Ġinstalou
ingos
Ġcardio
Ġcontemplados
ĠSouth
ĠMajor
Ġorientais
itsu
't
Ġoleosidade
ĠAdemais
ĠHabilitaÃ§Ã£o
ELA
Ġacostumados
ĠColetiva
Ġdescobrindo
Ġadministra
Ġgestante
ĠCuidado
Ġeconomiza
Ġcapacete
gente
ĠRibeira
ĠCarreira
Ġberkova
Ġconcedidos
ĠestrÃ©ia
Ġpodermos
ĠRuy
ĠridÃŃculo
Ġ320
cionalizaÃ§Ã£o
Ġcorpus
ĠBank
Ġgenitais
INHA
Mont
tic
ĠTela
Ġcomprometidos
ðŁĺ
ĠPombal
ĠInclusÃ£o
«
Ġnutricionais
Ġsmart
ĠAprove
Estava
grÃ¡fica
omia
Ġinspec
ĠFabio
mec
ĠAcompanhante
Ġcompuls
deputado
%;
Ġdrasticamente
âĸ
Ġtransversal
Ġdescobrimos
ĠWarner
Ġirregularidade
ĠIND
Ġdonas
ĠClin
Ġadvento
Ġinstantaneamente
Ġvotaram
Ġestudantil
Ġdesenc
Ġvitais
ĠCRE
otto
Ġcauda
Ġrende
esco
Ġcheiros
Ġcuriosos
fora
Ġabordou
Ġsobrenatural
Ġ1080
ĠcomunitÃ¡rios
Ġescudo
ĠdesistÃªncia
ĠpatrÃ£o
Pai
Ġtransferidos
ĠefetivaÃ§Ã£o
Ġimpression
Ġdesb
Ġpraticada
Ġqualificar
Ġcontado
Ġcasino
ipl
ĠperiÃ³dicos
Eis
Ġrim
Ġcolegiado
Ġefetuadas
ĠVO
Ġfull
Ġsaboroso
ĠCapacidade
ĠajustÃ¡vel
Localizado
ĠScience
Ġresolvemos
ĠOliv
Ġaglom
ĠMÃ£o
Ġprovou
Ġoriginalidade
ĠdestruÃŃdo
ĠUnivers
Ġdistribuidora
Ġbatismo
Ġconservadores
agn
Ġradar
Ja
Ġpertinho
utaÃ§Ã£o
Ġteses
Ġparente
ĠcontinuarÃ£o
ĠpÃ¡tria
Ġgrata
Ġcolet
ĠSpotify
imal
Ġginec
ocados
adÃ¡
lis
Ġaguardam
Ġpesadelo
ĠHaw
ĠResearch
ĠFabricaÃ§Ã£o
Ġvais
ĠalÃ§as
Ġextinto
Ġsolid
Dou
ĠKelly
Ġ1945
Ġfinalistas
rass
ĠAberto
Ġping
Ġeditoras
etÃ¡rio
Ġfuncionava
Ġestend
Ġpersistente
ĠEmb
ĠrevelaÃ§Ãµes
Ġacusa
Ġgranada
Ġatendentes
ĠAviaÃ§Ã£o
Trabalho
ĠTCU
Ġbolhas
ĠBruto
istindo
Ġestilista
ĠOL
ĠBM
JE
tipo
Ġcock
Abra
Ã¢neas
?.
jeÃ§Ã£o
ĠVeÃŃculo
ĠmacarrÃ£o
Ġeluc
ĠDiana
ĠFabiano
Ai
Star
eirinho
Dist
Ġclassificadas
Ġimob
nascido
Ġsaladas
ĠBonito
Ġanunciados
oche
Ġmobilizar
ĠProcon
ĠBic
Ġassistido
iolÃ³gica
Ġcoloc
ĠRecurso
ĠTente
ĠatenÃ§Ãµes
ĠJardins
olha
Ġ119
nal
ĠDura
Ġretirou
nik
Ġmasculinas
Vi
ĠDN
ĠPoliciais
Ġdesperdi
ĠBanho
vai
pÃ§Ã£o
ĠOceano
ocada
Ġfones
Ġyoga
Ġentend
ony
Ġesquemas
Ġpou
Ġxoxota
Escolha
Ġapoiam
Ġinterrom
ĠIgor
Ġdesespera
Ġcomplementa
Ġausente
Ġasce
Ġmude
ĠVingadores
ĠEsperamos
erÃ§Ã£o
Ġlevaria
ĠAulas
Lu
Ġregressar
Ġdiferenciadas
fazer
ĠPontos
Ġacto
ornos
Ġalert
Ġlimitados
Ġsubiram
Ġcrack
ĠalegaÃ§Ã£o
Ġign
Amb
ĠcrÃª
Ã±a
Ġtrom
Ġbonecas
ulante
Ġopen
ĠINFORMA
ĠdiligÃªncias
Ġmassagistas
urt
ĠRT
ĠLugar
ĠRib
arro
orridos
ĠNaz
ruz
ĠBrit
Ġressec
Ġduma
ĠCriar
ĠLanc
Estudo
Ġarmada
elaÃ§Ã£o
ĠAgrÃŃcola
Ġvirando
Ġdistanc
Ġexperiencia
Ġpreencha
Ġcomprimido
gin
Ġinteiros
ĠdÃ³
ĠNaÃ§Ã£o
Professor
ĠEsquerda
ocidade
df
Ġalgoritmos
Obrigada
Ġbatido
Ġinfinita
fis
eleg
Ġhorta
iclo
ĠapÃ³stolo
ĠColÃ´nia
Ġterapias
ĠNoronha
Ġsha
leto
Ġinterrompido
Ġironia
Ġsemanalmente
Ġprivileg
Ġprotegendo
Ġdisponibilizou
ī
Ġpaleta
Ġmisteriosa
umento
ady
Ġconsumida
Ġromana
Ġdecorreu
Ġorganizou
Ġverticais
erantes
ĠOuv
ĠPasse
Ġmetragem
Ġdanificar
Ġligando
ĠJur
ĠdeliberaÃ§Ã£o
Ġassegurando
Ġurgentes
ĠrestituiÃ§Ã£o
Ġditado
Ġinaugurou
ĠacumulaÃ§Ã£o
Ġburoc
Ġoitava
Ġprofessoras
Marcelo
ĠCrie
Ġexplicam
Ġimpet
ĠParnaÃŃba
vada
NET
ĠcontradiÃ§Ã£o
ĠAdvogado
ĠPreciso
Ġvivenciar
ĠSug
Ġcompartilhando
Ġforo
abra
ratas
ĠBenedito
gicos
Ġbaunilha
Ġhabilitado
Ġ1965
Ġesculturas
Ġapl
Ġriso
ĠreforÃ§ando
ĠHumanas
ĠQuart
Ġemite
ĠEquipamento
elhado
ĠTit
tima
Ġsangramento
Ġintegrais
Ġafricanas
Ã©cnica
Ġgentileza
ĠOrdinÃ¡ria
Ġespeciarias
Ġdefer
ĠDomic
Ġemplac
ĠEnferm
rill
ĠCAD
Ġjud
icados
mus
ĠAnalytics
duzido
Ġenfiou
Ġsuperando
itudes
Fund
Ġrecu
Ġesclareceu
ĠPousada
ĠmansÃ£o
ĠsimpÃ¡tica
Ġsubstituindo
Ġmorango
Ġimpediu
Ġchora
ating
Aproveite
Ġplat
Ġenra
Ġprejudicado
Ġcuba
Ġabrig
Ġcriei
ialidade
DER
omi
Ġesquecendo
Ġinstrumental
ĠGay
ĠdesvalorizaÃ§Ã£o
rÃ³
Ġalvenaria
ĠruÃŃdos
Ġgeografia
ÃķES
Ġdublado
Ġcrescido
Ġformigas
ÃŃqu
ĠRastreamento
Daniel
ĠAdic
Ġseriado
ĠMunique
Ġirrad
Ġaperto
ĠAcompanhantes
ĠCER
Ġatencioso
Ġchute
Ġpossibil
Ġdispostas
rost
lev
ĠÃ³p
ĠBPM
ĠPÃ¡ginas
rade
Ġclassifica
ĠGav
proc
ĠdispÃµem
Ġpenalidades
Ġcoordenada
ĠincÃ´modo
"âĢ¦
izÃ¡
ĠRelÃ³gio
Ġmotocicletas
Ġroxo
ardas
Ġafiliados
atologia
ĠPers
cy
Ġclimat
ĠalmoÃ§ar
ĠpolÃŃcias
Ġcharmoso
ĠFigu
ĠApo
ĠISS
Ġmitologia
Ġempreitada
ĠinstituÃŃdo
ĠModo
ĠJordÃ£o
zio
ĠHero
Ġsenadora
ĠComposiÃ§Ã£o
Rom
Bretanha
ĠcordÃ£o
Ġobjetivas
ĠcafeÃŃna
Ġpilhas
acha
Ġbilheteria
Ġcoral
ĠAudi
ĠConstitu
Ġcraque
ĠCall
Deix
Ġofensivo
upa
Ġtrajes
ĠElÃ©trico
Ġcomportar
Ġirrita
Ġvolto
Ġbrigar
Ġargumentou
Ġprotegidas
ĠDoutorado
Seria
Ġorar
itÃ³rios
ĠUsar
ĠBusca
Ġelogiou
ĠTib
Ġsantidade
ĠDireto
Ġparas
ĠRelig
junt
ĠZa
Ġxx
alto
ĠPaquistÃ£o
dendo
Ġreitor
ĠSangue
Ġpotencialidades
rigo
IE
Ġcancelado
ĠResidÃªncia
contra
PreÃ§o
ĠVeg
Ġportu
ĠselecÃ§Ã£o
ĠUsando
Ġprog
Ġfon
ĠaÃ§
Ġ103
Ġsuportes
ĠFeb
Ġveto
ĠInic
rÃ¡tica
ĠJung
ĠQuint
Ġjornadas
Ġprestou
Ġgestora
ĠreservatÃ³rios
Ġtrazia
Ġaceitos
Ġcicatriz
Ġsobreviventes
Ġinstrutor
:.
ĠIdentificaÃ§Ã£o
Ġincorporado
Ġbispos
ĠPetro
kar
Ġtoalhas
ĠCreated
ĠNAS
ĠDown
ĠBAR
Ġafast
ĠPatos
eroso
ĠFest
ÃŃnc
Ã§Ã¡
ĠabdÃ´men
ĠalcanÃ§ando
Ġachado
CIS
Ġorto
ĠArnaldo
Ġpossibilitam
edido
ĠMim
ĠConsÃ³rcio
ĠpotÃªncias
ĠAssunÃ§Ã£o
1997
Ġendos
sequ
ution
Ġconfor
ĠBrigada
ĠFRE
asp
oll
Ġelev
Parte
ĠVW
Ġregen
Ġretoma
Ġdepress
ĠvÃŃcios
Ġrestringir
Ġprofissionalmente
ĠHum
Ġpubl
Nome
Ġapreendido
ĠMano
ĠCreme
MM
ilizado
ĠObviamente
Ġmachos
Rob
Ġvertentes
Ġcriminais
Ġcolh
ĠsuplementaÃ§Ã£o
Ġtemperos
Rede
Ġmoradora
ĠpoÃ§os
Ġatrito
Ġxing
ĠPropaganda
Ġmagnitude
coes
ĠJazz
iara
Ã¡ssemos
ĠSep
Ġprospec
Ġdiamante
ĠFalta
inch
Ġescreva
Ġcarona
Ġtrope
Ġelegeu
Ġbula
cula
ĠDesconto
ĠSalles
als
sel
Ġabandonada
Ġsuavemente
ĠpensÃµes
Ġeg
Ġconseguirem
ook
Ġcachos
ĠAct
Passo
iveram
Ġesquecimento
Ġdeviam
Ġescondidos
Ġmexicano
otti
Ġembate
Ġsofisticados
Ġagricultor
Ġdesast
ĠTrad
ĠImperial
ĠmÃºltipla
ĠsanguÃŃneos
icina
ĠTerceiro
ĠIT
amentais
Ġlambem
ÃŃnas
venÃ§Ã£o
Ġmetab
escola
Ġportais
artes
ĠdependerÃ¡
Ġnan
ĠIpanema
Ġprogramada
ĠRacing
Ġescoamento
ĠLauro
ĠRelaÃ§Ã£o
Ġard
Ġacionar
Ġprisional
etar
Ġrenomados
ĠCirc
itir
Ġformalmente
sin
ĠPimentel
Ġfoca
Ġcoxa
ĠNetwork
ĠmagnÃ©tico
Ġconvenceu
itaria
ĠColombo
Ġ1962
ĠToronto
Ġtrabalhe
Ġcoletadas
mad
Ġecl
Ġentrado
anato
cep
Ġacolh
Ġboc
ĠFidel
Ġcobrados
Ġcaixinha
ĠDow
Ġsoa
ĠEstim
ĠProm
omba
Ġtijolos
Ġautent
Ġtonalidade
Ġhehe
ĠRyan
ĠNormas
ĠPato
Ġhabituais
serv
ĠFundos
ĠStudios
quase
ĠComm
Ġcombinados
Ġcautelar
ĠGet
Ġjogue
Ġautorizar
yon
Ġsofisticada
Ġapaixon
ĠartÃŃsticos
mÃ¡tica
Ġvizinhas
ĠTuc
ĠresiliÃªncia
Ġtelhados
Ġelim
ĠUrban
ĠRomero
Ġaconselha
Mestrado
ĠdramÃ¡tica
Ġampliada
erve
Ġalterou
ilhada
Ġalergias
Ġconsultora
Ġ108
Ġsalientou
Ġinaugu
Ġlen
ĠintuiÃ§Ã£o
ĠdemÃ´nio
ĠEsposa
Ġdistor
reno
ĠGuarujÃ¡
Ġdetidos
ĠpÃ¡ra
Ġcozido
Ġamargo
ĠAcad
Ġprevia
Ġglor
Ġinfluenciado
Ġmoldura
ĠsecundÃ¡rios
Ł
ĠWat
ĠNecess
Ã¡sticos
Ġcomprova
ĠTeologia
Ġsalgados
Ġwatch
TEL
ambo
ĠHQ
ĠKids
irinha
Ġminimamente
ĠIde
Cond
Ġgerencia
Ġembas
day
aver
ĠDourado
Ġnegociado
Ġflam
Ġbru
Ġsobremesas
ĠcontradiÃ§Ãµes
TF
Ġvascular
Ġprofetas
Ġinterpretada
Ġapanh
ĠevangÃ©licos
Ġgenial
Ġsimplificar
edos
guard
ĠresoluÃ§Ãµes
Ġpref
ĠDevemos
ĠPropriedade
Ġhehehe
uan
ndro
ĠPelotas
Ġgolfe
Ġgole
ĠdivergÃªncias
iler
Ġsurpreendentes
Ġmedula
ilhos
Ġpleite
ĠLewis
Ã§aria
ĠcamarÃ£o
Ġrelataram
Ġculp
baixo
ĠPressÃ£o
ĠFrases
Ġpequen
ĠABNT
Ġcondicionamento
jur
ils
ĠMM
Ġfachadas
Ġdiscord
Ġantena
Ġconciliar
Ġsuspensos
Cabe
Ġpent
Ġglic
ĠvilÃµes
Ġcompat
Ġpatrocinadores
Ġassumido
Ġplayer
Ġlargar
Ġconstatado
ĠComunista
ĠBarueri
Ġhomenagens
ather
Ġinviabiliz
ĠCientÃŃfico
Ġfirmar
Ġfilmar
ÃŃficas
Ġsugerimos
ĠDivina
Ġgeradas
Ġinesperada
ĠimobiliÃ¡rios
Ġcouve
Ġlaboral
Ġabol
Ġlealdade
Ġtabu
ĠcÃŃrculos
Ġtemer
ilde
Ġdens
Ġsinopse
Ġespecifica
ĠFicha
Ġbrilhar
ĠFemin
Ġpistola
Ġadaptados
ĠAprov
Ġiluminado
Ġ//
Ġesposo
Ġeleitorado
ĠLiverpool
ĠProcurador
Ġsustento
Ġdissemin
ĠautÃªntica
ĠOm
Ġpond
ĠCere
link
Ġdetect
Ġconseguiria
ĠJay
ĠLegislaÃ§Ã£o
ĠJavaScript
Ġreter
Ġperformances
Ġbotar
Ġvulgar
Ġfinanciado
Ġpunido
ĠvestiÃ¡rio
ĠAmparo
iolÃ³gico
inter
Bat
Ġaconselhamento
Ġ720
Ġremovido
ĠTA
Ġanalisada
Ġregulamentar
Ġcumprem
Ġcuradoria
Ġagred
Ġsuspendeu
ĠcurrÃŃculos
Be
¶
ĠgÃªmeos
Ġsaborosa
ÃŃculo
ICOS
BrasÃŃlia
ĠJog
ĠOlimpÃŃada
ĠSus
Ġcompartimento
ĠmecÃ¢nicas
Amor
Ġansiosos
ĠFutsal
Ġvossas
Ġousadia
ĠCascais
ĠespeculaÃ§Ã£o
Ġbandido
luÃªncia
Del
Ġpretend
ĠCama
Ġrepo
ĠcÃ´modos
Inicialmente
Ġultrapassou
ĠambulÃ¢ncia
Muita
risos
Ġcontornos
Ġimplementadas
Ġimprobidade
cess
etto
ĠmarÃ©
ibl
ĠCIA
ĠmoderaÃ§Ã£o
Ġenaltec
aÃ§Ãºcar
ĠAri
Ġgrel
Ġpercentagem
itora
Ġmoment
Ġtreinada
ĠBelas
ranca
ĠChegou
ĠRoad
Ġnozes
inem
secretÃ¡rio
Ġlaminado
ĠAplicada
ĠBit
Ġfuros
Ġregulamenta
Ġfarei
entÃ¡rios
ĠPrinc
ĠUFMG
Ġprolongada
Ġatirar
Ġrecompensas
ĠOficiais
ĠComece
Ġajust
Ġespionagem
zÃ£o
Ġlembrancinhas
Ġcogumelos
Cur
ĠSorte
Ġlicenciado
ĠopressÃ£o
Ġencur
urismo
Ġpremiados
ilado
Ġacopl
ĠbÃ©lgica
Ġsamb
ÃŃmp
ĠChampions
Ġaprov
ĠDublado
Ġpropag
etros
Ġapod
Ho
Ġmarket
ĠcontrÃ¡rios
Ġargum
ĠteÃ³ricas
Ġdemitido
Ġaquecedor
ĠJustin
Ġenganado
Ġmotoboy
Ġcardiovascular
Mac
Ġnativas
Ġacolhedor
kins
ĠEspÃŃrita
Ġcriptografia
Ġcorruptos
esia
Ġcontinuaram
Ġpreceitos
ĠContÃ©m
Ġmarcadores
Ġcorretos
ĠTecido
Ġprecisaria
Ġaposentar
page
ĠSenna
FE
inclusive
ĠVeloso
ĠPSL
Ġencanto
ĠmagnÃ©tica
Ġempregadas
Ġdeixada
ĠsatisfatÃ³rio
Ġarranjar
vou
Ġcilindro
Ġinerente
ĠRh
Ġtesoura
ĠTub
Ġsubstancial
lÃ¢ndia
Ġlatinas
ĠEntrada
ĠAlfa
Ġnegado
Ġaprofundamento
Ġholandeses
âĢ¦..
ombo
Ġanot
Ġregula
Sul
Ġescritura
Bolsonaro
Ġroteirista
ĠdecepÃ§Ã£o
Ġalongamento
ĠturÃŃsticas
)"
Ã©us
Ġrefrigerante
Ġbissexual
Ġdesenhado
Ġdepend
Ġacusou
CG
AÃŃ
Ġbordado
Ġcase
Ġelimin
Ġvaliosas
Ġcompartilh
Descubra
ĠsimbÃ³lica
ĠRezende
ĠExibiÃ§Ãµes
Ġtornem
ĠDragon
ĠPontes
Ġlembrei
onial
Ġcompartilhados
ĠEns
ĠFisioterapia
Ġdesvalor
Ġcarre
ĠCusto
Ã©rito
Ġproibir
ĠDeb
ĠXII
Ġestruturada
ĠProgramaÃ§Ã£o
ĠMul
Ġdescreveu
Ġpretexto
ibilidades
mp
Ġnasc
ĠObserv
Ġexperimente
ĠEV
ĠcalÃ§adas
ely
Ġpoluentes
ĠfundaÃ§Ãµes
riado
ĠfermentaÃ§Ã£o
ĠÃįnd
izadora
ĠVill
ĠAmei
Ġvocais
Ġescul
ĠpanorÃ¢mica
Ġunido
Ġburguesia
Ġexercem
ĠPoss
MinistÃ©rio
ĠTecnolÃ³gica
Ġunivers
Ġimagino
ĠPetrÃ³leo
ĠDR
;-
Ġhino
Ġagressiva
adio
ĠMEN
Ġalis
Ġbeijar
ĠUR
MAN
ĠrevisÃµes
Ġtraumas
ĠJeff
Ano
seu
ĠalegaÃ§Ãµes
aps
Ġbelga
Ġquilo
ĠDocumentaÃ§Ã£o
Ġpreocupam
ĠAge
Ġhentai
Ġpit
Ġpulver
Ġgaveta
Ġmexe
Ġbombarde
Ġgarantidos
ĠSandro
ĠsÃ¡bio
Ġmencionadas
quot
ĠMaduro
Ġfaces
Ġgelada
Ġmontadora
ĠganharÃ¡
Ġtres
Ġacessa
ĠfÃªmea
ĠdÃ©cima
inaldo
ĠvibraÃ§Ãµes
ĠdocumentÃ¡rios
ĠSere
ĠHav
ĠfÃ³sseis
Ġdesceu
ĠLaser
Ġcigarros
Princ
ĠconhecÃª
)...
ĠCavaleiros
ĠmamÃ£es
Ġerradas
heim
ĠLondon
Fabric
CoV
Ġpensada
ĠIdoso
Ġagende
Ġguardado
Ġiniciam
ĠdissertaÃ§Ã£o
ĠtripulaÃ§Ã£o
ĠRegist
ĠEndereÃ§o
ĠanimaÃ§Ãµes
Ġgrato
Ġpermitiram
Bu
aqui
Ġacertos
Ġesmagamento
Ġpalp
Ġtransformada
Ġhabilitados
ĠTrabalhador
ĠYo
ĠCNJ
Ġpropostos
Ġconjunt
PolÃŃcia
ĠdivergÃªncia
Ġestrelado
rial
Ġredig
ocional
Ġexpertise
Santa
Ġunem
Ġtruque
Ġtenso
ourt
ĠBancos
Ġtutoriais
ĠJunte
ĠsuÃŃÃ§o
Ġreina
Ġentramos
Ġpartilh
ĠTrip
Ġdespeito
ĠFÃ©lix
ĠTarde
estaÃ§Ã£o
Bus
ĠSAL
Ġci
Ġprotegem
Ġtraficantes
ĠÅ
à
Ġchecar
Ġdesaparece
ĠobrigatÃ³rios
Ġtribut
Ġenglob
Ġagrup
Ġcontinuava
ĠApare
Ãģrea
onizaÃ§Ã£o
__
ĠSalto
Ġtranquilamente
ĠArg
Ġvencimentos
ĠAlunos
direita
Ġhall
Ġconduziu
sic
Ġpedia
ĠCristal
Ġrevit
Ġexercida
ĠNotÃŃcia
Ġsugiro
baix
ĠResistÃªncia
ĠNissan
uncia
Ã±o
Ġhand
ĠLagoas
Ġjan
inhando
Come
ĠGinÃ¡sio
Ġlicenciatura
ĠExecut
Ġconheceram
ĠcaracterÃŃstico
ĠLÃºcio
ĠSoviÃ©tica
Ġcompram
Ġadere
ĠCorrida
Ġimplementado
ĠpÃ¡
ĠcontraÃ§Ã£o
ĠAgentes
tenho
dinha
eccion
Ġastral
gy
GestÃ£o
ĠBata
Ġaporte
ĠHBO
adi
ĠPontifÃŃcia
ĠMudanÃ§as
Ġextremidade
ĠCollege
iaram
ĠSimplesmente
Ġsindic
ĠtÃªxtil
"(
Ġhave
Ġconvocado
Ġlargas
iev
Ġpolos
Ġpronunciar
cro
reveu
Ġinterdisciplinar
jetos
ĠfÃ©rtil
Ġpira
ĠOrientaÃ§Ã£o
ilmente
ĠPere
Ġformadas
pedag
ĠAutomÃ³veis
Ġgene
ĠcÃ¢n
ĠcomeÃ§
ĠButantan
TB
Ġelaboradas
ĠDirec
sempre
ĠTrabalhamos
Ġcomand
ĠBate
ebe
Ġenzimas
Cria
heiros
Ġfeste
Ġlan
Ġadmirar
ĠMonitoramento
dutores
Ġrendas
Ġalg
prop
ĠdurÃ¡vel
ĠaconselhÃ¡vel
alizamos
Ġrecrut
ĠPerfil
ĠComandante
ĠEstÃ©tica
¾
Ġfalhar
ĠperiÃ³dico
VEL
Ġodor
Ġdeficiente
ĠinesquecÃŃveis
esses
Ġintensificar
ĠsertÃ£o
Ġincons
ĠMilitares
Ġmadrid
Ġexped
Ġmando
Ġamava
organ
ĠbagunÃ§a
rÃ¡fico
fam
ĠPerce
ĠEstrelas
Ġestabelec
ĠAnitta
Ġenvolv
Ġesfregando
Ġatestado
ĠLinkedIn
ĠaltÃŃssima
Feira
Ġpastoral
Ġtransar
Ġbancadas
Ġdesportivo
ĠpotÃ¡vel
Ġininterrup
Ġministrado
ebol
Ġfundam
ĠCores
Jogos
ĠpedagÃ³gicas
ĠCerto
Ġdesejados
ĠAlvorada
gramas
Ġimune
Ġscore
ĠAmigo
oral
gueiras
Ġparal
ĠPesquise
ĠProject
aduras
Ġrolou
ĠUNESCO
Ġigu
Ġcarisma
Ġdownloads
Ġrecomendadas
ĠDirceu
ĠalusÃ£o
opatia
ĠbelÃŃssima
Ġdiscutindo
Ġsystem
ĠAlv
Ġenxerga
Ġdenunciado
rimido
Ġmostramos
quir
uado
Ġtrabalharam
Ġdescul
ĠExecutamos
ĠClaud
ĠfarÃ³is
Ġempreg
paraÃ§Ã£o
Ġveg
estam
anim
ĠestÃ¡veis
Ġconcurs
osco
Ġreferenc
Ġbus
ELE
ĠLamb
ĠGrau
Ġprodutoras
Ġrigorosa
ĠtÃ©rreo
ĠSalgado
ĠMirim
NS
ĠUni
ĠCopyright
ĠOtÃ¡vio
Ġris
ĠhierÃ¡rquico
Ġincondicional
Ġtrabalhei
Ġtatu
ĠHotÃ©is
mac
ĠCU
ĠMost
Ġaplic
eij
Ġdecretos
ĠAbertura
Ġaconselho
ming
sendo
Ġ116
Ġadquiri
ĠAnne
Ġrezar
Ġsabido
Ġpendentes
vores
queta
ĠTVs
Ġcustas
Ġfantasmas
Ġann
ĠvazÃ£o
ĠnegaÃ§Ã£o
Ġvariando
Ġtrib
ĠabenÃ§oe
Ġrecol
ĠNorth
Class
Ġapresentem
ĠAssociation
Ġassado
Ġsubmissa
Ġmandioca
ĠHarm
ĠTrib
Ġmultim
Ġafetando
Ġeletricista
Ġchocolates
Ġdecorativos
Ġcontinuamos
Ġdivisa
Ġcusteio
idoras
ĠLus
Ġreconhecendo
Ġadeus
ĠHil
Ġcontido
Ġcalculadora
Ġimpedido
Ġinformais
Ġhep
Ġhabitu
Ġfeit
ĠAer
Ġservi
Ġmilitante
Ġabordando
ĠEmbalagem
Ġhaste
Ġexcessos
ĠSimÃ£o
Ġpredial
Ġdelic
Ġfiliados
ĠSolic
Ġapanhar
Ġreformado
Ġfuturamente
ĠbÃŃblico
rino
Ġagrega
ĠGot
Ġreconhecem
©
ĠIlust
Ġanalfab
Ġmaximizar
Ġirem
ĠMantenha
anÃ§ar
ĠereÃ§Ã£o
Ġvitalidade
Ġoitenta
ĠFinanciamento
ĠacomodaÃ§Ãµes
ĠPlaza
Ġtenente
ĠSAC
ĠBush
ÃŃsta
Ġblockchain
Basta
Ġimportado
Ġpontual
ĠGestor
ĠUnif
ologicamente
Ġprocuramos
Ġapoiada
Ġprivat
ÃģS
ĠconsiderÃ¡veis
Ġmarinho
ÃŃris
ĠMariano
Ġcarregando
ĠLtd
ĠRios
queÃ§a
EITO
Ġdiscipl
Ġgostem
ĠFavor
enberg
portes
Ġbastasse
Ã³dio
Ġsalvou
Ġmort
ĠTup
ĠRac
Ġficheiro
ĠHalloween
Ġquebrando
Ġmultinacional
Ġ112
ĠJuntos
Ġaconselh
Ġidiotas
Ġdesastres
ĠparÃ³quia
Ġtiram
Direito
Ġadvert
Ġfeministas
Ġalinhados
ĠAy
Ġorqu
Ã¢mica
Ġrastrear
Ġconfl
Ġconsertar
yes
ĠRating
Ġfito
Ġecossistemas
riel
Ġabsurda
estabelec
Ã¡p
ĠCompl
ĠInox
Ġfixas
Categorias
Ġcapita
Ġconfirmadas
Ġmedicinais
Ġanat
Ġdisparou
ĠGonz
Ġcorno
Ġvisitam
Ġoitavo
ĠGreg
DOR
gor
Ġmund
Ġacessado
Ġcongre
ĠKate
ĠforÃ§ou
Ġcasuais
Ġrecebia
olos
Ġalgar
Ġesfriar
Ġticket
Ġflui
Sec
Ġhead
ĠdanÃ§as
ĠTRF
Ġsuport
Ġderivado
Ġsegui
Ġescalar
ĠDever
ĠAssociaÃ§Ãµes
Ġacarretar
Ġestal
inheiros
ĠTag
Ġadicionando
Cast
Ġpreparam
ĠCient
ĠPaulinho
ĠCristÃ³vÃ£o
Ġpsiquiatra
obil
Ġsecador
iber
Ġmostrava
Ġbalada
Ġproporcionou
rist
entÃ£o
eie
Bate
ĠXiaomi
ĠAustral
Ġdemos
Ġreceberem
Ġreduzem
ĠTru
Cert
ĠTorneio
presso
Ġcompromet
Ġoitavas
Ġesqui
Ġpower
Ġutentes
ĠVitamina
ulosa
stituiÃ§Ã£o
!!!!!
Ġtropicais
Ġcirculam
Ġprocess
Ġfornec
entor
Ġsobrecarga
Ġparei
ports
ĠVictoria
Ġobrigar
Ġlivraria
ĠalfabetizaÃ§Ã£o
Elas
ĠmotivaÃ§Ãµes
ĠretraÃ§Ã£o
Ġseriamente
plicaÃ§Ã£o
ĠEscÃ³cia
omar
Ã³ricas
ĠJefferson
Ġinocentes
Ġendividamento
Ġdesenhada
ĠImun
jec
ficientes
Ġinternada
Ġbordel
Ġinstantes
Ġestimulante
uer
Ġturbo
online
Ġiminente
ĠDubai
Fo
Ġdirecionados
ĠParal
Ġboliv
Ġacabe
Ġinterino
Ã§al
Ġderrub
ĠAÃ§Ãºcar
Ġpicos
ĠBrinc
ĠSegue
Ġfodidos
Ġconsumidos
ĠNewton
iper
ĠgÃªnio
Ġtenda
Ġperguntam
Ġadotando
Ġindevida
ĠtemÃ¡ticos
Ġpio
Ġbizar
ĠMessi
erca
ĠSlim
Ġangel
Ġordenou
Ġrepres
ĠoperÃ¡rios
Ġstar
din
Ġtempero
ĠSaf
Ġgelado
Ġsuger
ĠFlÃ¡via
Ġlibertinos
ĠFE
Ġabandon
Ġsugerindo
ĠArc
ĠManc
upi
110
Ġoscil
Ġfranca
VM
Ġdescaso
ICE
Ġrobusta
Ġreivindic
Ġexplorado
Ġcomparados
!...
boa
quin
ĠPerfeito
ĠPD
ĠMald
ĠdecoraÃ§Ãµes
umos
ĠGian
Ġtriun
BE
ĠPou
Importante
Sen
Ġchina
ĠcorreÃ§Ãµes
Ġame
ĠespecificaÃ§Ã£o
pag
itamento
Ġmaquinas
idir
ĠlocomoÃ§Ã£o
ĠEram
ĠdelÃŃcias
ĠdÃºzia
ĠautenticaÃ§Ã£o
Ġalfa
ĠEstrangeiros
ĠtransgÃªn
grÃ¡ficos
Ġalinhar
Ġextrac
Ġcomparativo
Ġacionamento
ĠconcordÃ¢ncia
Ġresolvidos
ĠcolonizaÃ§Ã£o
Ġcurtindo
ĠCÃŃcero
ĠfiliaÃ§Ã£o
ĠPolicia
Ġsuplementar
Ġorn
Pac
ĠSEU
Ġfenda
ostar
OLA
ĠSR
Ġinvadiu
Ġcontratuais
ĠAtos
Ġdesenvolvemos
Ġamass
Ġnarrador
Ġpopul
Ġlactose
Ġplayground
rique
ĠPrincipal
Ġficheiros
Ġcognitivo
Ġviveram
ÃŃase
Ġlevei
Ġevidentemente
bus
principalmente
Ġpassavam
ionalmente
Ġisoladas
gel
Ġrevelaram
ectar
ces
ĠJÃºlia
Ġincub
Ġpets
Ġapurou
Ġdepositar
®
ĠfÃªmeas
Ġferv
Ġhormonal
Ġknow
Ġtouch
ĠpolÃªmico
Ġdedic
Ġrecepcion
atti
ENDA
ĠBang
Ġafiliado
Ġnotou
Ġdesentupidora
Ġalv
Ġprotetora
DD
Ġprejudicando
Ġfranco
invest
Ġinspirados
Ġ1961
ĠprotÃ³tipo
Ġautismo
Ġafastada
ĠUFRJ
Ġgirar
ĠajudarÃ£o
Ġgeom
Ġlanterna
ĠAux
Ġpasses
ĠSocio
ĠAla
atÃ¡rios
atismo
Ġpraticando
ĠtÃ¡ticas
Ġuniform
Ġaustraliano
Ġremessa
ĠMir
Ġadiciona
Ġestipulado
Ġatraentes
ĠResÃŃduos
Ġ106
Ġagregados
Ġatingidas
rÃ¡tico
ĠJudiciÃ¡ria
quanto
igen
ĠMiller
bes
ĠPierre
IBGE
ĠFronteiras
Ġovelhas
Ġverb
Ġgastron
ĠcoletÃ¢nea
ĠNegÃ³cio
Ã³mica
ĠOK
ĠPesquis
Ġria
Ġsolt
ĠCaruaru
Ġselecion
Ġea
Ġassumem
sete
ĠargumentaÃ§Ã£o
Ġdigest
Ġhigien
Ġtransmitidas
ogos
gica
enÃ§as
ĠprÃ³tese
itÃ£o
ĠRis
ĠArtificial
Ġpatentes
esca
Ġsabonetes
Ġfilial
Ġselecionada
Ġmens
irl
Receb
Ġpontuou
Ġpreparativos
Ġinstitui
Ġvanguarda
ĠWel
Ġtestemun
Ġdirector
iola
xy
Ġtange
ĠImpacto
Ġcd
Ġcaminh
Gradu
ĠSM
ĠAI
tero
Ġvariada
entares
icks
Ġdesafiador
ĠMem
Ġchupou
Ġpolicia
Ġnoticias
ĠFrance
Ġemocionantes
ĠbÃŃblica
Ġampliou
ĠSoft
ĠRusso
360
acar
ĠExped
Ġobjecto
Ġanemia
John
ĠsatÃ©lites
Ġarts
Empresas
ĠMental
Forn
Ġrefletindo
Ġmid
Ġacentu
ĠAdulto
ĠDoenÃ§a
Ġenum
Ġpromissor
ĠComercializaÃ§Ã£o
ĠÃłquela
MENTE
Ġdescentral
Ġembutidos
ĠEscrit
ĠPrecisa
Ġarrancar
inge
ĠClean
depois
Ġhidra
Ġpalestrantes
Ġmusculatura
Ġdenunciou
Ġfax
ĠSÃ©culo
Ġextremidades
iton
ĠcomeÃ§ava
itÃ³rio
Ġrefrescante
Â³
Ġvoltamos
ĠJuventus
Ġcontac
Ġprojeta
heta
ĠBert
Ãģgua
PEC
Ġpatologias
Ġans
ĠreforÃ§ada
ĠacÃºstico
ifiquem
ĠAcadÃªmica
Ġapet
)!
ĠSilv
Ġpossuindo
ĠcÃ¡psula
ĠTransferÃªncia
ĠdescontraÃŃdo
Ġnadar
Ġgrades
ĠBraz
ĠdescriÃ§Ãµes
Paul
ĠRoupa
ĠHarris
risto
ĠMenos
Ġatentamente
ĠAngra
Ġpetistas
Ġeducativos
ĠAfeganistÃ£o
ĠExemplos
Ã¡vio
etim
Ġpresidida
Ġocupou
eling
Ġdeslumbrante
cultura
igue
Ġqueixo
Ġorganizador
Ġdemocrata
Ġoportuno
Ġprece
ĠmatrÃŃculas
Ġbrilha
ĠBN
itador
Ġdesarm
ĠConcelho
Ġcategor
Ġanular
ÃīM
Ġencontravam
ĠEA
Ġencaminhadas
ĠpirÃ¢mide
ĠLuanda
ĠtranqÃ¼
Ġdesmont
ĠreforÃ§os
Ġsorrisos
Ġsobrancelhas
gÃ£o
Ġasma
icionamento
ĠCra
ĠsacrifÃŃcios
Ġempatou
Ġdispers
ĠBir
ĠSm
kov
Ġmaldade
ĠAllan
ĠDim
Ġevoluiu
azz
Ġconcordam
ĠDeixa
ĠPoint
ated
ĠlÃ¡tex
Ġmargin
Ġrecarga
Ġbond
ĠprÃ³s
Ġwhat
ĠColorado
Ġdeclarada
ĠLis
ĠVAL
Ġfavelas
Ġ1963
Ġplast
Produtos
poss
HAR
Ġpuramente
sch
ĠWolf
Ġficavam
Ġcontidos
ĠMÃ³dulo
yt
alaÃ§Ã£o
Ġabastecer
ĠLIV
Ġcumul
Respondido
Ġouviram
AlguÃ©m
ecuÃ§Ã£o
Ġflorais
ĠLuta
ĠPremier
Ġenerg
Ġespalhando
Ġconvencido
ĠconspiraÃ§Ã£o
otar
ĠdivisÃ³rias
Ġprosa
Ġescolhemos
ĠTrem
ĠpresÃŃdio
Den
Ġfracass
mia
ĠMaz
Ġmenciona
Ġlaboratoriais
Ġago
ĠUbuntu
ĠnotÃ¡veis
Ġesgotamento
Ġexibindo
Ġexpos
rilho
Ġversus
ĠGaÃºcho
ĠBour
ĠBuarque
ĠMIL
Ġ107
ĠCouro
ĠcÃ³s
Ġregulador
Ġrecup
Ġequip
ĠGA
Ġfavela
Ġmantinha
Ġpunir
ĠJaguar
ĠDesenho
Ġabandonados
executivo
isf
Ġenriquecer
Ġafirm
ĠPoderÃ¡
Ġvill
ĠdirÃ¡
Ġfecham
ĠmissionÃ¡rio
grafias
Ġderro
isl
ecÃ§Ãµes
Ġsug
Ġconquistados
ĠCult
ĠCora
ĠCooperativa
Ġdeparar
ĠAVC
Ġmantiveram
Ġjustificou
ĠYoung
arth
ĠBosco
Ġsubmetida
Ġinterfere
ĠcalcÃ¡rio
ĠPoderes
Ġaument
kis
ĠMang
ĠTS
Ġadmit
Ġinterativo
ĠNic
ĠclassificaÃ§Ãµes
Ġpertencer
Ġdetet
Ġ127
ĠCavalcanti
Ġguerreiro
icao
ĠdragÃ£o
He
ĠThis
elson
Ġcumpridas
ondas
Ġsignific
func
Ġchique
ĠalemÃ£s
uidade
ĠEspÃŃritos
ĠProp
Ġenche
Ġreservada
Ġmotivar
ĠGin
HD
riÃ§Ã£o
Ġidentificando
lemb
Estudos
ĠprevidenciÃ¡ria
quo
Ġdesfil
ĠsalmÃ£o
ĠExperimente
Ġrigidez
Seus
ĠGolf
ĠCalendÃ¡rio
hehe
Ġfratura
ĠOver
desde
pel
Ġdiarreia
led
ĠDemonst
Ġlives
Ġaproximou
Produto
Ġpenais
inhada
ĠcontraditÃ³rio
Ġsilencioso
Ġcomput
ĠDj
Ġampliado
Ġade
Ġcombinando
Ġsejamos
Ġditas
ĠLetÃŃcia
Ġlucrar
ĠFast
ĠdestinatÃ¡rio
ĠestimulaÃ§Ã£o
Ġmelhoram
TSE
ĠVersÃ£o
ĠCoral
rian
ĠEquip
blogspot
Ġprazeres
Ġusinagem
index
Ġconsideramos
Ġcontratante
Ġvacinados
Ġperitos
Ġsto
Ġcapuz
Jovem
TIL
ĠPilates
engo
Ġduvidas
ĠextensÃµes
Ġinte
ĠÃ³bvia
Ġcerebrais
ĠLimpa
Conselho
Ġsand
PV
ĠTomÃ¡s
........
Defin
Ġesquec
Maior
projeto
Ġdigestivo
Ġdiferentemente
Ġobrigou
Ġperdoar
ĠÃłquele
ĠabÃ³bora
ĠïĤ
ĠregeneraÃ§Ã£o
ĠTributÃ¡ria
ĠDese
ĠNossas
ĠCFD
ĠIbirapuera
pela
Ġespalhou
Ġrecebo
Ġfolia
Ġmodificado
Ġtirada
aru
ĠEstaduais
Ġdesignadamente
Ġcobertos
Ġjulgados
ĠinexistÃªncia
/.
Ġapoiou
rosas
ĠMala
Ġbocado
ÃŃra
Ġadquiridas
resa
Ġbacter
Falando
Ġmencionada
ĠeconÃ³micos
ĠContamos
Ġpaul
riga
ĠChapada
ĠWin
Ġparafuso
Ġinconstitucionalidade
ÃŃpio
Ġvacas
Ġreinado
ĠcrochÃª
Ġtemperado
ESA
ĠobservÃ¢ncia
ĠBis
clique
ĠlÃ¢minas
ĠBara
ensar
ĠfuncionÃ¡ria
ÃĶN
ĠcardÃŃacos
ĠFoda
Bal
ĠâĻ¥
Ġmecan
alÃ©m
Ġskate
Ġcomportamental
Ġassaltos
haha
ĠMarrocos
lando
ĠMelho
ili
Ã´nd
Ġdiar
Ġchamaram
ĠVaga
ĠVOCÃĬ
Ġrasgou
tarefa
Ġopos
tech
Ġdominado
ĠMalÃ¡sia
Ġmaricas
Ġencerrada
Ġcolor
oterapia
Ġpropondo
Reuters
Ġresgat
ĠDiamante
Ġvariado
Ġrespeitados
Ġcicl
ĠMargarida
ĠSchw
Ġdificultar
Ġrebeldes
ĠNaval
Ġilustrar
wski
ĠsensibilizaÃ§Ã£o
Ã´nios
Ġergon
ĠIgn
TAÃĩÃĥO
ĠconfissÃ£o
Ġdisparo
ĠLagos
ĠPÃ³voa
Ġconservadora
Ġalmo
ĠeconÃ³micas
ĠSing
cn
ĠforÃ§ados
gradu
Arquivo
Ġrecom
ĠMemorial
ĠdeterminaÃ§Ãµes
ĠDeleg
ĠSocialista
ĠleilÃµes
ĠMensagem
Ġaprofund
Ġtrabalhadoras
Dis
Ġcompostas
ĠLocalizado
Ġterminam
ivid
Ġconsistentes
Ġinfraestruturas
ĠCano
ĠPris
ĠPelÃ©
Ġalheia
ĠÃ³pera
Ġcomercializado
ĠFMI
pad
Ġnativo
ĠLicenÃ§a
Ġvencendo
lot
Ġderret
Ġresiste
Ġdermato
Ã¡cido
Ġrelatado
ĠCoc
Ġmaterna
less
Estado
Ù
ĠMenor
post
Ġeo
Ġacompanh
ĠAbraÃ§os
Ġvestindo
ĠZe
uito
ĠAPA
Ġpassarem
Ġofensa
Ġgravados
FI
Ġfraudul
Ang
ĠKennedy
ĠHidro
ĠAlessandro
etismo
Ġsocialistas
ĠConcursos
ĠressonÃ¢ncia
ĠmilÃŃmetros
Ġtorrent
Ġbonecos
Ġpresid
Ġvazios
MIN
NotÃŃcias
Ben
tol
Ġdesenvolv
paro
ĠsemelhanÃ§as
Ġrode
ĠIniciaÃ§Ã£o
ĠproposiÃ§Ã£o
Ġwindows
Ġveias
erf
Processo
umi
Ġalmofada
Ġoceanos
mÃ£o
ĠThor
Ġfecharam
dle
Ġdiscutida
ĠAmanhÃ£
Ġafastou
tona
Ġconced
Ġhackers
ĠÃģreas
alizadores
ĠSAP
ĠHamburgo
ĠOrgÃ¢nica
Ġaju
ĠHans
Ġave
Ġdiet
Ġacharam
Ġpassem
fabric
ĠAltura
Sil
AE
Ġexcel
Ġorganizando
rilha
ensivos
Ġbet
ĠCarlo
Ġventilador
Ġindicativo
Ġarca
Ġpuls
Ġgovernante
Ġpraticam
rindo
ĠResponsÃ¡vel
Ġcreches
Ġcolhe
Ġcomitiva
ĠImages
Ġerud
ĠManter
Vo
adistas
Ġrenas
Ġprolongar
Ġoffline
ĠcristÃ£s
bet
fs
Anterior
Ġmania
logo
ĠCust
ĠUniversitÃ¡ria
dios
empresa
ĠUsuÃ¡rios
ĠSolo
icana
Ġchurras
Ġhabitualmente
Ġ280
Ġpinto
Design
Ġatorm
ĠacadÃªmicas
Ġassinaram
Ġincrem
Ġprovado
ĠMarcas
cial
DAS
Ġarquitet
Set
Ġadversas
Ġenter
ĠGaÃºcha
Ġdiagnosticar
Ġhospit
mir
rescente
ĠCharlie
ĠsanguÃŃneo
Ġassesso
Ġblind
pm
Ġidentidades
Ġconduzidos
Ġescre
ĠViagens
ĠTadeu
Ġtrocou
ĠarmazÃ©m
Ġalinhado
ĠMaur
Ã©sio
Ġcomprov
ĠDesejo
ĠvÃ¡lidas
ĠUSA
Ġmonet
rame
Ġpern
iliares
ĠFN
Ġrepercut
Ġpisc
ĠZoom
eitor
ĠinegÃ¡vel
uu
Ġfarol
job
pert
ĠAmpl
ĠMaciel
Ġatrapalha
usÃµes
Ġconserva
ĠXIII
Ġordenado
Ġmail
lets
ĠvestÃŃgios
Ġvacinar
ĠCoritiba
Ã´nimo
Ġmarro
ĠPhil
ĠGam
Ġrelemb
Ġenlouquec
ĠCAN
head
Ġdesativados
deus
Ġgarantimos
Ġmp
mentos
Ġespaciais
ĠAme
Ġmete
ĠcÃ©lebre
Ġpatologia
adr
ĠcentenÃ¡rio
Ġintr
ĠTrader
Ġpron
Ġagressor
ĠgalpÃ£o
Ġreconstru
ĠcombustÃ£o
Ġtutor
Ġexigidas
ĠFilha
Ġsexos
cks
ĠWesley
ĠhidrogÃªnio
Ġcariocas
Ġquartzo
Ġdevolvido
ulhos
ressos
Ġmovimenta
Ġpilar
Ġturco
Son
Apre
Ġencantos
ĠGoulart
Ã¢nt
ĠTVI
atel
teto
Ġtelhas
LI
ORTE
Ġimpasse
Ġdai
ĠchÃ¡s
Ġrenovada
Ġembaix
Ġwh
ĠCes
ĠSituaÃ§Ã£o
ĠreivindicaÃ§Ã£o
Ġmembrana
ĠexplÃŃcito
asta
ĠServidor
ĠperÃŃmetro
ĠPrincipais
ĠSao
Ġconsign
Ġgoz
Eduardo
ĠGN
Ġpervers
Luiz
urus
ĠdemoliÃ§Ã£o
ĠPosteriormente
Ġmilag
cidas
arra
ĠrevolucionÃ¡ria
Ġmalaga
ĠMr
ĠFod
Ġconsomem
Ġcalhar
Ġader
ĠFAC
Ġsalienta
Ġcompositores
Ġmadeiras
Ġcres
Ġconfirmaram
rÃµes
ĠAlimentar
Ġ650
Ġgere
ĠIPVA
Ġpronuncia
gus
Ġenriquecimento
Ġtestemunhos
ĠConsumo
ĠimperfeiÃ§Ãµes
ĠChap
Ġvarejistas
irma
ĠQueen
Ġdisponibilizando
pea
ĠVietnÃ£
Ġcadastramento
ĠCrato
Ġabacaxi
Ġbalas
orf
ĠDigitais
Ã¡polis
Ġlivrarias
Ġfreios
mato
jes
Ġexcepcionais
Ġatendemos
ĠMari
ĠautÃ´noma
ĠanulaÃ§Ã£o
ĠVÃ¡rias
ĠDav
Ġmorna
Ġcomercializar
ĠflexibilizaÃ§Ã£o
Ġmolecular
ĠConsciÃªncia
TON
uga
Ġseleccion
ĠRebelo
ĠContagem
Ġmangueira
campo
ĠRedonda
Ġdavam
Ġfeto
Ġfris
':
Ġsubsequente
ĠArtesanato
Ġtarif
Ġdividem
Ġdesvendar
ĠAdultos
point
Ġpredominantemente
?).
Ġrigorosamente
ĠLuan
ĠBaÃŃa
ĠVestido
Ġtoulouse
plicado
Ġpossuam
ĠSeco
ĠsatisfatÃ³ria
Ġorgan
ĠdemissÃµes
ĠconseqÃ¼Ãªncias
Quatro
ĠmarÃŃtima
ressa
Ġpreferidas
ĠMadri
Ġanunciadas
Ġexpositores
egal
Ġdespertou
Ġencarregado
Ġrodando
ariado
Ġrum
ĠFront
Ġjustas
Ġaditivos
Ġclean
ĠSid
ĠLivraria
Ġsais
Ġanestesia
RR
ĠnumeraÃ§Ã£o
ertar
Ġfuro
Ġestimulam
Ġfranque
Ġdons
Ġcapo
essÃµes
ĠRodas
Ġpronunc
ĠterrÃŃveis
Ġrepos
ĠinsÃ´nia
VÃ¡rios
cinha
Ġ1200
Ġchame
Ġcalda
ĠAcompanha
Decreto
Ð°
ĠVPN
Ġares
Ġiron
Ġmosquitos
Ġcrimin
ational
Mud
ĠAutomaÃ§Ã£o
ĠSwitch
ĠSuprema
Ġausteridade
Ġlagoa
Ġadorm
ANTE
ĠAngela
Ġdriver
Ġdesaparecido
ĠScar
Lucas
Ġamen
Ġempurrar
Ġfixada
Ġintimamente
Ġculmin
Ġarmazen
Ġamadurecimento
ĠCargo
Ġrealizarem
ĠÃģr
Ġsensorial
Ġnascida
Ġassoc
Ġcens
ĠIMP
Ġvibrante
Ġadquirindo
ĠMaps
udia
Ġidealizado
Tro
Ġbichos
Ġcata
ĠDeu
ĠPalestina
def
Ġsetenta
Ġpolpa
filme
embora
eradores
igh
Ġpenteados
ĠfuncionarÃ¡
ometria
Ġenquadra
ApresentaÃ§Ã£o
ĠTÃ£o
OrganizaÃ§Ã£o
ĠExpl
Ã¡gios
Ġbody
Ġabate
ĠfrequÃªncias
Ġpousadas
ÃĵRIA
ĠapÃ³stolos
Ġsegundas
ĠModern
[...]
Ġencaminhou
Ġevidenc
ĠvÃ©speras
ĠCrescimento
ĠContrataÃ§Ã£o
ĠTamb
Ġpreciosas
Ġfilmando
Ġshop
Ġcumpridos
ĠTelevisÃ£o
lete
Ġbombe
ĠÃĤngelo
Ġdelegada
Ġjogabilidade
bor
Ġwe
Ġreca
Caro
ĠDemocrÃ¡tico
Marcos
Ġvitrine
ĠApresenta
onso
ĠAdapt
Ġisraelense
ĠbÃªnÃ§Ã£os
Ġlongevidade
ĠAuxÃŃlio
dÃ£o
Ġcub
Ġcicatrizes
Ġauditiva
orna
ĠAurora
Ġconfirmando
Ġsozinhas
Ġdesemb
Ġgravadora
ĠcustÃ³dia
Ġdesanim
Pas
Ġmotora
ivil
Ġdesconhec
Ġmultinacionais
nis
atem
isos
Ġselva
Ġretornos
ĠIsland
homem
Ġconceitual
zil
ason
Ġplaylist
³
Func
ĠUniversidades
Ġnerd
Ġlistagem
ecta
Ġrecolh
Ġsubjet
Ġsaldos
Ġhonrar
Ġengolindo
Ġfrescas
ĠPossu
Ġhj
Ġherdeiros
jante
Ġacompanharam
Ġbissexuais
ĠsubstituÃŃda
ĠEmerson
italizaÃ§Ã£o
Ġpartem
ĠBos
Ġarea
Ġplugin
eticamente
ĠtrÃ¡gico
Cab
Ġoleosa
Ġmaestro
Ġlevamos
ĠCec
isb
Ġcalm
Ġtapa
ĠSever
ĠWay
eirinhas
ament
ĠCul
ĠBacia
Ġestudam
pan
aradas
Ġrepasses
Ġdiversificada
ĠNaquele
Ġlegislador
ĠChelsea
FM
dados
Ġapontada
ĠJoa
Encontro
ĠIgrejas
ĠsecretÃ¡rias
ĠcontribuÃŃdo
ĠVisita
Rodrigo
IRA
ĠmanutenÃ§Ãµes
ĠBoeing
Ġquent
inosa
ĠDomin
Ricardo
Ã¡rea
Ġartrite
Ġestrias
ĠClaros
Ġcortada
ĠSapatos
Especial
Ġaprendido
ĠJaraguÃ¡
ultar
ĠKara
Ġadministradora
ĠNorm
Ġsorteios
Ġpenalidade
ĠTRT
administ
Ġenfermeiro
ĠAldeia
ĠFiocruz
ĠimediaÃ§Ãµes
ĠMON
Ġusual
Ãºrgicos
Ġqueimada
Ġrecuperou
ionismo
ĠSoluÃ§Ã£o
Ġdesprezo
Ġdestacaram
ĠtÃŃmida
menos
ĠÃ³ptica
Ġcoelho
Ã³nicos
ĠConfesso
ĠNigÃ©ria
ĠPetrolina
Ġamea
ĠFam
Ġencob
ĠÃ³rbita
Ġescure
ĠÃĵtima
ĠPage
jornal
ĠParanaense
obo
ĠcÃ³rdoba
Ġindico
Ġacentuada
Ġmexicana
ionam
Ġmaxim
Ġpropagandas
ĠCatarinense
Meus
blico
Ġrepublicano
Ġamaz
Ġresponsabiliza
aneta
Ġutrecht
Cat
ĠsequÃªncias
ĠCommons
Ġdesistiu
Ġimpunidade
ĠanÃ´nima
ĠMeirelles
rÃŃ
estima
estamos
ĠBÃŃbl
ĠPenso
Ġprovidenciar
AÃ§Ã£o
Ġexteriores
Ġvere
Ġtease
ĠMars
ĠTST
intura
Ġ270
Ġfraternidade
Ġdescendente
Ġprint
Ġescape
Ġsolene
ĠMDB
Garota
Ġsit
Ġmisturado
itivamente
ĠMarie
Ġtomados
ĠfenÃ³meno
Prefeito
ĠcardÃŃacas
ĠNi
Fique
Ġrecuperado
Ġincentivando
ĠreforÃ§ado
Ġrepre
Ġapostando
Ġorquestra
ĠHumana
rupÃ§Ã£o
postas
ĠmetÃ¡lico
RAR
Ġtags
ĠQR
ĠfrÃ¡geis
Ġmultiplicar
ĠFHC
Ġalemanha
Ġcomunismo
Ġbeij
Ġinvolunt
Ġdialogar
ĠalcoÃ³lica
Ġdestitu
Cola
ĠsolitÃ¡rio
Ġplayers
Ġmigrantes
ĠBens
Ġsuperioridade
Ġvalorizando
ĠdestruÃŃda
ĠGenebra
Cu
ĠcÃ´
Ġsubmetidas
ror
ĠRoda
ĠNatura
Ġparcel
Ġcontaram
ĠPlayer
Ġcaix
æ
Ġtelefon
Ġflutu
ĠpercepÃ§Ãµes
Ġassinados
Ġcondenada
Ġmape
ĠDespacho
ĠPAS
Ġoculto
Ġanna
vistas
ĠapropriaÃ§Ã£o
Ġrolando
Ġperito
Ġcobrando
ĠemancipaÃ§Ã£o
Ġchamp
ĠVÃ¡rzea
Ġresponda
ĠdidÃ¡ticos
Ġcripto
ĠDesp
ĠAprender
wal
Ġquebrada
Ġreum
ĠIL
Ġlaje
ĠPI
Ġimaginando
Empre
quel
Ġdesignar
ĠpossuÃŃmos
Ġress
icam
Ġcump
Ġ109
Ġpurific
Ġandou
Ġvontades
ĠVisu
ĠdesnecessÃ¡rio
Ġconfessar
ritores
atÃ¡
Ġnewsletter
ĠAlgodÃ£o
ĠAuditoria
Ġespecificidades
jÃ£o
artigo
ibi
ĠFunÃ§Ã£o
Ġinteressam
ĠAranha
ĠbactÃ©ria
Ġembutido
Ġinse
Ġrelembra
Ġdefensiva
Ġasse
Ġsut
ivemos
pidos
ĠOur
ĠCapit
retas
Ġobrig
Ġhabeas
Ġprecon
Ġteclas
Ġcarregada
ĠAre
ĠFinlÃ¢ndia
Ġacaricia
Ġencont
Ġvaidade
ĠagropecuÃ¡ria
aneira
ĠPredial
ĠfantÃ¡sticos
icismo
ĠChocolate
Ġprostitu
Ġiluminar
ĠAcademy
Ġsuculenta
1996
orante
Ġtiradas
Ġlux
Ġserie
Ġexibidas
iang
Ġaproximado
terra
Ġcachoeiras
ĠFiscais
onal
ĠfÃ³sforo
ĠIron
Ġarrepender
Ġrend
ĠReclame
Ġprecisavam
Ġassistidos
Chegou
ĠCata
azer
Ġdemocrat
Ġinvista
Ġhow
Ġdesaba
atol
blo
ĠImpressora
ĠcorrosÃ£o
Ġgrife
ĠRequisitos
ĠDesafio
Ġmatriculados
Ġbarris
AvaliaÃ§Ã£o
ESSO
ĠlamentÃ¡vel
ĠDHgate
kas
ĠSUA
Ġsudoeste
tomia
Ġvisitado
Ġsevera
Ġrevest
ILIDADE
Ġreceptores
inete
aios
Ġesbo
Ġbrincou
Ġcredor
Ġbalde
Ġterrestres
Ġvaliosa
Baixe
Ġmote
ĠespÃŃrita
ĠpacÃŃfica
ĠYour
ĠMartinho
Ġaromat
Ġherdeiro
Ġamendoim
ĠPSOL
Ġprocurada
ĠCascavel
alina
Ġmonoc
Ġligam
ĠRetiro
ernet
ĠBrun
Ġnylon
Ġremove
Ġdescomp
Ġexplorando
Ġaproveit
Ġdeusa
Ġdilema
ERJ
Ġagressividade
Ġarmadilha
ĠTerritÃ³rio
Ġargentinos
Ġincompre
Ġcabendo
ful
ĠDorm
Ġprorrog
Ġbexiga
Ġcirculando
Bl
AMP
Ġpatas
ĠUFSC
Ġlob
Ġpreenche
ecia
Ġsemifinais
Ġgostando
Ġrevisar
ĠFunc
ĠMediterrÃ¢neo
uit
ĠimperdÃŃveis
CÃ³digo
Ġmonta
Ġantip
odas
Ġtravar
Ġdiscernimento
Ġconvertido
Ġprateleira
ĠterÃ§os
Ġsonoridade
Ġcremoso
ĠFomos
Ġancestrais
Ġintuitiva
Ġreview
ÃŃrus
Ġembara
ĠFabrÃŃcio
Ġencanta
ĠalcanÃ§ada
Ġentrela
Ġregulagem
ecologia
Ġcinta
Benz
Ġingressou
ĠMalta
Ġcorro
Ġnomear
ĠEncontra
AndrÃ©
Considera
Ġpage
Ġconfusa
ĠPortalegre
Ġdeform
ĠCerrado
Ġdiagnosticado
Ġpvc
Ġmontou
ĠNamorados
Ġquimioterapia
ĠGRA
Ġjaqueta
edores
ĠTatu
ĠFilm
Ġborboleta
Ġsacola
ĠSinto
cle
Ġobjetivando
ĠSociety
ĠHaverÃ¡
ĠconfraternizaÃ§Ã£o
ĠBenefic
Ġsasha
ĠDesempenho
ĠdistÃºrbio
Ġocular
vinte
Ġcrente
Ġpedag
grupo
Ġsequestro
Ġzoom
Ġinconstitucional
Ġtirado
Ġinsistir
Ġbovina
Ġjuntam
Ġanexos
Ġadrenalina
Ġsaques
ĠBarretos
Ġsucedida
Ġentup
hm
Ġmoc
Ġpeitudas
Exper
ĠCartÃ³rio
OG
uman
Ġtitulo
ĠamÃªndoas
ĠPortela
Ġvalidar
ĠAgreste
Ġbinaria
ĠinversÃ£o
ĠRoberta
ĠbÃŃblia
adoria
ĠIVA
ĠBruce
hh
grafo
160
Ġsalariais
Ġnavegadores
ĠIPCA
ĠreversÃ£o
ĠgostarÃŃamos
ĠnegligÃªncia
ĠUsado
ĠPrestaÃ§Ã£o
Ġgarra
Ġoque
atada
Ġassegurou
ĠAlexander
duas
Ġbumbum
ilhado
FT
ĠAnatel
Ġrecesso
ĠHS
ĠmÃºtuo
merc
Ã©ias
Ġdescar
Ġrevelados
ĠGri
ĠImperador
ĠUsina
Ġprez
Ġintegrando
Ġfortaleza
ĠBella
Ġenfer
ĠMU
Ġcomodidades
./
Ġpoliciamento
ĠSI
ĠNave
Ġreed
Ġmovido
Ġpressupostos
Ġtras
ĠAeronÃ¡utica
Ġtraje
ĠGrossa
Ġglamour
ĠconsultÃ³rios
ĠIntegrada
ĠbelÃŃssimo
Ext
Ġsignificam
acy
Ġsupl
ĠÃļltima
Ġtao
Ġprega
Ġassegurado
ĠsaÃŃmos
Ġpavimentos
ĠMarcio
reis
Ġtamb
ĠEstratÃ©gico
Ġequivalentes
ĠnarraÃ§Ã£o
ĠlegalizaÃ§Ã£o
ĠApocalipse
Ġinvestment
Ġprotetores
Ġprag
Ġprevine
ĠlotaÃ§Ã£o
ĠCondicionado
Ġnascente
ipal
uÃ¡
Ġfeche
Ġhorizontes
Ġconsolidada
Ġterceiriz
Ġsonhou
Ġdram
ĠSagrado
Ġclam
ĠDrogas
ficial
Ġenvelope
junta
Ġencabe
Ġexactamente
lass
ĠCVM
Â®,
ĠoxidaÃ§Ã£o
Ġregista
Ġtrabalhados
ivadas
Ġnichos
entador
Ġacid
atados
Ġrefrig
ench
Ġdestrut
FL
Ġabor
ĠmovimentaÃ§Ãµes
Ġalve
Ġcarregam
Cla
ĠabrirÃ¡
ĠdesgraÃ§a
Ġversa
ĠSerg
Ġdescump
Ġhabitacional
Ġatendente
Ġpormenores
ĠBeatles
teca
ĠSkin
Ġcultos
ining
ĠPlu
ĠRobson
Ġchefia
ĠÃŃndia
ituba
tanto
ENCIA
Ġelena
Ġinfluentes
Ġincapazes
Ġincrementar
Ġcontributo
alas
Ġcastanha
ĠPequena
ĠTietÃª
UAL
Ġdeixados
ĠÃŃmpar
ĠCollor
Ġimpre
Ġgastando
ĠFitness
ĠobstruÃ§Ã£o
Ġdinamismo
urante
Ġarmazenagem
ways
Ġdivulgando
ĠUns
Ġpeculiaridades
Primeira
tinho
Ġperceba
Ġpipoca
Ġanimar
Ġinvestigador
AV
ĠMÃ¡r
ĠobsessÃ£o
ĠVolume
Ġlimburgo
ĠViena
Ġgenerosidade
Ġlombar
parte
Ġopostos
ĠpregÃ£o
Ã©cio
Ġapropriados
rute
Ġilustra
Ġatraiu
Ġsimplificado
mÃ¡tico
Ġabrangendo
Contra
Ġmoradias
ĠVisite
-)
ĠPec
ĠforÃ§ando
Ġorais
ĠPerÃŃodo
Ġreagiu
Ġautarquias
Ġexuberante
Lisboa
Ġreat
Ġresult
Ġcofre
ĠCarmen
Ġortodo
ĠDiversos
ĠSOBRE
Jogo
mentado
ĠRealizar
formaÃ§Ãµes
Ġpediatra
ĠcomparaÃ§Ãµes
Ġlume
ĠpercussÃ£o
Ġajustado
plemento
Ġ1958
Ġalavancagem
Ġpermitia
Ġmarcos
ĠMichelle
Ġresultaram
ĠconcepÃ§Ãµes
ignon
Ġdiamantes
Ġpropos
Ġdisponibiliz
ĠitÃ¡lia
Ġracista
ĠFria
Ġdisput
Ministro
Ġsurpreso
ĠtemporÃ¡rias
Ġmatric
aton
Ġpassaria
Ġacusada
Ce
Ġrasgando
Ġloiro
Constru
etermin
ĠMilan
ett
ĠMotors
ilma
Ġestudados
Ġcaracterizar
ĠdiversificaÃ§Ã£o
Ġunic
ĠOUT
ĠMedicamentos
ingue
Lembrando
ĠconseqÃ¼Ãªncia
ĠClassic
OT
OK
ĠOrtop
ajuda
aze
Ġevidentes
ĠAx
ĠimpotÃªncia
ÃĵS
Diz
Guia
ĠIz
ĠElect
rÃ¡vel
ĠTv
Ġevolu
Ġanorm
ĠNina
Ġimpurezas
TÃŃtulo
regar
Ã¢nd
Ã©cia
Ġtivermos
ĠIdentidade
Ġsextas
ĠElite
Ġremotamente
almoÃ§o
trinta
tÃ³rias
Ġpon
ĠCroÃ¡cia
Ġpioneiros
Ġchuv
Ġpente
Lemb
ĠCamisa
RedaÃ§Ã£o
Estar
Ġabismo
Nenhum
Ġqueimaduras
ĠTAP
Ġsolda
ĠinÃ©ditos
Ġsucessivas
ĠGla
Ġcarvalho
Ġalavanca
ĠReviewed
Ġhistoriadores
Ġisenta
ĠÃ³rf
ĠXI
Ġmoralidade
ĠprevidenciÃ¡rio
Ġancestral
ĠInfo
ussÃ£o
Ġinstala
ĠKarol
Ġocorridas
VD
Bruno
Ġconceit
Ġpressione
ĠconvicÃ§Ãµes
Ġconsagrado
Ġrecinto
ĠPV
Membros
Ġefetivas
ĠMagic
ĠdeverÃŃamos
ĠEditorial
Ġextratos
ecedor
ĠGig
ĠcomunitÃ¡rias
Ġbrincos
ĠfÃ¡rmacos
Ġamando
ĠList
Ġneuroc
ĠEnerg
DIA
ĠIlhÃ©us
quare
Ġinjusto
Ġeternamente
Ġmotivada
ĠdarÃ£o
Pouco
Ġpregar
Ġtum
ĠAmbas
ĠLÃŃbano
Ġagulhas
Ġcrio
ĠevangÃ©lica
Ġdrivers
cÃ³p
Ġsaltar
MF
ĠBrian
GN
Ġtroco
ĠJudas
wit
ĠPacto
Ġsonda
Ã©e
Ġinseridas
Ġinflu
ĠComissÃµes
Ġcolorir
ĠIndaiatuba
ressados
fundador
ĠRÃ¡pido
Ġbichano
Ġligas
ĠStandard
Ġcongel
ĠCreative
Ġmaciez
Ġafastados
elinha
ĠAbr
ĠView
ĠMotta
inista
triz
Ġrequerente
Ġnoutros
js
hin
Ġdesinfetantes
Ġinteress
quatro
Ġpertences
Ġrid
ĠatribuÃŃdos
Ġprocurei
Ġconcentrada
Ġcondensado
VII
Ġatrasados
Ġapontados
Ġremunera
ments
Ġmarque
ĠmonopÃ³lio
Ġepidem
Ġdebru
sua
Ġdarem
ĠautomÃ¡ticas
Policiais
Ġwork
Ġmelodia
Ġminorias
ĠAudiÃªncia
ĠCoaching
ĠDell
Ġsensualidade
Ġachados
ĠSimpÃ³sio
Ġfazermos
Adoro
ĠDelegado
ĠGib
ĠâĢ
guerra
ĠCristÃ£
ĠPack
ĠtemporÃ¡rios
dad
Ġdesment
Ġcra
ĠVentura
Ġcontem
ĠAnthony
Ded
Ġalex
Ġenfiar
onel
ango
ĠabraÃ§os
itais
ĠgerÃªncia
uloso
Ġdirecto
Ġoponente
ĠJBS
ĠFazendo
Podem
Ġemig
ĠEmpreendedorismo
Ġcomentado
Ġfinalizado
Ġduradoura
Ġdermatologista
Ġincorpora
ĠUrgÃªncia
ĠsÃ´
Ġabat
Ġpergunte
Ġarquiteta
ÃŃba
ĠNoroeste
ĠameaÃ§ado
Ġving
ĠDou
Ġreage
fico
Ġpiedade
ĠestabilizaÃ§Ã£o
Ġdrones
Ã´metros
Ġple
ĠPeg
Garotas
Ġdolorosa
Ġimplante
Ġinsist
.'
ĠTeles
Cand
ĠAirlines
ences
Ġrespeitada
Ġassar
Det
iose
Ġinvestem
Ġpromovidas
ĠOlho
ĠLarissa
Ġpotentes
Ġdescal
Ġchoc
ĠMulti
Ġarredond
Ġnasal
Ġpercebendo
Ġneb
Ġlis
jogador
peito
Ġsenta
ĠGuanabara
ĠsucÃ§Ã£o
Ġencomend
ĠpÃŃlulas
Ã©nia
ĠSexual
Ġnuances
Ġsagrada
Ġsimboliza
Ġreafirma
Ġstop
Ġpormenor
Ġfluidos
Ġgigantesco
Ġvazias
Ġgam
ĠinterrupÃ§Ãµes
onato
Ident
geiros
ĠVE
ĠRelacion
ĠinstantÃ¢nea
mega
Ġsentirem
Certamente
Ġcarente
Ġfavorecendo
Web
Ġpreg
ĠpÃ³l
Ġcompridas
Ġmedindo
ĠaquÃ¡ticos
Ġdecente
anet
Ġafil
ĠMut
Ġacabo
ĠTÃ©r
renc
Ġreferendo
Ġnumerosos
Ġord
Ġavisou
Ġorientados
Ġchips
Ġagropec
Ġquintas
Ġlojistas
Ġcontroladas
ĠPHP
ĠdesnecessÃ¡rios
Ġcuid
quisiÃ§Ã£o
ĠJudicial
atha
¢
Ġvetores
Ġ3000
Ġdirecionamento
Ġfugiram
Ġtremendo
ĠSinais
Ġpneumonia
>.
ĠSecretarias
Ġfortalecendo
Ġhidratar
ĠmÃŃsseis
Ġunilateral
Ġmachismo
role
Ġcontribu
Ġexcessivamente
Ġpossibilitou
Ġescav
ĠcontrovÃ©rsia
produtos
Ġinstinto
ĠLimeira
Ġcheguem
Ġcognitiva
ĠTermin
Ġcomprometeu
Ġiv
Ġpromotora
enco
cria
Ġnotic
Ġarmadas
Ġapress
ĠTitan
Ġparaben
Ġcint
ĠLeopoldo
ĠsandÃ¡lias
.âĢ¦
ĠDecora
Ġbonus
Ġenxerg
Ġpick
ĠrevogaÃ§Ã£o
ĠEspiritismo
ĠLiqu
Ġreencont
bul
ĠTaubatÃ©
ulha
Ġcelebrada
ĠÃ±
Ġpaternidade
Ġpedagogia
Ġseguradoras
Ġremanescentes
ĠnÃ¡ut
ĠClima
Ġcompartilhadas
ĠterapÃªuticas
ortal
Ġcriticado
ĠcocÃ´
ĠOferta
laÃ§Ã£o
ĠMMA
ĠAutomÃ¡tico
Ġautocarro
Ġcambial
Ġnote
ĠMurilo
)".
Ġpersuad
Ġexplod
Ġexpans
ĠpremiaÃ§Ãµes
vet
portu
Ġgeneros
Ġlistadas
Ġusavam
ĠBaptista
ĠTC
Poder
Ġcrav
ximo
Ġjuntando
Ġucraniano
Ġbaba
ĠAde
ĠHand
camp
Ġliteral
Ġverem
ĠGÃªnero
Ġpombos
ĠRetire
Ġtransmitidos
entistas
Ġvivi
Linda
Ġtreinado
anÃ§o
Ġworkopolis
Ġtornozelo
ĠpÃ¡g
final
ĠSES
Ġleigos
Ġsombrio
Ġmicroondas
Ġconsoles
atto
Ġpulseiras
ĠJura
Ġinal
Ġsediada
Ġlutador
ĠState
essores
ĠtrilhÃµes
endar
tag
Ġprefira
ĠCatal
Ġpay
Ġbrav
ĠaquÃ¡rio
ĠBros
Ġcongressos
ĠPadilha
Ġair
Ġmanufatura
Ġsilhueta
Promo
Meninas
Ġtransformador
Ġprivativo
:"
Ġencontrem
jac
Ġfracas
Ġsinceridade
ĠTira
enar
sucedida
Ġatuante
Ġdissemos
ĠDrag
Ġcobrindo
ĠdÃŃgitos
regado
ĠHyundai
Ġexigiu
Ġengana
Gen
ĠPlaca
Ġces
Che
ĠFic
ĠSher
ĠodontolÃ³gico
ĠAds
VEIS
Ġcorridos
ĠWo
ĠimperdÃŃvel
Ġesbar
ÃŃst
ĠprevisÃŃvel
Ġobstru
Ġdesconstru
Ġpremissas
Ġcubos
IÃĥO
Ġcaverna
Ġretrocesso
ĠOpt
mark
ĠsocializaÃ§Ã£o
Ġveterano
Ġcrueldade
Ġregress
inhamento
ĠSquare
Ġprolong
Ġouvia
ĠTravel
Mt
Ġspam
ĠResp
ĠconvergÃªncia
Ġfec
Ġconsagrados
Ġsumo
Ġprocede
copia
Ġaproveitado
Ġrespond
Ġcurtidas
Ġ1959
ÃŃvia
rex
Ġmur
ĠdecadÃªncia
Ġgua
Ġplantel
Ġdemol
Ġrefug
cÃµes
âĢ³
Ġtreinando
Ġvoando
Ġdistribuidor
semos
utiliz
ĠGuar
Ġinfectadas
ĠrÃºstico
Ġobtiveram
Ġmassacre
ĠAnim
Ġnulidade
got
Ġreformar
Ġavist
Ġbebendo
ĠMes
Line
Ġchata
ging
porn
Ã©lico
Ġproto
ible
Ġdescontinu
eber
ertando
edu
Ġemocionalmente
Ġtomamos
Ġtreina
ĠRomana
ĠTrat
ĠBritador
Ġparecidas
Ġnamora
Ġadiado
Ġmineiros
Ġformula
TIN
Ġpalav
Ġcanteiro
))
Ġbri
ĠKardec
ikes
ĠelÃ¡stica
Ġhormonais
Ġnaturalidade
Ġemprega
Ġnotado
Ġconquistaram
ĠSert
ĠPint
Ġartilheiro
arela
Ġdeterminam
Ġpersonal
1995
Ġlacuna
ĠTai
ĠElÃ©tricos
Ġgroningen
Ġdirecionadas
Ãºrgico
ĠOLX
ilÃ¢ndia
Ġvales
Ã¡via
ĠConexÃ£o
Ġesqueci
Ġcomprovam
Ġconfigurado
Ġrar
Ġalicante
Ġnaveg
tÃ£o
Ġatacadista
ĠLig
ĠsimultÃ¢neo
ĠFAB
ĠImobiliÃ¡rio
Ġhosp
,[
ribuiÃ§Ãµes
ises
ĠhÃŃdricos
Ġassem
Ġretirando
GAL
Ġboletos
Ġmotivou
ĠBeth
Ġsaciedade
ĠMDF
Ġnocivos
Ġrepassar
Ġpernambucano
Ġplantada
vados
Ġcortesia
inua
ĠgÃªn
ĠUtilizador
Ġentendida
Ġmec
ĠDÃ©bora
Ġalimentam
Ġintroduzido
Ġdescartados
Ġveic
ĠAgra
ĠProduc
Ġdeseje
Ġadicionados
Ġreac
Ġupload
ĠRespo
tan
Ġcursando
estade
ĠMontagem
ĠDUBLADO
Ġsalvos
usar
ĠGor
Ġcativeiro
Ġdedilhando
Ġanalogia
itismo
ups
Ġsofridos
ĠSH
Ġextremas
+,
Ġanf
Ġdetetive
Ġfilt
Ã©g
ĠÃģrabes
ĠmilitÃ¢ncia
reen
ĠescÃ¢ndalos
Ġpouso
Crist
Ġdigam
ĠDid
ĠpublicitÃ¡ria
meia
ĠdepilaÃ§Ã£o
Ġtinto
respo
Ġinvad
ĠexperimentaÃ§Ã£o
Ġreclamando
Ġinfinitas
Ġatrac
Ġdemit
Ġsecretamente
Ġescolhem
ound
Ġbois
Ġentrarem
ĠClubes
tti
Ġbund
Ġservos
Ġcompareceu
abel
Ġpseudo
izava
Ġarbor
[...]
