[PAD]
!
"
#
$
%
&
'
(
)
*
+
,
-
.
/
0
1
2
3
4
5
6
7
8
9
:
;
<
=
>
?
@
A
B
C
D
E
F
G
H
I
J
K
L
M
N
O
P
Q
R
S
T
U
V
W
X
Y
Z
[
\
]
^
_
`
a
b
c
d
e
f
g
h
i
j
k
l
m
n
o
p
q
r
s
t
u
v
w
x
y
z
{
|
}
~
¡
¢
£
¤
¥
[UNK]
[CLS]
[SEP]
[MASK]
¦
§
¨
©
ª
«
¬
®
¯
°
±
²
³
´
µ
¶
·
¸
¹
º
»
¼
½
¾
¿
À
Á
Â
Ã
Ä
Å
Æ
Ç
È
É
Ê
Ë
Ì
Í
Î
Ï
Ð
Ñ
Ò
Ó
Ô
Õ
Ö
×
Ø
Ù
Ú
Û
Ü
Ý
Þ
ß
à
á
â
ã
ä
å
æ
ç
è
é
ê
ë
ì
í
î
ï
ð
ñ
ò
ó
ô
õ
ö
÷
ø
ù
ú
û
ü
ý
þ
ÿ
Ā
ā
Ă
ă
ć
Ċ
Č
č
Ē
Ė
Ī
Ĭ
ĭ
İ
ı
Ł
ł
ņ
Œ
œ
ř
ś
Ş
Š
š
Ÿ
Ž
ž
ƒ
ơ
ǀ
ǁ
ǲ
ǳ
ȃ
Ȅ
ȩ
ʹ
ʺ
˃
ˆ
ˇ
ˈ
ˉ
˘
˙
˚
˛
˜
˝
̀
́
̂
̃
̄
̈
̉
̊
̒
̕
̧
̳
̷
̸
͞
͟
ͣ
ͦ
͵
;
Δ
ή
ί
α
β
γ
δ
ε
η
ι
λ
μ
ν
ο
π
ς
σ
Ђ
І
А
В
Е
З
М
Р
С
Т
Ю
а
е
з
о
п
с
ҏ
ֻ
׀
؛
م
ُ
٥
ڎ
ࡉ
।
೅
೐
ᵃ
ᵉ
ᵒ
ḿ
Ẽ
ẽ
ề
‐
‑
‒
–
—
―
‖
‗
‘
’
‚
‛
“
”
„
‟
†
‡
•
…
‧
‰
′
″
‹
›
‼
⁄
⁰
⁴
ₐ
₢
€
ℓ
№
™
⅓
⅙
⅛
←
↑
→
↓
↨
∑
−
∕
∗
∙
√
∨
∫
∴
≈
≠
≤
≥
⎯
─
│
┐
└
├
┤
═
╚
█
■
□
▪
►
▼
◄
◇
◊
○
●
◙
◦
☎
☐
☒
☺
♦
✆
✓
❏
❖
➔
➢
➥
➯
⦁
⮚
⸠
、
。
「
」
『
』
〔
〕
い
お
き
ぎ
こ
ご
さ
し
で
ど
に
の
ひ
ふ
ぷ
め
ら
り
る
を
コ
ニ
ノ
ハ
フ
ブ
マ
ミ
メ
ュ
ユ
ョ
ロ
・
ー
一
丁
三
且
丘
乃
乞
乱
了
二
五
井
亡
伯
伽
元
冝
凸
加
助
励
勲
卿
厄
受
口
叩
只
叫
可
号
合
吐
含
吾
品
善
喜
器
嚇
土
堕
墜
奪
妬
始
姫
婆
孟
孤
学
富
尋
山
島
川
巨
己
帯
年
弐
弓
引
張
心
恐
戸
才
払
斌
日
旭
昌
明
晶
曲
曹
月
望
朝
母
比
法
漁
潜
潟
灘
熱
特
玖
瓦
甘
産
田
由
町
畑
畔
留
畠
白
百
目
石
窯
竺
等
篇
簿
織
翼
而
耳
肋
肥
自
航
菩
葺
蛋
蝕
血
製
言
許
証
認
誠
誤
警
議
谷
豆
豹
負
質
軸
輝
農
迦
邑
郵
酬
難
雲
需
霧
響
頭
首
驚
高
鷲
鷺
黛
鼻
ﬁ
ﬂ
﴾
！
＊
＋
，
．
／
：
；
＝
］
ｺ
ﾃ
ﾓ
𝑖
𝑛
📞
📧
🔊
😥
🚸
##M
##n
##p
##x
##V
##j
##r
##u
##t
##a
##d
##o
##s
##P
##3
##2
##6
##7
##1
##0
##5
##O
##N
##E
##T
##4
##8
##f
##l
##e
##g
##i
##I
##J
##H
##A
##R
##L
##Y
##9
##S
##G
##C
##c
##v
##º
##á
##b
##D
##Ó
##m
##ç
##ã
##þ
##ý
##B
##U
##h
##q
##F
##Ђ
##Z
##z
##Q
##X
##í
##y
##k
##Á
##¢
##Ú
##É
##é
##w
##õ
##W
##ú
##´
##K
##Ç
##Ã
##ó
##ê
##à
##Í
##Õ
##Ê
##¬
##̃
##ö
##̧
##Þ
##ô
##°
##è
##˚
##Ì
##ï
##£
##ü
##ª
##â
##²
##̂
##Â
##Æ
##ò
##⁄
##́
##ì
##¨
##ﬁ
##Ô
##À
##Ø
##±
##Ü
##ä
##æ
##ß
##š
##¥
##®
##¦
##Ò
##¼
##È
##ñ
##Ä
##ˇ
##Ù
##Ö
##ﬂ
##©
##ロ
##ı
##¸
##о
##³
##ă
##€
##¾
##¹
##β
##Ý
##Ï
##◦
##œ
##ë
##û
##Å
##½
##˙
##ƒ
##Û
##∕
##ù
##×
##Ž
##Ñ
##¯
##→
##Œ
##¤
##Î
##ʺ
##Ë
##−
##೐
##˝
##µ
##î
##Ă
##Ð
##˛
##ø
##ł
##│
##◙
##る
##└
##し
##™
##Ÿ
##ᵒ
##Š
##˜
##ž
##ā
##η
##μ
##ε
##ι
##ο
##λ
##γ
##ί
##α
##ˆ
##˘
##ȩ
##̀
##÷
##◇
##ʹ
##∴
##ユ
##ð
##م
##č
##ᵉ
##å
##ハ
##ڎ
##に
##ÿ
##⁰
##─
##■
##フ
##ḿ
##►
##͞
##Ĭ
##↓
##ー
##Ł
##̈
##█
##ć
##╚
##Ī
##̸
##ُ
##▪
##ņ
##̒
##Ю
##ǁ
##ら
##ョ
##А
##е
##ẽ
##ề
##̊
##с
##ﾓ
##͵
##ﾃ
##ご
##ₐ
##を
##さ
##Ẽ
##き
##ś
##͟
##İ
##೅
##Ė
##№
##ĭ
##●
##Ā
##ひ
##а
##ν
##☐
##ř
##С
##═
##∨
##М
##ή
##ς
##̉
##̳
##ｺ
##ֻ
##↑
##ノ
##≤
##＝
##マ
##ぷ
##い
##↨
##ͦ
##コ
##ơ
##Δ
##٥
##nt
de
##ra
##ão
##os
##es
##ri
##ent
##ad
##ci
##or
##al
co
##er
##st
do
da
##ção
qu
##ment
##nd
re
##id
##re
##as
##ro
se
##ar
que
##it
##is
##ic
##la
##on
em
##in
##en
##mento
##ação
##cu
##ado
##ti
##to
##ist
con
##el
##ma
20
in
com
no
##nte
##cia
##ade
##ess
pro
##ta
ju
não
##ed
##ndo
##te
##ncia
##ada
ex
##RA
DE
pa
##ria
##ei
##mp
##era
ar
##do
##idade
##qu
por
##eg
##vo
##ência
ao
##so
##NT
##ica
##ST
##va
##un
su
##ut
RE
##res
##ÃO
##em
##pe
cont
na
##mente
201
##são
##ente
as
ap
##ui
##il
##RI
##ela
para
##gra
##CI
di
##rib
##rio
##im
os
##sta
##ido
tra
##ito
##di
dos
##cess
ser
pre
##cur
art
rec
##ões
##us
##AD
par
##iz
##cial
##OS
##AL
so
##nda
##ia
##mo
ma
##inist
##cion
##ul
pel
##RE
##fe
##go
##ça
##ribun
##ga
ou
##ados
Tribun
##pre
##pos
res
Tribunal
##stit
##RO
##eral
##ENT
##ou
Su
##OR
##ÇÃO
##ca
##od
deci
##curso
##sa
##me
##ON
##gu
##ve
pelo
##alh
##vi
##tu
##ce
aut
des
##lic
contra
es
##balh
##bil
ca
##ções
##le
##da
##nto
##vid
ob
200
ac
##ID
jul
##ora
##rd
##he
imp
int
##ário
##ir
pela
##io
##IN
Lei
como
DA
##ais
##ER
Fed
ter
nos
pres
DO
##EN
dis
Minist
##ur
##cional
recurso
Re
##ru
##íci
decisão
AG
das
al
Federal
ad
##ista
fa
##MENT
##ver
##for
sob
##ig
##úb
##gravo
##ária
##co
##ES
##ndi
per
inter
##LA
##vel
te
##an
##bilidade
##UR
##ração
##AR
est
an
cons
##ida
IN
trabalh
##IC
ass
##gamento
##rior
for
##ros
##ns
rela
##tiva
##stitu
cas
10
au
##órd
##órdão
##pa
##VO
Con
##fic
##SO
##aliz
qua
qual
19
##entes
REC
reg
##mb
##unda
##tó
##ha
##cl
##ula
##IST
##feri
##tiv
##tra
nº
##cid
AD
##TO
##ced
pos
##tor
parte
Tur
##ol
##mos
Supre
dec
##ja
##tos
##eri
##sp
##nde
##cumento
##CIA
Turma
##min
Ju
dire
##fi
##EI
sent
##mentos
##itos
ST
##IL
Rela
##úm
ente
pod
process
##sti
11
##ico
##oi
pri
PRO
leg
sua
##ício
pr
##uição
##gado
##rios
##té
Supremo
##lica
##orte
arti
AGRA
##no
en
sub
Ministro
##az
caso
##con
##si
##vista
esta
12
##00
cu
##gos
foi
##adas
##MENTO
funda
autos
auto
##AÇÃO
##ADO
EM
comp
##tivo
##ador
##de
13
aos
##orr
##NCIA
##át
ent
##AS
termos
CO
##perior
##ADE
##PC
agravo
##stitucional
##LT
II
202
##ço
##úmula
mo
RECUR
val
DJ
##tação
##eira
##iv
##ere
##rov
##stiça
##zo
##ina
recla
raz
##posto
trans
##IS
TST
efe
segu
##ual
adm
artigo
juri
espe
##ÊNCIA
##ntes
##ni
ben
Corte
##gui
##vimento
Relator
##AN
##pon
RECURSO
##ix
cor
##DO
confor
##quer
Tra
##EL
CLT
Co
##heci
ta
aplic
##je
mes
##tes
Súmula
Superior
acórdão
segui
neg
##íd
##ém
cond
pode
##ocumento
ha
uma
##lo
##ef
AGRAVO
##IDADE
seu
desta
##se
##úblic
##IV
##ÁRI
CON
##ença
##lação
##rig
##IT
sobre
##za
##ública
servi
##ele
##ex
emb
empre
##pres
provimento
##ter
Justiça
inst
##ível
out
##rud
forma
respon
conforme
##ED
valor
##ódi
##pó
julgamento
##US
ind
##UN
##ita
Te
prev
##stituição
##sprud
02
##idos
Ag
##onal
##EG
##DA
##rado
2001
##enta
revista
##argos
##est
DJe
1º
CPC
seja
MIN
po
De
##ódigo
No
##esse
##tório
decla
##cí
Reg
24
direito
##MA
##tado
2017
sentido
um
responsa
jur
##dade
juríd
##MP
ve
prov
PRE
##ho
##ndimento
##UL
##fici
STF
jurisprud
##alização
##ários
01
deve
##cre
##ara
##ág
benef
há
##ecess
##ál
##úblico
##po
##ba
pen
##cer
fl
EX
08
##fica
extra
##ável
##SP
quando
recon
##ras
la
2015
prova
As
##et
##ERA
exa
af
Agravo
PROC
##ura
exp
##ub
##idera
##IO
agra
to
##inda
03
Ac
##na
##cri
requ
sem
##96
regi
##ju
##du
##um
##AT
##ição
##riz
entendimento
car
##ress
Rel
##ços
autent
cri
pagamento
##mon
Min
##be
Constituição
##ecu
##enci
necess
gra
ver
##nci
entre
Trabalh
##ser
tes
##nta
##ância
In
15
##isc
vo
Por
##cus
caus
julgado
nor
##AB
##eiro
##iro
def
já
##LIC
##mis
Pág
##orri
00
ped
ainda
responsabilidade
##iti
##ase
especial
##fer
Acórdão
mon
fin
199
##que
subs
##istas
##ne
21
tod
autora
##tividade
instru
benefício
##almente
sal
##dos
empres
med
05
Documento
##NTE
##curs
hi
##istência
judi
##DI
conden
Trabalho
##ber
Página
rep
##31
17
quanto
ante
##mpri
##orrente
##imento
##sibilidade
##ord
##UT
16
09
perí
##rias
quest
trabalho
reclam
##amento
ele
##ização
serviços
NO
vio
##óp
##tal
oc
##ens
tem
fisc
14
ins
fix
REG
##termin
Ex
aleg
jurisprudência
##ática
demon
demonst
##ET
maté
04
atu
##ízo
conheci
##nteiro
contrato
considera
pra
##tanto
18
ação
Ass
processo
STJ
relação
Pro
dema
##icar
##vida
ord
##ciais
##inistração
##SS
obje
bem
parti
determin
##ram
##RT
Ad
##esso
##irm
##CIAL
PA
sendo
##mental
razão
qualquer
Não
##inário
##íl
aplicação
##pótes
Inteiro
Teor
##len
Recurso
##cul
apres
2019
##ite
Regi
##ÁRIO
##66
lei
constitucional
vez
mais
cer
vig
temp
orig
##67
condi
##cussão
obser
##ades
lim
mesmo
INT
n°
##ít
##ando
##RIA
matéria
Pre
##tada
hipótes
inci
##bele
corre
mé
##encial
dispos
##ré
presente
##cidade
##cíp
instrumento
##VI
embargos
ab
subsid
poss
##anto
##UI
##ncíp
sentença
Adm
MINIST
próp
exer
AgR
##SÃO
Na
##ERAL
##BLIC
##equ
exig
DI
execu
obri
##mante
Est
##entado
##ran
pesso
dest
consta
concl
SP
##enas
recorri
inde
25
recurs
cumpri
##ONAL
896
dig
às
Em
atividade
julg
diver
nas
##ILIDADE
##mbém
pedido
princíp
##RAN
##ice
##vada
06
pois
público
##orre
trabalhistas
inf
##ensão
declaração
##li
##cla
DF
##cont
##ferida
inca
##VA
comprov
##uiz
respe
Código
mora
causa
MP
2014
empresa
##ise
tese
##vante
##mun
##esta
assim
Es
##cesso
##idas
apenas
SU
questão
2018
##tar
##mentação
##odo
data
##mas
requis
2020
legal
Assim
RELA
LEI
obriga
##oc
concess
93
AC
##01
##TE
##constitucional
natu
##usi
##álise
express
##nus
cul
##itu
Administração
##ícios
fe
##inistra
at
Pública
##rito
dev
III
##rar
também
análise
of
##ÇA
##ndência
documento
VI
##imp
##lu
peri
incl
exame
período
inte
subsidi
legis
28
são
voto
2016
fato
##ADA
fls
jus
ônus
##ncias
##ug
##por
##ín
##ivil
mas
pas
estabele
##reza
Nº
incapa
concessão
fundamentos
##60
##tific
incid
QU
##tivos
jurídica
Ma
autor
aus
extraord
digit
##eração
##ISTA
##rim
Se
reclamante
##inado
men
##cedentes
Pres
geral
##VID
##JT
está
dia
empreg
##ULA
##eio
judicial
ART
cap
violação
##udo
regimental
##xa
base
##cip
sen
EXT
##RU
##ime
natureza
até
##ular
JU
##õe
prazo
fora
norma
terc
veri
##ÚBLIC
##CIONAL
NA
ini
2º
reconheci
partir
##ercussão
##MIN
##tados
sa
monet
##videnci
juros
recorrente
##anc
razões
end
fal
##tou
##ulo
##val
Ar
##ferido
administra
##esti
AP
##EC
RELAT
Sr
correção
NÃO
fim
INTER
tendo
REV
Regional
##cendência
DEJT
##creto
PROCES
ado
EST
##rada
endere
origem
##vent
dever
un
2021
##via
##ér
##pet
22
apos
Nesse
MA
monetária
ag
##enção
##QU
hipótese
##EIRA
tal
endereço
##RES
fiscalização
Di
##leg
transcendência
este
realiz
##ulta
ED
##ensa
anos
modo
TUR
trata
##imidade
afa
##ôm
##MO
##SI
obrigações
ausência
##itivo
apre
Seg
lhe
COR
##REI
proced
econ
##enh
IMP
##TA
ARE
##iste
##iante
TURMA
PÚBLIC
assinado
pena
br
TR
##STIT
##tória
##veis
acess
subsidiária
##ublic
##uta
##duz
##enha
inad
conf
27
##edade
hon
apresent
fun
##CO
##ores
##tt
inciso
##rial
AL
SO
faz
##25
##til
sup
código
conhe
condenação
índ
##ridade
tempo
##ttp
http
##ós
30
##ORA
##uais
cumprimento
##emb
##ww
5º
##postos
www
##ch
Presid
prestação
st
MINISTRO
SE
##dicional
existência
000
senha
##cao
ré
asp
portal
467
##bora
stf
portanto
aposentado
acessado
mani
autentica
autenticacao
vin
##Documento
autenticar
seus
autenticarDocumento
princípio
##orários
culpa
ESP
REVISTA
EXTRA
processual
situ
digitalmente
impos
todos
aqu
EMB
##culo
Espe
integra
##ARG
manif
##nico
##alidade
##elo
ora
07
Ministros
##esa
Estado
prim
agravada
71
REGI
ref
anterior
impug
previst
##tora
##forma
tercei
porque
##ribuição
expressa
hou
extraordinário
reclamada
##itação
Rep
##ERI
29
##rg
vista
conte
##RD
CONT
observ
##pós
##imo
den
ADVO
##tas
##STO
rev
seguintes
interposto
provido
rece
Plen
acor
foram
encont
##uir
aposentadoria
##form
##NO
compet
exposto
Processo
Civil
li
nega
Da
##usão
CA
repercussão
gara
execução
form
meio
##HO
##icas
COM
trabalhador
SEG
AI
pelos
##essal
reconhe
95
proba
argu
incapacidade
honorários
press
efeito
##das
##cionais
admis
mant
disp
somente
ato
IV
DOS
4º
Com
##figu
##UAL
##RIO
##ENTE
##crição
pressu
deste
util
tr
##cel
91
666
##ign
empregado
##vol
##réd
##ações
após
##missão
##essa
fundamento
desde
acer
##nos
##URA
##ICA
is
##tamente
Bras
anal
tema
##ge
seguimento
31
sido
RELATOR
face
objeto
##RIB
event
##SC
##ide
##oder
econôm
desp
##posição
##HE
37
red
arts
##ília
regime
##RAT
pol
##exo
créd
interpre
quais
conhecido
requisitos
social
juízo
##ÁRIA
##om
RO
advo
Público
##inar
ESPE
26
mérito
impugn
remun
##uí
Poder
poder
ADVOG
del
##24
##estion
condições
##rização
MAR
INST
##icos
inicial
##tri
ADI
disposto
##tensão
##rou
defin
Os
le
##nder
demanda
##21
##árias
33
interno
##essão
Prim
##rovér
preju
ESPECIAL
##osa
##rança
serviço
FED
agravante
exerc
##riedade
regra
id
indi
docu
##man
##car
##usive
segurado
##tin
##sia
##mpre
indic
##MULA
##IA
seguinte
recursal
Qu
##88
PRI
##ceu
controvér
##jo
tenha
outro
##DE
hora
##nse
garant
unan
segundo
Primeira
inden
##tura
unanimidade
PE
##94
inclusive
##tivas
EMBARG
2013
##ficiente
incidência
23
medida
legislação
regist
##ento
##xto
##uz
FEDERAL
controvérsia
##UNDA
inconstitucional
ESTADO
##isão
fatos
##mou
caput
##INÁRIO
POR
##menta
##quanto
CF
##tórios
##03
mate
possível
##ero
Ministra
##ERC
tom
AGR
ordem
exercício
##vendo
legais
SÚ
alte
excl
SÚMULA
##91
conhecimento
valores
##PO
regional
##olh
##end
Especial
multa
admissibilidade
configu
Art
discu
QUE
conta
INSTRU
##tro
##STITU
##RR
##cimento
só
inadimp
decidi
amp
##cho
public
Trata
##END
HC
##GT
decis
##84
##IVA
##IG
##EX
Int
ati
ir
##IZ
INSS
lo
doença
##les
op
recorrido
##gência
##ABILIDADE
##ULO
provas
##tivamente
##itar
##AMENTO
equ
##GTS
So
ADV
verb
RR
##54
##rac
FGTS
aux
Pa
##vidades
outros
parcial
##entação
juris
decorr
acerca
##22
dist
##iu
apreci
firm
##81
##ADOS
defesa
##STI
##ílio
CIV
certific
man
##ENH
efeitos
houve
índice
##riamente
jurídico
##ês
competência
relatório
proferida
##EF
##lid
CIVIL
atividades
ate
##gula
2011
##ULG
partes
encontra
situação
previdenci
si
cir
imped
##RAÇÃO
##mentar
ób
##orn
##ios
dispositivo
##ficiência
recorrida
##ndente
SA
##inha
##fo
Mar
INSTRUMENTO
pública
suas
##lemento
##BILIDADE
##cedente
##ORD
##tem
##57
cust
##04
horas
Al
República
Geral
##eti
Segunda
##ivos
dano
ADC
##mais
2012
apo
cabe
constitu
redação
##ME
##ático
acordo
GERAL
Cons
AUS
artigos
dias
via
Agra
##posta
Car
repres
TRIB
ofensa
cole
##rgão
##IVO
##HECI
##tual
seria
Precedentes
TRA
prevista
empregados
inex
crité
embar
devida
##este
EXTRAORD
justi
cl
tre
certificado
cada
AUSÊNCIA
AN
deix
##sas
##SID
PÚBLICO
##dição
refer
labora
##áter
RS
interpretação
respeito
essa
##ante
OUT
requer
##ICO
##cido
Uni
pré
conso
caráter
fundamentação
mín
##cumb
circu
ACÓ
##RDÃO
ACÓRDÃO
DEC
mediante
auxílio
reconhecimento
infra
##nst
normas
##MENTAL
pretensão
conduta
40
vi
Site
Ca
eventual
casos
##âncias
recursos
financ
##emp
##ágra
##ória
##27
##BAL
3º
##bit
AO
referido
58
afast
esse
Emb
SENH
##vor
##tic
EXTRAORDINÁRIO
resta
gratu
servid
##ribui
##BER
##51
probatório
Relatora
##ocr
requeri
##AND
##question
DECI
PO
##fico
##tidos
##NI
esp
Vo
##gem
##biliz
34
##ítulo
TRABAL
##erece
REP
inc
ela
##lante
paci
##ís
especí
SER
Recla
##PRE
previsto
Cont
PR
331
##EM
dé
direitos
carac
necessidade
##irmou
conced
REGIMENTAL
própria
##cado
PROCESS
adequ
Data
cab
possibilidade
será
REsp
##mar
ressal
nova
RESP
demais
2022
Le
va
omissão
rea
pessoa
##EIRO
##ências
fam
##ério
##stru
concreto
cin
##VIMENTO
##LI
Dis
prequestion
fase
##sos
##ONS
##SIBILIDADE
contr
além
##ELO
utiliz
negou
EMBARGOS
mesma
Presidente
##cima
##REITO
aj
##ças
AIRR
sust
apelo
IPC
DIREITO
âmb
anexo
2009
comple
47
##indo
##iva
##stitui
jurisprudencial
inconstitucionalidade
advoca
âmbito
PAR
##MINIST
##35
Fu
Dire
ADMINIST
prestado
condição
##tícios
atra
MG
##enal
prete
consign
97
COMP
deneg
##64
salário
laudo
acima
próprio
aplica
##cep
##UIZ
circunst
im
##rem
teor
analis
prof
impro
##VIDO
isso
##unci
órgão
monocr
função
##STITUCIONAL
material
JULG
comprovação
Luiz
##05
1o
##erais
depós
item
##berto
##exa
##tante
##itivos
##ira
##irma
danos
pelas
##87
##úde
TRAN
advocatícios
##istos
nem
capa
pressupostos
polít
##II
regula
NEG
verifica
PROCESSUAL
##nica
difer
##02
feito
##dução
cál
administrativo
respec
Judi
parágra
SENHOR
##gia
##89
Voto
##etição
obrig
IPCA
atualização
39
diante
cla
54
dez
conv
##beas
segurança
##pus
SUB
Sub
início
pla
##ili
prote
##CA
ba
7º
##ral
ori
##fa
##61
XX
RJ
documentos
Vistos
015
##rovido
fundament
déb
contro
##íp
##ÍCI
fins
##83
necessário
##isa
##met
taxa
##RITO
TRIBUN
expressamente
Brasília
maio
##GÊNCIA
FA
Para
título
Decreto
caracte
##pec
dada
mencion
Ministério
diz
PROCESSO
divergência
AGRAV
OUTRO
sus
CAR
##umid
nesta
Juiz
contexto
decisões
vigência
213
##cie
SIL
##07
##ficar
TRIBUNAL
todas
ense
TE
##ud
Judici
##culos
##nça
##olu
##sais
##riza
elementos
DECISÃO
justiça
trabalhista
PAULO
##vidas
ali
devido
cento
##dor
Ade
##CH
Inter
conclusão
Tema
##vos
##issi
##istema
##vado
sede
indenização
remuneração
ES
##ila
mínimo
ved
##ROS
méd
PROVIMENTO
único
Ademais
##dio
havendo
760
tais
Revista
RESPONS
espé
87
##ornada
bene
suficiente
merece
amb
parcel
mil
ocorr
41
negar
inadimplemento
##cent
##íveis
perm
monocrática
##cidos
estes
##idades
receb
resci
RECLA
mu
fiscaliz
##uma
gri
##éc
Jul
prescrição
falar
susp
##ENÇA
relatados
##vidência
##terior
##cio
obrigação
55
direta
Ante
refle
85
35
Des
##82
devem
parcelas
RESPONSABILIDADE
ple
##men
óbice
##ÕES
ocorre
##Int
MORA
prisão
INTERNO
Pleno
AgInt
##ficação
##icamente
impor
fu
##dit
consequ
mar
me
81
##utel
MAT
momento
compro
##MENTA
##port
AgRg
83
restri
##gação
econômica
##99
ponto
reexa
ileg
asseg
##85
Juízo
simp
empregador
corpus
públic
##unic
crédito
antes
##tima
considerando
ano
prequestionamento
##CID
PEN
##áveis
adicional
passo
reforma
penal
jurisdicional
SANT
Res
promo
efetiva
##ulas
74
quant
PARA
##umidor
afasta
HAB
##IZAÇÃO
loc
União
##63
era
AU
##RIG
##IDO
fático
benefici
aco
59
##IM
indepe
##OSSIBILIDADE
dois
PRIM
AT
infraconstitucional
##culante
##portun
conju
##omia
JUSTI
##DEN
Ta
SILVA
saúde
financeira
uni
cinco
dispositivos
pes
CONC
contribuição
fed
##ÓRIO
Senh
ADVOGADO
habeas
##ficada
##embro
entende
Nacional
trecho
decorrentes
mod
SB
nul
##23
discutidos
##líci
021
trâ
##utenção
limit
fé
Portanto
##ICI
##uído
EMENTA
simples
90
##STA
parágrafo
porquanto
##73
CONHECI
2010
##ndado
lit
Instru
Ro
manifes
##CON
traz
favor
cargo
##adora
Penal
##ulação
mera
plen
CORP
crimin
nenh
AGRAVADO
decidiu
##65
1ª
##respo
vincul
requisito
meses
##tadas
JUSTIÇA
2008
outras
igu
##EAS
manutenção
todo
cálculo
##UIÇÃO
Suprema
terceirização
São
AÇÃO
PRIMEIRA
94
téc
nego
44
correspo
##LIO
BEN
constitucionais
alegação
má
##tr
##inária
sejam
dispõe
examin
reexame
##ices
revela
67
cob
MO
contrariedade
##ár
espécie
oportun
fica
demonstrar
integral
931
CORPUS
##ança
HABEAS
sessão
tor
daqu
Sa
primeira
##29
CE
##usiva
apont
##ior
2ª
irre
vigila
determinar
##itiva
##vio
Plenário
##son
##áus
preen
Bar
novo
princípios
prestadora
##versão
atos
##nsito
inval
vigilando
superior
##SA
exist
EL
Diante
conclui
referida
posterior
deferi
admit
SBDI
garantia
##anco
1993
argumentos
reais
TO
##VANTE
crime
hipóteses
processamento
contratos
##izada
##tida
##ás
##sível
du
declara
Comp
##ural
primeiro
##cursais
benefícios
gratuita
##idez
disso
##ulado
##IDA
AGRAVANTE
tomador
##inu
##97
questões
réu
moral
decid
pou
inv
Cu
##ELA
45
nulidade
desse
FUNDA
possui
DECLA
LT
SENT
099
##clare
Embargos
##utelar
TRANSC
manifesta
##enças
acres
43
trib
##REIRA
##sto
cuja
51
Ao
evid
haja
VO
acolh
profissi
PED
tanto
pericial
depe
##unicíp
##toria
san
total
teria
Per
Como
trânsito
cláus
realizada
CONTRA
##lução
##asi
sim
SÃO
Paulo
##bilização
##urante
TRABALHO
julgo
contrário
Direito
nome
ess
outra
Quanto
84
##erar
ocasi
DAS
##ZA
processuais
empresas
##óg
##nio
##nea
##cela
##oa
interesse
er
prática
AUT
##RAS
jornada
mês
informa
##can
TRT
independente
##UÇÃO
Reclam
sala
##BERTO
haver
critérios
Fux
##20
neste
grif
##cipl
##LO
verbas
enc
PÚBLICA
##qui
política
deba
julgar
##ki
DEF
créditos
LUIZ
depósitos
liminar
##am
sistema
##iliar
decorre
ADVOGADOS
grau
contribui
mens
##68
##CED
##sí
venci
##ório
##erv
regular
aplicável
demonstração
##lici
##eles
##tis
relator
Sessão
representa
Par
##cionamento
carência
##adores
##ÇÕES
encargos
pros
SOB
reconhecida
Regist
reje
julgada
descon
60
teste
246
##vidos
Judiciário
constitucionalidade
FER
SENTENÇA
precedentes
##endo
##quad
##cida
final
paciente
ti
61
##viável
custas
individ
##rados
servidores
durante
##cup
##és
##entemente
vir
pessoas
CP
##itada
desprovido
##gas
afro
perman
devidamente
vis
##enho
##gress
##forme
##taria
PELO
fís
##lim
##PA
Imp
##cos
resul
toda
testemun
##tid
prop
recursais
dessa
##ará
embora
prejuízo
SC
discipl
##utos
Au
##vido
73
##olução
conjunto
luz
judiciais
reit
##ÁT
cur
ra
##ale
##tude
instância
Exmo
##ubsta
VIGÊNCIA
Julgamento
88
##midade
proferi
Recurs
observância
ordinário
##ze
BAR
consubsta
débitos
continu
To
impe
##lio
Mend
##gist
##su
RECLAM
dent
Roberto
PROCURA
força
LTDA
##mpan
RECOR
##oli
AREsp
##ute
mos
JUR
verdade
obsta
Dias
##isco
##itado
PELA
##êm
Gil
previstos
##voc
Seção
cautelar
UNI
##ÉRIO
susci
##tível
2006
SEGUNDA
úl
esclare
circunstâncias
contas
##irmar
Brasil
contratado
SUBSID
devendo
##MAR
##SON
refere
min
rural
001
##úcia
deficiência
evidenci
processos
##IÁRIA
Fa
cid
envol
##zes
vín
##unção
local
##ÔN
ADMINISTRAT
##ulada
bus
Nos
enquad
##UM
##istem
const
MÉ
##DOR
firmou
previsão
or
observa
fazer
Agravante
juiz
petição
invalidez
cele
algu
Social
##reta
forne
ASS
sucumb
##ff
##encia
firmado
SUBSIDIÁRIA
##GO
##VEL
##ncip
##69
contratada
ANT
##adual
objetiva
qualidade
##NA
Marco
##ENDÊNCIA
53
renda
##ARDO
preench
##egui
ino
##úmero
ações
quad
##VAL
##ogo
##tificação
deverá
terceiriz
reclamação
modi
particip
responsabilização
deu
princip
les
presentes
limites
VOTO
##edia
AGDO
atual
64
alteração
APLIC
##LE
##bitual
##cidas
LU
##gada
índices
idade
reclamado
##RIZ
ocorrência
Extra
interposição
##ing
habitual
##utela
afronta
produz
institu
contratual
2003
especi
##NTO
##ibilidade
LEG
realização
civil
Sem
maioria
PU
assist
77
restou
insu
quo
##OSA
##itados
##VIÇ
posi
##gante
necessária
##unciado
SERVIÇ
descu
##ib
mantida
controle
##entar
prece
##enda
procedimento
PROCED
ina
Esta
imedia
administração
fixada
PER
98
sustenta
##ves
Mendes
##has
Lúcia
passa
nov
pron
CONF
públicos
recolh
##ENCI
liber
##inal
concre
DES
##irmado
Constitucional
MARCO
##isto
efetu
##elh
Gilmar
##ffoli
parcialmente
##mes
##riais
impõe
sof
TRANSCENDÊNCIA
ident
adi
viol
##90
Gra
inviável
57
então
dar
##oração
TERC
verbis
compre
Toffoli
##zamento
##aneiro
ilíci
Rosa
exemp
##paração
126
1991
##iado
risco
##cisão
Public
contratante
poup
desa
exclusiva
AGTE
##siva
falta
vinculante
Presidência
fra
##alizado
Rec
50
afastar
##POSTO
JOS
##62
##ena
contratação
Cár
inco
Cármen
mostra
##utor
ata
Ação
##tações
PROCURADOR
##liminar
lado
conhecer
##ficientes
parcela
2007
Ter
##ferir
OB
CONHECIMENTO
##ENTES
GO
##ZO
coisa
constitui
ID
certo
##ramento
poupança
reconhecer
rele
impetra
IMPRO
##ixa
Aleg
EXEC
Instrumento
RG
extras
assegura
pág
VAL
PREVID
RA
SAL
requerimento
suje
profissional
Conforme
indevida
consoante
FUNDAMENT
##cendo
##vam
motivo
We
discussão
##MIS
apreciação
propor
banc
emprego
##crito
##ÍCIO
fixação
comprovar
Interno
apresenta
Weber
específica
descumpri
##IMENTO
##QUE
pertin
maior
requerente
mensal
ACOR
Decla
fic
##93
Dessa
aspec
##DIC
##iente
independentemente
decidido
adequada
quin
pe
regras
curso
alegações
administrativa
junt
Ressal
remunera
XXX
##gar
respo
##cidente
##MENTE
##seção
PENAL
opera
SEGU
##tuais
conformidade
CRI
ORD
sí
Indi
RIO
##ndida
6º
orientação
nesse
Subseção
el
##issão
##élio
abso
##dios
##av
##ÍP
##úncia
PUBLIC
38
poderia
##NU
Maria
##HA
agente
vínculo
Além
Barros
trabalhadores
proteção
Requer
assina
IMPOSSIBILIDADE
##tidão
ho
##entos
alí
MINISTÉRIO
##ISTÊNCIA
##ques
177
parâ
Especializada
negativa
morais
ementa
##28
Municíp
An
súmula
proferido
exige
interess
ADMINISTRATIVO
DIV
autom
configura
CONSTITUCIONAL
2o
DECLARAÇÃO
perícia
decorrente
exigência
##VES
ajui
podem
Secre
plano
##IÇÃO
Aur
ajuiz
##IX
##41
implica
prevent
Srs
toca
##ROV
alega
Aurélio
Recursal
##vali
Faz
##isória
tratar
familiar
equi
ampla
##orrido
ajuizamento
##taram
havia
acompan
##tando
##55
DIS
liberdade
menos
##ficado
família
##los
Região
Segu
##põe
registro
ARTIG
visto
previstas
Ed
##entou
##POS
MÉRITO
econômico
##cura
##FF
preci
sempre
##pens
distribuição
acus
excep
##ndido
mante
##ndica
Excel
##bor
pratic
ocasião
tribut
atrib
partic
##ácia
##itou
Ale
autoriz
##iza
Ricar
JURI
seguro
sistem
##ticamente
##ntos
assinatura
lici
Ricardo
279
##enciais
soci
concluiu
IX
##eiros
ii
anteriormente
Decisão
compens
##dic
63
##IR
Individ
##ima
igual
Publicação
revisão
##ndre
MATÉ
Is
alcan
MON
inform
pers
poderá
três
1988
cujo
critério
##ouco
precedente
TNU
MEND
##ÍD
desemp
##USSÃO
CU
esco
julgou
##erante
tutela
##FIC
Alexa
perito
##mane
relatoria
gen
##mpouco
##IDE
quem
conson
subje
Alexandre
fundamentada
##úmulas
##26
Desta
LE
##95
utilização
##ÓRIA
##DAM
federal
CÁ
consumidor
improcedente
rescis
informações
PL
sig
MS
INTERPOSTO
publicação
##ficácia
INCID
##dig
##uni
incor
indicação
##eram
gru
ven
AR
##ANDO
##itura
##asse
consonância
##FE
##ua
##ÉLIO
##dam
entanto
LO
##TORA
julgados
##sivo
permane
ocorreu
SUPRE
Fazenda
DESP
invia
Relatório
##ITOS
ACORDAM
ROBERTO
##just
FUN
##ÂNCIA
MARIA
clara
efetivo
Sal
NOS
##itimidade
intim
##ítima
Senhor
Desse
##rido
acesso
##STITUIÇÃO
##ias
##LAÇÃO
Aus
decre
tão
##AIS
paga
autoridade
pretende
autoriza
##peito
BAN
##ínse
desen
extin
##nciamento
mer
contratuais
deved
Ben
uso
##80
##44
##éri
go
##COR
plena
##ESS
Ap
tocante
##ITO
preventiva
épo
##CONSTITUCIONAL
##11
##stenta
quadro
##bser
cre
torna
exce
3ª
##ferência
div
Isso
UNIÃO
Federais
segunda
deixou
alegada
AUR
3o
Conso
65
##rit
LI
interval
magist
constante
AURÉLIO
enquanto
ARTIGO
manifestação
suspensão
##lh
serão
Barroso
PREVIDENCI
DIAS
servidor
automática
##RIÇÃO
##igu
##tido
##MAN
arbit
consolid
busca
jurídicas
##92
eficácia
SANTOS
mero
##dades
Dissí
despa
Rcl
EN
presunção
pessoal
OL
contribuições
cobrança
INTE
agentes
época
coletiva
1997
inexistência
##vou
muito
estabelece
referi
##fere
dep
Jos
##voca
2002
EXECUÇÃO
Ser
citação
cal
##mentado
fos
ares
março
##rang
caracteriz
objetivo
tampouco
especialmente
exemplo
estão
perante
259
dá
##rá
legisla
##ÁRIOS
defe
##embar
posicionamento
diferenças
situações
procedente
##odos
resulta
audi
Logo
vida
relativa
##itando
##gio
conheço
PROVA
basta
impossibilidade
##rin
exposição
fiscalizar
CORRE
2005
Dissídios
medidas
incomp
percent
##esar
sistemática
Juri
##gan
satis
JULGAMENTO
BA
##ÍPIO
REPERC
##enso
emp
fixou
lon
Individuais
##volvimento
SUP
laboral
##reira
INF
##ws
argumento
despacho
##KI
##posa
REPERCUSSÃO
##ntese
##eios
previdenciário
ensej
insur
Do
##onomia
ENT
##tamento
##JU
preliminar
Nor
##BA
entender
próprios
##pelação
42
demonstra
instâncias
ch
BRAS
enf
alud
decidir
redução
impugnação
solid
avali
relacion
perce
102
inadmis
descumprimento
síntese
BENEF
cláusula
fixados
Lew
labor
linha
##ído
médico
RECON
indireta
##wski
##ello
##ici
julgador
publicado
MATÉRIA
investi
##trô
Lewando
particular
considerado
pare
transcrição
cate
POSTO
Repercussão
defes
concurso
PREV
serem
previdenciária
paradig
##uto
Lewandowski
motiv
gera
##98
Fer
##STOS
##CL
MENDES
afirma
teve
##idação
aqui
Ent
judici
BRASIL
compa
##CE
tribun
Súmulas
grupo
submet
##gador
##ERAÇÃO
resid
indis
embargado
comprovada
NACIONAL
##ndas
atende
Def
##corre
passou
##pro
legalidade
Banco
alter
##ERIOR
Desembar
CR
sete
indeferi
##roga
Mello
##DRIG
##PS
mul
inadimpl
podendo
RIC
GIL
100
##elas
EC
MUN
lide
JUDI
333
legisl
dí
##ciação
##DC
DIST
concluir
##vés
##stituir
sociais
máx
reflex
digital
2004
nenhum
constantes
OLIV
audiência
Previdência
descont
premis
vigor
##ass
##inárias
demandante
##INA
solução
maneira
Município
##ilho
embargante
PRESID
ISTO
contudo
##71
respons
ofício
sociedade
En
##lacion
RELATÓRIO
CN
INDEN
JO
contradit
TRABALH
80
##uri
OLIVEIRA
leva
Incid
identi
##culosidade
##urado
##imentos
férias
70
através
incorp
##menda
FU
tri
instrução
justa
OU
retro
##imos
salários
atribui
meios
##LOS
referente
INO
vinte
Jurisprud
pedidos
INEX
Rio
exclusivamente
enseja
omis
##ine
virtude
Af
Terc
instituição
consignado
intervalo
tratamento
EDcl
onde
Edson
mol
##RANÇA
mandado
##formização
física
SERVIÇOS
razo
catego
consequência
compensação
reconheceu
##sibil
eletrô
##gré
DESPRO
62
##34
##ÍN
defeso
permanente
##rést
subsidia
estar
circunstância
##uração
SEL
PREST
melh
fixado
##RIZAÇÃO
Med
cum
obstante
Firmado
REQU
erro
Mas
Ha
efetivamente
##bre
##ivo
##iência
##metros
Secret
ADMINISTRAÇÃO
dezembro
RECONHECI
BARROS
ELET
##estar
entendo
deveria
Cel
conversão
##raz
inviabiliz
salarial
Jo
RICARDO
##ídos
incisos
##ino
finalidade
Especiais
ALEX
transcre
RECORRI
casu
##201
PRESIDENTE
##lagra
##ndem
imput
acordam
justifica
exped
AB
reitera
altera
vanta
José
revo
permit
##ôs
claro
encar
infe
absolu
ext
formal
adotado
PREVIDENCIÁRIO
EMPRE
791
FUX
restabele
ev
imó
##tam
nada
Juizados
comum
corrig
dom
parâmetros
dú
pat
1973
##uso
aplicar
vê
acidente
CC
periculosidade
CEL
##itas
diversas
capacidade
Execu
##ADOR
substitu
##necess
##curador
emprést
##igência
veic
##NTA
depo
viola
recebimento
firmada
SELIC
##alub
principal
##ícia
INCIDÊNCIA
culposa
##INS
##des
impugnado
##crita
beneficiário
aprov
##74
participação
CORTE
##ORMA
conhece
entendeu
percentual
##ições
##chin
assistência
tomadora
gratuidade
substituição
Reclamante
recup
vál
Contra
##ônio
CT
analisar
apresentação
pecu
ficou
aplicada
verba
gratificação
indica
Leis
Fachin
proposta
Considera
feita
##ERT
##orária
Ré
##rasil
##aram
supra
##vância
APLICAÇÃO
Col
votaram
##FA
consid
razoável
aba
##ínsecos
##ída
consegui
TEMA
Red
brasil
##sidera
Celso
##nidade
decorrência
atualizado
pensão
##atória
quali
insalub
suficientes
recolhimento
estava
últi
entidade
impede
##GU
##ficial
debate
##ÉR
JURÍD
capit
contradição
sequer
##ULT
considerar
##mbro
pressuposto
impres
Taxa
##IP
##razões
pleite
Petição
contraditório
subsidiariamente
nenhuma
ALEXAND
edição
##guar
propós
possa
##mpo
Po
denegou
enfr
99
apro
organ
celeb
asso
votos
##MB
##ende
##bilitação
##uar
Mora
apresentou
produção
OF
despro
GILMAR
presença
##CIO
##ÍT
antecip
tratando
cabível
##sim
compor
depoi
CONS
cog
##POSTOS
78
PET
##unicip
individual
prevale
CARLOS
incidi
mercado
termo
PRECED
obst
reflexos
delito
##gados
realizado
CONTRATO
##elho
consubstancia
question
Autor
vem
##AME
##possu
incapaci
ALEXANDRE
longo
adqui
Ente
##SAL
##REN
PRESS
##33
TER
Requ
devedor
##ANA
teses
propósito
validade
##erou
seguir
##ridades
##USA
##ader
EF
PRESSU
##MEN
resultado
denúncia
Tal
adoção
hipossu
mencionado
022
Registro
dizer
disciplina
abri
houver
quatro
ilegalidade
##dia
deferimento
impugnada
ul
apreciar
exercer
contida
CORREÇÃO
##oda
automa
transferência
determinação
advogado
especiais
VIO
técnica
##RENTE
incon
LA
estadual
lesão
Mag
liv
JOSÉ
##eno
duas
ampa
##OLI
vigente
texto
prévia
##IB
vol
subme
##cepção
SUPREMO
494
legislador
constata
dentro
têm
75
automaticamente
diretamente
bás
##DADE
flagra
##rut
especifica
##USÃO
PLEN
proporcional
janeiro
jun
LÚ
excepcional
empregadora
cheg
atuação
alínea
Sustenta
ant
ALEG
##tio
real
TOFF
prejudic
Recorrente
fundo
##ETÁRIA
TOFFOLI
limite
2000
##RÔN
demonstrada
##CIS
TERCEI
destacar
##sões
ELETRÔN
aspecto
Regimento
inferior
imposição
comer
pleito
sol
MAN
monta
INEXISTÊNCIA
equiv
ATA
PRESTAÇÃO
esti
RODRIG
pessoais
MONETÁRIA
##14
fo
##ARI
deduz
limitação
prevê
demonstrado
##ares
categoria
Terceira
##ENTADO
Extraord
Cl
RECLAMAÇÃO
LÚCIA
aca
##minado
Ainda
aquele
salvo
grav
##vantes
##ETÊNCIA
EMP
Trans
invoc
cader
inseri
deno
determinou
utilizado
Nessa
##ndidos
porém
declarou
##ógica
diversa
ELETRÔNICO
DEN
##inh
assistencial
##nia
##ECESS
Consumidor
assum
determina
##ndicato
edit
emin
coleg
bens
##GIDE
declaratórios
observado
estabelecido
verificar
ÉGIDE
Carta
##plo
##VAS
Neg
##tiz
ajuizada
crimes
##zos
institui
ilícito
##esas
mesmos
fática
##vocado
##tenção
consignou
Sil
SEM
períodos
cumpre
##FERI
retroa
retor
economia
incide
transp
prosp
resolução
##eia
pagar
Dr
depósito
cess
correspondente
##ÁTICA
Leg
APOS
Portaria
preca
##anh
estri
La
48
legitimidade
ambos
recuperação
homo
extraordinária
compe
##37
fosse
##istente
SUPERIOR
##ori
##dicial
INTERES
Ped
1995
##NUS
CÁR
encargo
flagrante
judiciária
conteú
sucess
estando
Ori
PEDIDO
recebe
melhor
##ferencial
##LAN
junho
Carlos
HORA
Contudo
disti
CÁRMEN
##30
932
ÔNUS
4ª
signi
jurisdição
##curado
desnecess
postu
apresentada
expe
responsável
Ol
DESC
##rei
##iso
##RADO
dispensa
##triz
Ba
##ENSA
subsidiário
##cedência
diversos
32
##ATIVA
estado
genéri
tempes
contrar
SUL
vítima
##uro
considerada
adimp
desfa
##ORM
àqu
funções
ANTE
##RÊNCIA
despesas
devidos
##IVIDADE
##ressão
desres
1990
contrarrazões
RES
rel
##OM
confro
##cind
manifestamente
prévio
manter
##MS
maj
##stro
conver
órgãos
provisória
inadmissível
transfere
Ementa
Nas
ANTON
vício
Após
desfavor
BARROSO
prescri
##lementar
desca
orden
##ân
AUTOS
liqu
##estão
grifos
conteúdo
Dist
contrária
magistrado
apresentado
contemp
temas
observar
Sou
Vir
##CAL
determinado
PRESSUPOSTOS
minha
entes
Bra
960
PP
opostos
interesses
débito
VIOLAÇÃO
conseguinte
RECORRIDO
fator
Toda
capaz
adotada
noci
APOSENTADO
Moraes
revel
##rogas
##GN
CONTRAT
banco
quantidade
##UZA
específico
RH
Resolução
acu
##rover
##RETA
Excelência
##cente
pronu
referentes
Sex
col
##ASE
respectivo
impetrante
aquela
Souza
NEGO
Extraordinário
##tórias
imóvel
##roduz
número
##CORRÊNCIA
Desembargador
MULT
representação
C54
veí
##erabilidade
Virtual
##PF
literal
6ª
OS
ROSA
##RIOS
Reclamada
dados
FERN
##áticas
Consta
Sexta
##izar
##logia
reparação
##ITA
precisa
médica
HORAS
##vados
##iveira
DESPROVIDO
tinha
BANCO
esteja
nessa
##gens
configuração
##mando
##ARA
Referencial
INDENIZAÇÃO
##RIAS
##onais
pací
Oliveira
vedado
1998
doc
técnico
evidente
ocorrido
daquele
preserv
avaliação
eletrônico
sucumbência
comprovado
##cem
rem
cote
PLENÁRIO
tela
devidas
##NOS
##ÍCIOS
##rando
TRF
limita
##osta
incont
ANTONIO
343
##ENSÃO
8ª
ed
eles
evidencia
quar
For
##vera
manteve
FIL
Todavia
Orientação
APOSENTADORIA
dispon
SOUZA
laborativa
produ
reflexa
##86
indicar
CERT
8º
5ª
terceiros
SEGURANÇA
Número
post
garantir
REGIONAL
ates
##IGURA
ultra
##cada
propriedade
REQUIS
Autora
##her
PROVIDO
Ce
cabimento
necessários
##SCRIÇÃO
obs
##firo
extinção
poli
MARC
conclus
##IDÃO
36
áre
Ord
Norma
HON
junto
ressaltar
FERREIRA
Defesa
##ental
PRECEDENTES
sum
ilegal
##rup
##ESSO
TA
##77
tur
esses
##eição
montante
##stitucionais
vislu
##cais
PARTE
FUNDAMENTAÇÃO
##umo
paradigma
##32
definitiva
RHC
##EIT
oportunidade
##eros
##ÍVEL
##erva
consa
original
tit
7ª
anex
afastamento
CONFIGURA
##RESENT
##paro
concer
101
equival
expressão
eu
CONSTITUIÇÃO
Vara
##CAT
dado
pago
rescisória
##SPRU
818
96
MORAES
especificamente
JURISPRU
exti
Cas
AS
seis
abran
improvido
GRAN
##ndada
João
tipo
MEL
condenações
Neste
Costa
ordinárias
isonomia
CPP
Alega
percepção
ADPF
##gosto
CERTIDÃO
##chos
105
##erente
##sar
Veri
relações
normativo
TERCEIRIZAÇÃO
SDI
Servi
VIN
FRAN
dentre
##JO
disposições
anteriores
caracteriza
JAN
##cupa
dil
##venção
conce
apresentados
CDC
transporte
49
conheceu
##egiado
IL
Tribunais
trinta
exceção
dívida
IND
##ivas
reajust
##ulados
NUL
obra
livre
analít
Eis
posto
##ilh
EXTRATO
atendimento
insus
PARCIAL
ro
Declaração
TJ
Vin
COMPETÊNCIA
Sra
aplicados
##uns
##udio
oficial
##vereiro
Entre
##órias
improcedência
ep
##che
POSSIBILIDADE
##ONAMENTO
matérias
GRAT
extre
consubstanci
obscu
sali
HONOR
cotejo
desenvol
##embros
MINISTRA
incontrover
idos
publicada
##MON
Filho
ensejar
GRANDE
5o
##lia
concedido
036
eis
SUS
##ENS
oito
##tador
INCONSTITUCIONAL
EMPRES
##neta
##rimônio
##cou
legislativa
integrantes
cart
##ficou
Requeri
##ses
preceito
inequ
DANOS
justificar
cargos
agosto
alegado
##cialmente
##íst
dob
examinar
meu
COMPROV
##TI
reaf
alterações
grave
##ânime
Segundo
evitar
trá
Subpro
BENEFÍCIO
apesar
ofere
testemunha
##UAÇÃO
julga
Emenda
##08
indispens
pertinente
LV
##entada
##iança
aponta
##45
fevereiro
##MENTOS
huma
##EITO
Ini
JURÍDICA
rest
imprescind
insta
PRIN
perda
suposta
consideração
AND
complementar
saldos
##ECESSIDADE
ÍN
INCONSTITUCIONALIDADE
restrin
CUL
DIVER
##quia
##riam
PEREIRA
AOS
MULTA
disposição
atin
##06
##itiu
Incidência
##ntas
determinada
SOCIAL
cláusulas
evidenciada
reconhecido
infirmar
et
NULIDADE
realizar
##ixo
422
moldes
##stra
##ficas
novembro
elabora
discri
Silva
Legis
estat
viabiliz
COL
menor
OFENSA
Ocorre
ARA
caderneta
amparo
incidente
##íqu
exigir
enquadramento
egré
##volução
69
tráfico
##SEC
acusado
afe
Considerando
formulado
##ciona
conclusões
TEMP
única
46
jurídicos
##ESA
##ênt
##plic
Jurisprudencial
quaisquer
##ENDA
##nton
membros
Turmas
IMPET
aplicado
manda
Consolid
##FB
conven
##tir
373
referência
impet
##SKI
provar
aqueles
guar
desin
REF
##unicipal
destin
vezes
preenchimento
Pla
estabilidade
presum
av
criminal
criminosa
propos
PRESCRIÇÃO
naqu
GM
RIB
públicas
##fos
Obser
pac
motivos
FILHO
##ndentes
abril
setembro
declarada
MUNIC
subsistência
##neo
fez
pronunciamento
empréstimo
tel
##cula
1999
HONORÁRIOS
ating
extensão
DISTRITO
##ren
Apo
terceiro
##one
4o
homolo
##critos
pun
##RIDADE
Ra
##RÍN
##RÍNSEC
##sem
vencido
justificada
Fra
##oso
modulação
PI
PAG
posteriormente
##ubro
##rb
Pelo
declarar
quinze
gerais
diverso
##ndos
##cro
##cipa
cabendo
tribunal
significa
##ORN
JULGADO
fixar
compreensão
meramente
WE
arestos
Ara
##ERV
sess
742
tan
máximo
pross
VII
vinculadas
##izado
##conôm
Reclamação
possibil
FIS
ordenamento
##DOS
oportuno
Juí
##ALIDADE
Cer
prola
explici
apresentadas
apresentar
patrimônio
fr
permite
186
moratórios
impedimento
concedida
interm
inversão
Marques
##75
interpõe
vari
##dores
relativos
##38
XXXVI
reduz
ultrap
LX
diplo
competente
##MPRI
obscuridade
Out
##tista
última
##bível
outubro
Conselho
revolvimento
FAZ
depende
##op
MUNICÍPIO
##POSIÇÃO
##WSKI
##cetível
perfe
Ressalte
ocupa
decisum
RECONHECIDA
Consolidação
deline
Orig
cuj
VIG
MED
capazes
##orro
##CIMENTO
har
figu
interpostos
##tens
desincumb
admite
##uída
##DF
118
##09
págs
##ndic
irres
##BAT
Judiciária
prescricional
Essa
nexo
incumb
respectiva
hom
convenci
desrespeito
WEBER
grifei
##ten
##RÍNSECOS
lav
minist
requerido
##TAÇÃO
Ora
JANEIRO
entrada
Sendo
materiais
Fundo
##ham
##RÉ
depois
intimação
alcance
RIBEIRO
DENEG
##cação
destaque
ÍNDIC
PRINC
66
##UES
##rina
OJ
##lha
confl
repet
##gresso
##tadamente
##oral
##EB
aduz
FAL
##ÍZO
Afirma
##bel
JUDICIAL
contar
colacion
##GE
##15
Requerente
MELLO
RODRIGUES
enunciado
Secretária
interna
nacional
##osição
diretriz
Aduz
##ava
##VER
##VE
liquidação
trechos
MAND
EMPREG
centa
documentação
responder
essas
quer
282
##tica
535
definição
prover
Franci
IMPROVIDO
certidão
motivação
##bela
NE
assegurado
##eu
Teori
##AC
reform
depoimento
##hes
tenham
MART
##ciado
indeniza
Entretanto
INDE
ADICIONAL
##enação
##ude
desempenho
Vinculante
REEX
centavos
MANDADO
Id
##ERAIS
879
##TIVA
consagra
Registre
SR
Man
ORDINÁRIO
julho
Cole
EDSON
inequí
##cedor
LEW
##47
reco
##MPRIMENTO
And
incapaz
REEXAME
IMPROCED
LEWANDO
financeiras
último
##corr
LEWANDOWSKI
MORAIS
927
det
Origem
Colegiado
##tologia
##MISSÃO
sequ
PERI
PUBLICADO
sessenta
##oria
parecer
FEL
submetido
Cri
mis
Qui
atribuição
satisf
dispens
##cionada
##QUES
coletivo
sobres
Declara
##veu
alcanç
##sideração
##MISSIBILIDADE
##trimon
Inicialmente
assentou
##tudo
##MES
admitido
##ugna
novos
extr
vedada
equipa
extraju
JUROS
autorização
torno
observados
##eja
##QUESTI
boa
##avas
##fera
convencimento
drogas
organização
Constitucionalidade
##uindo
Zavas
Estadual
##CC
inadimplência
##õem
proferidas
PREQUESTI
terceirizada
sobretudo
##clusão
##ilo
##CULO
Intim
desses
acompanh
##ÁVEL
apelação
##JA
TRIBUT
Vos
referidos
reabilitação
INTDO
##gora
progress
NORMA
##UB
apura
JUIZ
exor
Administra
superv
citado
fis
proventos
NEGA
gravidade
ENTE
dout
##ÓDI
Cond
##ARES
##arta
0000
##ógico
reserva
asse
##cki
##tera
##NTES
ordinária
Nego
Pereira
idênt
assegurar
REPRESENT
AM
Zavascki
supressão
RIST
CONCL
mão
retorno
Prov
##vação
GU
Normativa
insalubridade
imposta
deixar
acolhimento
##ume
COSTA
Funda
VIII
restrição
SIN
solidário
líci
razoa
##ISÃO
estabelecida
aplicando
##13
havido
manifestou
vul
ocorrer
925
mor
prod
NAT
morte
rever
Clá
intr
##uem
impetração
PREQUESTIONAMENTO
##gua
veículo
##ENDI
salariais
prob
adquirido
##stre
Pois
controver
CELSO
##tadora
##aldo
tributária
Dispens
imprescindível
área
##MINAR
##ABIMENTO
79
adotados
cô
NC
##estes
ficar
##rban
torn
alguma
relativo
terceirizados
##irmação
constru
Francis
##tia
intra
DJE
##fira
fundamental
VINC
##OL
RECLAMA
concreta
tudo
reclu
Medida
indeferimento
probatória
Vossa
condenar
PRA
eventuais
diária
114
embargada
Quinta
autar
incorpora
##CIDADE
##cionado
administrativos
RELATORA
dignidade
LIV
solici
destina
##CHIN
##cimo
Complementar
##10
##erman
sucumbenciais
##vento
COMO
acar
desco
vislumb
##RAL
Ferna
afirmou
peça
TERMO
incompa
DOU
formação
igualmente
lhes
##0000
estabelecer
##cle
indicadas
##QUI
##bertura
previdenciários
CAUSA
NEGATIVA
imediata
##las
##erada
divul
modifica
NCPC
regularmente
RECORRENTE
comercial
##ANC
miserabilidade
inclusão
##ELL
previdência
mantido
estatut
notadamente
ORDEM
##CIAIS
##ignação
##cas
confronto
mesmas
REGIME
absoluta
daquela
##uo
DANO
INFRA
Gon
executivo
Procurado
inominado
112
##FEREN
Francisco
Uniformização
estatal
##essar
distin
essencial
##ódia
unânime
deverão
Há
##ANO
delim
telef
leitura
PART
reme
prosperar
enca
constatação
exigida
esfera
mane
##ADAS
extrai
hipossuficiência
oral
PPP
543
impugna
estabelecidos
constitucionalmente
adimplemento
ALVES
vícios
confiança
RCL
##mpes
Pos
reno
receber
retra
estip
reclama
reclusão
##RIBUIÇÃO
Instrução
##icção
baixa
032
instituições
##III
Anexo
nosso
Estados
Masca
GON
diverg
Corre
elen
##minuta
dúvida
MARTINS
abrange
reti
##HIA
##vers
489
##var
##atório
harmon
CÓDI
##adamente
fut
Janeiro
##rés
CULPA
indispensável
inexist
priva
preceitos
##renhas
razoabilidade
Mascarenhas
justificadamente
extrajudicial
FACHIN
alterna
Também
depre
SEX
can
##CTE
##ISE
fale
Si
PEDIL
##IFIC
informação
POL
estabeleceu
CONCLUSÃO
##tário
##edi
colo
isto
##ÇO
CÓDIGO
premissas
##CB
Fel
Cumpre
afastada
SOBRE
colegiado
INSTITU
##âma
##alizada
##GA
PEDILEF
##ITIVO
##xe
proferiu
insuficiência
diploma
ECON
obtenção
fiscal
previa
dobro
ful
##REZA
82
RIT
##certo
##etência
configurada
inicia
natural
Del
0281
MARQUES
NECESSIDADE
##ndão
##ndes
QUAL
cálculos
extrínsecos
##ntegra
lu
##uito
##úmeros
##estação
personal
GERAIS
92
Sobre
Bel
interp
rejeitados
##ISTAS
pacífica
##PI
DIVERGÊNCIA
##gn
EXTRAS
importante
aquis
relativamente
##adequ
GRA
##esses
suspe
ÍNDICE
tange
##ESE
tenho
##inheiro
##dar
##lant
exclusão
##orário
Sistema
LIMA
PAGAMENTO
##36
##dica
CAT
relativas
apuração
passivo
realidade
JURIS
protela
seman
DIVULG
contidas
pagos
sindicato
Brandão
##ete
Destar
ASSU
Destarte
precon
SOARES
Já
##ANTE
complementação
inser
visa
0001
ocorri
incabível
##000
caracterização
cessação
alimentação
##rica
XXXV
compete
resol
284
adequado
epí
incidir
FUNDAMENTOS
deli
Exa
52
resposta
##IDOS
72
SEÇÃO
estrut
##tibilidade
index
rescisão
advento
JURISDI
##erroga
portadora
idô
suscitada
urg
##ÍLIO
mencionada
899
##ariamente
RECURSAL
pagamentos
AUTUAÇÃO
AUTO
##EA
inequívoca
fina
##VIO
##grafe
prerroga
Embora
dese
##UNES
quantia
agravado
##ÉB
aspectos
MC
LXX
LEGIS
##mentada
AUX
Lu
volu
ASSUNTO
permanência
CEF
RITST
mantendo
prossegui
estrita
##ídas
##itadas
proceder
privada
feri
necessariamente
vinculada
demandaria
proporcionalidade
Presentes
epígrafe
JUÍZO
##70
elemento
negado
quinqu
exigido
##hora
saber
fazendo
##VIDA
descontos
SEGURO
acrés
aumento
EXMO
##ARTA
QUI
inicialmente
apto
##arra
Este
instituto
moto
##hamento
##urança
Veja
FRANCIS
CID
militar
aptidão
dific
##SERV
Procuradoria
algum
##çal
requerida
existente
exter
Sent
##ese
temporária
##eza
pal
irregula
COMPROVAÇÃO
CONDEN
##ital
PROFERI
existe
Cláudio
minutos
recente
logo
despeito
supor
acrescidos
##72
RECLAMANTE
Pri
produtos
ATIVIDADE
composição
IMPU
##érito
PROBAT
89
##ubli
##cimentos
prorro
considerou
insuscetível
residência
Provisória
Aponta
##qü
##asso
mere
emit
realizados
FRANCISCO
cent
##ilha
vuln
preparo
eram
##ial
##vadas
etc
##ficos
afigu
Outros
ressalva
fol
##FICO
Câma
Cuida
##50
RECLAMADA
##ARE
esclarecer
testemunh
Anal
financeiro
EMPRESA
Ou
##ona
Distrito
igualdade
IR
##IPE
comba
ILEG
aludida
oriu
contido
##irme
determinando
patrimon
PRAZO
##bete
imposto
FAZENDA
correta
Subprocurador
fundamentais
mí
##guns
verifico
tiv
patro
280
cel
comando
rig
##pi
posse
RN
##79
premissa
trou
conceder
##par
Hel
calcul
##uís
Camp
Legisla
quitação
egrégia
eminente
##velmente
##ricul
9º
doze
constrang
##RIOR
ausente
presta
arqu
##ERMAN
implant
RED
visando
TEMPO
brasileiro
##inação
demo
INSTITUTO
portador
recorr
2023
Rib
delib
pesc
##utas
REQUISITOS
titular
líqu
##UTELA
##mismo
urban
necessárias
norm
consequente
redis
##CU
interpôs
perceb
COLET
##INO
Apelação
fiscais
dinheiro
LAU
212
verificação
arma
transcrito
1°
ativa
acos
IC
duração
rito
CÍVEL
suma
tram
ficando
import
ofe
##ORTE
Gonçal
facul
MINAS
##jornada
Embar
anti
Pi
CONHECIDO
##nima
##43
mulher
Sentença
observada
##mprego
RÉ
##sequ
afirmar
leis
integralmente
86
mensais
ame
indícios
eventualmente
Incl
grande
operações
incluído
##MONST
Vale
integ
desli
##ÓRIOS
rol
Consoante
parágrafos
alguns
responsabiliz
remessa
Verifica
##tamar
arcar
consumo
##cios
##tur
Esse
credor
restando
DEMONST
acum
penhora
pressupõe
on
##IMIDADE
Saúde
ambas
dele
Câmara
##formismo
Cent
humana
##SE
IMPUGN
CONST
##ITAÇÃO
ATO
##stas
JOSE
ARR
admitir
##tente
Cível
##rique
##voco
Ausência
exigibilidade
TRIBUTÁRIO
patamar
ruído
us
ANTERIOR
##alho
##ismo
##quem
##reiro
SERVID
indicados
##postas
##931
insurgência
DISPOS
passiva
entrega
notas
prosseguimento
##78
acol
imediatamente
dirig
bo
apreend
ADCT
NUNES
POLÍT
VALOR
inconformismo
Gonçalves
CAMP
##ízos
confu
apta
fornecimento
##ABEL
BASE
aresto
refor
veja
##RIT
Quarta
SERVIÇO
##cil
cli
Dispensado
##áticos
Presidiu
MEN
juntada
##alha
iii
##bo
INFRACONSTITUCIONAL
excess
##GIO
TERCEIRA
restabelecimento
##grama
representante
ementado
Grande
##ÁL
corro
inadequ
##stituto
alca
celetista
inobser
MORAL
ades
##ensiva
##40
TEL
##rir
emprega
FIX
##âneo
##cor
QUA
regulamento
##CION
CTPS
Sel
Redação
rigor
1994
alcança
##IOR
solidária
##eda
impostas
funcion
##RETO
Augu
##ENDIMENTO
propositura
posição
deferida
subord
autoria
EDU
Caixa
##itude
OAB
temporal
##UTA
ALEGAÇÃO
Ribeiro
INTERPOSIÇÃO
atribuições
sujeito
Jú
PRINCÍPIO
##ust
diss
##creve
licitação
elig
conduz
palav
##guição
oferece
causas
subjetivo
seg
Pol
discute
todavia
eligendo
##dial
##elha
proib
nele
Fal
personalidade
Selic
500
DIRETA
JURISDICIONAL
Luís
vinculados
Serviço
repe
relevante
caracterizada
##TU
68
introduz
##sion
trouxe
ciência
dificul
dimin
C5425
Cor
##constitucionalidade
Augusto
##ntamente
condenado
##ôno
Pet
Tendo
##ÁTICO
PESSO
##DOC
om
Ausente
CAP
ORIG
Gal
##ring
##ÂN
desempenh
##unes
orça
eDOC
lug
reconhece
preclusão
importa
CL
aplicáveis
Ins
comun
##53
dif
##12
conceito
fiscalizou
CARVAL
assumidas
487
##MUN
participa
CRIMIN
##ÍS
procedência
APELA
genérica
AUXÍLIO
vencimento
consolidada
perf
lic
##ênio
FISCAL
Outrossim
obrigado
procedimentos
SERVIDOR
autarquia
##uiu
Inconstitucionalidade
##itindo
QUARTA
definir
##CUL
encer
Inex
inqu
fi
OBRIG
##ALDO
tóp
324
Acres
MT
privado
aferi
##conômica
incorporação
custódia
##erial
urgência
INI
prestações
vale
##íb
apreensão
dessas
ICMS
##erentes
obter
Trabalhista
Val
sindic
recebeu
ADVOCAT
Ama
testemunhal
##erado
REPÚBLIC
atraso
constatada
##52
pronunci
praticados
fraude
arre
LIM
REPÚBLICA
exatamente
SANTA
897
JUN
150
nós
poderes
vantagens
Juízes
##42
expresso
Hu
relevância
111
patologia
equivalente
incontroverso
##idou
##veri
##EZ
##ENÇÃO
abaixo
ADVOCATÍCIOS
efetiv
RT
fulcro
estaria
mormente
condão
##ntia
Dem
negó
deixa
municíp
muda
individuais
##édio
decad
uniformização
1000
exercido
##ORNADA
870
##arca
##ene
depos
Alegação
Nunes
790
Helena
considerados
Carv
Tempo
##DÊNCIA
Enunciado
AF
Gara
QUINTA
103
pontos
DIB
##ogia
##mino
dou
usu
associação
tot
firme
lugar
atenção
##ndendo
##ndeu
oposição
193
vont
aludido
lib
##uladas
funcional
DEFESA
apontados
DOENÇA
compreend
admissão
permitir
Magist
##ris
revis
Ordem
##ividade
CARVALHO
impedir
INPC
AUTORA
pad
##enário
POLÍTICA
mal
Magna
importância
##ESSÃO
indicado
##tores
Instituto
##ROG
Declaratória
Órgão
promover
bancária
sustento
PROVAS
denegado
adequação
##SIA
##oura
cartão
subjetiva
CEP
preservação
PB
##toco
alegando
##ÁFICO
regularidade
destaca
##zar
##usa
Ferreira
191
VINCULA
conferir
autôno
policial
cria
clín
entidades
VIGI
autoral
##erto
comissão
##zi
Regimental
Ele
candida
##iscos
invocados
297
nestes
Composição
##vem
causalidade
##EITOS
357
pactu
restit
##ndação
JURISPRUDÊNCIA
intuito
FAT
##assi
analisada
exigidos
##utados
abus
##bra
Senhora
contato
financiamento
venda
nun
REPRESENTAÇÃO
##çada
certa
desincumbiu
registrar
acréscimo
saldo
PENA
Executivo
normativa
EMBARGADO
##UP
inexiste
inobservância
BARB
Barb
desconstituir
Intimem
mínima
mínimos
encamin
domin
companh
NATU
##58
HERMAN
##fra
sedi
pese
1996
Habeas
desnecessária
nºs
Impos
inju
##tins
apontado
ambiente
acrescido
SUC
BENJA
sofri
CONTROV
indevidamente
OCORRÊNCIA
##UNDO
170
MANT
LUIS
##cados
Moura
inflação
##tição
ima
reajuste
contestação
##ÔM
variação
possuir
identidade
ressar
BENJAMIN
riscos
constrangimento
CRÉ
NATUREZA
concerne
previamente
executada
amea
contagem
teoria
capitalização
##EIS
##48
##ães
destes
design
vontade
831
##LANDO
lícita
##IVOS
litis
##metro
imple
##ARINA
137
SEXTA
PRES
Agravado
EMBARGANTE
num
384
argumentação
Barbosa
devol
Requerido
depreende
exordial
quarenta
Caso
nível
integrar
agricul
apreço
senão
##ENA
esgo
prejuízos
ADMISSIBILIDADE
PACI
atualmente
CPF
760931
312
##constitucionais
##GRA
tenta
assentado
Parte
##ndar
##EMB
denomin
121
##tidas
teto
##egu
vencidas
PERÍ
realizadas
##ndimentos
atrai
GRATU
CRFB
alimentar
sorte
infraconstitucionais
devolução
##AP
considerações
comissi
sanar
##vidências
##FICI
insuficiente
##quenta
ace
TEO
excesso
consiste
deles
lan
vedação
incorre
rein
observando
##itoral
pass
inviabiliza
pertinentes
557
testemunhas
exigências
##ac
Certific
ajust
PROFERIDA
preenchidos
##46
Benja
lavra
##ÓS
ECT
fid
CRU
corrobora
TRABALHISTAS
vantagem
federais
referidas
##ste
movi
Herman
domici
030
entor
##ÇAL
consolidado
Garantia
Senhores
prestar
intervenção
##liar
analítico
Alberto
básica
##centos
ambi
##ponsa
##ÓP
##HEÇO
superven
##39
##tariamente
pretendida
##ICIP
contraminuta
surg
discrimin
Benjamin
APELAÇÃO
##UD
VA
sofrido
verbete
##RIAIS
réus
sabe
utilizados
equí
satisfação
OMISSÃO
cóp
ZA
Go
regência
am
##íti
prerrogativa
omissiva
dúvidas
CONTROVÉR
exercida
esteira
PRISÃO
expedição
salientar
DEP
estabelecimento
DECL
novas
266
fáticas
Cabe
##ANDES
##gi
CONHEÇO
intrínsecos
hos
segurada
Martins
agora
INS
doutrina
##SOL
76
Mauro
XIII
DÉB
itens
Fernandes
##gue
##ator
GONÇAL
CONTROVÉRSIA
possuem
idoso
encontram
hab
iniciativa
TRÁFICO
ECONÔM
decreto
infring
gozo
empregat
entretanto
##stos
praticado
##CHA
acervo
Ato
##ulos
##ilia
operação
Fisc
##plicável
atender
##RIN
válida
requere
fili
Tem
56
##quei
##ponsabilidade
Plano
entorpec
Vice
##íg
##17
consideradas
109
posta
##19
MAG
VER
itera
irresignação
##ALH
resp
sujeita
modificação
##cons
NAS
notória
DER
ilu
Fin
BARBOSA
justamente
cham
reiterada
VIGILANDO
##URSO
INTEG
NR
percebe
Sul
uniform
cerce
acórdãos
FELIPE
Réu
180
prejudicada
Ali
respectivos
aferir
DISPOSITIVO
cinquenta
##UAIS
Rod
versa
litig
CATARINA
pesca
explíci
##DICA
óbices
pot
7o
##ciada
##cionar
FIN
processar
Ind
cumprir
revogação
GONÇALVES
perten
envolvendo
intrajornada
harmonia
Ne
fech
ens
nossos
aferição
Santos
##assa
objetivos
licita
comprova
Ver
negl
média
permanecer
ENTRE
##ec
garanta
FERNANDES
Rodri
estrutura
apontada
FÁTICO
existir
pugna
originária
mencionados
casa
hist
enfer
GOMES
##MOS
dela
obrigatória
##rupção
##tuto
majora
obreiro
##ráficas
comportamento
desenvolvimento
aquelas
##vocada
MATERI
elas
##DB
Incluído
writ
##ENSO
SAN
enrique
##ÁLISE
iterativa
vincula
peculia
demonstrou
impugnar
JUNIOR
ren
comprome
suscitadas
##vas
##adão
tér
alterou
construção
Segurança
##alizados
CÁL
cenário
adesão
##49
providências
garantias
concretos
absol
##etria
prejudicado
PROBATÓRIO
660
JOÃO
utilizada
##AÇÕES
REVISÃO
campo
vencimentos
TESE
assiste
manifestar
efetividade
##SOS
inscrição
proje
Defiro
ANÁLISE
##inho
TAX
PRELI
MAU
Mo
previdenciárias
Pel
delitiva
comento
parâmetro
##plica
compra
##tá
406
folha
obed
REMUN
diferenci
bancário
##entados
incompetência
citada
providência
reconsideração
##ono
ampara
##eridade
provida
ga
acolhida
##uídos
convicção
##EDADE
##ISA
477
CUMPRIMENTO
Fo
feitos
Campbel
##ÇAS
LEIS
firmados
sindical
nove
profissionais
guarda
##cies
172
diferença
ilícita
quinquenal
fundamentado
deveres
postula
rei
veiculada
356
Anton
Carvalho
obstá
contribuinte
##SERVÂNCIA
ministro
impetrado
Regime
caracter
progressão
VINCULANTE
perfeita
condutas
ocup
Administrativo
produzida
modalidade
abstra
dito
##ór
Campbell
##gues
supos
##ilíb
integridade
adotar
suced
tiver
Poderes
##igna
notur
##çado
conferida
colh
estatutário
cautelares
deslinde
1989
declarado
tribunais
##ÚDE
ade
PARAN
##ion
trazidos
antecedentes
##ágrafo
disciplinar
vários
político
Precedente
procu
enquadra
assevera
203
pecuni
cumpriu
##76
continuidade
embas
##queira
AUGU
RET
Mil
votação
RISTF
medica
Seguro
##equente
incluindo
continuada
425
##ilíbrio
##unciados
EFEITOS
##MINADO
145
ilici
Ceará
traduz
decide
denegatória
cumprida
equívoco
gestão
INAD
Ata
lig
##ducação
##ITIMIDADE
daí
imediato
verificada
sin
##edito
prevalecer
DIFEREN
##sional
característ
##inada
UN
NEGAR
##tifica
regulamentar
##itante
quantum
SAÚDE
ASSO
120
prorrogação
levando
pescador
experi
Antonio
simil
GARA
eman
##iam
##CULOS
concent
Parágrafo
ROCHA
182
##vir
JOA
##veria
celebrado
nocivos
IMPETRADO
afastou
##VOL
##aros
##minal
##CIAÇÃO
abrang
autonomia
cerceamento
escolha
celeridade
valoração
Incon
corretamente
inerentes
##PACIDADE
468
daqueles
1992
##áb
CNIS
insuficientes
Hi
específicos
pagas
pedir
##RIQUE
##pital
demonstram
met
corr
minuta
CONCESSÃO
lógica
##verno
produto
vertente
pont
evento
indeferiu
supostamente
comporta
claramente
óbito
ademais
##CR
condenatória
Eu
##quig
documental
GARANT
DECLARAT
reclamadas
##cola
Benedito
seriam
##ualização
precatórios
adver
rescisórias
típ
##MI
relevantes
PARCIALMENTE
efetuados
vigentes
AUGUSTO
##gadora
taquig
##nicos
OBJ
taquigráficas
executado
fornecedor
dilig
Publi
##IFICAÇÃO
DEFENSO
205
PRÉ
incumbe
##inários
verdadeira
##íss
alterar
INOCORRÊNCIA
##ECA
##MENTAÇÃO
Magalh
Secretário
contrib
patrimonial
252
CLÁ
Havendo
Magalhães
turno
brasileira
majoração
pleiteado
##ZE
pretendido
Contas
ingresso
INICIAL
##heço
médicos
##onha
rediscussão
SENHORA
palavras
nunca
INTRÍNSECOS
assinal
PAS
transcrever
contraria
PRÓP
retratação
cumula
demandas
atribuir
violados
juntados
##erência
##STRO
suspensa
prom
enriquecimento
PRET
conflito
municipal
Joa
distinção
##iros
283
##PJ
Lici
pend
capita
Execução
##vil
legalmente
mental
947
##59
Econômica
##uzzi
tópico
julgamentos
ALME
LUÍS
cumprido
Argu
##rista
##ORES
sofre
Benef
Eg
LEGAL
fundado
Inconform
preciso
físico
##ORAÇÃO
219
resguar
372
excluir
constatado
Paci
destaques
espécies
FO
##VENT
atribuída
##tativa
horário
impossibil
##usta
comunic
CABIMENTO
ALMEIDA
Certifico
droga
##ficados
prazos
protoco
acolhe
êx
indiv
Pesso
HEN
ESTAD
##gir
##LEX
##pri
edital
GRATUITA
tabela
consistente
##ÉSI
Legislativo
semelha
SEGUNDO
TRABALHISTA
indicadores
##erativa
214
complex
bar
ALT
pud
socio
comprovou
destacou
utilizando
volunt
dissí
apar
êxito
conferi
Process
repa
estejam
segre
estre
anexos
SEGUI
lastre
##UMB
extrema
MATERIAL
El
DEFENSORIA
AMA
JÚ
postulado
delitos
##CKI
extremo
ARAÚ
desemprego
registrado
##una
sanção
superiores
subsequ
Nada
pacificada
##újo
NETO
artes
Extrato
autorizar
empregatício
ARAÚJO
tempestivo
MANTIDA
PRELIMINAR
decretação
##racte
300
dirim
DET
desconto
##ITAL
nar
respectivamente
Alves
958
##ADES
Cezar
consol
existentes
##UZ
Araújo
##ADORA
admitida
diligência
##ítulos
ZAVAS
PREVIST
##tização
tê
MI
TEORI
restringe
adotou
SI
restituição
ZAVASCKI
##BC
MARCELO
##feitos
importe
470
respectivas
##irmada
privativa
PREJU
Procurador
instal
cabíveis
##IXA
##cão
224
296
##56
parece
definida
promoção
suci
deduzida
completa
distintas
vislumbra
##ndamento
##VEIS
##ibiliz
##GIA
##feito
inscrita
##itava
MONO
presid
violações
periciais
##rico
##ICE
##usivo
##úcle
##teral
##utado
incompatível
mudança
orçament
##gações
aju
extingui
CARG
AGRAVADA
EDUARDO
ER
ARTS
IMPUGNAÇÃO
insurge
pequ
##imetria
Convocado
denunciado
##RESS
coletivos
##anal
alterada
PRESO
INTERPRE
realmente
registrou
EPI
consecu
##amente
solu
implantação
MOURA
##vente
afastando
evidenciado
abuso
##ciando
##com
##HI
TRANSP
prestados
imun
PROCEDENTE
##DIÇÃO
REJ
líquido
perigo
##gou
INCA
INAP
aquisição
##VIII
CÁLCULO
recebido
consequências
preenche
FONS
Sér
##16
fundada
Concl
CARA
pond
haveria
##IVID
honorária
TAXA
limitou
FONSECA
despropor
##18
submetida
imputação
penas
##ídio
descaracte
##reiras
principalmente
corresponde
cidadão
oit
##STE
##grou
cuid
bastante
prisional
plenamente
##elec
PLA
Hipótes
sex
##RADA
PARANÁ
##ÉSIMO
Maior
PETRO
Secretaria
obrigato
107
deixando
Sérgio
poderão
JULGO
corrente
##utar
infração
Luis
recebidos
##mentais
Peluso
integração
acolhidos
Egré
impossível
tare
formul
Previdenci
435
Asse
INTERVAL
estabelecidas
mantém
proteg
##STÃO
fraud
causados
250
unidade
ORIGEM
##RITA
criação
##hi
##ruir
ratio
BANC
##rição
incapacitado
intelec
trazida
Aplic
INAPLIC
compatível
Rodrigues
ADIs
CAL
##asão
CONSTITUCIONALIDADE
vênia
disse
Tratando
##are
reiteração
ilicitude
##itam
passível
CAS
SUCUMB
Sob
divulgado
INTERPRETAÇÃO
##sio
Juizado
acolher
dissídio
deri
Responsabilidade
485
vejamos
retroativa
##pso
##étri
Quando
fonte
SEGUIMENTO
potencial
Dou
##neas
controvertida
depoente
confirma
falha
CS
opção
PAT
expostos
antecipação
sab
##red
Municipal
marco
FÉ
##fas
##inou
Licitações
CONJU
MONOCR
Falcão
IS
cola
PEL
segurados
agir
polo
##íba
INOMINADO
Mant
##ensivo
##manes
Lt
RP
##IAN
analisado
ERE
##jeição
##ânea
Feli
##eligência
PROTE
##RG
##gal
ultrapass
consequentemente
##IMO
##ráfico
menção
TRANS
observou
evidenciar
terço
HENRIQUE
Argumenta
indivíd
Passo
REGIDO
acusação
representativo
CLA
reconhecendo
ME
totalmente
Carmen
Conheço
FUND
haverá
resultantes
##SITO
terá
algumas
prestam
##aduais
894
expor
atacada
profissão
IMPROCEDENTE
DCB
ocorrida
prestadas
##DAS
##nicas
conci
JULGADA
##tum
##lema
ameaça
##hefe
mai
semanal
Ltda
##DES
##etariamente
novamente
Felipe
##úcleo
aguar
litiscons
MAURO
##200
Confira
correspondentes
Sindicato
fáticos
nela
195
##ATÓRIA
dial
grifo
facil
conhecidos
ape
indevido
negócio
viabilizar
ENTENDIMENTO
INTERVALO
GARANTIA
Prof
Hipótese
indenizatória
##EP
ja
reproduz
dosimetria
San
coletivas
sobrev
monetariamente
problema
##eix
exequente
##ODO
financeiros
seguida
dispor
##urge
peculiaridades
apreciada
Vi
ALI
direto
##gular
observo
licitatório
PRIV
cujos
RGPS
135
oitenta
vencidos
LXXIV
##CIP
CARACTE
sobera
##mica
deficiente
cuida
479
eg
diminuição
decidida
consubstanciado
##DITO
##ficadas
CONDENAÇÃO
Publique
104
filho
inexig
ques
arguição
dívidas
Emp
TRANSCRIÇÃO
remanes
##quim
aplicabilidade
##cra
tax
##liação
fechado
admitidos
cancela
CRIMINAL
cópia
##udos
submissão
venha
ostenta
SOL
RÉU
irregularidade
privil
Fortal
##EQU
classi
arbitrado
investigação
115
HEL
##fique
noturno
Municípios
INAPLICABILIDADE
##cal
objetivando
violência
Jur
integrante
##çar
187
perd
ESTADUAL
simplesmente
Joaquim
210
definido
TOM
Delgado
inexistindo
Fortaleza
concern
##FICA
los
Paraíba
##lada
REFLEX
AAD
INCAPACIDADE
##ÁS
término
norte
Excelso
tributário
GROS
PREVENT
Frei
CNJ
SÚMULAS
##pectiva
deferido
efica
tran
Cla
permis
INVI
Cal
reside
empresarial
suprim
OUTROS
Exma
MONOCRÁTICA
registros
Então
##ench
ATUAL
compare
HO
LICI
##DER
##tion
ANTES
400
eminentemente
vera
agência
capital
##osas
##nios
Freire
corrigido
acarreta
artic
Jurisprudência
presumida
infere
##DENCIAL
##ÔNIO
infor
estiver
indexador
doenças
2°
ões
##fia
##iteia
laborais
CONTRIBUIÇÃO
dissenso
escopo
precatório
esclarecimentos
fossem
DESTA
##naldo
sócios
Recursos
##ínio
6o
tele
##CF
##nc
restabelecer
CTN
C5
IRRE
##nju
SINDICA
LEGISLAÇÃO
Preench
##ETE
##álo
maiores
##NALDO
eng
foro
defende
Ant
POST
detri
ROG
##ÃES
idem
174
recu
Ate
CONTRATUAL
##enado
veracidade
DEL
##CAO
Brasileiro
Gui
frente
SÉR
##ést
empregada
AUTOR
##nter
arra
FERNANDO
Isto
COMPLE
Que
ilegitimidade
Dra
probatórios
intern
cônju
legítima
DIFERENÇAS
substa
Pimenta
produzir
BRA
Lilia
Téc
##ert
detrimento
rejeitou
##cionou
##mbu
ANA
##ORT
RECURSOS
município
obstáculo
PCC
bis
trazer
##ilhos
##ilidade
reca
paradigmas
##lher
enfrenta
terceira
CRUZ
confissão
ine
Sb
inscrito
211
plan
convertida
SÉRGIO
logra
RTJ
Lilian
pát
CONCURSO
##ntegração
SUSP
reformar
idônea
explícita
##isor
cancelamento
##reno
Embargante
noventa
capítulo
PREVENTIVA
elevado
policiais
tornar
passando
##tíveis
Militar
##inisterial
SbDI
chegar
pop
país
JURISPRUDENCIAL
regulamentação
licença
solida
aconte
integralidade
filhos
absolutamente
##ritto
SP1
fatores
contratados
AADC
Cap
319
plenário
depoimentos
sobrestamento
SINDICATO
sinton
ofer
artesanal
##vesse
irregular
fogo
RESCIS
exerceu
adequadamente
modificar
##monte
DIP
Interm
obstacul
INSTÂNCIA
##van
##tendo
atras
ratific
apontadas
camin
129
##omão
003
expostas
custeio
comb
##REC
válidos
estarem
padr
espa
##ntan
Og
##UFICI
comet
Impor
MIL
hig
perdas
##alizar
VALORES
Contrato
Preenchidos
##iram
equilíbrio
##stina
custo
Of
##ELHO
Salomão
sintonia
apó
127
repetição
modificativo
normativos
homem
materialidade
empréstimos
Agravada
histó
##nambu
destaquei
abertura
##ergia
destacado
ne
BR
originário
Britto
INDIC
fração
Números
##iria
propri
PARC
MUNICIP
Vaz
agrava
desproporcional
##cadas
falecido
núcleo
134
normal
transitada
editada
preso
substituir
autores
aprovação
carte
##xim
Mal
essenciais
contados
##rob
Santa
transcritos
EXTRÍNSECOS
cumulação
desacerto
EXAME
lapso
setor
clínico
INVAL
envolve
078
Porém
políticas
##VERSÃO
##ícola
##mpestivo
repass
prolatado
Interministerial
CASO
##ornos
excepcionais
acompanhamento
condenou
FATOS
impedimentos
VIA
blo
causar
Direta
preté
sumulada
##lice
fri
##ab
RECONHECIMENTO
gerente
Pernambu
##orra
Dan
CAIXA
hipossuficiente
instituído
##CLUSÃO
JUDICI
repro
dolo
vai
not
poderiam
antecipada
analogia
taxas
arquiv
QUANT
##ERN
Belmonte
assu
TRD
##USO
Arg
compensa
181
favorável
PERÍODO
REN
FISCALIZAÇÃO
colabora
confirmar
##camento
hábil
##PES
##urais
atendidos
homologação
Or
Lauri
coop
indenizar
submeter
EREsp
PARCELA
sujeitos
##nior
habilitação
Pernambuco
113
##ruz
atua
##egese
DROG
##ndia
CB
Deve
##pp
inexistente
dificuldade
consum
PDF
beneficiários
Laurita
eletro
teriam
##tém
153
beneficiária
DIRE
##ZI
QO
suficientemente
DROGAS
##mberto
sur
anual
##úl
##centa
DEFICI
atinente
cíveis
DENEGO
##nes
nít
últimos
implic
##OLH
esfor
##erção
cadastro
rou
care
##çam
450
Estatuto
suposto
##tti
##neos
corrigidos
INQ
prove
outrem
preservar
analítica
##itora
Nanc
ÓB
atingir
Princíp
Nancy
atenta
Uma
Rua
relacionadas
anu
trabalhou
##cede
##éb
##righi
##NTAS
qualificação
Fri
ol
pleno
Andrighi
INC
fre
EXP
294
##INE
afirmação
##távio
AJ
##ORGE
debatida
inquérito
##EIROS
##íssimo
Humberto
decorreu
perspectiva
Fica
PLANO
sentenças
##cínio
inaplicável
##IGU
prol
patente
hoje
Todos
quase
##jado
Financ
Ações
##critas
estas
VIEIRA
247
repetitivos
requerer
APELO
##nicamente
HUM
339
fiz
Gri
##erável
##plicabilidade
##idor
CONFIGURAÇÃO
ANTÔNIO
SCH
##etário
impeditivo
Central
segregação
##emos
resultou
CONSUM
MOREIRA
Incide
##umidores
PRETENSÃO
pró
Satis
adent
vias
diferentes
segue
perpe
inflacion
##essor
acaba
dita
##centes
##EE
##iol
1a
371
penalidade
##GEM
PERICULOS
impo
Ay
##entais
RPV
##ígio
relacionados
Conf
possuí
equiparação
figura
Arti
##ulou
Empres
522
efetuar
federa
intenção
compreendido
indicou
Otávio
Dispos
pet
##ternidade
antiga
caracterizar
PERICULOSIDADE
aberto
MATO
intelectual
virtual
##bou
houvesse
bas
negligência
dando
Soares
set
cônjuge
SIST
tivesse
obtido
##ÁRIAS
prêm
RMS
##013
consolidou
##IBILIDADE
econômicas
Tabela
INVIABILIDADE
##rer
unila
responde
Leite
Ressalta
GAL
recep
##çados
MES
deferidas
##RAMENTO
penais
ci
acarre
grifou
##eras
ressarcimento
cidade
##LAS
##rida
litigância
IT
Polícia
soma
extinto
consumidores
142
detalh
725
argumenta
irrele
REPET
executadas
satisfa
##roca
promovida
##vão
XXII
##lar
GROSSO
definitivo
##ciados
aliás
abono
##essas
sufra
Júnior
PETROB
carga
contempla
confunde
457
formulados
limitando
demandada
##HER
inviabilizar
contém
##ISSÃO
separação
vinculado
inadm
dominante
GRATIFICAÇÃO
causal
##RANTE
UR
CENT
CORRÉ
orienta
nesses
CRÉDITO
##MIT
##firam
##ÍSS
JORGE
Impossibilidade
inerente
##órios
ensino
APÓS
Incidente
aplicam
planilha
subordinação
##edades
instrumentos
àqueles
DATA
Alme
sustentando
##ZAR
ingress
RECUP
adicionais
erga
positivo
##IRM
##NIOR
IMPROCEDÊNCIA
cadast
Corr
##eticidade
INCI
reun
Foi
consigna
tentativa
##RON
apoio
Vogal
JÚNIOR
COB
inteiro
060
784
ég
Serviços
CAUTELA
égide
048
suporte
JORNADA
155
omnes
COND
inovação
prolação
deleg
constituem
tera
110
relacionada
192
tomada
INDENIZ
##mão
Peri
diretrizes
estreita
BENED
excessiva
Gerais
080
##culação
##idamente
expert
tipi
AFA
##ven
definiu
isenção
tratam
aprovado
atribuído
Vis
FUNÇÃO
proven
extraordinárias
##rizado
consubstanciada
custos
Ayres
##orge
MARCOS
Almeida
telefô
MANUT
QUESTÃO
4°
senso
Defe
tari
auxiliar
tributo
##urg
##ilância
pleiteia
CONTA
##ister
RAZ
institucional
ANOS
##lem
consagrado
habil
agravantes
detém
lemb
firma
MAIA
PCCS
##ardo
máxima
iso
entorpecentes
usur
##uca
Ausentes
eficaz
espos
respondem
AJUIZ
FUNDAMENTO
##êa
##ULAR
CONJUNTO
entendendo
##gantes
CASTRO
comunicação
Gratu
direção
consignar
##éd
citados
Decido
##mann
revelam
fru
CORRÉU
tempestividade
##OMIA
##ocha
Corrêa
caber
tramitação
decorrer
##ense
##IDOR
026
Aliás
contempor
##BB
feira
tol
nomeação
decadência
Il
constatou
afigura
repri
alternativas
perigos
FINANC
149
##itim
violado
exceto
##stamento
ASSOCIAÇÃO
abusiva
enfo
clientes
elaboração
MANUTENÇÃO
##Inc
117
decidendi
##IDEZ
Norte
condenando
CNPJ
##ÍDIO
correto
reconhecidos
Adicional
##CD
modelo
deslo
##ING
exegese
nota
manifestações
Rocha
mandato
causado
Comarca
Cál
interposta
PODER
APARE
Jorge
regramento
EXECUT
bancários
FÁTICA
gerador
intermédio
ficam
##nição
indicada
IM
REAL
Un
obede
##BELL
anulação
Questão
Daí
FRE
##enciado
##VIA
trabalhado
##EIX
##sid
viabilidade
respaldo
destaco
reparos
FAB
outor
CAMPBELL
várias
desvio
RELAÇÃO
LOPES
próprias
Vieira
insiste
Manual
##lado
##igni
agravos
Regionais
sumular
MM
##ANDRO
carreira
acusa
Minas
alíneas
adst
472
##essoal
##cionário
##cr
multas
SALOM
emer
Mandado
cartões
notificação
##IMA
##ANDER
reintegração
impondo
Noronha
CONFIGURADA
demonstre
292
SEGURA
sing
contidos
mantidas
SIM
deferiu
##radas
encaminh
setenta
ps
vinha
APRE
prevenção
##reve
menores
competências
##nal
proibição
enfermidade
##lan
prejudi
108
Maia
SUBSTITUIÇÃO
584
Previdenciário
Fora
delineado
700
SALOMÃO
Dep
continua
pretéri
COMPENS
desf
observadas
instauração
##ross
##NE
promul
LUC
servir
estrang
destinado
LOAS
unilateral
exames
Necess
advi
configurando
Pretório
come
ArgInc
BENEDITO
indenizatório
domiciliar
negativo
comerciais
fixando
Artigo
recomp
sócio
debates
##cros
infringentes
contrari
Desembargadora
configurar
Nesses
CURIA
INCISO
##ím
obreira
cedi
Casa
gerar
DÉBITOS
frag
disson
renúncia
evolução
##MARA
DANTAS
terem
dialeticidade
carre
Vil
autorizado
##lamentar
Chefe
##ABELE
Lima
promovente
aprovada
Mor
diárias
pede
194
Dora
decl
Regula
recusa
##istindo
CURIAE
##ensor
##mputo
específicas
recorrentes
APLICÁVEL
OP
##EAMENTO
Redator
##essora
##ugu
pouco
INSTRUÇÃO
exauri
cito
##ton
veda
##cin
Aplicação
##MG
jamais
Magistrado
nocivo
##cide
racio
interro
DANI
##TÓRIOS
espaço
Conju
##ustavo
preenchido
incidindo
##rimes
constituir
liti
imperi
IP
ECONÔMICA
DESCU
impac
Criminal
##UÍ
Pedido
inexigibilidade
226
##corrente
encontrava
alcançar
Tar
INCO
##sma
cabia
fixa
membro
chegou
5a
116
##oneidade
COLETIVA
122
cômputo
Novo
EXISTÊNCIA
exe
##GEL
aprove
FUNDAÇÃO
milh
afirmado
Grau
cred
aviso
Observa
movimentação
dispensado
131
255
Arru
EMPREGADO
demissão
permissivo
COMPAN
unicamente
exposta
apelante
cognição
##mpa
logrou
honra
sobrevi
##cular
reper
mister
##ULAÇÃO
##ÍSSIMO
regularização
REQUISITO
##USULA
Arruda
futura
apólice
energia
IB
REST
porte
##canso
discutida
levar
##corrência
interessado
DECOR
veiculadas
ultrapassa
Gustavo
ia
superveniente
##ientes
elencados
submetidos
adimpl
DESCUMPRIMENTO
LEGITIMIDADE
unip
##ICOS
525
##EIO
neles
##verino
##SSÃO
ANAL
ement
assenta
fazem
manejo
173
383
exempli
Medeiros
##ciani
911
preo
especialidade
##ndidas
procuração
cogitar
146
Oitava
SOUSA
injusti
sobrevenha
Bres
licitude
##ERIO
concentrado
##MENTAR
567
concession
Assis
providos
Bresciani
##pole
Condenação
escri
043
##quo
130
despesa
estabelecendo
Rev
apare
apurado
Antônio
Inde
##IDAS
##inas
JURÍDICO
influ
transcreveu
conex
779
SALÁRIO
perfeito
estou
dependente
inadmissibilidade
deserção
solte
permanece
REIS
esteve
Convenção
##AF
descanso
recentemente
prisma
##ÓRIAS
CLÁUSULA
##ouso
fidu
Guilher
Mall
PEDRO
veio
##bri
ATUALIZAÇÃO
Apesar
Sch
contín
distrib
crist
che
tributos
Guilherme
estavam
Mallmann
elétri
Assevera
multi
exau
APARECI
##IOS
reafirmou
identificação
##ANHA
estável
atribuiu
dor
Analis
unipessoal
proferidos
condutor
##inariamente
dependentes
EXC
XXVI
André
naquele
funcionários
rurais
9o
##itável
dependência
LAUDO
803
eficiência
140
intermedi
##FORM
HELENA
128
##GRAF
água
moeda
vigilância
ÓBICE
##ARIAL
Gratuita
remo
veros
395
##ETO
declarações
indéb
depender
fixo
##culp
AÇÕES
rejeitada
##riou
realizou
cediço
alíquo
sil
corpo
DEMONSTRAÇÃO
cobertura
prestou
estaduais
501
efetuado
admitiu
duz
temos
CRIME
alh
atuar
pension
socioe
informar
concedidos
mostram
subjetivos
##ublica
analisou
CEZAR
Corpus
procla
##EST
PIS
DESCABIMENTO
acerto
##ATIVO
postulação
Fundação
DETER
assunto
imo
requereu
VAZ
coa
Ellen
##ícil
INSUFICI
Galvão
barreiras
assentada
##ução
810
429
autorizada
cha
Índ
##uídas
##goas
designado
Cruz
títulos
God
Sanse
##ECÍ
transitadas
baliz
PROP
indeferido
irrelevante
PREVISTO
##itamento
estritamente
Sanseverino
examinada
##EMBARG
colegi
prejudicial
concom
estim
DECRETO
Godinho
MATE
posteriores
possam
participou
##uei
características
preceitu
355
Petrob
eletronicamente
##tificações
bon
##bidade
##inados
esb
constituição
MOT
qualificado
protelatório
conhecida
útil
FASE
1001
apurar
##ét
expl
##ENCIAL
##todo
PROF
inaplicabilidade
difícil
##uk
suspender
prospera
inseridos
Recon
##mite
reconheço
5°
MÁ
FALTA
##conha
comprovem
##TIL
maternidade
124
CRIST
AFAST
pertinência
CONSUMIDOR
133
goza
produzidas
##minar
companheiro
##UCO
Napole
Gracie
Reclamado
Reis
acid
incapacitante
Preliminar
DESEMBARG
##ícias
Napoleão
fruição
INDEFERI
suportar
descab
maconha
válido
Tarso
867
exercia
raciocínio
INCIDENTE
subst
Tel
EXIG
Vejamos
Ressalto
configurado
andamento
##001
##osos
bastando
141
Atividade
Ir
tutel
##ETIVA
##pes
confirmou
##CAR
##gê
ESTAT
Breno
protes
problem
0231
##âmica
ALEGADA
Bastos
Defende
Advo
enfa
preços
##ÍTULO
legitim
informou
##ína
Entendo
##RIEDADE
BO
RECUPERAÇÃO
lança
##teza
pacificado
evidência
repetitivo
preço
RODRIGO
COISA
##lex
RISTJ
##estado
trabalhar
##étima
aderi
##secu
entendido
constituído
SUSPENSÃO
INCOR
recorrer
ROS
##unha
288
substituídos
limitações
apel
##ficância
lastro
majo
##CIONAIS
determinados
Raul
agravamento
##ukina
##QUIM
sele
Auto
PETROBRAS
##DD
implicaria
habitu
Agravados
##tais
TUTELA
Amaro
trabalhava
deveriam
LOCAL
amplo
promoções
indeniz
Kukina
##ínseco
repouso
parlamentar
proveito
168
CIR
COMPANHIA
trabalha
PACIENTE
##VOC
Faria
secu
relation
cumulada
106
garantido
exemplifica
##ficiais
remunerado
Li
##LIA
##volu
der
arquivem
inici
At
possibilitar
improbidade
terceirizado
usuf
855
preconiza
acompanhar
##ritária
negociação
inid
BRASILEIRA
piso
desconsidera
REQUERI
expec
##fei
Exmos
contrata
domic
administrativamente
INVALIDEZ
636
invocado
transm
##ênios
Note
relationem
singular
##cidência
##itário
próx
CONDI
constar
pretens
161
Congresso
mim
mó
básico
Destaca
##pel
educação
MACH
Princípio
Inconformada
análo
pacífico
011
obrigatoriedade
progra
consent
usurp
voluntária
sobrestados
prêmio
Benefícios
bom
##NICO
limitada
##ntamento
RECEB
vinculação
aptos
##nol
particulares
região
##teu
Ilmar
COBRANÇA
##URAL
COMPENSAÇÃO
aproxim
Esclare
MARI
comprove
##çã
BRUN
##icações
Fe
##ENDO
##ETTI
##enciante
confere
erig
discutir
Fundamentação
##QUER
responsáveis
remetam
caberia
FARIA
AMB
qualifica
coord
precisamente
REGIÃO
LIMIT
Aco
editou
MACHADO
Asso
idêntica
RESCISÓRIA
VIL
trazidas
FORM
descrito
exerce
colhe
##róp
programa
463
Fischer
Índice
liminarmente
REY
Direitos
EMBTE
Programa
oriundos
quarto
CONCED
vagas
##iguidade
##ÉCI
naquela
perpetra
Comissão
vistas
participado
incidentes
suprir
Inviável
supraci
OBRIGAÇÕES
##pondo
transcrita
##caína
enfoque
0009
123
##urgel
Fon
transcrevo
imagem
bi
militares
Felix
insurg
Gurgel
Hon
restritiva
##VIS
rendimentos
contratadas
832
EMBDO
1987
agro
##sando
constou
emissão
exara
anist
##essem
perfeitamente
enfrentamento
IMPETRANTE
advogados
Sali
Assistência
LIT
delimitação
tornando
estran
INCORP
complexidade
##RADE
Destaco
Gallo
estrito
desconsideração
Tais
histórico
GMA
admitindo
LUCIA
deliberação
recome
Seba
REYNALDO
verificado
##issões
528
016
espo
Mes
sug
INDI
detent
ESPECÍ
##REDO
Processual
##verou
ani
existem
Inad
MOD
##BE
INSAL
litígio
VARA
##ego
##urar
##cedora
pronunciou
##seca
INSALUB
adotando
cocaína
GE
revelia
desprovimento
##ocrático
INDICAÇÃO
ensejo
353
exeque
Fonseca
165
SEGURADO
Gallotti
habituais
atendido
CONDUTA
interromp
Assus
Melo
mista
##nças
Distribuição
inserido
##curadora
resultados
JOAQUIM
##TTI
##nterrup
Rece
Assusete
dedução
##032
PAULA
N°
destinados
##LITO
inoc
Sebasti
excerto
Moreira
manifesto
lucros
##CIADO
culpabilidade
din
sens
PESSOA
Condeno
condenada
SUPRESSÃO
divisão
persecu
Sebastião
ANDRÉ
ALBERTO
relatado
concedeu
rejeito
lin
RAFA
701
estiv
NORMATIVA
##ocra
sentenciante
acla
NASCIMENTO
repor
rejeição
Ala
vínculos
medicamentos
reci
Empresa
Conv
Democrático
##cionados
Rena
206
##ógicos
##UDE
invál
##ivis
permitindo
050
abal
fiel
##217
125
insculp
Rem
indébito
fur
157
acusados
desfavorável
##éis
PDFs
ininterrup
contratar
UNIFORM
obras
sáb
##AA
muitas
indivíduo
##UST
acompanha
cliente
trâmite
acent
definidos
##tativo
sanções
Parti
bast
##ÁTER
deferir
LIMINAR
##ONA
recebida
Técnico
CARÁTER
ocasion
171
inviabilidade
posit
151
forem
vent
rejeitar
Eleitoral
CSJT
fen
recorre
ANDRADE
vers
CONSTRU
LEGALIDADE
quebra
Satisfeitos
decretada
RAUL
orçamentária
afirmando
Trib
PREVIDÊNCIA
fatura
domicílio
PERNA
classe
abst
filiação
Indica
administrativas
envi
instituída
Fontan
UF
reformada
PROD
denominada
bojo
MEDIDA
143
Requerida
médio
constatar
caberá
##hão
Seja
##árqu
valer
transitados
locais
afigurando
CES
coad
Recorrido
disponibiliz
##embl
##vência
PERNAMB
DISTRIBUIÇÃO
Honorários
ineg
rad
##nha
INOB
caixa
POS
##vern
COMER
pudesse
efetuada
Relatoria
Constitucionais
Mira
lá
dup
188
Foram
incidem
monocrático
##ír
ITA
Informa
Decide
LAURITA
finan
comprovante
aval
##iais
##047
corré
compromis
certame
inver
Op
iv
##RANDA
duzentos
prima
##ntados
compreende
RECLAMADO
aplicou
participaram
uniformiz
AMP
##RANG
REJEIT
REMUNERA
cujas
fro
apreendida
totalidade
caracterizado
utilizar
efetivação
superada
averi
C584
acolheu
##stico
restrições
##UTO
SILV
referencial
prio
feriado
Reit
particula
irregularidades
ambiental
pacificou
questiona
pacto
##BF
lista
##ATOR
condicionada
267
corrigir
##BAS
##timento
##aa
JA
##ATÓRIO
NANC
##cê
Atendidos
PERNAMBUCO
àquele
GUSTA
CERC
reuni
denegatório
Juríd
Analisando
tarefas
LC
NANCY
cun
##IVAS
registre
reflete
abord
##DIA
identificar
966
317
REFLEXA
irmão
GUSTAVO
remuneratórios
delitu
8o
reajustes
HUMBERTO
demora
mantenho
concernente
INDIVID
signa
ANDRIG
LAB
transt
Mauri
739
cabal
##órcio
##ratórios
envolvidas
favoráveis
postulante
Aplica
PARÁ
comuns
agiu
exib
Sétima
Sua
outrossim
ANDRIGHI
##INÁRIA
cass
##605
##ndro
consecutivos
##2164
##jamento
CONVERSÃO
afastado
LEITE
fazê
Bela
viabiliza
##gráfico
##AE
TREC
##ércio
empree
437
DESEMBARGADOR
##ag
INOBSERVÂNCIA
EVENT
satisfaz
DEFENS
extint
sensorial
assistente
procedentes
Regular
eleitoral
noti
demonstrando
##tende
691
##utada
132
distintos
##ee
sofridos
COATOR
##600
TRECHO
insigni
exigível
fenôm
ERRO
leve
delas
dinâmica
procura
##UNHA
Mauricio
MATERIAIS
Perten
454
Crimes
resultar
vide
SALD
##TOS
ativos
##TOR
RRA
planos
Inden
DANIEL
justo
elu
abor
CERCEAMENTO
988
RAFAEL
884
restar
Destaque
atendeu
imóveis
Valor
interação
##INI
fazia
UNIFORMIZAÇÃO
459
MANI
padrão
Ordinário
##erância
frequ
atinentes
337
##tários
##VOR
Pertence
notícia
##ard
Servid
Raz
aptas
PENSÃO
ASSISTÊNCIA
##mentando
violou
INCOMP
conste
deferidos
alegou
ILEGAL
##itente
##cute
transação
legíti
encontrar
##entadas
prolatada
RRAg
##cordo
passado
cf
jurisdi
vencida
##ARÁ
Regina
ELI
prequestionadas
##UZZI
MANIFE
Pessoa
Inq
##PE
PERC
LIMITAÇÃO
##edor
suspensivo
MAGALH
celebrados
ajuste
resumo
analisando
MAGALHÃES
apresente
INADMISSIBILIDADE
##ILSON
##ocraticamente
inserida
BENEFICI
alienação
considero
JUL
central
problemas
constato
##EDE
assegurada
##uado
Miranda
139
doutrin
monocraticamente
##itória
##rol
margem
BAT
##téria
feitas
dedic
incent
Dje
pendente
produzido
BANCÁRIO
ADMINISTRATIVA
Tribut
invocada
pleiteada
##mana
Esp
##mol
confirmação
aí
econômicos
dê
ausentes
PETIÇÃO
acrescent
CRIT
PINTO
783
RECORRIDA
PACTE
461
instituiu
CAPUT
##ndir
Subprocuradora
rés
dete
##turas
##TON
##mada
rendimento
ROGERIO
SALDANHA
patronal
Tempestivo
##ncial
examinado
##vagem
probabilidade
Alagoas
consec
MELO
##ía
SALA
Cristina
MAS
exercidas
Wal
##ÍPIOS
Buzzi
##ÉC
BE
retenção
acrescidas
PERMAN
descabe
sustentação
fund
CARGO
cível
pais
PELUSO
ges
SOLID
justificativa
renova
candidatos
pormen
##tivação
GRU
Sup
430
numa
019
reclamações
suscitados
sofreu
cr
##ITIVA
##515
##vição
consist
Cálculos
0002
veículos
las
inúmeros
aposentados
##vocar
CUST
##irro
492
abstrato
elaborado
##CÃO
urbana
CONV
##etra
OBJETO
175
ALTERAÇÃO
##dora
##ERÇÃO
Paciente
Defenso
##formidade
2a
##INH
338
colacionados
##imações
rema
Sim
Ofensa
emitido
indire
##ÁVEIS
imunidade
rege
juntado
REFEREN
119
Recursais
FÉRIAS
interrupção
XXIX
pretensões
##izados
improcedentes
844
664
idoneidade
conciliação
desenvolvida
funcionamento
##ndemia
decorrem
confirmada
antecipado
trabalhadora
internacional
FLA
horários
eleita
##comun
DEFENSOR
ACID
BOR
consulta
Associação
##gnó
admissível
Aqu
possuía
SOLIDÁRIA
enfrentar
faça
CRISTINA
AFRO
perceber
preocup
JEF
INDIRETA
CIRC
devedora
quinh
VOL
##eqü
POSTERIOR
144
telefone
Frise
equivalentes
idosa
similitude
##ENCIA
hospital
Diz
REGINA
rescinde
invest
uniforme
imper
Governo
vulnerabilidade
Reci
RESOL
figurar
987
semia
EXERC
autônomo
integram
judicialmente
descritos
##mação
evidentemente
3°
diligências
RD
subsiste
##itima
ajuda
496
obstruir
sofrer
persecução
Cés
César
egrégio
Dispositivo
promulgação
informado
ACT
pacientes
Amb
Agente
extinta
AFRONTA
Insurge
Fl
oficiais
rur
##cord
rescindenda
Amp
##RENTES
##ércia
##cito
##ceram
prever
ign
Proced
##BAMA
juí
MAIS
ân
766
praticada
práticas
ventil
MONT
corrupção
##OLHIMENTO
compõem
interessa
Conjunto
##ARIA
950
Importante
decadencial
sindica
motoci
##temp
220
Juíza
conseqü
consignados
fac
regido
apreciado
remans
Univers
ocupantes
garante
##erem
tolerância
FALCÃO
formulada
semiaberto
##metido
psic
CAUTELAR
reparo
fenômeno
##uos
CI
vince
##dicamente
quinhentos
destinada
absolvição
coleta
RITO
##aliza
Federação
prestada
IBAMA
ocorra
impugnados
conveniência
##B5
limitar
sucessivo
TEIX
mecan
elétrica
pauta
SALARIAL
ocupacional
Th
pronúncia
##cad
possíveis
titula
CONDIÇÕES
##orno
TEIXEIRA
inércia
impostos
trazido
##art
##BD
adotadas
atraindo
discriminação
138
##FICAÇÃO
Edu
PALH
gui
àquelas
revelando
exigindo
denunciados
signatário
365
cunho
Determin
implemento
##toriamente
TÉC
intimada
valora
amol
expectativa
LEON
523
diga
##JORNADA
Már
previ
alta
dispõem
Petrobras
RJ1
alme
graves
domínio
investigações
##úst
limp
##corrido
ACORDO
CEARÁ
lógico
544
MESA
composta
transform
DESCON
BUZZI
reputados
GUIL
tratada
mencionar
INTEGRAL
permitida
EMPREGO
predo
##vidade
usurpação
incorpor
TOMADOR
##003
Ano
Impetra
autoridades
Egrégia
PALHEIRO
##ÁVIO
semana
REA
sucedâneo
Reforma
papel
analisadas
##ceptível
atacado
GOI
DESERÇÃO
insalubres
FRA
INTERESS
criado
presume
Cir
ARAU
candidato
substitutivo
IMPTE
remansosa
##ítica
##ciária
irrecorr
RAMOS
subsequentes
GUI
corte
legislativo
Colendo
Isa
extraordinários
Recorri
147
NOME
reincidência
motivada
MIRANDA
escal
Pugna
Drogas
proprietário
declaratória
PREEN
PERICIAL
publicadas
MATÉRIAS
FL
189
prejudica
democr
viável
404
COF
ocupação
156
coloca
442
Defensoria
lavagem
741
Preços
XI
apontou
Cur
TRÂN
QUANTO
##pare
acordos
##ística
avan
serve
estamos
##ERSON
balizas
SERVIDO
reparar
desigu
VÍN
delineada
tornou
FIRM
pandemia
##cussões
sítio
TRÂNSITO
rede
GUILHER
esbarra
CÉ
criminosas
382
Ramos
concomitante
revelar
Neto
OBSERVÂNCIA
restrita
idêntico
MENDON
347
conexão
964
REGULA
1966
semelhantes
residente
Mesmo
##strada
Qual
LXXVIII
##çou
##itivas
Centro
PROCEDIMENTO
gravos
Pare
UTIL
urbano
VE
arca
denegada
celebração
CAVAL
cerca
833
REMUNERAÇÃO
Ita
revogada
SERVIDORES
corresponder
163
pormeno
determino
327
PROVIS
Den
PAUTA
##0001
Transcre
agress
Ob
MAJ
ativo
##VOLVIMENTO
adotaram
##alidades
exarado
BAHIA
OBRIGAÇÃO
carece
mail
univers
Matéria
indexação
inserção
declarando
##ins
registra
IG
##etti
níveis
semanais
Prote
VERBAS
##úmeras
##ue
PREENCH
sexta
exced
GUILHERME
jorn
avaliar
reve
frisar
agricultura
DOCU
##posentado
municip
exausti
TAR
Demon
suspensiva
ACO
##ADORES
##ribilidade
origin
##ânica
certeza
EXTENSÃO
Recife
ASSIST
habitualmente
REDAÇÃO
167
Liqu
##oo
anular
436
##0325
cient
INSALUBRIDADE
Dantas
expendidos
lesões
preposto
##cimos
CONTRADIÇÃO
trato
RIS
retirada
VÍNCULO
NAPO
sta
pericul
irrecorrível
##ÉT
rurícola
##ouve
##tadores
disponibilidade
##hecimento
Julgador
julgando
evidenciam
confira
individualmente
SP3
Renato
Ina
SALARIAIS
sucessão
DESPROVIMENTO
BELL
mú
OG
far
narra
inúmeras
##ANE
Inca
136
pesqu
Comum
excel
##tus
##ITAS
381
882
##tindo
OUTRAS
##ENDE
BRUNO
eficiente
OT
CORREI
ARAUJO
RS0
##icídio
##og
##log
##ULADA
alegar
comissiva
necessidades
SUMAR
PROCEDÊNCIA
eta
NAPOLE
##ética
##exame
COFINS
##SSA
inegável
##educa
resguardar
024
0007
sequência
espera
##FC
##ÍNI
pecuniária
dicção
##itig
##egue
convênio
motorista
DISS
lembrar
feriados
ensejou
TRANSPORTE
##FD
manejado
contado
aper
PREVISTA
##zia
invoca
##ENTÉSIMO
##DEIRO
840
##EITA
lomb
exata
TCU
##SAIS
denota
semelhante
SANTO
Rey
imputada
representar
prescreve
##imal
define
##stecimento
##posentadoria
aquisitivo
esteio
Custas
questionada
constitutivo
implementação
condeno
levou
225
EI
Nesta
divergente
RECURSAIS
Acor
ambientais
##RICA
##F1
HIP
##net
impera
inaugu
pade
motocicle
retorn
prevalece
##RIM
CONVOC
##mado
NAPOLEÃO
formas
RENA
285
volta
CG
concluindo
indust
prejudiciais
Sep
256
promovidas
##espe
nascimento
##ugn
169
322
PRINCÍPIOS
DOB
ORI
most
##bili
projeto
363
Ino
NB
Repet
íntegra
##çoso
infrações
criança
inidô
prec
##LEN
protelatórios
Empre
Isabel
her
Márcio
periculum
##624
DESN
intrans
DETERMIN
ILEGALIDADE
BATISTA
EXTIN
arbitramento
instituidor
pertence
INDEVIDA
##fast
##teis
fundi
descaracteriza
denegar
civis
PREVISÃO
478
##idora
183
Liquidação
ISABEL
modalidades
1986
omissões
ensejarão
##ITAR
insignificância
incontroversa
acompanhada
##020
coaduna
394
solteiros
acome
Houve
##CS
##VERI
Pede
##ATA
002
constituída
formalizado
extinguindo
##sima
##veda
##ENCIAIS
diferente
Claudio
disciplinado
combatida
verdadeiro
vincendas
inativos
reprimenda
resultante
adota
calculada
TÍTULO
reduzir
desrespe
súmulas
##eguir
oferecer
007
##ADEQU
SUCUMBÊNCIA
PROVISÓRIA
preliminares
vislumbro
analisados
##licidade
primário
aber
convenção
##úlveda
superação
defeitos
apresentando
458
principais
Sepúlveda
população
qui
breve
oportunos
ressaltou
alternativa
##EIÇÃO
204
493
ótica
DC
vigi
821
##zonte
Acer
goz
276
distinta
PROMO
NORM
definitivamente
Subsid
DECLARATÓRIA
introduzido
##cis
BELLIZ
293
ACIDENTE
neguei
240
mencionadas
##ENTAÇÃO
REDUÇÃO
##queio
##UDIO
DECID
impli
##çadas
permitido
196
incorreu
##issio
##TUDE
##pol
BELLIZZE
FREITAS
omisso
alterado
propriamente
decisório
Hugo
suscitado
SUMARÍSSIMO
##LER
assem
Hori
adquiri
agr
EXERCÍCIO
##ÓT
##dice
##944
motivado
CORDEIRO
##ROL
denominado
Eros
fracionário
receita
buscar
##cutir
condenatório
petita
##gnóstico
##BERT
exim
##EZES
##SIONAL
Govern
##írus
Amplo
restrito
##jus
vend
depositados
provis
resistência
paridade
1985
FIXAÇÃO
Transcreve
cadastros
4921
estatais
proceda
apropri
decidindo
##LAT
##ntar
Schi
procedeu
##quet
acompanho
##F2
##isas
035
EVENTUAL
validação
carta
269
##ini
DJU
GAB
vencedor
físicas
##ABIL
CARACTERIZ
##gando
DESCO
antiguidade
predomin
concluído
constrição
866
apontar
externa
individu
intimado
154
##utou
unidades
detida
permaneceu
Legislação
bené
aten
incur
ocul
gratificações
Diretas
coatora
##ná
remunerados
ofendido
##091
##madas
##ASA
Caputo
percentuais
##ponível
mantidos
impugnam
alíquota
Schietti
ditames
348
adoles
laborativas
Reynaldo
FC
contribu
intempes
Bô
IBGE
cobrado
completo
legitima
##erações
SEBA
extremamente
##mir
Resta
##cant
Belo
faculdade
desate
703
MUNICIPAL
áreas
compul
##RIBUI
##GES
ENER
prestador
comission
comercialização
Inteligência
190
supera
união
extern
ofende
presci
580
158
##UNÇÃO
fundamentou
##URAÇÃO
intercep
Inexiste
afeta
discriciona
##MANDA
preceitua
cultura
MÍNI
##ndole
Regulamento
judice
Consign
Observe
##015
tido
NOVA
DEVIDA
910
índole
Proteção
##ional
##undado
GOIÁS
##cnol
juízes
##ênci
##loso
323
265
##F3
GRUPO
abs
Dela
reda
##UK
##pasão
cade
típica
INADEQU
JUDICIÁRIA
##ez
##béis
regem
ADCs
NOVO
exatos
Diário
COMUM
requerendo
DISC
verificando
causam
decibéis
colig
remuneratória
CÂ
pesqueira
##mi
experiência
HIPÓT
concedidas
##NICA
governo
insalubre
Acerca
verificou
cos
assegurados
diapasão
recha
empreendimento
##judic
029
laborado
Cesar
cancel
dilação
paral
##EGO
bastasse
pátria
PRECEDENTE
253
coin
benefi
Inadmis
Pedro
ASSIS
rob
impacto
divisor
recentes
equipamentos
Curso
conquanto
exclui
Horizonte
DU
##EMA
nossa
atrasados
##uros
Peduzzi
pactuado
315
essência
sociedades
periciando
amparado
arrastamento
prepo
repasse
4425
##ÚNCIA
##ágio
protesto
procede
psicol
descritas
DISP
##PEC
JES
Visualização
FORMA
recíp
subsequente
nula
ANTECIP
ocorridos
0003
sigilo
técnicos
intrínseco
coma
fer
higi
##QUAD
roubo
detec
##DITOS
##ãe
##itido
impugnou
realiza
supram
abusivas
laudos
CONTE
desnecessário
##CHER
Cin
Sche
flex
conferiu
##mus
##nejamento
elid
contornos
inscritos
nessas
CONFIGURADO
relatora
##ler
merecem
inadimplidas
fraudul
DEMONSTRADA
025
PLR
##ERVA
filha
##fil
##245
bancárias
Mon
##BIT
##issiográfico
184
Paraná
rub
suspenso
##rizada
FACE
buscando
##como
ENG
pl
475
gastos
185
Fernando
impenh
ficará
deduzidos
##RUP
##VERINO
oitiva
seara
##mprimento
313
reduzido
remissão
Superiores
anotação
##ereza
Tr
##irem
198
Constata
Eduardo
chamado
IDÔN
Analiso
racional
160
340
Pretende
REGIST
##locu
supramen
pequeno
US
aclaratórios
##oro
eleg
pob
identifica
GAC
jo
359
escola
restringir
##ermann
159
##STITUT
748
##ETIVO
opinou
nobre
##ORCIONAL
fundamentar
sucinta
Arguição
RURAL
Diver
REFERENCIAL
CIRCUN
GACEN
cong
mold
##gerio
estudo
FELIX
CRÉDITOS
INTRA
dissonância
desempenha
hostil
básicos
Rogerio
Reje
objetivamente
Cada
violar
ÚNICO
SANTANA
recomposição
Até
##RATAÇÃO
##544
inteligência
PODE
insere
Gratificação
Discute
chamada
EVID
mãe
FINANCEIRA
muitos
1983
ÀS
##uber
PROCURADO
inal
##uermann
##erá
CH
interlocu
Oficial
##cerda
PREJUDIC
abusividade
MENDONÇA
lavrado
seguindo
MENEZES
Lacerda
##ólica
utiliza
saída
cometi
anotações
pronunciar
Rea
aponte
temporário
lesiva
##ÉRCIO
praticou
titulares
##ventura
amparada
5766
448
##BIL
##rizar
atribuindo
##eva
EQUI
forte
##itório
##251
C54254
ELE
presti
tomar
adia
front
0004
Elia
preval
recor
Scheuermann
APARECIDA
domicili
limpeza
GAR
juntamente
RETRATAÇÃO
biol
judiciário
letra
LIN
424
dupla
##pas
13º
##embleia
mandamus
adoto
Somente
Inexistência
Apres
Alen
apreciou
exclus
mútu
adentrar
RAZÕES
Transcrevo
PROCESSUAIS
##comunicações
indevidos
##SIVO
indicando
CAVALCA
incó
BENEFICIÁRIO
GUR
##uação
DEFERI
207
Vit
JOEL
MILITAR
domést
CESAR
cometimento
Mene
justificou
ADEQU
329
reiteradamente
876
Menezes
atinge
Interposto
polícia
Examin
Calmon
ARGU
Alencar
assentar
motocicleta
718
USO
##B2
NORMAS
acumulado
EMPRESAS
DESNECESSIDADE
598
reto
ajuizadas
defiro
pec
Cargos
##iano
ip
esforço
antigo
indeferir
esclareceu
gu
Tributário
esclarecimento
ideia
obrigatório
discricionariedade
##CEL
dirimida
Evid
relacionado
sucessiva
vigilante
SILVEIRA
DAR
##mula
extrapo
Villas
preocupação
##icação
recai
incorporados
##RELI
INTRAJORNADA
DEFIN
encerramento
Paiva
##STITUCIONAIS
GALLO
013
##EDI
fixadas
determinadas
descrita
enfatiz
questionado
##URI
##gibilidade
Arantes
0018
sabido
erário
##SION
desdo
intens
CUNHA
mitig
coletividade
restaram
acusatória
##teriormente
##elar
SCHI
Cueva
arguida
sedimentada
##TAS
mercadorias
independe
ESPÉCI
expediente
EXTINÇÃO
##ítimas
##lum
solidariedade
legislar
literalidade
##if
ressalto
abrangendo
armaz
##loy
VIC
231
152
complementares
##verb
##MET
GURGEL
RESCI
atendendo
edi
##ificação
publi
ARG
políticos
AGENTE
##dando
pura
pert
CONSUB
proferir
transmud
Receita
010
Siqueira
tempestivamente
pai
liberação
##uras
Reexame
reconhecidas
Euri
insusceptível
RI
EFEITO
Interna
Bôas
Vol
sequela
BENEFÍCIOS
englo
##ONE
PARTIR
244
DII
##rigo
IMPO
##opes
##ode
juntou
178
Eurico
sentir
ajuizou
extrato
Possibilidade
controles
quesito
374
municípios
necessita
coator
reavali
INDIVIDUAL
destacando
##per
MERC
##ERRA
exibição
Compete
ENUN
166
substituído
atestado
portaria
âng
argui
AE
alegados
BRIT
pejus
peças
comissões
remuneratório
##vocação
Aos
Educação
óbvio
##CIDO
punitiva
##tiza
JOAO
##B6
GALLOTTI
CÂMARA
desconhe
danoso
atualizados
transpor
REIT
ilícitos
Eliana
Sen
equivocada
ESPECÍFICA
CIRCUNST
Walmir
oneros
esgotamento
associados
FIM
TI
##QUEIRA
mundo
asseverou
valendo
culmin
##ivamento
INVE
resolver
##235
AJUIZADA
Ado
àquela
periciado
publicidade
##ICAS
##itantes
sustentar
EMPREGADOR
##omes
##sivas
##D8
indispensáveis
interessada
SCHIETTI
HA
anexa
460
##gend
trez
Joel
quadros
DF01
944
XII
ANDRE
irris
##D1
destinadas
expedido
descrição
imputar
##yen
reclamatória
##PP
BRASILEIRO
ÂMB
proteger
SUCUMBENCIAIS
referir
magistrados
##tral
Financeiro
Mérito
Julgados
##POSTA
gesta
contrapres
exorb
oriundo
Mus
SOCI
desconstitu
##rigoyen
ÂMBITO
ganh
##líqu
005
seq
moralidade
221
RMI
350
##IVAÇÃO
elim
inferiores
INTERESSE
contendo
Irigoyen
##lhos
##égio
FISCHER
INDEFERIMENTO
##pacidade
##RANGIMENTO
pp
reapre
dedicação
Thereza
cautela
Doc
inspe
##aldade
inteira
estabelecem
REFORMA
##D2
249
constituinte
aprof
incapacitada
FORA
CAMPOS
assente
carteira
##glas
##liz
inseg
##B8
Saliente
SIT
registrada
desv
RESOLUÇÃO
##ENO
Douglas
Impetrante
BRAN
##SAR
##bos
restam
mensalmente
nítida
##patia
CONSTRANGIMENTO
inadequação
substância
PROFIS
reformatio
perqui
arbitrados
##D0
##B9
Impõe
##mática
apurados
##ERÊNCIA
diab
remunerada
BRITTO
Batista
alguém
terri
levada
148
emenda
asser
defeito
referem
NORTE
0005
MEDEIROS
##QUADRAMENTO
Vio
##istir
##B3
ignora
973
bloqueio
merecimento
pedag
ost
consul
##OND
Lim
LEGAIS
flu
Aposentadoria
ressaltando
RAT
Lopes
MEIO
##D5
forçoso
desnecessidade
corp
analógica
aprend
firmar
sucumbente
ESTABELE
certamente
DEVOL
privadas
terra
##D6
Gomes
Governador
Egrégio
##lam
compel
exi
porventura
recolhidos
assistenciais
##STANCIA
EIRELI
REJEITADOS
##MAS
esposa
originariamente
012
ressalvado
genéricos
CHA
grupos
máqu
##eixeira
olvid
individualização
605
##ETRIA
IRR
362
crivo
tiveram
justific
Nova
Apenas
teratologia
##A9
##GAÇÃO
3a
conserv
sanada
COMÉRCIO
postulados
684
260
Cust
juridicamente
reconheça
estivesse
360
gol
8030
##D4
386
##enciar
impar
Jun
Salda
##olsa
descontín
ECONÔMICO
MENSAL
propostas
##íde
IMÓ
casamento
C54250
##LES
pretexto
Castro
demandar
CELET
##ponha
inadequada
deso
termin
colaboração
Teixeira
compatibilidade
prestadoras
RESERVA
##023
dispensada
trezentos
##assem
197
DEFICIÊNCIA
Conclui
intime
patrimoniais
encontro
Mussi
bal
OBSC
destinatário
Contraminuta
Vitral
##B0
##559
CONSUBSTANCIA
externo
bienal
##hecido
apontando
##C0
competia
prat
##B7
percebido
reduzida
Lo
PASS
futuro
Vei
##similh
ocasional
lucro
SEBASTI
MONTEIRO
elencadas
KUK
VERI
AY
##EMÁTICA
##cionadas
País
##AG
248
Judicial
formulário
Banc
##0201
cem
designação
Ga
KUKINA
##D3
##B4
caracterizando
##ndao
Nega
arquivamento
bole
Veiga
eletrônica
cuidados
CRE
descontados
Perfil
##gadas
destran
Marc
LEONARDO
##URIDADE
##217000
administrador
##IANA
oriundas
ângulo
##IDADES
banh
acostados
arrecad
396
compensar
estará
##DIT
CARACTERIZAÇÃO
Opostos
Brandao
ENC
##nciamentos
entorpecente
Necessidade
Vista
abalo
notório
Dos
visão
##quias
Cinge
examinou
Saldanha
##enciamento
##similhança
Entende
Termo
APRESENT
computado
##contra
Ilan
REAJU
reser
permanecendo
ESTABILIDADE
OBSCURIDADE
##E1
impertin
MAL
EXCE
##versário
GABRI
EV
imputado
rescindendo
##ROLE
conferido
bancos
daquelas
tidos
MODULAÇÃO
##terna
##gast
##nik
##INHO
homicídio
titularidade
quím
##VEDO
limitado
imparcial
INCOMPETÊNCIA
##mentou
elementar
Brasileira
Pra
##947
eletri
efetuou
ARBIT
##212
incompatibilidade
operacional
0024
##HEC
estariam
##DOSO
ultrapassar
IMO
sequencial
faltas
Requis
constam
mic
##2201
FATO
exploração
conjunta
agricultor
esva
normativas
NECESS
##aso
milhões
perde
##usos
##INHEIRO
##D7
ensejando
SUBSTITUT
virtuais
##rudência
previu
Aloy
fiscalizatório
Aloysio
##INÁRIAS
proveniente
1⁄
ENUNCIADO
obtidos
##D9
PEC
##vez
##E8
remetidos
Pacior
611
COMPLEMENTAR
arbitr
0011
CONVOCADO
Único
Paciornik
004
punibilidade
SEDE
254
reafirma
##dicar
cobran
tomado
CONTROLE
finais
##TAL
619
287
denegação
##ONI
874
CONTAS
persegu
##A0
estrangeira
Posteriormente
Insta
acord
seguradora
##rédito
vítimas
medicamento
primeiros
Fix
##camente
DIREITOS
DEMANDA
substituída
880
extrair
##tistas
ARRU
executar
##lamento
614
LICITAÇÃO
##ENHORA
##ANI
pecú
concessionária
trabalhos
VALIDADE
Consequ
suscetível
desenvolvidas
##virtu
Política
pobreza
##bilidades
DÉBITO
constituindo
##F6
cinge
##ANDRA
##IZADA
Correios
##C1
aplicadas
##E5
técnicas
##OP
obstado
##item
608
litisconsorte
materi
##ANÇA
##A4
SUA
completamente
##redo
dim
trate
Cata
CONSI
divergir
formulários
INCORPORAÇÃO
intermitente
4357
firmadas
INÍCIO
desvirtu
inadmitiu
ATIVA
metas
GA
EXIGÊNCIA
1980
Palh
##A6
HI
dispositiva
##240
##SEVERINO
Ja
CONTRIBUI
##F9
diabólica
LICITUDE
ALB
tá
BORGES
##dutibilidade
##ÍCIA
##A7
produzidos
moldura
SEBASTIÃO
286
ARRUDA
revés
SANSEVERINO
Profissiográfico
##B1
envolvidos
implicar
CONTRATAÇÃO
Fundamental
##E2
lançamento
manifestado
entrou
OFÍCIO
comete
Dano
hum
ced
##E0
##para
##E6
revisional
expeça
Mendon
lição
criminoso
supre
##rosso
exato
##itária
CAM
Extrai
pensões
secund
##C8
ARTIGOS
330
eximir
permita
verossimilhança
amolda
reputa
favore
idôneo
##C7
413
contratou
míngua
incontes
restring
solidariamente
interpor
empreend
bru
interior
##beis
BEM
Mendonça
majorado
ENGENH
averb
800
plenária
injustificada
Advoca
perio
##rilha
##F5
prequestionada
COMISSÃO
indicam
##feiço
##êut
indetermin
consolidação
inev
substancial
posicionou
investigados
218
presumir
INDUST
##tualização
##orização
##teve
aproximadamente
classificação
242
cuidou
irrestri
FIGU
RECOLHIMENTO
transmudação
##A8
767
usufru
Competência
##C2
CONCRETO
##ORME
##cha
Ab
##C4
503
Equi
monetário
avul
FUNDO
CULP
##íssima
##F4
Palheiro
assal
444
redig
Belliz
656
##F0
Observo
interessados
criar
Deste
legislativas
acostado
ampl
Jose
alegadas
QUALIFIC
turnos
desm
593
merecendo
preven
cometido
TRABALHADOR
calor
JUDICIAIS
##LEO
funcionário
território
##rgânica
##LEY
##ntando
##E3
Júri
transferi
substituto
responsabilizado
baseada
remédio
##F7
MTE
Sara
submete
alusiva
DOSIM
ide
pagou
criou
##E9
Bellizze
Fiscal
particularidades
DEFICIENTE
quere
exceções
ministerial
Arnaldo
##ndibilidade
##A5
CARDOSO
##C9
Primeiramente
disponível
439
EMPREGADOS
excessivo
definindo
enfrentada
tempora
vindo
cassar
recebendo
##ÚST
fran
0021
GMD
incursão
868
dezesse
Tanto
##F8
546
pesem
impossibilita
Confiram
temática
##ABELA
##stitutos
DOSIMETRIA
associa
##E4
##A1
##C5
Inst
Marcelo
examinando
##E7
216
ALIMENTAÇÃO
TARSO
##lume
600
próximo
parcelamento
Parecer
418
COLETIVO
adstrito
Individual
590
CCB
aguardar
##cipação
##C6
praticar
##ading
Mato
terceiriza
215
ILÍCI
Pe
aniversário
##iana
Decre
acrescenta
invalidade
divid
##ensas
normalmente
respeitada
##ENI
narrados
038
SP2
irredutibilidade
Ph
Públic
resum
metodo
##tei
##licer
##osamente
IDÔNEA
compar
Benefício
notar
consci
úteis
fá
##A2
##eições
abrangência
Assessora
APLICABILIDADE
laborou
DEVIDO
municipais
DISSÍDIO
datas
pertencia
dispôs
iniciado
ada
formais
exarada
celular
LABORA
VED
PERT
Silv
##SÕES
passaram
##INT
387
marca
CONSELHO
##jeto
quesitos
defensiva
litigantes
##iária
acabou
##0441
##preende
higidez
COMPLEMENTAÇÃO
##FICADA
oferecimento
aperfeiço
##A3
Gestão
CGJT
reformando
exercendo
Nout
querendo
##lho
504
inar
##h00
Tom
alicer
deslocamento
sofrimento
socioeconôm
sumar
rediscutir
##imes
EARE
clareza
habilitado
##NIK
217
emitida
##ÓSITOS
1224
negócios
DF0
cé
entenda
estra
recíproca
reexaminar
obstar
##EVA
SISTEMA
mulheres
sucintamente
prequestionados
Quad
Parquet
RISCO
##ICIPA
##estrut
redator
impugnando
reputo
inclui
CADA
EXA
Bus
ENQUADRAMENTO
##dicidade
imputa
leading
Er
730
justifique
vendas
Deputados
Nestes
CTVA
##LIN
PROPORCIONAL
##ônica
INADEQUAÇÃO
ataca
Grosso
Legislativa
DEPÓSITOS
bons
ENERGIA
ILEGITIMIDADE
Acrescente
DSS
perfaz
ressalvada
operador
atrair
falh
especifi
Laudo
##ÓSITO
pediu
minu
servindo
hierar
C542164
##LOGIA
novel
ressaltado
##tualmente
Subsidiária
transição
##EO
ilustre
164
irrestrita
cumulativamente
839
desfunda
lícito
##CIT
beneficia
processado
condução
Imposto
Saraiva
Sus
sucessivas
cientí
cujus
603
Unânime
##C3
locomo
334
##007
presidente
EXCL
##erárqu
##netas
modificações
case
compromisso
745
##2461
##mentações
##RGÃO
judica
EAREsp
##ppe
vantaj
827
bra
##eb
fornecer
ADRI
310
Rav
ISON
provável
comércio
hierárqu
voltada
perigosas
antecede
009
##ETA
EXPRE
denunci
decido
Participa
intermediação
##ép
convi
criminais
Ravena
Razão
AMBI
##SIDERAÇÃO
THIA
UTILIZAÇÃO
precl
Trabalhadores
RAZO
##ixas
causo
##IDAÇÃO
graça
tinham
envolvimento
cobranças
implíci
insa
Convocada
051
lançados
364
reveste
IDADE
son
CÉSAR
##dir
vergast
programas
THE
sinte
inexistir
designada
##UTOS
MÍNIMO
ILAN
Acrescenta
##dire
decurso
THIAGO
insegurança
causou
habitualidade
Convém
obteve
comprovam
procurador
##ensível
CART
PROTEÇÃO
majoritária
finalidades
CAB
##VED
Emprego
inarred
ESPÍ
ISONOMIA
##ESSA
mandamental
pescadores
##ên
##311
introduzidas
##mil
568
##ÓG
PARÁGRAF
##idar
característica
##ÁCIA
##ESÃO
autônoma
reunida
celetistas
##ÊN
##CAÇÃO
BRADES
lar
sustentou
calculado
##RÉSTI
GARCIA
pato
Cito
minora
exon
atesta
extintivo
gramas
comunidade
anotar
INDÚST
ENGENHARIA
Desnecess
consubstanciam
nítido
SERV
estabelecimentos
pendentes
Dito
esque
023
penso
equivale
251
status
causando
##mpaio
induz
prossi
##surge
legítimo
fundamenta
264
##ARGO
##ORNIK
208
TJMG
PASSIVA
ÓRGÃO
##cedores
##8201
Catarina
##ód
##sidade
##ndados
289
##845
CIRCUNSTÂNCIA
recomenda
Dessar
PACIORNIK
Dessarte
execuções
pret
renovação
viv
inspeção
CER
alv
encontrando
##ÍQU
impre
ARGUIÇÃO
levantamento
369
comproba
despe
EMPRÉSTI
refletir
cumprindo
substitui
##ingu
Verifico
321
##ender
neut
decorrido
responsabilizada
COELHO
##eamento
##lor
0014
tarefa
538
consignando
inarredável
Exp
contratantes
sumaríssimo
Orça
FORN
preser
autarquias
241
PARCELAS
ESPÍRITO
professor
##átia
incapacita
cerne
Comun
##ss
##viamente
##ntou
revezamento
atacar
beneficiou
SOCIEDADE
LIQU
##nten
522624
servido
##jur
INSTITUIÇÃO
inidônea
impetrantes
coordenação
predominante
385
publica
representaria
homogê
EVIDENCI
maus
contá
##picidade
Sousa
##UC
douta
##ARD
sujeitas
##EXO
906
VILLAS
Kátia
contraprestação
209
exclusivo
confrontados
requisição
596
Pen
praticamente
##ERS
##ii
##correr
Sampaio
Senado
1⁄4
troca
fácil
sepa
Santo
Sol
514
intervalos
##fec
deduzidas
769
VAN
PR0
espont
telecomunicações
exaustiva
Indenização
combinado
##gão
Huma
esforços
##ntum
##mentados
014
COMAR
298
categorias
Organ
066
super
##RROG
FAZER
270
##itor
intimidade
controvertido
adap
atre
DADA
388
963
##olhas
perfilh
Aquele
aduzindo
deixo
ORIENTAÇÃO
entendimentos
DL
esquer
independência
sexto
pergu
obediência
##nas
245
Cadastro
731
credores
QUANTUM
##CT
##NCIAMENTO
falência
CONSIGN
##DICIAL
territo
acolho
demandado
Aux
Coleta
tributários
DEPÓSITO
GEN
389
AYRES
apresentam
XVI
fil
ressalvados
confiram
provado
coluna
pensionistas
##826
fortu
padece
precíp
suplementar
esclarecido
Crédito
remunerar
507
respal
diferentemente
LEGISLA
PREVIDENCIÁRIA
Vel
Prejudic
tratado
fundamentadamente
consentimento
cidadãos
neglig
042
linhas
##ibilização
físicos
interroga
intempestividade
empregadores
dependendo
583
JESUS
subtra
MUNICIPIO
inválido
instalação
foto
SANTANDER
modulou
Internacional
Decretos
contínuo
PRÓPRIA
227
versada
##rarrazões
minimal
pretender
0006
atestou
lastrearam
perquirir
prepond
alude
Phili
imperioso
acho
Dez
TOTAL
GRAU
##ÔAS
LUCAS
DEZ
Financeira
SERGIO
escrito
ilust
##odovi
Mais
Acompan
fiduciária
826
tomou
848
absoluto
inconstitucionais
368
interpretado
passar
exterior
EMENT
COVID
SUPREMA
##gen
transitado
BRADESCO
##érie
tutelados
avalia
##alizando
PRÓPRIO
pratica
iniciais
##erados
MANO
moradia
genérico
Afinal
##itir
AGU
##fiquem
comprovantes
SINDIC
massa
reiterado
FUR
CUEVA
buscou
disponíveis
recebia
BÔAS
JUDICIÁRIO
portu
acumulação
prerrogativas
conferindo
algo
diverge
258
cadeia
caminho
idênticos
##inguém
##uno
##004
arbitrada
solicitação
##doso
autorizam
COMARCA
provenientes
concorrência
981
887
451
surpre
##úrg
##etária
Dá
481
##urou
0010
##fim
isenta
conca
privados
320
aliment
230
armazen
amplamente
devolu
311
levado
Carte
Dent
proposto
dizendo
4057
expressiva
XXI
##IVIDADES
Philippe
cobrados
atipicidade
acaso
Curi
ipsa
circulação
##épcia
comprometimento
##riae
iguais
litisconsórcio
591
##ULADO
Event
##role
Manif
DEVER
Busca
humano
confirmando
ENTOR
AZE
folhas
exista
PARÁGRAFO
##EGI
##MULAÇÃO
ADO
pretoria
continuar
Hos
exija
possibilitando
quatrocentos
##NTI
intensidade
Dema
contradi
intimações
##terial
NOT
ATIVIDADES
acometido
ordens
IMÓVEL
REPETIÇÃO
ENTORPEC
##sis
fundamentados
estatutária
##up
##ORTES
cabeça
SEP
explic
condiciona
##hos
PELAS
273
232
falecimento
minuci
Va
452
reafirmar
##ciadas
318
naqueles
aprovados
reba
matriz
olvidar
##orabilidade
##LEI
##ÉM
##TIVO
fungibilidade
acumulada
##hia
sedimentado
##iter
estima
905
INDÉB
Consignou
formou
046
Depreende
Bentes
Tercei
vinculantes
FI
WAL
desconformidade
douto
interpretar
fiscaliza
631
235
deduzido
Está
CONFLITO
301
Contrarrazões
combate
compon
descontínua
sufragada
##leo
gerando
reversão
ensejam
cadernetas
##ISC
sugeri
contrache
1984
344
##quir
descomp
OCU
##erário
303
Sess
Oportun
QUANTIDADE
##ENAL
concretamente
retira
devolvida
recolhimentos
contex
Brito
LUZ
##írito
##ético
efetivos
conservação
1224559
783235
405738
830441
701091
366
332
613
DOM
##RIDO
permitem
sinto
PG
Constitui
ing
##ENAS
483
sic
acompanhado
opõe
edu
acrescida
transitou
Reco
304
##usibilidade
nulo
FIGUEI
##ismos
##005
excepcionalmente
176
##RCIO
Tese
162
PERCENT
PÚBLICOS
acamp
Cha
pleitear
passagem
##gnos
HOS
Nota
pormenorizado
Reaf
4a
RENDA
beneficio
impõem
quantita
##ndra
garantida
representantes
atuais
omissa
453
submetidas
SISTEMÁTICA
TABELA
subl
Advogado
626
PREJUÍZO
Afirmou
instaura
ofensor
709
desfundamentado
incluir
Ka
##cir
##poso
exigidas
escala
oblíqu
eventos
desacordo
mad
concluo
##hecida
objetos
##INDO
WRIT
421
excepcionalidade
040
Natal
##ONAS
##ESP
415
ATOS
observação
BEL
irmãos
acolhido
gravoso
##itenci
412
##RIC
Forças
prescinde
##DICO
##VAÇÃO
examinados
DEVOLUÇÃO
atitude
291
telefon
##ate
NEL
Velloso
##GADO
Acordo
EXCESSO
MANOEL
RENATO
excedentes
354
comandos
série
##vabilidade
INTIM
Assembleia
GRACI
CONFORME
##úncias
##252
CAPITAL
diferenciado
encaminhamento
questionamentos
##junção
itin
SUBSTITUTIVO
seguridade
Rural
estipulado
883
confirmado
FIGUEIREDO
terras
ão
Monteiro
Examino
Maur
##EJ
MOTIVAÇÃO
engloba
##itórias
tributação
##819
aborda
Armadas
985
BRITO
CONSTITUCIONAIS
elevada
403
fortuito
aparente
colhidos
Intimada
PELOS
transcurso
intercorrente
penalidades
##umerista
711
TERCEIRO
contenha
plausibilidade
PAD
179
TODOS
PROBATÓRIA
CORREIOS
595
Bem
1967
sábados
pecúnia
Tráfico
gestante
##ONO
##feitura
Gen
inda
obrigada
imobili
ementas
##vejo
formalmente
Pretensão
contratações
ADMIT
colação
##logias
correspondência
dimensão
Antes
AMPLA
##tinha
##édula
venia
melhores
anuênios
mostrou
dificuldades
invocação
Perce
privileg
atrasadas
##ército
##tim
563
superveniência
Igu
##ana
Concluiu
negando
949
Recorrida
Sessões
##eias
Bairro
repassados
Lel
fornecido
inépcia
surpreend
concord
estatu
oblíqua
EQUIPA
##POL
PREJUDICADO
##asp
investigado
##rimo
responsabilizar
asseverado
TEM
exequenda
##ESC
revelou
ABSOL
décimo
sistemas
##nias
FIXADO
questionamento
cuidado
Cord
##bus
fere
228
peti
##rodução
378
isol
Aqui
807
Junior
assinalado
Custódia
PREENCHIMENTO
postura
Hospital
reunião
vaz
QUIN
levaram
colacionado
usuários
PINHEIRO
0022
397
HOSP
PRÉVIA
##orm
SUBJ
REVOLVIMENTO
corroborar
suprimido
PIA
##uda
Alb
sé
Maurício
MAGIST
##GOS
##RESP
custe
RATIO
##nsta
existindo
QUALIFICADO
Preliminarmente
316
##ratura
SITUAÇÃO
DECORRENTES
tratou
atendida
defender
concretização
OBJETIVA
vencedora
##ENDIMENTOS
0008
##012
##ídios
CULPOSA
COMPROVADA
CELETISTA
ficha
rubrica
Rejeito
tantum
##utação
##izou
ENTIDADE
ATENDIMENTO
606
anexados
superado
Cordeiro
convocado
indispon
denúncias
ECONOMIA
##ndam
Salienta
LTCAT
tarifa
MORTE
suple
##especí
Estando
higiene
exclusividade
gên
INTEMP
PERÍCIA
exorbitante
##DIO
Exército
destinação
Irres
TÉCNICA
possu
regimes
demonstrem
enquadram
565
##trí
529
##RIAL
##STITUI
ponderação
Dispõe
vislumbrar
fique
835
##oras
extradição
reapreciação
imprescindíveis
PRECLUSÃO
IMOBIL
metade
##ENTAL
percebida
lacu
##enciou
##VIDOS
PRIVADA
PREVISTOS
##551
ELLEN
APO
370
EMPRÉSTIMO
NEF
PENHORA
impende
TRF5
ocorrendo
equipamento
retroativos
Poli
destas
COOP
tar
porta
##rimir
palavra
281
inflam
PRÓPRIOS
VÍCIOS
deram
REVIS
estende
FREI
##dito
dic
INSUFICIÊNCIA
regulares
##254
julgadora
DIR
##ntado
magistério
Orgânica
crise
VENCI
443
impenhorabilidade
##enciada
desempenhadas
irrepar
fum
##GUEIRA
frequência
RESCISÃO
##êncio
postos
repercussões
anistia
assemelh
fundações
Edit
curiae
portadores
estatuto
internet
Lelio
projetos
elaborada
MANIFESTA
neutral
Equipa
8013
cogita
federativo
##sou
Promo
620
indenizações
AZEVEDO
respeitos
Remun
corol
contrapar
abstrata
PERS
familiares
Ela
Bo
assume
evidenciando
possibilita
Terceirização
IRREG
ementário
Wa
WIL
reclamados
##fasta
relato
##sias
providenci
precisão
desafia
Correg
##embol
inadimplentes
POLI
NEFI
cristal
##cto
inocência
##últi
INTEGRAÇÃO
##TEM
CARACTERIZADA
patrocin
ATRA
indivíduos
desi
convém
dispondo
223
impedindo
##uncia
indefiro
cessa
produza
Paula
CONTRATOS
CONCEDIDA
Publicado
lombar
econom
HIPÓTESE
1979
esposo
##isse
acostada
257
sintetiz
Pont
##ceito
850
biológicos
executiva
Preval
crianças
ensina
FINS
AMO
HOMO
obrigatoriamente
prevalência
redutor
Aven
concretas
##ases
Coletivo
##lob
impróp
XIV
Primeiro
Humanos
OPERA
pátrio
885
##ERATIVA
assegurando
reiterar
AMAZ
explicitado
##COES
OTÁVIO
Efe
##pendência
executados
##ega
mãos
receitas
expur
UNIV
##MIL
restritivas
passíveis
##ressa
##mostra
desafi
Autar
revogou
orçamento
instaurado
959
autorizando
Bahia
locomoção
OR
licitações
Procura
comprovados
marido
TOR
transpar
277
CD
PUBLICAÇÃO
eleito
##OSIÇÃO
transcreve
SINDICAL
##REU
##famos
preliminarmente
esclarece
REITERAÇÃO
IDENT
metodologia
incólume
fiança
Inconformado
UM
deva
Deix
##emora
VEÍ
512
furto
0291
Reitera
##BO
correla
diferenciada
##6201
888
##IMP
ministros
rescisório
SUFICI
8666
volume
Plenária
remanescente
fará
##ION
Impende
encontre
ouvida
##ARTE
0101
transtornos
ret
682
098
LB
INDÉBITO
527
recolhido
696
companheira
TEC
inferir
identificada
Tampouco
ín
Hen
Repetitivo
interst
ASSISTENCIAL
ajuizar
permanecem
##ciar
##ANIMIDADE
utilidade
descre
GRACIE
tex
##zas
fiscalizatória
DECAD
composto
SERA
APROV
revogado
##rais
HOM
gerou
DECIDEN
DECIDENDI
UNANIMIDADE
respeitado
INTIMAÇÃO
havida
elementares
territorial
Avenida
INEXIST
colendo
Perm
Advocacia
quinquênio
464
modus
delimitar
0012
acolhendo
Correa
MUS
fór
##EMP
nocividade
Apoio
estabiliz
Ch
contento
##ntagem
expedida
exasp
subja
REQ
Exig
Marcos
654
878
##pia
Pela
Inaplicável
##IRO
TRABALHADORES
essencialmente
065
enfrentou
dobra
##DIG
##ESES
repar
738
comparecimento
##ESTIVIDADE
exigiria
paralis
997
Dispensada
##ndências
químicos
especialista
reprov
institutos
Mano
reprovabilidade
Muito
incluídos
##turar
##ranco
LHE
controvérsias
Cláus
##zoado
refeição
FIXADA
FREIRE
236
ementada
##USETE
328
DESFA
senda
redire
positis
GRAV
obviamente
##minada
Gab
formada
dedica
ASSUSETE
confundir
educa
##rum
Planejamento
ns
preced
##GRESS
401
Av
trancamento
inteiramente
cooperação
##jada
averiguar
jurisprudenciais
concorrente
alto
##MC
AFASTAMENTO
##edio
oportunidades
DENÚNCIA
arqui
Ti
baseou
410
EFIC
possuindo
REPRESENTATIVO
PERMANÊNCIA
##241
ressalta
GP
##mentários
TJDF
EFICÁCIA
PERCENTUAL
corrigidas
SALÁRIOS
Interpre
##OG
##éstia
##STEM
ESPECIAIS
##ICIPAÇÃO
responsabilidades
##ELLI
examinará
repita
movimento
soberano
equipe
varia
popular
8400
DECLARATÓRIOS
HOSPITAL
talvez
Controle
distinto
##ferimento
silêncio
Irresign
239
violando
##rad
imperativo
342
Gru
657
protelatória
privilegiado
matrí
##IZADO
##có
PRESUNÇÃO
##educativo
LEGISLATIVA
agre
##ÉRIOS
especializado
muta
desprovidos
estipula
operandi
indique
##RÓ
subsunção
pretoriano
302
635
ninguém
335
Goi
##USIVA
punição
836
opini
505
Seguridade
questionar
formado
768
EMPREENDIMENTOS
incidental
##UMO
##cionando
salva
regulamentado
discutidas
escolh
interpretada
##sória
Salários
regida
CAUS
gerados
Divergência
desempenhada
competentes
Servidor
pleitos
absor
HABIT
BEZ
PREC
exemplificativo
HOMIC
ratifica
ganhos
autorizadores
elucid
inova
##elhos
moléstia
##ITIVOS
pesquisa
##ges
minorante
##inando
interlocutória
prevalecendo
atestados
830
Pes
condiz
pretéritas
0019
generi
DOMIN
CASA
Naqu
entregue
##enheiro
497
SEC
243
RAZÃO
telefônicas
##tificada
1982
perdurar
romp
fumus
reforça
##NTOS
Grifos
cres
formar
411
vital
ITEM
extinguiu
765
indiretamente
REQUE
vigora
imprudência
INDÚSTRIA
431
escritório
533
vênias
AUTORIDADE
##RING
##ÁB
recebidas
ESC
491
MET
##OSO
PARTICIPA
499
acident
pedagógico
##ÍLIA
oriunda
gan
LIMITES
subscrito
QUALQUER
##ANDA
pronto
arro
MÉDICO
MAJORAÇÃO
compartil
Colacion
358
423
circunsta
sobrevivência
BT
detinha
versão
Porto
positiva
ditada
iniciou
prestando
corretos
Certidão
homena
##iona
##RONHA
##íbe
NEVES
quadrilha
##ETI
Mantenho
instalações
DENEGADA
oposto
altern
respeita
especificada
automático
##HÃO
URB
ESPÉCIE
Manoel
relig
NORONHA
CBTU
assumir
BAL
poster
quantias
##iação
455
cél
contrapartida
frust
ocorrerá
prestigi
Reno
IMPOSTO
meri
peço
consolidadas
ATEND
zelo
hábeis
cota
Ari
TIPO
##ológica
Forense
900
exime
exclud
dispus
voluntário
BEZERRA
617
cessado
##tiu
anteced
exigem
regulamenta
##propri
##ócu
desconstituição
CRITÉRIOS
Resp
desempenhar
Estabele
PCS
reprodução
concernentes
optar
disciplinada
resultando
REAJUSTE
apurada
ÍNDICES
A1
PARADIG
##ure
corolário
APENAS
minimalista
##iscentos
confec
##IAS
##029
ELÉT
interrogatório
propici
##atividade
GUIMAR
Irre
C1
alimentos
mercadoria
soberana
LIBER
DESFAVOR
TELEF
oportunamente
colegialidade
iniciada
indeferida
homologado
Ul
740
##emar
##opol
saneamento
colhida
7°
GOVER
##éritos
##IANO
NOGUEIRA
dista
##sse
C0
Disse
##dado
GUIMARÃES
##ind
fichas
modificativos
contradições
exercem
prejudicar
dem
##ENTO
##entir
719
PROFISSIONAL
imputados
híg
oferecida
471
511
salientado
proporção
exerça
CID10
criada
adiante
narrativa
máquina
idosos
789
adv
deflagra
##assificação
COMERCIAL
##ano
793
##neamente
veiculado
##ônia
pretendendo
CARGOS
CONHEC
INSUR
##tina
aposentadorias
0461
Entendimento
incluiu
PESSOAIS
033
devedores
ISS
agrícola
FUNASA
BASTOS
novecentos
DF04
institucionais
##igo
atualizada
prosseguir
alinh
##xima
ESTATUT
DENEGA
múlti
progressões
corréu
cabalmente
PETRÓ
ampli
6°
Fic
acentuado
651
637
amplitude
Teoria
CONTRIBUIÇÕES
interpretações
017
SÓ
Mos
credit
Desca
inserta
destoa
QUAD
delineados
495
terceirizadas
EXECUTIVO
VAS
infringente
evitando
DISPENSA
262
MAM
##KA
subsídio
##011
praticadas
305
326
baseado
supracitado
Ressaltou
adquir
salvaguar
convin
duplo
continuam
taxativa
515
JUIZADO
autorizou
XL
desmemb
cump
tarifas
Vê
##icina
compatíveis
grandes
##não
investiga
Violação
editado
diagnóstico
FE
contemporâneo
retificação
negativação
detentor
Autarquia
provocar
consagrada
Fam
307
346
remoção
costu
OCUPA
CONCRETA
funcionais
HOMICÍDIO
##sivos
ORG
Editora
##RIBU
502
enunciados
similares
##ÂNEO
moder
PIAUÍ
##ritm
retirar
CRISTI
ALA
C3
alcançada
dirimir
presumido
seiscentos
445
cobrada
##RECIMENTO
desfavoráveis
##218
##IANÇA
##edida
encontrado
C05
##ÍBA
##imas
##udi
6021
cens
perpetrada
pensa
hedio
inócu
tida
1974
SEUS
##uris
difuso
CAROL
interpretativa
explicitamente
vejo
Porque
reclamantes
obedecer
BAC
itinere
020
impedem
apreciados
excedente
inespecí
REFLEXOS
##ensos
##betes
acomete
Autos
habita
CITAÇÃO
INTERNA
correlação
Grupo
divulgação
Paul
ALEN
juizados
tópicos
cita
SUSEP
supri
benéfica
fito
##rr
Partes
gover
Contribuição
INSTÂNCIAS
Companh
patologias
excluída
TJDFT
dB
##cindível
explicitada
MARAN
##ECOM
ACERC
##icie
##rinha
plant
CONTRADIT
prevalecente
viu
IMPED
informada
GABRIEL
instrumental
insculpido
taxativo
regulamentares
566
TRANSPORTES
monocráticas
##alaz
0013
participar
publicados
##gios
Gilson
mercê
concretiz
##câ
prevaleceu
##VARES
amor
717
escrita
LIBERDADE
respeitados
##inete
reavaliação
restitu
trabalhando
##itio
tratava
A3
##POCA
humanos
assertiva
fundadas
##fastável
cumulado
perícias
##ricana
descabida
PROPORCIONALIDADE
QUANDO
##874
robusta
eleição
arcabou
periodicidade
RESS
Configu
indevidas
Compul
##hor
GONCAL
419
TOCA
INADIMP
sinais
baixo
acarretar
ressalte
COMERCIO
protocolo
##enos
arcabouço
234
COLEGI
assunção
Prev
##641
DÍ
A7
361
##mail
ACERCA
PRESSUPOSTO
##análise
atribuídos
##erando
##EU
TESTEM
emitiu
367
Permitiu
extratos
rá
imperiosa
Verb
coerente
atentamente
Juros
confess
586
Igualmente
PETRÓLEO
Nefi
##síqu
C41
satisfatória
uniformizador
averigu
##ústria
descompasso
ENTORPECENTES
##bíveis
determinações
CONSID
##neidade
Hab
EFET
FUNDAMENTADA
488
REPETITIVO
glob
A4
##onôm
##rea
Repres
servent
desconsiderar
FEITO
##rizo
futuros
aproveitamento
história
inevitável
Bolsa
Julgado
contábil
405
aritm
##síveis
desincumbir
ofici
impugnadas
cirúrg
852
mostrando
REGISTRO
garantindo
545
reforço
Administrativa
INSURGÊNCIA
##isar
Im
1969
explicitar
TELÉ
prevenir
gross
trabalhados
impresci
##udia
impul
reiteradas
AMAZONAS
incorporada
destinam
##fin
capturar
INFLA
convencional
TELÉGRAF
importação
Equipamento
abarca
Ób
##MANN
cópias
B4
patrono
surgimento
QUINQU
DD
internacionais
Leopol
DF03
DOBRO
obstaculizado
Companhia
##patrimon
suscita
vive
afastados
##ditando
##JF
variável
sedimentou
##ENTA
exsurge
MARIN
PLEITO
573
genéricas
definidas
##ilson
Excelsa
horária
##lumes
emerg
LBPS
MERCADO
##074
##óveis
padrões
336
FORNE
considerável
RU
culposo
D1
BERN
PESSOAL
exaurimento
psíqu
402
Jurídica
Demonstrada
ÉPOCA
complexo
Quadro
Cortes
Reclama
PARAÍBA
CUSTAS
colenda
JÁ
AJUIZAMENTO
salienta
##UÍDO
datado
##rita
TELECOM
F1
ocorreram
típico
abastecimento
vindic
639
462
##ABELECIMENTO
Pinto
tecnol
cotid
Gandra
##df
Ives
##ró
abusivo
INVEST
Universidade
arrema
TELÉGRAFOS
EXPOSIÇÃO
anexado
CRIMINOSA
SIQUEIRA
general
Destacou
ligados
756
verossí
VENDA
IPI
ABREU
postas
AV
bruta
SERASA
##pecu
democrático
recibos
FINA
306
CONTRADITÓRIO
GONCALVES
configuram
##TAMENTO
Orçamento
ressalvadas
quantificação
HU
CAVALCANTI
##âneos
##tência
ATRASO
Esteves
plaus
prolator
outorga
reafirmado
##ube
473
concurs
comput
MUSSI
##ORNO
##elson
irreparável
aferida
REDA
##alizadas
##RUPÇÃO
extrapatrimon
Prevale
concorre
ressalvando
delegação
Agora
informando
Consequentemente
233
LIQUIDAÇÃO
820
C8
E1
CIRCUNSTÂNCIAS
adequar
mútuo
site
campan
abstenha
##mentário
consignadas
Gu
ramo
1003
##IZA
apresentaram
exequendo
hid
##gadores
BTN
Jes
atuou
múltip
ARGUMENTOS
DN
sopes
907
ventilada
FAVOR
##ÔNIA
RAZOABILIDADE
PRÉVIO
intempestivo
Juris
##BEN
Autoridade
transparência
##ÊA
ARMA
recorribilidade
obiter
estimado
err
apreendido
C4
efetivada
0016
INDEVIDO
##jar
Só
onze
Circular
preex
incompatíveis
482
Advogados
voltou
cassação
ALENCAR
distingu
AMORIM
genericamente
698
NELSON
##oluções
VERBA
discre
aborre
antecedente
PROGRESS
infundado
Compulsando
1981
perfil
procuradores
Sala
defensor
discutido
deriva
Cautelar
podemos
REQTE
PARTICIPAÇÃO
PERSONAL
Organização
##trap
Dipp
formulação
regulamentada
TOMADORA
desempre
chega
MESMO
eliminar
pecuniário
##INGENTÉSIMO
configure
divulgada
B1
preencher
sequelas
##rose
continuou
##014
consignação
consuma
##iras
telefônica
invocando
consumerista
inadequado
MIC
Agravos
##JEF
ITAU
básicas
deliberar
Nessas
##tidões
##ult
acred
indício
AUTOM
remunerações
hostilizada
acha
desdob
Prescrição
acion
REMUNERATÓRIOS
275
inadimplente
socioeconômica
arbitra
FORMAL
##veras
produtividade
dono
grifamos
TEMPOR
##dou
transtorno
Cláusula
comarca
Maj
REQUERENTE
##EMAR
enga
unilateralmente
299
Ônus
preencheu
representado
##QUEL
secre
móveis
consegue
padra
possibilidades
provada
##inadas
registrando
transce
Condi
especializada
solicitou
Servidores
colegiada
349
295
argumentando
INCLUSÃO
REINT
541
imprescindibilidade
procra
localidade
Instituição
##peri
ADQUI
DOUG
EB
##002
FOR
embargantes
##ides
##rás
Externa
disciplinamento
avent
PORTA
720
reanálise
gua
##tatis
Ber
deserto
mecanismos
351
229
mut
COMUN
especificados
matrícula
Remuneração
transposição
CAND
##TÓRIA
Prefeitura
##rack
calculados
tipicidade
vetores
##orrer
pô
CLÁUDIO
811
Inqu
respeitar
averbação
indenizado
554
propa
isoladamente
##tasse
internos
significativa
##TER
937
coerência
C7
513
##REL
ALC
##vis
ger
##IONAL
fragmento
BRAND
jogo
440
trabalhadas
238
extemp
LEANDRO
##certos
ELEITA
enquadrado
537
##2425
finalmente
produtivo
##rovi
0015
B7
harm
coib
fraudes
##aran
regulado
proíbe
CRITÉRIO
AGUI
mensa
mecanismo
adequados
##oraneidade
Vila
##STIN
desprovida
DOUGLAS
aprendiz
713
##igra
retroativas
##tibiliz
visam
suportados
redirecionamento
Nul
QUEIRO
272
706
movida
998
Me
implique
JUÍ
longa
conceitos
sintomas
417
SUCED
EA
ofensas
nulidades
##ólo
parto
armas
página
vou
##metida
ajusta
imag
exag
REQUERIDO
D5
demonstrados
padrasto
935
##íamos
aferido
interpretando
SIMP
##imamente
F7
gestor
345
pan
alcançado
repo
CORR
receio
REGÊNCIA
627
coisas
##xo
B3
##ferências
apreciadas
admito
ORIGINÁRIA
dadas
especificadas
opôs
##comp
672
##álio
realizava
REALIZAÇÃO
PRECAT
##êmica
antig
E5
##endas
727
naturalmente
etapa
RESTABELECIMENTO
adequadas
REINTEG
tentar
infec
ciente
peso
explícito
846
previs
prevendo
digna
Eventual
Coord
##ILO
foco
imotiv
341
homogêneos
ANS
justificando
ministra
constando
fórmula
##fação
entend
debatido
CORRÊA
colaciono
sustentado
480
Mer
LUCIANO
##RESSO
terão
CUMULAÇÃO
601
##minação
marcos
Depar
Verbete
Inadmissível
alvo
fases
794
soneg
beneficiado
222
conseguiu
aquilo
IMPETRAÇÃO
Participaram
##cita
perita
versem
20544
perseguido
Departamento
Renda
F3
##GAS
Posto
setecentos
peritos
premi
espontânea
##tical
conval
regidos
TERMOS
infl
278
defendida
requerimentos
BB
obtidas
fiscalizado
##isti
Agência
desigual
581
arrecadação
guarida
ampliação
FIRMADO
031
crack
servidora
CONSIDERA
presos
juntar
Urban
E7
concepção
##CHES
aprovou
Fundamentos
WA
Comprov
ARI
ADEQUAÇÃO
SUPERV
PRIMEIRO
fidúcia
utilizou
D7
621
##eráveis
dictum
acidentes
Nelson
##rudente
##ormal
Pessoal
TAVARES
DUARTE
RODO
delituosa
alcançados
PATRI
##TORIA
E4
fala
regulamentou
chanc
903
enum
##estada
acompanhando
325
desfe
ínt
passam
##ricas
999
MF
solicitado
vivam
examine
zelar
ESTE
INQU
Delaíde
DÍVIDA
530
547
ILÍCITO
##órum
INFRING
MEDIDAS
CONSIGNADO
envolvem
Collor
Incapacidade
transformação
FERRA
##ACHO
apreendidas
##icus
Recome
BRAGA
governa
Goiás
registrados
regress
D4
sindicatos
BACEN
Henrique
domingos
Perito
documentais
inafastável
regimentais
Agravantes
F4
Públicos
UFIR
##nibus
nu
afirmações
beneficiar
##IAGO
393
##LEV
negligente
amostra
##h30
072
C45
apreendidos
##tico
desconstitui
##813
irrisório
condicional
operadora
list
postal
JUSTA
##ceria
Ordinária
pálio
375
724
cru
VINICI
oitocentos
aderência
nit
despicie
estudos
Noutro
promoveu
559
concessionárias
594
onerosidade
427
##QUERQUE
utilizadas
sanado
advocacia
depositado
indiscu
estraté
derrad
escolar
alimentícia
DESPACHO
combust
formalização
incorporado
remuneratórias
fundiárias
ressarcir
consistentes
orientações
conflitos
acréscimos
anula
libertatis
solucionar
B5
268
examinadas
##quadramento
iniciar
inflacionários
optou
##VEDOR
941
663
armazenamento
realizando
inviabilizando
impetrou
nomeado
Venci
BRANDÃO
comina
surge
substra
##utores
##SONÂNCIA
célere
integrado
identificado
esposado
desequ
D3
especificidade
relatórios
008
consectário
##OU
Tex
CLÁUSULAS
##bi
reiterou
261
Procedimentos
DISCIP
##ORADO
##MINADA
urbanos
cabem
ultrapassado
interceptação
REDATOR
942
nominal
apontam
elevação
##ístico
##RUT
Solid
hierarquia
requeridos
INVERSÃO
##iel
469
originalmente
##017
FLAGRA
amparar
DELITO
PERSONALIDADE
1964
034
THEREZA
incabíveis
revest
##CEF
Eng
MPF
genitora
815
##ristas
envio
FABIO
##ensões
Nulidade
0017
sensu
661
957
Trâ
guer
##FERÊNCIA
inadmissão
atingido
##ritário
996
horizo
E3
exauriente
facilitação
reincidente
RJ0
auferi
ATÉ
Solidária
574
arquivo
510
##menêut
893
CCT
excertos
inequi
ALBU
##essores
DECLARATÓRIAS
##ídia
INSUFICIENTE
VEL
representada
excluído
amicus
sucesso
398
pactuada
AMARAL
FLAGRANTE
VÍCIO
Aba
hipo
##ecução
gozadas
Fun
Meira
CONTIN
concomitantemente
##ron
graus
expendidas
1A
incorrer
revol
requeridas
DIRETAS
813
golpe
##vocamente
cof
##ORAL
provisório
805
##enharia
adimplidas
##LEVÂNCIA
EXTER
508
MEIRA
conter
soltura
Ultrap
689
impôs
ALBUQUERQUE
DEVEDOR
##tiba
Pross
##hing
##MENTADO
tempus
Indireta
introduzida
incluídas
aplico
ratificou
fornecedores
TRE
PRIVADO
simult
estágio
655
pequena
guardar
##SIJ
bases
retornar
vírus
##eradas
##ercial
599
atenu
992
##rasta
profu
697
Referida
Impugn
anualmente
enteados
diagnos
embasar
soberania
localizado
##orama
eSIJ
380
suspeição
respeitosamente
tempos
tipos
##mentadora
##009
ORGAN
integrais
Albino
Verbas
##CIN
satisfazer
despre
firmando
##IGÊNCIA
##jão
518
incomple
madrasta
turm
Insiste
Termos
decretou
procedi
horizont
cessão
agricultora
instituir
870947
Difer
coação
descumprido
Nobre
994
ônibus
contrariou
assumiu
Ultrapass
elo
implantar
Pode
desaco
VINICIUS
314
abrangidos
Edital
impetrada
##ures
Aragão
ocorrências
##634
protegido
fila
REQUERIMENTO
provoca
290
Prestação
Reconhecida
MERA
MANEJ
periód
CONTRATUAIS
Conhecido
CONSTAT
CANC
dezesseis
lucra
VANTA
Mantém
esquerdo
##911
622
abrir
multiplic
parlamentares
DISTRIBU
faria
##eiras
organiz
dispuser
796
649
corréus
564
incumbia
FUNDAMENTAL
##IDORA
acrescentou
A5
vaga
BU
##UROS
Sí
263
ilustra
##ERO
inequivocamente
sindicais
INTEMPESTIVIDADE
##picamente
CONFIANÇA
gênero
lançadas
##ivada
MORATÓRIOS
suscitar
MUL
aberta
pautada
emanada
máxime
inserv
Família
Leon
Gis
desval
carteiro
UNIVERS
locação
CAD
apoi
Idoso
##tável
##275
721
vendedor
DELITIVA
internas
invasão
satisfeito
MPOG
633
##DIR
SUPERVENI
##ulto
AGUIAR
faixa
promovido
litispendência
clínica
##alheiros
cautel
calcada
escolaridade
##ubs
MENOR
representam
venham
667
contributivo
##BERTURA
##614
##ederação
1022
Colaciona
idênticas
panorama
Federativa
asseverando
propiciar
COOPERATIVA
##ilton
indisti
##gressão
julgadores
ROND
insatis
produziu
Óbice
921
substrato
##chado
##desco
##ts
##bral
Procuradores
##ÍVEIS
lia
sucessivamente
QUALIDADE
grosseiro
702
tomadores
médicas
semes
epis
inequívoco
caminhão
estender
tomando
456
##MPA
VERA
certificação
assinalar
ROGÉRIO
acresc
SEGURIDADE
degen
##mático
669
ROUB
enor
aderiu
evidenciem
DEVE
027
SP0
TERCEIRIZ
oferta
combatido
carro
obstaculizar
PAL
##ciário
Manifestação
683
##AVI
SUSCIT
ESTATUTÁRIO
PORTO
15ª
##RICO
arbitrária
interstício
##gendler
##issional
influência
lixo
##250
ss
turma
pessoalmente
723
##éia
Pargendler
##511
transferir
EXCLUSIVA
EXTRAJU
perder
encerra
probandi
##usas
líquida
##viola
##0583
##ciam
eletrônicos
Inform
##edora
fei
domiciliado
##ndou
Jurídico
restante
proporcionais
convenções
873
hermenêut
QUEIROZ
PD
pretendia
gravadas
inquéritos
reputou
lides
certos
narrado
Carteira
componentes
Texto
entra
##244
Finalmente
repara
plausível
inib
irra
Efetivamente
##ELI
PARTES
punitivo
Am
interrup
dispensável
devia
homenagem
Rescis
DESF
308
deliberada
LINDB
pugnando
empreitada
tentou
##grafia
engenheiro
evol
contemporânea
precário
##tária
COMPRA
Ape
vigo
dissentir
Registra
734
BENS
incompet
028
##ket
cessantes
Desde
tipicamente
Disposições
##TANTE
indíg
extraídos
ESTA
incidirão
##íssimos
retroatividade
APARECIDO
556
ilícitas
540
006
##UTOR
INQUÉ
Cumprimento
reestrut
permitiu
##edido
##ilib
frontalmente
compensatória
Conced
CARN
eleições
intimem
compromete
cognos
observe
liberal
General
incluída
610
Descu
271
injusta
##hando
524
##NER
zona
NOTUR
homens
##ART
manifeste
brasileiros
895
Tipo
HUGO
haviam
PARTIC
desídia
extrapol
625
repel
investid
análogos
##entem
cheque
reproduzir
comprometer
560
CAPITALIZAÇÃO
condenados
tributárias
Percebe
Procedimento
desistência
contribuintes
##urgia
##BATE
DECIDIDA
qualificada
735
##azer
mun
formalidade
694
rodovi
MG1
contínua
Feitas
outrora
destrancar
0020
participantes
sublinh
MARANHÃO
INOVAÇÃO
688
laborava
couber
adiantamento
HOMOLO
##zoito
extraditando
##ÓLIO
F5
715
B2
APEL
##SÍVEL
andar
reú
equidade
jornal
Deputado
tratados
##violabilidade
dispunha
857
AGRO
excluiu
desfecho
considere
OCUPACIONAL
799
Habitação
REPR
desenvolvido
contrariar
substâncias
alber
reabil
privilegi
autônomos
apreciando
transmissão
Impugnação
divisa
##efica
##nh
Demais
dizem
PLAN
verossímil
fabri
##jul
RELATION
EXPRESSA
REVO
agências
MODI
PROTELAT
impedirá
URGÊNCIA
telefonia
haveres
EXCLUSÃO
Tes
enfrentado
deb
postulando
recolher
WANDER
monito
destacada
PAN
##816
Dezena
facultativo
MANEJADO
culminou
DECADÊNCIA
TELECOMUN
emanado
peculiar
474
escol
mem
obstáculos
##RS
ininterruptos
deixado
pi
##812
##ílias
inviabilizado
##VIN
ASSEMB
Exige
##RIZO
adolescente
Eva
Um
A9
##GOAS
Má
##ouro
permiti
B9
indisponibilidade
##álculo
contrariando
Apelo
PIRES
Analista
DB
inefica
faturamento
Ros
376
EPP
descar
similar
estimativa
DISCUSSÃO
descl
elucida
cro
AUDI
##ídico
etapas
compras
##ilos
menciona
credi
CENTRAL
subjacente
SUCEDÂNEO
ANTERIORMENTE
ANO
##qüenta
almeja
eletrici
REVISIONAL
9B
notoriamente
##MERO
Relativamente
mono
aludidos
fiscalizada
mantinha
regit
abre
612
LIC
##ÔNICA
##STANTE
inap
##ÊNIO
Ge
denego
treina
VALE
##ímulo
Recomendação
##AZ
##cantil
exação
ELA
##onas
liame
Inquérito
método
imperativa
CONTRARIEDADE
reformou
Leopoldo
compreender
##9201
julgadas
abar
formalidades
dezoito
CJF
certidões
interre
RETORNO
641
912
Ho
setores
permissão
Deveras
hospitalar
importantes
chama
DECIDIDO
concluí
preponderante
CORREA
dependências
##adania
filiados
Durante
##itavelmente
DESCONTOS
771
relacionamento
##ácio
798
Pequ
##ITADA
##CONCEL
litigar
desvin
guia
HABITUAL
##881
237
Cláudia
sós
prescrito
atuarial
##REA
##041
##onav
391
420
PT
449
DAL
originais
comprovando
levant
SERVICOS
merecer
Agravadas
primazia
732
##MED
REIN
aparelho
VASCONCEL
607
impesso
tramita
agropecu
condo
entab
##RER
grava
ROT
satisfe
vertical
ocor
764
avaliações
DESFUNDA
578
##onavírus
delineadas
casada
instrut
Mantido
Consid
414
##CENTÉSIMO
662
atentar
##5100
quis
FRAUDE
ORDINÁRIAS
##INDA
potes
##542
porções
primariedade
##vios
##troatividade
##estre
RELATIONEM
reserv
352
OBRA
psicológico
DESCONSIDERAÇÃO
capítulos
PIMENTA
Informações
procedendo
##PRO
##rioridade
autorize
recorridos
perdeu
536
invocadas
coorden
INDENIZATÓRIA
##normal
refl
PAUL
Curitiba
Malheiros
##EQUENTE
comprovadamente
FERNANDA
fuga
INDENIZATÓRIO
çã
1978
lealdade
##IANE
FIRMADA
determine
##818
Santander
EU
decisórios
761
suspensos
boni
Br
##fício
ARBITRADO
transcorrido
CENTRO
postular
A0
excluindo
1970
PERDA
harmoniza
ofensiva
EDUCAÇÃO
AGENTES
9ª
modificado
CAMARGO
advertência
GRAVIDADE
FORNECIMENTO
emprestada
##grado
páginas
##VOS
cinqüenta
aceita
##uou
Conclusão
##rovérsia
nitidamente
CONFORM
309
733
construtora
inexecução
importando
seguros
famílias
Grifei
577
Evidente
campes
PEDIDOS
ensejaram
repartição
Denego
insistindo
Administrativos
numeração
3A
CONDIÇÃO
convincente
toma
Correção
ESPÓLIO
escorre
877
Passa
justificam
corporal
gerado
0023
729
PROTELATÓRIO
CONTINU
IRREGULA
arrazoado
##pensa
especificação
ilegais
AUDIÊNCIA
ELISE
inquestion
assentando
sumulado
##igne
prolon
desmembramento
diagnostic
feijão
banheiro
Prefeito
MOL
CUM
saque
B0
reformado
PETITA
diálo
adolescentes
orientar
sujeitando
HORIZO
prossiga
crer
conforma
puramente
milho
SPC
pontuar
Const
opina
consectários
F0
ADESÃO
##alizou
dissonante
795
frág
lançado
##cidades
traduzem
actum
incer
repará
##íodo
506
NÚ
551
segura
incorporável
erigido
553
The
##torial
inviolabilidade
409
mudanças
esvazia
EXER
infirm
justificaria
##estas
FINANCIAMENTO
cobrar
ANALÍT
FUNCEF
ban
##ficações
radio
inconteste
dotada
décimos
inaltera
746
acrescentando
EXTRAJUDICIAL
Fundamento
##ualmente
Têm
provocada
indeterminado
VIDA
Alegre
Instância
iner
ENTIDADES
SAO
EXCEL
647
postulada
deson
conflite
cristalino
##811
assumido
doutrinária
465
LÍQU
contestar
##ENDENTE
Confederação
RECEBIMENTO
subsídios
##211
satisfeitos
##rital
SERG
##mentadas
excessivamente
C6
adquirente
E0
iuris
616
801
colocar
Imóveis
##MF
financiamentos
nunc
##DEM
guias
##8260
##008
industri
pessoalidade
automo
REINTEGRAÇÃO
ROUBO
##irá
devolutivo
##tóri
convocação
Negativa
ALAGOAS
Trânsito
LOU
existia
reen
Importa
##bido
consecução
transa
837
dava
presidência
##zinha
desenvolver
##adoria
A2
comparecer
FD
explicitou
RAIM
Unidade
preconizado
ABUS
##edo
678
inseriu
acrescentar
ESCO
##ilene
##damento
subsistir
2A
##rinho
FONA
sujeição
captura
SAMPA
majorados
SUBMET
simpli
esferas
contu
PJ
408
Fatos
Excelent
ligadas
PORTARIA
impliquem
amostragem
Prova
reflexo
preterição
alhures
##058
sumária
##ECH
##sionar
fiscalizatórias
causador
adversa
CLE
D9
pleiteando
oferecido
vergastada
Evandro
revertida
FB
retar
fizer
##RENO
cirurgia
zero
desconhece
recálculo
configuraria
##963
926
servem
exaustivamente
irrever
Covid
##MESSA
##eliona
##CIONAMENTO
##asa
anuência
##lato
desnecessárias
##ruência
indub
Katia
Contratos
A8
estados
##STICA
ELIANA
##MN
SAMPAIO
##GNER
mutu
AA
##inanciamento
citadas
agressivos
##ATIVOS
677
relevo
executória
##040
602
dirigida
compensatório
860
Men
##mínio
datada
Ana
IPTU
629
bairro
CONTAGEM
##HAL
Dispon
CRIMES
##ogicamente
devolver
contempl
meta
CONSONÂNCIA
reiterando
Saliento
dissociada
Conhecimento
##edoria
laborados
fornecedora
MIG
##imen
592
Declaratórias
TRIBUTÁRIA
##ndante
obtida
comprovadas
695
abordada
FEDERAIS
conjuntamente
peculiaridade
avulso
distinguis
Ofício
Interpretação
##arte
##ficamente
RESID
empregos
466
##mericana
071
fornecida
inadequadas
##lógico
matemática
642
PROVENT
divergentes
completar
##idem
##JUD
cursos
ALESS
diversamente
Num
Incó
lastreada
sábado
SERGIPE
tentativas
Amaz
significativo
##MAT
658
irretroatividade
partidos
dirigido
Transitórias
exasperação
CARÊNCIA
recepção
recus
encontravam
explora
financiado
##CIADOS
inadimplidos
##314
##ala
Contadoria
compulsória
##entas
ADQUIRIDO
dnão
censura
DELI
redu
impessoalidade
##FICADO
desligamento
desenvolve
Diplo
restituir
##ERTO
Bradesco
CONDENATÓRIA
##gno
SID
EDv
nacionais
espeque
00000
futuras
idôneos
##lações
##809
suspendeu
acordão
##úria
##644
produtiva
REL
seguido
##RENS
percebidos
DESEMP
Rog
Magistrados
##jados
momentos
##sona
922
contemporaneidade
6A
989
##BRA
##preensível
empresariais
Comb
Figu
TRI
incompetente
DESFAVORÁVEL
criminosos
localização
SEGUROS
lesivo
acionada
quarta
DESFUNDAMENTADO
C9
##érios
377
##BIDADE
##sol
offici
industrial
618
Pequeno
##SAS
jornadas
561
Fre
audiências
trazem
##íram
colhidas
associado
##310
emitidos
noção
the
Tomador
estamp
##035
FONAJEF
resga
PROVENTOS
Socio
Impro
##cera
##ndial
AFASTADA
manifestando
094
BI
desga
SRA
arb
##LEMENTO
residual
vamos
diligente
invi
REFE
usuário
##rão
Daniel
revogar
EVANDRO
pretérita
DECORRENTE
C94
532
desper
FÍS
Registrou
invocar
indig
agroind
##embolso
SJ
##STAÇÃO
Oportuno
enfatizar
Desen
Mediante
UNIVERSIDADE
Normas
lesado
meras
##cível
reporta
ingerência
763
FÁB
ligação
6B
F9
##ane
voltar
tutelado
DOCUMENTO
797
Cilene
Controvérsia
cogn
control
GOVERN
alcançando
ARNALDO
detido
##050
expurgos
extrapola
ficta
552
EQU
4A
intento
665
explica
Tenho
cumpridos
operou
854
FID
aa
analise
NEGOU
685
RESTITUIÇÃO
incentivo
##EDES
1B
SEXCENTÉSIMO
Nem
##ndadas
tab
consagrou
OC
onus
##cora
##róleo
E6
##cc
CURSO
impren
953
dol
##vando
logram
pag
terços
##gner
##porte
##CIADA
TRANSFERÊNCIA
392
##citado
IMPROBIDADE
VEÍCULO
##nciado
FOI
Leonardo
ocorresse
passag
imprensa
562
intransponível
274
ingressou
Atos
##PAÇÃO
704
temporariamente
##BRE
Revela
injunção
líquidos
derradeiro
BC
pretensa
D0
EFETIVA
UMA
Apre
##CEDO
841
incontroversos
##adeira
pretéritos
credibilidade
0041
055
D2
antecipa
##ficável
Incabível
##cias
SAB
A6
##idista
Corro
Enquanto
EQUIPARAÇÃO
pertencente
##istiu
prescrita
Horas
quadra
valorização
OBSERV
##tel
benesse
possua
CLAUDIO
alinha
Coelho
##830
proibida
CALMON
8B
##vagante
XV
gradu
contrariamente
despedida
##312
Partido
aceitar
instituídos
delimitado
BUS
editar
Conquanto
enfim
trazendo
829
2C
enferm
perfilhado
diretas
apelos
##ICAÇÕES
adstrita
Enunciados
476
global
Embargado
arbít
suped
descontado
contemplando
Moral
reiterados
INQUÉRITO
902
Conversão
determinam
##ELE
CAUTELARES
539
C2
SEPT
concedendo
##GELA
pedindo
AVAL
estiverem
totalizando
RONDÔNIA
SEPTINGENTÉSIMO
Desa
Introdução
Fab
adequando
##plicáveis
948
permanentes
##pólio
##ÊM
respostas
751
PRESC
052
acrescentado
JUÍZA
implementado
Cara
emo
Restou
FATOR
avi
##itários
##estim
##CHI
Diploma
reconsidera
0B
REPA
sentenciado
EDITAL
828
Pal
FLO
##SINO
Meio
PUBLICADA
típicas
fraudulenta
compatibiliz
Policial
impedido
vêm
##ensivas
##LL
MARG
apenado
PROCURADORIA
apuradas
verdadeiramente
C5425425
ELÉTRICA
alugu
Quart
VISTA
ferra
##ich
faturas
manip
MG0
Apare
AQU
686
1976
Comentários
Processuais
##ficante
5447
##plicidade
universal
desob
Corrobora
milhares
759
propõe
##ROGA
etário
##ógicas
509
##LADOR
sobressa
vulnerável
preclusa
atestar
celebra
0103
COMIS
##propriação
autárqu
estipulada
##temporal
F2
contribuir
Quartel
APREENSÃO
instado
889
ineficaz
CDA
sucessivos
casal
suspeita
inflacionárias
##ressivo
dão
E8
MAIOR
ocultação
imprimir
expõe
Estaduais
fornecidos
arbítrio
Acesso
posiciona
inqui
republica
SEU
POSSE
he
597
919
inócua
SF
constri
3B
954
##rolina
aband
investidura
Ambiente
520
emerge
##RICIO
Intimações
D6
5A
MEDIA
unís
atribuídas
impertinente
CAST
5B
Natura
envolvam
INFLACION
630
expressas
Constru
aumentar
PRAT
Espírito
preferência
##ndeira
653
preventivo
ESTRITA
organiza
##presa
negocial
650
computados
##ÓGICA
VP
615
REGRA
operada
Inadmissibilidade
ef
984
Transcendência
SANCHES
age
numerário
respondeu
Inexistindo
Duração
entendida
denominação
daria
965
D8
ORGANIZAÇÃO
923
COLETA
FINANCEIRO
preve
certas
##ást
contin
399
B6
SEMAN
ELISEU
rescindir
BIS
FÁBIO
chefe
invalidação
pretendeu
##ical
##dd
##LAR
Ham
ulterior
incons
EFETU
ast
LEGISLADOR
condena
433
##perinte
##ucaia
##izando
extraído
invés
##cetíveis
vulneração
##514
Aud
pólo
DESEN
refe
Desenvolvimento
provoc
MPT
ressalvas
##érpre
bran
regionais
juntadas
prejudiquem
semestral
faço
PETROS
##idando
cessar
LTr
encamp
priori
Var
Chaves
Descumprimento
##contratual
Requisição
povo
E9
736
##038
##th
041
##215
cooperativa
adesivo
687
MAUR
390
569
EXCEP
IPVA
discord
##FOR
esca
##ônico
supervisão
624
HOR
intérpre
DOCUMENTOS
EE
envolver
ocasiões
MEDIANTE
INTEL
ACOLH
remanescentes
alíquotas
GOVERNADOR
##magem
LVI
regulada
ANTECIPAÇÃO
aceitação
estipular
elidir
Oli
spp
IRRELEVÂNCIA
Explic
restabelecendo
prudente
multiplicidade
esquema
greve
cometidos
vice
esteliona
fiducia
##mpanh
corroborada
BOA
adquiridos
DESTE
2B
##ck
ingressar
PROGRA
558
##CARD
reponha
DURAÇÃO
##SSE
retroagir
781
##guas
967
##corribilidade
Ambi
LEM
omissivo
788
AUSENTE
pior
Três
enorme
ALEGADO
Wagner
estipulação
Informativo
INSCRIÇÃO
desapare
E2
SY
DESTIN
pós
Irresignada
090
viés
distinguishing
citar
##ANT
objur
RECDO
fundos
484
##ENE
693
542
abranger
ponderações
##652
018
604
##RET
8A
precípua
Sap
588
Evidenci
DECISÕES
aprofundado
##POSIT
permitam
PERMANENTE
descumpriu
publicações
##ARGOS
desgaste
dedi
paralisação
encontrados
GENÉ
##NEY
7B
804
##venções
##idistante
coronavírus
DEFINIÇÃO
##gó
OST
Tele
alterando
interregno
alusão
550
##214
##hã
Assentou
supõe
Eletrô
imotivada
628
Anote
primado
757
EXMA
REGIDOS
manus
tomadas
equivocado
desequilíbrio
7A
sustentam
Corregedoria
excluídos
##URY
abordagem
Machado
estrutural
428
Demonst
satisfatoriamente
excludente
Inf
##berta
CAUSAM
contemporâneos
minimamente
resolveu
BD
alternativamente
##HAS
Rogério
implícito
RETRO
reposição
KA
diplomas
pensamento
retorna
0500
DENEGATÓRIA
cofres
##pá
bur
##20188
##MONTE
ál
VICTOR
##548
GIS
fontes
acab
comprovarem
4B
750
normais
equilib
aç
ínf
Deci
IMEDI
ocupante
##cessão
afastaram
transgressão
Vide
CAROLINA
superar
avença
##UDIA
simulta
##gên
RAIMUNDO
ENSINO
vesti
difusos
MIGU
concor
osci
Diretor
##VÃO
707
##minente
##inistrado
deduzir
advogada
micro
##itores
exijam
PRORROG
##itorais
desacompanh
conduziram
supedâneo
3D
categó
negri
Projeto
extracontratual
imparcialidade
##VIDAS
coopera
complemento
empreendidas
degra
estatutários
990
Ementário
incre
GERALDO
segundos
Ficou
##RESA
426
AINDA
desloca
alheio
MACEDO
contracheques
desarra
contextualização
##ferem
##ETTO
AUTORIA
ge
prático
consumidora
Hamilton
##mano
alusivo
dependeria
CHAVES
correr
consenso
olhos
F6
equivalência
inerte
Maran
772
7D
ACUS
provocado
SUPOSTA
MOTO
reservada
MEI
prepa
sufragado
ANU
Enfim
acarretando
##056
prioridade
denunciada
uniformizadora
perdu
reuniões
##gam
##INENTE
desafiou
decididas
Colenda
Senão
##ONIA
economicamente
estritos
##MAIS
conduzir
indistintamente
069
CUMULADA
folga
B8
resolvida
Municip
VIOL
Socioeducativo
Dec
opor
inflamáveis
434
XVIII
063
Tre
RONAL
Cunha
2F
DIN
CONCES
##VINEL
resolve
Tri
416
Correta
490
##ali
percebeu
CRUVINEL
##unc
articulados
5C
balan
579
DIRBEN
formando
RECTE
objetivas
HIV
ratificando
trago
##emorando
7C
PRESENÇA
##keting
Examinando
Ens
plural
dea
##671
##lógica
ilegítima
Operação
##650
825
##EJO
pactuação
concaus
##ivado
protocolada
Inocorrência
insubs
preventivas
##veram
ang
circuns
VIT
justificável
vitalícia
coibir
estranha
##edores
alternância
conjugação
existencial
suficiência
##DEF
Planos
1D
F8
XXIII
EXAMINADA
##ológico
1C
relatou
atenuante
623
equivoc
AMBIENTAL
MAURÍCIO
##NTADA
disposta
REDISC
955
DIAL
substitutiva
##FI
0C
9C
Pr
##571
##ustrial
DEMISSÃO
terreno
ELEMENTOS
acautel
protocol
##tão
afasto
insurgente
##ioso
sustentada
relaciona
agido
respondendo
Ple
C944
Essas
supostos
##INADO
MARCUS
democra
litigante
consumativa
REJEIÇÃO
1007
ANTECIPADA
##ganda
corri
##ívio
##INAS
lacuna
534
Tecnol
TJSP
0D
Sapucaia
928
ocupado
astrei
##GENS
repetir
Asfor
aconteceu
Reclamações
##REZ
intérprete
Privado
##FO
permaneça
formuladas
vigorar
QUO
falsa
atuando
aborrecimento
convênios
dedique
declarante
Acompanho
##óvel
incident
daquilo
##ÍNIO
comunica
inaplicáveis
estipulados
0F
Técnica
DF02
Paulista
PROMOÇÕES
agropecuária
pé
737
insumos
conseqüência
razoáveis
##undada
5D
##GUA
nature
643
progressiva
Lemos
Infere
ordinariamente
negativas
provados
Carvalh
589
MARCIO
PRESENTE
RESCISÓRIAS
699
divergências
486
suportado
##044
Asseverou
##EMBRO
Necessário
##dação
705
hidro
interest
6F
Professor
reestruturação
690
Uso
Quer
giro
##986
0501
638
aparelhos
13ª
efetuadas
CARNEIRO
transcritas
Total
SUBSE
normalidade
arrol
##mendas
VICENTE
officio
710
debatidas
648
estabilizados
572
##rima
interromper
645
RESULT
PDV
movimentos
surpresa
detalhado
bila
FRANCO
melho
individualizada
loja
##nderou
##000000
961
NOTURNO
823
Trabalhistas
5E
Protes
discussões
##IAÇÃO
##ECT
treinamento
Branco
432
MIGUEL
FARIAS
PÁ
localizada
senhor
CADASTRO
habitacional
FF
mercantil
partido
concede
gmail
amplia
mostrar
##bb
Us
##tua
Coletiva
cirúrgico
##006
calculadas
886
recal
POLICIAL
legitimamente
Jus
gratificada
##ILIT
Telef
##h00min
Reafirmação
resto
Sergi
forense
##INHA
531
primária
estrangeiro
Sust
corroborado
DOBRA
BF
subordinados
acessórias
psi
##bis
notific
##ntróp
gravid
melhora
regulamentos
SIMPLES
##erra
037
incapazes
significado
advinda
cit
desempenhado
referindo
verifique
engend
pecuniárias
center
especializados
Preceito
colocado
GMACF
SET
líd
corporis
entregar
571
775
##igma
atendidas
supostas
autorais
decretar
saques
enquadrar
8213
PARADIGMA
DEVIDAMENTE
##ISP
851
entrar
rejeita
APRESENTAÇÃO
849
insculpida
gravidez
IO
##lit
REPARAÇÃO
853
isonôm
precária
precip
Emília
##eres
587
Indeniza
##071
2D
CONSTRUTORA
##AVIER
reenquadramento
sól
aguarda
recepcionado
##colas
consciência
https
##MUD
arrendamento
824
9F
##duzo
XAVIER
equiparado
##ERICO
fizeram
Dé
Econôm
##fastabilidade
##mia
anô
expressivos
Compre
veiculação
implicou
desproporcionalidade
DIEGO
CATEGO
neutralizar
SUFICIENTE
##075
TECNO
##VIM
proporcionar
Carvalhido
##estrin
revisar
professores
corresponda
cabo
poucos
##UEL
culturais
IMPUGNADO
Constatado
NECESSÁRIO
Deixo
PONTO
Sergipe
##CIOS
ANALÍTICO
impediu
GRATUIDADE
##igno
AUXIL
Previdenciária
8C
##ÍDIC
significar
companhia
equidistante
defendeu
nomen
Rodrigo
RENATA
787
impossibilitado
632
destarte
inaugural
doméstica
converter
prescre
cuidar
ENCARGOS
Afast
aperfeiçoamento
7000
Carreira
detentores
##ENDIDA
Sociais
convertido
extrínseco
DÉCI
remanesce
CONFORMIDADE
Alimentação
ficado
registradas
óp
PROCURADORES
manto
guerre
##todos
convívio
DROGA
primar
379
precisar
GD
Figuei
Julgadora
PORT
equiparada
DISTRIBUIDORA
alçada
438
PERTEN
869
vedou
FLAVIO
6D
8F
Provimento
VEDAÇÃO
##xação
indicações
Cid
SAT
inservíveis
implementada
log
limitados
842
exceder
8E
8D
pub
585
##aviso
contrárias
INEXISTENTE
infirma
TELECOMUNICAÇÕES
CONSUMO
advindas
##ituação
Ministérios
colégio
BELO
leciona
protocolado
FECH
##049
##itativa
##ULOS
indefere
justificação
federativos
2E
7F
##idu
estigma
IMOBILIA
##RAM
demandam
desva
voc
0A
##nhan
empreit
evidências
FERI
partid
Cálculo
remete
FLÁVIO
1F
voltado
##ntenária
arrimo
4C
negativamente
captação
Comércio
##210
##ede
internação
procedida
liquidez
##gulação
intertemporal
JURÍDIC
##045
##GRESSO
delic
trabalham
RECLAMO
APELRE
956
Alm
##cinge
4F
Comercial
##artanhan
diário
jurisdicionados
VASCONCELOS
722
##540
517
contundente
jurisdicionais
Combate
federados
verificadas
##iosa
complementado
Fisco
segmentos
Poderá
Reclamadas
livremente
Ensino
Pia
simultânea
863
tutelar
abrangida
IRREGULARIDADE
sofrida
6E
3C
Ci
ALVIM
VINCULADA
MÁRIO
712
##CK
##mados
preconizou
relativ
diversidade
##ndio
improvida
Disponibiliz
extensiva
##dias
pôr
##STAMENTO
concordância
tempera
supervis
Figueiredo
##mm
Maranhão
redist
##ENAÇÃO
ANEXO
reitere
assisti
constitutivos
RESPEITO
PRESCRI
operado
certificou
levam
Atente
407
bloque
##efício
Capital
diferenciação
Dentro
reval
prestigiar
PRECEITO
Periculosidade
DESA
Design
Dartanhan
##RIL
transferências
IMEDIATA
Mu
orçamentárias
5F
inafastabilidade
supervisor
1916
DETERMINAÇÃO
demonstrativo
recibo
##gr
filantróp
Claro
PRISIONAL
PRECATÓRIO
##tórix
##LEIA
933
##LP
0027
RONALDO
abra
Vercinge
Rescisória
PROTELA
1E
antigos
majoritário
revelada
Prejudicado
COMB
##lig
nã
consumação
detenção
3F
episódi
COTE
MOMENTO
constituirá
interferência
condicionado
##ndivid
LEAL
soluções
demas
congên
esclarecendo
MÁRCIO
PROTELATÓRIOS
falhas
9A
negada
##priedade
INFORM
ANIST
vantajoso
aposentada
EXCELENT
INFRINGENTES
pronuncia
843
supracitada
865
SUBJETIVO
sinal
MÉDICA
JURISDIÇÃO
cristalizado
discriminatória
INA
##cismo
441
findo
disputa
comprador
executividade
9E
desembar
atingindo
##orridos
Cab
revertido
Invoca
0051
##RADOS
invalidar
WAGNER
##áss
alvará
incumbência
procurou
temático
0E
##izam
promova
enco
hierárquica
APLICADA
JULIANA
extempor
Discipl
íns
PROPOSTA
GMAL
GERA
pugn
##CIEL
Praça
634
Silvestrin
Vercingetórix
PRODUTOS
suprema
extrapatrimonial
AUTOMÁTICA
socioeconômico
0029
6C
##010
##vador
##irmo
Esses
4E
##terio
Sabe
alienado
##RP
4D
disponibilizado
9D
APRECIAÇÃO
Gar
Silveira
socioeconômicas
subsidiariedade
##urável
##ule
EVIDENCIADA
desempregado
681
subsidiá
##541
AVI
natal
INTERPOSTOS
Desnecessária
##043
animais
##Para
##033
Ressalva
PRODUÇÃO
##ndrome
APELREEX
gos
DNIT
1975
Inclusive
investimentos
ensejaria
670
genitor
discutiu
frágil
3E
dispensar
##REIRO
AGRAVOS
917
WANDERLEY
##alhaes
CATEGORIA
ATENDIDOS
816
levados
##VALDO
judicante
salientou
naturezas
interpretou
609
##ENDAS
ideias
CONDO
cassada
VERIFICAÇÃO
ORAL
##ortes
afastadas
excelso
dirigir
PÚBLICAS
680
ofertada
PARTICULAR
##tula
EMENDA
TRCT
521
##0584
Júlio
missão
##ato
Capítulo
940
SFH
DISPOSTO
ultrapasse
seguem
##uada
Declaratórios
subjetivas
10ª
993
XXVIII
NN
##ncialmente
federação
971
##IFICA
initio
extraída
Satisfeito
peremp
despicienda
inflacionário
repos
expro
##UNA
RUB
descabimento
DISCIPLIN
Gisele
ALÍN
sobressai
contraditória
dotação
colheita
Vencido
659
reúne
LÍQUIDO
dirige
CONSTRUÇÃO
##5729
longe
##RIS
sobreaviso
526
ESGO
vulneráveis
Magalhaes
ELEI
desrespeitado
cesta
expressões
##034
Cédula
desapropriação
fundamentadas
LIDE
meus
refutar
INVALIDADE
864
desprovejo
falsidade
criando
Descabe
imagens
##AGÉSIMO
Reserva
##POSS
desclassificação
##icidade
814
822
ficarão
##úmulo
celebrou
primeiramente
calib
##ARO
##295
LITIG
retroativo
TELEMAR
##uamente
recol
570
carreiras
falida
CONTRATADA
olvida
averiguação
transferido
audit
soube
métodos
VÍT
atuam
Penitenci
começou
cláss
sist
ineficácia
REDISCUSSÃO
EXCEÇÃO
##6551
447
avançada
casado
##tividades
efetua
recomendação
792
feitura
evoluiu
##diciais
##ADÃO
BELMONTE
Terri
847
Ficam
contava
##correu
reflita
##verte
envolvido
receba
cautelas
salvaguarda
708
basicamente
aproveita
micross
inespecíficos
##890
argumentativo
##portes
Temas
pobre
dirimiu
Extravagante
HIPOSS
prescritas
##caso
Indenizatórias
reverter
produtor
estuda
dispensando
propôs
646
##ONSO
agindo
##545
destino
ANALIS
simultaneamente
tomadoras
FRED
DIMIN
PERDAS
redes
percurso
conformação
##0581
persu
808
oferecidas
DISPOSITIVOS
HIPOSSUFICI
explan
hiper
estranho
Previstos
pendência
##HOR
##tativas
##ILTON
administradores
##RÁS
capaci
Esclareça
COTEJO
tradicional
Indefiro
especificar
Tesouro
##ÊMIO
divergiu
IF
fotos
turmário
714
##verá
446
##209
colacionada
##274
trintenária
762
desvenci
submeto
acostadas
isolada
substabele
revesti
Delaide
enquadrada
##etários
cargas
Depo
continue
AUMENTO
TORRES
1977
aler
eleitorais
Recentemente
abrangente
contrariedades
semelh
APROVAÇÃO
Trabalhador
visu
seqü
pensionamento
777
nomencla
NEXO
LUCROS
549
##eleg
##cool
inatividade
Naquela
falhou
interpus
861
##unições
##ANOS
##IZADOS
parceria
dissem
716
COMPRO
precisam
LEMOS
782
paz
Tudo
revolver
675
PROGRESSÃO
facilidade
Olindo
estabelecia
baila
Assinal
##GELO
##213
ASSOCIA
cumpridas
QUITAÇÃO
baix
litte
abriu
assessora
ROL
hosp
Neves
##vidamente
justificado
786
ligações
Amazonas
QUEST
##665
decretos
tro
assessor
##ces
procrastina
administrado
reafirmada
SENTIDO
CONSOL
mód
DIA
##itais
escolhido
##istentes
inquestionável
498
##TEN
SUST
##tava
custear
FORMAÇÃO
GDC
PROFERIDO
##EZA
prejudicialidade
GRAVE
Pena
904
0091
embargo
tum
vieram
0371
Amapá
non
viz
INCAB
##ant
inalteradas
901
##ERACAO
EXTRAORDINÁRIAS
##éticos
809
adaptação
CONCESSION
frontal
cumulatividade
devolvidos
viabilizando
assalto
##ÉP
##bida
subsistem
representados
jurisdicionado
##ELLO
EDV
##borou
##543
105100
reivi
##FEITO
infrin
desdobra
Confl
EDI
somado
funciona
ficaram
desauto
Conden
CONFERI
subscri
BUSCA
039
eletricidade
##erg
baseia
filiar
destitu
reputar
##855
640
##âmb
CAVALCANTE
vindicado
GI
Resposta
##mina
ITAUCARD
576
DELGADO
##itárias
conseguir
671
transito
prognóstico
conhecimentos
compensatórios
##315
provocação
##grafos
aditamento
##ilar
RECEBIDOS
amortização
##EDA
Constatada
Conselh
fundação
térmica
MASSA
QUESTÕES
HÁ
##LICE
campanha
expôs
hígido
IGP
CONTRATADO
cominação
indiscutível
promessa
##20114
##EPÇÃO
inadmitido
Condições
ESTABELECIDO
exportação
NÚMERO
##quente
planta
548
assentados
##223
MINUTOS
Auxiliar
INDUSTRIA
773
##ÍDE
sinist
violaria
676
##ÉRIA
BPC
##cionários
Execuções
Transitada
preexistente
##julgamento
afinal
CONJUNTA
Setor
Gla
manhã
DR
##ologia
roça
vetor
sofrendo
números
repasses
aliado
MAGISTRADO
728
INÉP
naquilo
colocação
5867
819
Exequente
SC01
dará
Especi
identificados
compreendida
móvel
ITAÚ
discrep
rotina
exacer
óptica
752
volunta
DEPARTA
Piauí
chefia
##artrose
PRÊMIO
652
INÉPCIA
ensejadora
##NAÇÃO
##CAMENTO
CELG
imobiliário
##IBIÇÃO
ANDERSON
##verar
possuam
pronunciamentos
##TIFICAÇÃO
079
##271
experiências
imprescrito
HORIZONTE
leil
096
grief
cumulativa
outorgada
EXTRAORDINÁRIA
alegadamente
ASSEMBLEIA
674
1614
##estro
retroativamente
perguntas
DIMINUIÇÃO
exercícios
majorar
peculato
##cento
PRESCRICIONAL
Relª
ACRE
firmaram
995
VIANA
herd
diários
ínfimo
elevados
##justamento
concedo
##SCI
importaria
modificada
##ALHO
Princípios
securitária
moderada
sobreveio
alegue
excetu
expedidos
##BAN
##053
alegam
##615
descri
sans
banheiros
engano
Econ
call
##mã
##IAL
DESENVOLVIMENTO
##ATIVAS
635729
ARANTES
##adura
817
GMAAB
boleto
ALTERN
USUR
Ref
##603
migra
oportuna
uniformizar
##gido
detalhadamente
incorreção
opinião
##tela
distância
516
transações
ADRIANO
##issa
creditamento
acertadamente
concentração
acober
Memorando
ABSOLVI
constituídas
DEMAIS
dissa
aluno
NOCI
PRORROGAÇÃO
assinada
anotado
MICH
inconformidade
Peça
12x
obrigados
aritmética
interrompe
primor
EFETIVO
ampliar
retribuição
CIN
##HM
emanadas
inexigível
##ére
aguardando
fragilidade
DISCIPLINAR
restringiu
magistratura
afetação
tanques
patamares
##037
##030
Eletrônico
##gueira
582
938
Legal
dispenso
##ricamente
entendem
ABSOLVIÇÃO
ocorridas
sabendo
991
MULHER
espor
PREVI
encerrado
TARI
TEMPORÁRIA
imaginar
industrialização
recolhidas
indenizável
8300
incidirá
facultado
fruto
067
##LOSO
DADOS
aer
##883
PROMOÇÃO
749
ELIAS
julgá
equipara
CONHECER
gravosa
##ites
ABRAN
Apelante
TAL
nulas
ordinários
prestava
situado
SIMILIT
arcando
MACIEL
cheques
exoneração
aplicações
anexada
PUN
##ntara
CASS
802
##834
probatórias
direcionada
##GTON
C542461
##rime
extrajudiciais
demonstradas
privação
DEPARTAMENTO
FOGO
OLINDO
SIMILITUDE
défici
##rade
descaracterização
próxima
TIAGO
##2019
Conta
revisora
ADRIANA
consignada
veiculados
surgiu
Ores
##coes
Assu
barreira
rua
EXCEPCIONAL
redimen
diretor
diariamente
taman
00004
9099
pertine
DUP
CAPÍTULO
##adoras
interceptações
reprovação
##cador
causada
afetar
Auxílio
sexo
vão
##290
845
exequ
USURPAÇÃO
efetue
DETRAN
motorizado
cognoscível
##gatória
anistiado
Gerente
prorrogado
##NIOS
ligada
Campos
##sing
##URANTE
estatuído
avaliada
##ÊS
Coletivos
Fonten
laboradas
Pessoas
inválida
DINIZ
LAC
solicitar
condicionar
Gabinete
DEM
Alegou
##cântara
enquadrando
Título
indicativo
##rino
CONSTATADA
resil
fui
Às
erros
rigorosamente
575
BANCÁRIA
##832
retific
MELHOR
horizontal
##dada
7E
protege
mitigação
acautelar
privatização
minucioso
8°
desidera
TRANSMUD
nomenclatura
causadora
##941
melhoria
##hard
afastam
774
elencado
##cione
FURTO
Dalaz
##633
918
coer
versar
GESTÃO
ach
Monetário
assistido
Outro
##ASEP
distingui
frise
seleção
assistentes
TRANSMUDAÇÃO
turmas
Dentre
Andrade
##izadas
##PB
perigosa
BIT
pronunciado
ríg
fomentar
Calsing
0071
0026
Adi
discutem
litros
proclamou
758
Constou
Profissional
litteris
##ereu
dizia
GMJ
726
semelhança
##esp
enviados
destinatários
Dalazen
916
GMJRP
##ATIVIDADE
detidamente
PASEP
restringindo
RUÍDO
ocupar
licenças
##uas
##emias
977
FERRAZ
Fontenele
##⁄200
1971
776
MALL
irá
ratificada
CARTÃO
Lic
871
929
1191
intimadas
##VS
Circu
falsi
Div
democrática
defendendo
premiada
FREDERICO
##IAR
Transitória
graduação
gravame
Sustentou
rup
Defin
ombro
decorreria
revele
Empresas
NNMF
HIPOSSUFICIÊNCIA
deseja
806
corpora
DEBATE
amplos
##550
dd
excelência
imprópria
053
Informação
Dout
TOCANT
##ciedade
DECLARADA
escu
##hardt
and
contesta
atento
irmã
Diretoria
##247
##256
influenciar
Cidade
passageiros
juízos
##uu
Oreste
Od
CAPACIDADE
##utuação
compõe
PRÁTICA
##lhado
Narra
SIMONE
atingida
visitas
antecipadamente
escritura
queixa
##cte
análogo
GMACC
GILBERTO
##ndis
AUTORIZAÇÃO
ensejadores
##RECER
Continu
gozam
meritório
exemplos
extrapolação
preserva
absur
acidentário
inalte
emendas
aven
PRATIC
restritivos
##ústia
Prossegui
claros
deixaram
importar
Telé
INTERRUPÇÃO
##ERADA
##sor
##TORAL
##MITAÇÃO
##uman
subordinado
eventualidade
mesa
atendem
##817
dispostos
Isento
congruência
DISCRI
Certificado
Conflito
normatividade
834
945
nascido
advindos
implicam
pdf
concorr
onerar
indiciado
licenciamento
ABONO
situada
INCRA
caracterizam
FECHADO
eliminação
serviu
##essoria
fundou
Impedido
regiões
viagem
SENTENCIA
Incidem
Telégrafos
meros
LUCIANA
##HOS
##anna
direcionamento
compareceu
SENTENCIANTE
distribuído
asseverar
facilmente
Sucede
insatisfação
##CIR
angústia
vier
##073
error
064
apropriação
EMISSÃO
##RINHO
Indevido
CORREIA
Prejudicada
ANTERIO
afora
Constato
legitimação
##pensabilidade
##PÁ
instituídas
variáveis
subscrita
951
abusos
Itaú
vedar
combustível
SUBSEÇÃO
astreintes
socorre
LABORATIVA
##ECO
BARRETO
buscam
ajuizado
##catório
12x36
ALIMENTOS
##tições
##UNDOS
Vic
PAIVA
abatimento
Entendeu
##IGUIDADE
tranqu
##IÁRIO
versado
aduziu
Réus
##INERE
Guar
##unos
Extraordinários
fazend
supramencionada
Executada
prestadores
imponha
Requereu
##ep
capitalizados
PRERROG
conflitantes
influir
compromissos
Justi
Deficiência
secundária
Erhardt
CELEB
prejudicados
legitimar
seguiu
instituidora
##ultura
ADMITIDO
##908
ocorria
743
lastreado
0025
line
empregatícia
ITINERE
acúmulo
negocia
TOCANTINS
##UA
##604
1757
##ANNA
Rafa
medicina
acontece
pertencentes
##ilares
Escola
afetado
##orou
##fabe
pequenas
determinante
##ons
##mbo
identifiquem
condizente
infort
flexibilização
tácita
APLICÁVEIS
precipuamente
##TOLOGIA
inadmissíveis
extinguir
abol
PROCEDENTES
Ilu
assistida
SP11
##versa
##026
enfrentadas
##MICA
relata
ROB
lote
Mário
##cionária
Revisor
##0471
Renova
declarados
CONCEDIDO
insp
profunda
Bás
probante
##torze
isento
##emarketing
penitenci
555
Transportes
Transporte
Pá
consagrados
mensalidade
descontadas
Magistratura
class
combater
ruptura
dog
tratamentos
provisórias
Publicada
Salário
desconstituídos
INDUSTRIAL
##jetiva
##028
LEO
simplificado
aluguel
##ATÓRIAS
Das
ala
admitidas
Classe
endemias
Razões
editadas
##ea
gira
autênt
fratura
PRESTADORA
irresponsabilidade
secundário
veicula
Doença
acrescer
Prisão
##0100
TERRIT
ESTEVES
rebater
comprobatórios
INADIMPLEMENTO
vislumbrando
flexibiliz
emergência
indígenas
Acre
VALÉRIA
DESCONTO
delimitou
motivou
hierárquico
MANIFESTAMENTE
injusto
Garcia
caminh
cs
SUBSTITU
quitadas
determinantes
CONFISSÃO
PRINCIP
autárquica
Ve
rompimento
impertinentes
interpretativo
pacificação
malgrado
disponibilização
EVIDENCIADO
indefin
JULIO
ANTECED
##ICAO
##simas
Período
jurados
##940
HAR
magistrada
comoda
indispensabilidade
visualização
##ÁTIA
inflacionária
HER
##exos
Nascimento
673
começa
omit
074
bilateral
privilégio
##cável
TRATAMENTO
WILSON
Minª
ADOÇÃO
MAD
Financiamento
alunos
múltiplos
encontrada
TSE
cogitando
comunhão
enquadrados
DESRESP
##iane
implantado
DOMICI
GALVÃO
atíp
convivência
MANIFESTAÇÃO
AMAPÁ
Examinados
##277
aposentação
Bancário
preservada
##inqü
ferrovi
continuado
processante
EXPED
comissionado
##STRA
Alte
PESSOAS
CÁLCULOS
gestora
##20144
sabia
BUENO
Sempre
062
encaminhado
Salarial
Segurado
regulação
##elado
Peçanha
##lantes
requestado
924
Rés
##INGTON
ULT
anterioridade
Cartório
1965
SEMANAL
mantenha
verbetes
sobrecar
##ian
TEORIA
ATAC
TÉCNICO
patronos
##SR
Disponibilizou
##ky
LIMITE
IMPOSIÇÃO
##virjo
##220
suprimida
surpreendido
890
validamente
motiva
##rasse
exerçam
agressão
##841
encaminhados
incorporou
##eguem
##ianto
Sítio
declaradas
Simp
DEMONSTRADO
experimentado
INVESTI
pleiteados
REVOGAÇÃO
incorrendo
1932
DP
pactuados
nasceu
encarre
verdadeiros
##IU
##ricos
PARECER
##uíno
atendente
##227
disco
##ique
termina
aerona
apelada
cédula
planejamento
MÉDIA
fortes
MARIO
destacamos
##dua
##vero
pretenso
Territórios
##ÔNO
renovar
respeitadas
liberalidade
OI
##ndemias
cartório
VELLOSO
##entista
estelionato
VANIA
doméstico
existirem
KÁTIA
criadas
##839
implicará
FAM
indifer
668
suscitou
##ENSIVO
mutandis
fixam
Depois
##2400
hostilizado
DOMINGOS
responderá
parentes
pretendem
891
modula
MALLMANN
persiste
092
Análise
Mostra
##ÓRCIO
##814
##manoel
perdurou
tácito
##840
519
VIGENTE
ALCAN
versam
Tutela
partindo
desdobramentos
cár
facilitar
Americana
cura
TAC
20087
praxe
desempenhou
padron
XVII
HIPÓTESES
redigida
animos
desiderato
humilh
petições
##alício
adquiriu
variedade
envolva
hediondo
incurso
REDI
desdobramento
968
##820
exaradas
##TADO
edificações
adquirir
OCOR
indiquem
PAC
colaborador
conclusos
##GÉSIMO
##MONIA
TESTEMUN
Ban
guisa
estendeu
terap
reputada
notificações
Glauber
##trimônio
Tari
Endemias
Deleg
articulada
##cesse
concili
imprescri
ofensivo
lançada
tecer
aparentemente
778
be
Pádua
homologada
Fonte
812
gostaria
escolher
fundamentando
Transt
Seu
SOCIO
##449
##VISA
atestando
temer
ORDINÁRIA
Crist
inseridas
MATOS
posicionado
ress
##REM
ratificados
##BI
##lâ
human
DEPOSIT
##édico
Demonstrado
FORO
Prosseguindo
##VAM
assinados
##055
##MILA
contrários
May
mídia
Máxima
Emmanoel
alien
Basta
IOF
##rian
##ÊNIOS
Conjunta
gerência
##ANGEL
fraudulento
##ndável
##815
MIS
##258
escorreita
INVESTIG
872
interestadual
sinalização
falso
operar
780
descreve
754
punir
##tre
distor
leilão
ENF
Nogueira
quinta
AGA
estu
##510
ilegalidades
##esc
Recup
##DNEY
infraleg
Rafael
Avali
Acresça
emocional
Sod
adquirida
Pontue
DEFERIMENTO
Real
modificou
violenta
##308
emitir
abusivos
entendia
franque
##odas
informalidade
PORTE
INDIVIDUAIS
898
##diu
convencer
PRADO
inidoneidade
reativação
iria
propon
ARQU
sinistro
desvincul
levantados
inserto
amianto
obrigar
cultural
SL
sujeitar
exacerb
despendido
DAN
arbitro
958252
proclamar
ELEITORAL
Rond
suprimir
ouvido
##visão
treze
liberdades
##nderam
DEMO
faculta
nomes
ater
intercal
EXIGIBILIDADE
filiado
Perman
LUIZA
##cetibilidade
cotas
tipificado
Inv
folgas
Susp
##257
geradores
ocorrente
##controver
ideal
ráp
##078
variações
Alcântara
desconsid
sujeitam
##boração
NºS
hão
acauteladora
ADVOGADA
Devidamente
SS
DELA
falecida
##érica
conseqüências
975
##ENHO
complexa
859
declaro
Explico
LES
##íssimas
entrevista
divis
sexual
mínimas
estranhos
podia
notícias
atrelada
arbitral
##ráfica
efetivado
enfermidades
assuntos
Engenharia
GDP
##sividade
PLENO
híb
##LANT
debater
valo
extingue
embasada
##RID
conformar
044
defesas
644
respeitando
inviabilizada
Danos
aduzidos
##RINA
056
##206
ponderar
##UITO
##gibe
DESDE
LVII
##RIBILIDADE
vocáb
constituídos
crônica
##MIR
almejado
##olis
##ERNIDADE
circunstanciado
corresponderá
APOIO
AGIR
permanentemente
situa
Tit
ENTREGA
DOMICILI
088
FRANCI
Inicial
acusatório
LIMP
pontuou
teleológica
dolosa
diretoria
instruído
##ctu
##019
1614874
espec
Jesuíno
estabeleça
Rissa
MEDICA
045
Rissato
##central
dotado
CONCEIÇÃO
##059
747
aparência
procedimental
desíg
REPO
reproduzidos
indireto
785
DESRESPEITO
AUTÔNO
estratég
##248
qü
##tualidade
diálogo
EXTERNA
##TRO
##RINO
770
##UCI
afaste
692
##orrentes
MISTA
consumado
Superinte
##gável
invad
##tivado
Anexos
##BORAÇÃO
preconizada
INCABÍVEL
positivos
prepostos
pudessem
dialética
resist
091
fiduciariamente
anônima
979
deficientes
OFI
animosidade
incluem
torne
Compro
criados
medição
##TTO
Liv
Salvador
Bern
CRISTIANO
monitoramento
regresso
demar
Ilíci
##GNI
apropriada
952
##577
gasto
##ntura
DOC
elucidação
##ERABILIDADE
Aduziu
únicos
deixam
psicológica
##335
justifiquem
litisconsortes
histórica
inéd
exagerada
BRENO
GME
PARTICIPAÇÕES
FÁT
ACOLHIMENTO
assegurou
supervenientes
URV
disponha
Especificamente
SYDNEY
##606
REGULAR
excluídas
qüinqü
PRESERV
ordenar
pensionista
930
##647
vergastado
afrontou
encerrada
##STES
investimento
##EIA
##ígios
advindo
ADOL
GMB
concordo
CONCESSIONÁRIA
preocupa
Atualmente
agravados
implante
Bruno
PES
diminuir
##ETICIDADE
##judicial
##DUZ
contracheque
perpetrado
M51
JUNTADA
CERTO
pleiteadas
rotin
PROPRIEDADE
eloquente
DIALETICIDADE
TERCEIROS
desvencilh
##317
requerentes
homologados
##tração
Caracte
promovendo
943
expressos
prêmios
VENCIMENTOS
lucrativos
##230
mensagens
GUAR
##ELLA
FINAL
DURANTE
Realmente
Atualização
inovações
CEM
Mercado
amig
NOMEAÇÃO
aventada
Decorrido
sucinto
medicação
##tto
uníssona
##ALVA
##STITUIR
confecção
Recorridos
noturna
NOBRE
empregatícios
##547
Sodalício
exigia
PGR
Resid
embasaram
CSLL
##tifique
contaminar
Acrescento
##072
CONSUL
terato
retrocesso
prefeito
chegando
ANTIGUIDADE
credenciado
Proc
PASSIVO
ASSOCIACAO
remuneradas
comissionada
desvantagem
altura
resume
Incólumes
858
radic
coerci
flagrantemente
comunicações
estabeleceram
postulou
Manutenção
sucessor
Suplementar
##018
DEFIRO
PSS
resolvendo
##tígio
##292
disciplinam
##TÓRIO
##255
infringência
derivado
relatar
prisões
intit
HOMOLOGAÇÃO
VIABIL
endos
REFORM
materialmente
755
915
##219
asseguradas
Base
auferida
DOUTOR
Corroborando
analogicamente
Vig
##237
Almiro
ostentar
##GI
inexistentes
insurgir
desestim
inten
Facul
arg
##82600
DIVERSAS
passagens
ineleg
desigualdade
déficit
modular
Gonet
evolu
valeu
Exatamente
INTERNACIONAL
estendido
##2017
reed
SUJ
##verso
países
coinci
ANULAÇÃO
962
Seguindo
##ERMANN
ocasionalmente
democracia
Vas
CARTA
##ícolas
LON
substancialmente
SUSCITADO
0037
ratificado
ADMISSÃO
Nós
744
##ropol
VINCUL
##8260000
##517
proviso
##844
BER
##terapia
acusada
orientado
derivada
concorrentes
discricionário
Esclareço
embasamento
dificulta
BANCÁRIOS
mandados
Incontrover
##645
Representação
Pará
implementar
converteu
##ediência
insistência
C542560
##NTER
ATENDE
##KO
##ÁCIO
RS04
Net
PERTENCE
víde
doação
##ore
ético
esgoto
Contribui
proprietários
inserir
Revisão
ALVA
##heus
devolvido
ATACA
secretaria
AJU
Ileg
##lui
PREVISTAS
##823
compelido
LESÃO
desvirtuamento
##nn
CONHECIDA
gerentes
reservas
obstaculização
investigar
Estou
Vilar
salientando
contribuiu
desigualdades
conqu
970
sobrejornada
##rel
SEGUNDOS
##useram
perp
Referido
VIGIL
PÁG
alus
sabidamente
repercu
readequ
LABOR
dezessete
070
##JUS
caixas
necessitando
##243
ESTATAIS
##pria
mácula
848240
ligado
cisão
apelado
##ignifica
FAVORÁVEIS
reembolso
##259
autorizadas
cobradas
GMM
C542506
tive
PROGRAMA
duplicidade
implicando
##ORTAÇÃO
formular
prossigo
incitação
vinculam
diferenciados
aprimo
##ressões
CONTIDA
IVAN
manual
TEMAS
moderna
empresário
Resulta
Multa
desinde
##sionamento
##stante
recomendável
conclusiva
Coorden
beneficiados
Postula
BEAT
##740
##RESIG
##PREV
##étrica
kg
SCHE
Peço
regimento
##313
tidas
afastaria
vexa
Obri
participante
conceda
insurgiu
instabilidade
ALÍNEA
##513
aduzidas
potestativo
acepção
impeça
gravosas
associada
MUD
vigia
##242
avaliado
##enização
reproduzo
GMMHM
##234
acampamento
quilo
traçados
ANVISA
providenciar
059
maneja
constatadas
0035
separada
Ilícito
enfermagem
fine
domiciliada
##STAS
quê
VIGILÂNCIA
DISPOSIÇÃO
fragil
cumulativo
conseguem
LITIGÂNCIA
0067
insertos
resoluções
entendi
##gre
##âm
TÉR
AGÊNCIA
telemarketing
##0094
referências
desvi
discordância
tornam
part
RELATIVA
DENISE
##ticos
##640
BON
##036
Coop
operacionais
##emin
1000845
##MARAES
12ª
936
cobra
habitação
GUIMARAES
diligenciou
SP14
supramencionado
##CATIVO
reclamar
obstru
Mod
NESSA
estatui
ALIENAÇÃO
##mer
defendido
OUTRA
antecedência
PERTINENTE
involu
SUM
FLUM
##çando
FÍSICA
Mé
controlar
suprida
prejudicando
##ERANTE
INFORMA
interpuseram
##eiam
submetem
representativos
naturais
REMESSA
quitados
hermenêutica
restritivo
Tecnologia
679
desindexação
reger
indicador
ABRA
sino
guardam
assinalou
reporto
análoga
IRRESIG
##cade
into
autorizados
emprestou
infortú
SAR
ESS
Petrobrás
##ONATO
##odovia
PM
injustificável
colaciona
intima
insol
extingo
##minais
denominados
Função
##êndio
Nagibe
fug
rejulgamento
confusão
##rismo
Evidenciada
obrigatórios
compreendidos
retido
##minados
transferidos
INDEP
magn
inú
##961
##LINA
vigorou
quitado
exigíveis
Caval
autuado
CONFED
VÍTIMA
mano
##AZEIRO
##bular
correspondem
fluência
##PRI
erigidos
permaneceria
##ARDI
##TH
##isso
##pio
EXERCIDO
ANISTIA
desar
impun
consecutivas
Acus
##997
regulam
FLUMIT
Pelas
foc
mencionou
geri
junta
ocasiona
olho
MARIANA
prox
puder
##entamento
Impres
minim
DOMICILIAR
Rei
tras
Minha
##uarte
TECNOLOGIA
FLUMITRENS
respaldar
##CDT
centro
NECESSÁRIA
degenerativa
Procuradora
efetivar
formalizada
impenhor
alar
##965
acarrete
compartilh
061
distingue
MARCIA
dona
980
transforma
analisa
prescindível
##naval
Seq
Pacto
TERRITÓRIOS
recolhe
dens
curto
##eta
##urá
##443
##elhável
diretivo
interpreta
reconhecidamente
IRPJ
909
carcer
anato
requisitório
SANEAMENTO
inaugurada
SEN
APURAÇÃO
##CISOS
XXIV
gás
contratualidade
acarretaria
desvalorização
AMPARO
concursos
SP27
organizações
PREPA
CARREIRA
prosperam
##512
##orroga
elenca
empreiteiro
##UNT
apenso
residencial
espírito
PASSA
intranscendência
##208
AGRESP
explicar
IRRESIGNAÇÃO
cruz
sobrepor
quitar
reza
NOVOS
LIMPEZA
proximidade
##ÍDA
Met
consigo
Freitas
contraídas
Significa
retratada
figure
ganha
subscre
descaracterizar
TRANSITADA
##052
INCISOS
aposentar
##EZAMENTO
PODERES
##ificado
PRESIDÊNCIA
sistematicamente
Doutrina
##CIDA
##945
##undo
PEIX
##ICAMENTE
##ndios
REVEZAMENTO
violada
REINCID
residir
permitiria
##077
sobrevier
Duarte
sequestro
receberam
068
ULTRA
derro
##BANCO
incs
afetada
SUBMETIDO
opiniões
Sucess
##070
substituindo
IMPROVIMENTO
perpetu
entabulado
configuradas
LOG
##VAN
0511
lege
856
Serra
##253
anuais
##fias
sentimento
descumprindo
Protesta
FACDT
ofícios
##ERTIDA
EXCELENTÍSSIMO
distribuídos
psíquica
carteiros
espectro
##onso
ofereceu
##ciários
reautuação
atingidos
ignorar
libera
valorar
reste
##cionam
##516
atue
Ven
distribuída
875
Delim
calibre
Rele
##NTRA
SUCESSÃO
Nilson
mus
contaminação
##tive
mandamento
Colhe
consciente
empí
PREENCHIDOS
Indústria
RFF
exigiu
RENO
##EGRA
Constitu
##ntane
condomínio
ON
TIT
consolidando
listadas
esclareço
PACIFICADA
reafirmaram
LEP
MEC
Cumpri
enuncia
albis
##574
dissolução
Demandante
##tias
bloco
0028
prédio
satisfeita
##elidade
057
##355
convertendo
FAR
simplicidade
cancelado
Refor
esvazi
##itividade
reajustamento
INDENIZATÓRIAS
somatório
Vargas
supere
GMMG
estabilização
Valadão
GMMGD
parc
implementou
constatando
instr
claras
##0363
Afins
colocada
CONFIRM
tivessem
##ung
Determino
calcado
##ivamente
##GIBILIDADE
##mparo
IDENTIDADE
preferencial
negrito
doloso
##155
ficava
FAMÍLIA
munições
obrigacional
desinter
mensalidades
absolut
portuário
RFFSA
C542506551
enviado
Repetitivos
regulamentadora
Lucas
isonômico
exaustivo
inviol
Reconhecimento
QUINQUENAL
imperatividade
##ÓDIA
GANDRA
##870
transitória
incorporadas
##CHOS
AFERI
investido
##985
FAC
naquelas
discrepância
tantos
CONCE
976
##top
##HEUS
encerrou
##cere
defensivo
anotará
##AO
tabelas
fabricação
946
VALADÃO
FOL
enfatizou
forças
solucionou
CUSTÓDIA
##ndidade
hipossuficientes
incólumes
inibir
##RJ
destacam
AMBIENTE
garantiu
INTELIGÊNCIA
Netto
##228
753
cumpria
repousos
supremacia
##655
precatória
Pericial
##048
autoras
originou
TERA
0033
origina
SANDRA
##DAMENTO
ESPÉCIES
INFERIOR
##667
DF00
aviado
##ÂNEA
Agricul
CARLA
838
##acen
acarretou
dissim
ansi
##frase
Bor
atenda
ZAN
BERNARDO
resistida
pedreiro
##880
nociva
BEATRIZ
BMG
humilhação
acompanharam
cuidando
CONSULTORIA
comu
Alf
##LICI
conceitu
##962
UNIMED
##press
probidade
versando
confirm
##058300
Desate
Confere
##cumentos
revendo
##ndindo
Institui
sonegação
##ânia
ININTER
orga
automóvel
espond
colim
##ensurável
Cre
retomada
custa
##ury
Designado
viú
proibido
imputável
auferido
comunicado
##ESSOR
Portu
CLARO
prequestionar
demandadas
IVES
articulação
plantão
evidenciou
##ílios
##tantes
Condutas
##884
ABUSIVIDADE
##CAIS
travada
8405
projeção
repositório
refo
##enciados
MAURICIO
Imprescindível
Atlas
Suspensão
ININTERRUP
Monetária
ALEGAÇÕES
Convênio
##miss
estímulo
##reiros
##robidade
VIABILIZA
media
peg
VEN
isolamento
SOCIOED
sp
##quiát
irrisória
##GÃO
Improbidade
UNIBANCO
ferramenta
CMB
089
originárias
caderno
inédita
MERECIMENTO
Rondônia
irrecorribilidade
especificado
Energia
EMPREGAT
Agentes
Rescisão
colegas
LICENÇA
fundacional
propaganda
beb
Grifo
partilha
Concurso
##ficadora
Segue
instante
LABORAL
profundidade
acontecer
CED
professora
REZ
934
residentes
##ICAÇÃO
omissis
1937
##entações
pugnou
obt
custodi
Hom
982
ressalvou
ADVOCA
Emer
organizacional
bolsa
MÁX
FUNGIBILIDADE
AUTORIZ
##rará
normatiz
##URT
Delega
acertada
trint
agrocom
CESS
IMUN
##AM
anote
ocorreria
lume
##UJ
##entá
desb
ENCARGO
½ï
DIVIS
INCL
aud
homologar
Conc
##DICAÇÃO
Valério
video
absolver
Sid
confundem
nortear
facie
quatorze
Frisa
Inominado
ria
cause
reunia
##FICÂNCIA
AVALIAÇÃO
episódio
Nenh
INSTITUCIONAL
Obre
REGRAMENTO
Disciplinar
rt
085
preenchia
ultrapassarem
potencialidade
telefônico
serventia
TESES
CARACTERIZADO
1123
VIV
ouvidas
involunt
Dí
examina
Assuntos
Unidos
passivas
##964
##tadoras
##zinho
ensejará
APÓ
motoristas
Admitir
dependerá
montagem
881
ADVOCACIA
##895
Gacen
conform
assumindo
075
##573
estendida
eminentes
SÓCIO
##0361
atestada
implementados
selecionado
manipulação
##993
abordado
MOR
Sucumb
##ao
TESTEMUNHA
silo
elaborar
estrangeiros
ambula
colaboradores
##ítimo
913
moderado
DAVID
psico
Apresentadas
ilustrar
##808
##avelmente
ÁREA
faziam
##297
##246
CARMO
MATHEUS
##LAU
Participação
pautar
CENTER
estabeleçam
necessitados
DOIS
acompanham
monopólio
gab
contributiva
possi
cárcere
recorreu
CHRI
comumente
##estou
cometidas
fundiários
##adap
defici
Juaz
892
0031
##611
IMPUGNADA
Euro
##RAR
EDIÇÃO
espontane
CINCO
verificados
ITR
11ª
renego
POLÍCIA
PERICIAIS
incorporáveis
##tocável
##833
Acrescent
recorra
Carolina
Outra
beneficiada
##680
pia
textos
ética
supletiva
Recuperação
ALF
síndrome
SOBRESTAMENTO
##CIMA
PORTU
IMPEDIDO
necessitar
competindo
##GER
redigido
imputadas
demandados
Superada
PRINCIPAL
processada
sair
elaborados
Material
retrata
ANTERIORES
Protoco
significaria
ambiguidade
iz
indiscri
presencial
##353
##MATRA
obedecidos
REFORMADA
fiduciário
CONSTRUÇÕES
Audi
##ropolit
pará
Visu
THA
vá
voca
detalhada
##602
articular
PREJUDICIAL
Ultrapassado
##SSIFICAÇÃO
974
tarde
cronol
Bu
##340
Juazeiro
OIT
CAMILA
DEMAND
DSR
laborar
Job
reabilitado
PRIVATIVA
CUSTEIO
##TEMP
##979
externado
cogente
recair
TV
MESMA
descabido
SEGURADORA
silog
pleiteou
distribu
negativos
908
mente
harmônico
acresceu
denotam
discricionária
integre
Rurais
doutrinário
Evidencia
concausa
ANAMATRA
Obreiro
ingressaram
assemelhem
##2155
pormenorizada
cotidiano
##mentes
mútua
indu
Sustentam
##guei
acessória
AUTOMO
##ity
Esclarece
086
##elaboração
MICHEL
lições
livramento
CEMIG
delega
Públicas
##cei
pausas
indicativos
instruir
destacados
Fran
solo
Evento
Traz
repisa
##ATIBILIDADE
GRE
ACOLHIDOS
Afasta
bol
liquid
Bancos
descaso
Recorrentes
PRERROGATIVA
máquinas
##cb
##sionais
cristalizada
compara
##ZOS
XXXIV
MS01
desencade
CHE
sedes
eficazes
depressivo
ímp
##iago
resulte
científica
inflamável
##848
tendência
determinava
abrangido
##ASP
fundistas
desemb
consegu
ACESSO
rejeitado
anatocismo
##ONHA
DESIN
##entei
##dee
MERO
negociações
ANTUNES
##898
##pse
MATERNIDADE
Avaliação
argumentar
##578
acompanhou
##jas
##ARACTE
declare
Substitu
BAS
tunc
RAM
traficância
emanados
paráfrase
##IVAL
RAQUEL
##algia
##2015
##DURA
##çu
autuação
INJU
impugnações
veg
DEPOSITADOS
IMOBILIARIOS
faltar
declaratório
EMAN
chamados
ofertado
alteradas
##ópolis
RESSAR
##udar
Todas
##914
##ELAMENTO
impossibilitada
instaurada
delin
RJ11
076
arroladas
047
Medicina
DESCARACTE
irreversível
mando
ESTATAL
PETROBRÁS
reitero
Tor
##RUTURA
vedando
heter
embasou
SIG
Pagamento
demonstraram
Joao
##LY
aére
cm
##MINAÇÃO
INSI
5857
cometer
EFETUADOS
Igua
Empregador
readap
terapêut
GMEV
EMPREGATÍCIO
INSTITUI
usado
##stica
##SIO
Crime
cerv
Entender
SPE
anoto
054
##utica
pecuniários
ventiladas
Irrepreensível
quórum
COMPROVADO
##UTINHO
ocasionar
##OTO
Conceição
expressivo
##519
ENRIQUE
BOT
##643
pericia
##20124
anuênio
##613
chegada
efetivas
coex
##ETRO
Publiquem
##VENÇÃO
enfatiza
969
CORRESP
visita
contando
Visualizar
DECIDO
dissociadas
##ÁR
##677
INADIMPL
##BARA
assédio
Dívida
0132
##conferência
##NIA
##lico
nasce
confessou
##PR
paul
##terais
desempenham
bastantes
ABRANGÊNCIA
ajustes
vantajosa
perseg
RECONHECIDO
XLVI
##ornadas
clínicos
##osidade
TEMPORAL
Exame
##GNA
##au
atuava
sanitárias
FUNCIONAL
majorada
livres
REDIRE
esqu
920
Verificada
desvencilhou
MANDA
Consigne
RECL
colacionadas
POSTULADO
##dita
DESVIO
previsões
sessões
INSIGNI
trajeto
mitigada
actio
colacionou
enver
sistêmica
##843
arrasta
DECIS
##850
fidelidade
ininterruptamente
aprofundada
carente
Revis
sinopse
Sy
recusar
Pleiteia
PFE
Tram
quantitativo
##917
REPOUSO
confusa
representatividade
revelado
##810
garantam
intan
constava
MUDANÇA
COLEGIALIDADE
desobediência
repassado
Jard
COBERTURA
usufruir
##çõe
##RAIS
estáveis
autônomas
citando
plata
FERIADO
INEXIG
incremento
##anais
concessões
ABA
usufruído
Remessa
óleo
exaure
DESCONSTITUIR
anulada
especificidades
pressão
rubricas
Lucia
Situação
VINCULAÇÃO
##607
exercidos
refuta
cometida
automotor
discos
enfática
##ferindo
DIFERENÇA
##AI
FALHA
existiu
destr
##lom
tratadas
TELEFÔNICA
veto
postuladas
dependem
vocábulo
org
socialmente
REDIRECIONAMENTO
encontradas
hierarqu
##estem
sobrecarga
contrapor
decorra
077
Acrescentou
petróleo
converg
##549
solucionada
impossibilitando
cân
Estat
adquire
AMAURY
OPERAÇÃO
##liares
posições
nata
reproduzido
contratualmente
FIDUCI
##põem
Enfa
ASSOCIADOS
862
##YA
impedida
pareceres
tramitam
073
invent
declinada
##ESCENTE
##jando
fiscalizava
EXECUTADA
adimplidos
Flá
IMUNIDADE
##GR
presidida
evidencie
peculiares
esperar
contribua
impeditiva
##967
conhecendo
##IZAR
GESTANTE
guerreada
CONFRO
##crições
seletivo
##mbra
Simples
atentado
##inhos
classificado
##RN
deco
Delimitação
##ivar
CRUESP
ABRAS
EMPRESARIAL
comportamentos
vistoria
sucede
disciplinares
##mem
geralmente
ALCANCE
6a
ESPECIALIZADA
PRONU
##ÊNCIAS
viagens
consideram
ACIMA
psiquiát
recebem
Gabri
lazer
lingua
##tarias
alcançadas
águas
##formou
prorroga
reelaboração
trauma
##ley
0036
facultativa
ativas
usar
ISENÇÃO
videoconferência
##RINI
delituosos
SOMENTE
Inadimp
mensurá
NOTIFICAÇÃO
decididos
derivados
municipalidade
##ônus
seção
ADIN
Labora
Flor
082
Naves
apreciará
oposta
##égios
empresária
Constituinte
0030
##113
986
##IPI
983
##FRA
perseguição
Salvo
revisto
orçamentário
1046
##parti
décadas
Opera
##ll
978
DANIELA
DELAÍDE
##ADEU
##ance
##ísticas
adentra
ale
abertas
noite
periciada
Fis
consentânea
##issem
incentivos
preservado
precedida
csn
LITISC
INSIGNIFICÂNCIA
uns
##IAO
##016
comissivo
capitaliza
##ESAS
##porto
puro
distrito
##CORRENTE
nelas
##ilod
atrelado
REZENDE
regul
transcreva
CONTEX
##lios
TAT
Foro
##itê
lançamentos
SUPERVENIENTE
etária
##943
tribuna
consubstancie
pronunciada
desarrazo
Incontroverso
FORÇA
simetria
impulsionar
aceito
Comunicação
##410
TRF1
Senador
gov
reflexão
DECRE
##berou
SOCIAIS
REJEITADA
##eliz
##ERDA
LIB
reforçar
socioeduca
IGM
Geraldo
certifique
segredo
regidas
fluxo
erra
CAN
ARAGÃO
0131
uniformizada
##utável
##ordar
persuasão
possuírem
ISSO
ÍNT
cumpra
Sociedade
DIRAT
Hanna
Telefone
governamentais
prestaram
depreciação
##ABA
GMDMA
líder
privacidade
Natu
NESTA
exemplificativos
incondi
hipote
LOUREN
CONTR
LITISCONS
PAULISTA
incerteza
081
GUEDES
facto
1950
##trans
apli
##915
inconform
FERRO
aderir
Instituições
##erosa
contrapro
084
REGRAS
ADES
RSR
FONTE
##518
esvaziamento
##ári
colocando
renovada
INJ
EXTRE
Jesus
##iba
Campo
##350
MONTA
##IME
NEGÓ
Inaplicabilidade
assinar
SEJA
##ensores
sobrestado
remetendo
incidentalmente
anim
##UCATIVO
Sumula
conversas
TRIBUNAIS
frustra
Lado
caracterizadores
corrigida
Amaury
INCORPORA
Tarifa
SUMULA
irradi
SSP
originários
substabelecimento
azo
deveras
##897
##LENE
Balaz
PR03
##miscu
Conselheiro
procedido
##TIO
##elos
infortúnio
assegure
colimado
importâncias
GABRIELA
associações
VITOR
pét
##ecimento
atenua
Balazeiro
TOCANTE
0034
visava
##gon
##ulli
Incumb
intermediário
TRECHOS
##atur
confia
CLAUDIA
VANTAGENS
sintetizados
classes
estendendo
bomb
derivadas
TERESA
aprecia
apelantes
delicti
Delegacia
Hannah
EXIST
concretizar
perfilhada
MATERIALIDADE
desatendimento
##273
Qualquer
##estio
definitivas
972
##rutí
##664
sugere
divisar
contenham
pausa
##óc
insuscetíveis
##847
REGULAMENTO
levantada
assinou
ABERTURA
MOLDURA
preveem
PERANTE
VOLUNT
referiu
##cá
ininterrupto
PRONUNCIAMENTO
##IER
revaloração
Tramitação
razoavelmente
decidiram
##estrutura
##atora
Pond
cominações
regularizar
##orrência
##álvio
914
analfabe
abaste
METRO
##661
SE000000
constituiu
preceituado
SE000000M
##tosky
PARCELAMENTO
LINS
fisio
restará
primeiras
OSTENTA
herdeiros
universo
curvo
LIMINARMENTE
##871
legislativos
repetitivas
civilmente
campesina
##ciou
##ps
1021
debru
CESSAÇÃO
##cai
ajustado
pontuação
INCON
##990
##INALDO
##tã
alicerçada
INDISP
devolvidas
##XAÇÃO
Alfredo
##RÃO
##887
GILSON
##ances
culp
00001
##tones
quintos
##pela
##COM
equa
ARM
##882
OFICIAL
Sálvio
comparação
inserem
objetivou
COUTINHO
##vartosky
Gevartosky
##670
##gramas
cidadania
GMALR
HONORÁRIA
JAC
quitada
14ª
Volu
possibilite
buro
levadas
GENÉRICA
demis
##ídica
##carb
RS07
pescado
##COURT
submeteu
corpos
remanescendo
PARTICIPACOES
##342
Bandeira
Relação
imputando
fornece
urgente
estreitos
tec
inep
083
Comentado
Rodovi
alheia
EXCLUSIVAMENTE
questionados
carreados
##iga
almo
SP24
textual
##jornadas
cartas
GMMB
fortal
aula
##ELADO
acondi
diferencia
aplicativo
defeitu
SOCIOEDUCATIVO
Fórum
desconhecimento
facção
##idores
parado
tiverem
reafirmando
##NEI
indústria
Determinada
VUL
##óctones
cominada
plenitude
Franciulli
PREVAL
documentar
enunci
PRESTA
observará
sinaliza
##assou
JULGAR
continuados
Consul
câma
desqu
DIÁRIA
implici
DESPESAS
ESTADUAIS
resolvido
KO
alóctones
Reconhe
##2011
INEXIGIBILIDADE
SUPERVENIÊNCIA
ENRIQUECIMENTO
##CIMENTOS
##319
eD
auxiliares
Cita
imunes
dependam
dores
vedadas
Certo
DIO
Intime
acontecendo
LID
oitava
C5425605
UNIDADE
Fred
##910
há0
repito
##806
##229
desembara
##cuo
##236
avanço
caução
##ney
incong
pretendidos
Ocorrência
noticiado
interferir
externos
Petros
##lumidade
CANCELAMENTO
nestas
obedecerá
##673
higienização
advém
PEIXOTO
DEDICAÇÃO
atualidade
FEDERAÇÃO
Marcus
improvimento
estatura
toada
EXPEDIÇÃO
##participação
EPIs
RESTRIÇÃO
CABRAL
CAET
mostre
esporá
CONSEQUENTE
##rimestral
##h30min
Penais
eco
fided
##ATOS
##759
prevalente
17ª
mutuário
FUNÇÕES
##CORRIBILIDADE
atingiu
conveniente
RESCIN
##ntra
prema
jú
baga
interessante
respeitante
uniformidade
nucle
##esto
##anches
indese
inelegibilidade
##grafias
SEGJUD
Empregados
geram
##445
Mul
ostentam
configurou
##ÍCITA
direita
##ELIA
PR04
admita
Assistente
fechada
##muni
discutia
SINDI
retirado
tipificação
diagnosticada
##REST
##RF
INATIVOS
rádio
##572
VANESSA
##ERIC
investe
Desnecessário
##mc
frustração
confi
detalhes
##ignidade
8100
##cipado
noticiada
deneguei
CONCENT
VIGOR
mutatis
RAMALHO
impeditivos
##STADA
MOTA
separado
Concedo
propi
INVENT
SEPA
ABRASF
subtração
ratificação
convencionais
cc
advertidas
Subl
##ALTO
refoge
##GAL
##MINARES
completado
informam
cômo
##ticular
Orientações
caracterizadas
impróprio
VARI
indubitavelmente
Qualidade
artesanais
LBC
0503
##ROCA
especialização
disparos
##municip
##ardinha
MISERABILIDADE
introduziu
##609
constr
completou
TERCEIRIZADAS
##216
legítimos
resumida
##estabele
ons
quantos
nt
##erico
##vocados
COMBINADO
##itá
cana
Fiscalização
##UERMANN
0053
gente
##CITANTE
deflagração
ELETRO
##ião
trilha
organizada
argumentações
WELL
intensa
introdução
inocorrência
APOSENT
##999
Jobim
##856
JÚLIO
incri
incolumidade
acessórios
ELEMENTO
instauradas
debit
##575
##HAN
##concel
integrando
##KET
gere
submetendo
##terios
##vê
SP25
renunci
##ícius
##892
donde
coe
##853
PECUN
INICIA
lastreia
PERCEB
privilegiar
Ilegitimidade
EXTI
releva
PGF
##IÁRIOS
equivocadamente
apurou
Agr
##0208
NETTO
##RICAS
##2016
destruição
##MONIAL
compelida
##653
republicano
imiscu
orais
RESPONSABIL
ls
##bstante
conduzem
vertidas
SDC
##ÍDO
##uss
geração
proposição
prestígio
Vinícius
##ANTIL
independentes
consistem
farão
Sucumbência
##ERADO
##bimento
JULGADAS
Milton
ÚNICA
ESTRANG
organizado
instaurar
PREPARO
##318
descontentamento
093
CORRUPÇÃO
consubstanciar
##quinha
robust
CONFERIR
SCHEUERMANN
severo
##ICUS
Seria
Merece
##352
formulou
represente
pluralidade
interfere
calcular
1972
Urbana
REELA
Resoluções
DISSO
Nobrega
publici
##cendente
##icada
realize
ficto
Ident
largo
FIDUCIÁRIA
REELABORAÇÃO
CONDENAÇÕES
elegeu
Vasconcel
implicitamente
Mantida
concorda
ASSESSO
querela
criterios
Mayer
##LOC
RESTRI
fronte
bônus
##vidosa
pensar
##BERTA
gabinete
##919
049
939
discutindo
eDoc
Conse
dirigiu
##kg
aduzir
traduzir
voltados
relemb
ordena
instruem
Extras
##HCS
##ribu
remeta
##úcar
Anoto
##OGIA
extravas
reavaliar
NORMATIVO
debe
consabido
##egueira
353986
LIMITADA
GMAR
GMARPJ
assembleia
##ILDO
##238
provisoriamente
Conci
manifestada
solto
tardia
mencionando
muita
##ÉS
##ronta
##inale
AMICUS
ANALOGIA
partem
afirmam
ADEQUADA
DIL
cessará
desenvolvem
DESEMPENHO
CET
ouvi
0073
pequenos
##047000
GMDAR
##inca
dies
repetições
postergar
digne
GMHCS
incumbindo
insolvência
Fáb
exatidão
REFERI
LIVRE
sardinha
##istia
##356
SARA
eleger
XXXII
INVOC
nullit
obtenha
NICO
##838
RODOVI
discor
infant
piau
Investi
PRELIMINARES
##ANIA
TURNOS
##rimatã
solicitadas
arrematação
TRANCAMENTO
detentora
##goa
tend
quinto
OITA
rique
##bate
últimas
centra
WALTER
híbrida
decenal
fundar
conseguido
Nord
discorre
EG
##pula
Exce
desestimular
almejada
Rever
implícita
SALDOS
##222
##899
##NDO
##316
benéfico
inexistem
guarne
memo
##690
##iariamente
principio
DEFERIDO
Configurado
coparticipação
queria
transport
##inam
curimatã
##960
Patrimônio
delituoso
angula
##610
##tê
Cidadania
encontrou
racionalidade
BIAN
PRESERVAÇÃO
rejeitando
expectativas
argü
SC0
Jurisdicional
vídeo
ANALISADA
portas
##IVADA
SUSTENTAÇÃO
##949
FALIDA
exclua
VERIFICADA
táb
verso
Antecipação
oscilação
##normal0
##erativo
ue
##jou
##617
DETERMINADA
passe
##918
operando
gozar
##678
ANUÊNIOS
executivos
Fé
##932
Estes
enx
Assembl
ELIZ
supracitados
radiação
microssistema
possivelmente
cic
interpõem
otim
##ódica
##lhar
##UND
Odim
resgate
##írem
##RISTA
##885
comportam
Considerou
##ulações
repousa
Residencial
##bras
Ativa
fixos
garantidos
##715
SIND
reproduzida
prévios
BÁS
distrital
superadas
cumulativos
RESULTADOS
promulgada
EXEQUENTE
##893
##279
aliada
conseqüente
ganho
Sum
temporais
govern
##619
bruto
RESSARCIMENTO
lou
##dis
arrastam
tratarem
afec
colocou
estatuída
INFLACIONÁRIO
hospitais
EXECUTADO
##ulopatia
##especial
verte
voluntariamente
conferência
REPETITIVOS
TELE
PS
##mentalmente
PREVIDENCIA
adote
##VEDA
##enefício
faixas
conexos
observaria
##693
motivadamente
pagando
ameaças
##ÍCIUS
Representa
Inte
pg
##889
##933
esclareça
INFRAÇÃO
ADESIVO
interruptivo
fluir
ALEGRE
sócia
cassado
iminente
##uc
APÓLICE
REJEITO
Penso
Consequência
conformando
Jurisprudenciais
Aplicável
##639
SENDO
##lad
Parque
TARIFA
HB5
##nderância
097
DÁ
álcool
proponho
TIM
058
promove
pontuado
entenderam
PATRICIA
ínsita
ortop
ataque
##ficando
GMBM
0090
ÍNTEGRA
FUNDADA
íntima
Nordeste
Concessão
##674
##valo
0050
VIGILA
TABELAMENTO
Sucessivamente
votar
##032461
VINÍCIUS
marinha
ELETRI
dispensados
Acolho
##HAEL
entregues
vara
##cen
IUJ
##CHO
##663
profissões
Internet
tumulto
traficante
##OSS
##676
PACH
chamadas
retornou
cervical
conversa
Abastecimento
auferir
Frederico
periódicas
Polít
queda
FATIMA
URBANO
ALESSANDRO
MS00
Coleg
servente
recepcionada
indexadores
avulsos
LACERDA
##ÂNIA
auferidos
contrario
##995
vulnera
considerá
troux
potencialmente
Reitero
desígnios
amen
costuma
revestem
##URDES
causídico
limitam
tramitou
nuances
assistir
informal
procurar
roubos
excessos
silente
carreadas
##feriu
REPONHA
engendrado
##PRIAÇÃO
442634
inserindo
credora
nullité
ESPECÍFICO
antecipar
esbar
##MISSÍVEL
TENT
1004
CONTEXTO
passivos
Jornada
VERACIDADE
##570
perdura
manuseio
##272
ocasionou
AFONSO
reservado
evasão
julguei
referenciada
neuro
REMUNERADO
insucesso
extração
CSN
adjudic
##916
segmento
preponderância
infantil
##ITÓRIA
##233
labore
##úlio
##ÍSTICA
privilégios
explicitação
Movi
produziram
semanas
ADERÊNCIA
##USI
Magistrada
protegidos
Continuada
##ndal
provavelmente
resultaram
assaltos
gestores
superados
extrapolou
XXXIII
surgir
científico
##608
põe
interpretados
Requisitos
##675
encaminhada
coligidas
merecia
recorda
##032164
insculpidos
detectado
CONTEÚ
tempestivos
tendente
Majoração
Jardim
qualificar
PJe
estivessem
##039
desincumbindo
Civis
Desemp
façam
assento
correntista
deliberadamente
mec
ROBSON
NATAL
ancora
0100
##MAZ
Carteiro
desautoriza
Superintendência
atualizadas
discriminatório
Esclareceu
impress
ofender
aditivo
pouca
##ÍVO
Debate
evita
doações
0113
##20198
ÂN
HOSPITALAR
requerem
bastava
admitem
acumulados
insurgindo
acidentária
teó
ILÍCITA
Colho
MODIFIC
##elada
enfoques
##vora
CARTÕES
objurgado
descabendo
RMC
1963
anexou
Pires
subordinada
pretérito
Cíveis
MULTAS
percebidas
##293
##440
DELIMITAÇÃO
664335
Ges
##046
##553
Quais
esgotadas
##eck
Transferência
gal
dispa
Andar
##ceió
desmo
rechaçada
##guem
proporcionalmente
solicitando
Maceió
repercute
excelsa
CONTEÚDO
##0007
pá
operadores
CHAGAS
VID
##rosão
assinala
reputando
juizado
##977
cooperativas
natalina
##ól
RECUSA
lançar
cortes
emancipado
40652
PROFESSOR
elidida
unicidade
severa
PRON
fracionamento
WELLINGTON
REVER
Médico
##brir
previra
##sasse
##KE
Tratado
integrou
pur
INSTAL
alavan
INICIATIVA
SUBS
##576
Sobral
MAJORADO
respeitaria
LITERAL
esquerda
##UF
##quel
NOR
instruções
Arre
IGOR
DESINDE
Morais
traçada
##RIDADES
interverte
prestigia
##ndiam
operam
##ILIO
frequentemente
PR01
pretenda
expondo
impositivo
alu
Preto
IRRETRO
PROM
##946
DESINDEXAÇÃO
Amo
constado
Ivan
##iados
INSTITUCIONALIZAÇÃO
SP4
IMPROCEDENTES
manifestaram
LONGO
monetárias
remeter
contemplada
##odon
MILTON
##der
POUP
##QUIA
inace
extir
sérios
BIENAL
Municipais
##NTADOS
centenas
pin
Obrigações
##tismo
injustiça
conclusivo
##ENDLER
centrais
PARANA
ECA
TC
assertivas
GOZO
atribu
0054
##mero
MAIO
CONCENTRADO
##UTÓRIA
imaterial
HARMONIA
especificadamente
Décima
PACHECO
quero
Extin
##tize
arguir
IDENTIFICA
conciliador
Comis
##842
Parece
insan
reformas
VPNI
competir
assessoramento
Substituta
socioeducativo
literalmente
extenso
omitiu
FUNCION
##IPICIDADE
incompleto
##111
RESENDE
solucionadas
Confirma
serventias
enverg
##KETING
satisfatório
capitalizariam
##249
CASOS
##ATO
devolutividade
Pensão
CALDAS
dissabor
LIII
controlada
integrativa
RECONHEC
científicos
CIA
federalismo
rodovia
abrup
il
estratégia
extintiva
##ire
piora
##municipal
##UÇÕES
dissu
filial
Presente
##izagem
##inidade
travado
disto
TERATOLOGIA
JUIZADOS
aprimoramento
##DOLE
##ivelmente
##ITI
vigorantes
impunha
RAP
antidem
usufr
infrator
suscetibilidade
Dup
desempenhava
vestibular
Apresenta
##iticamente
retroação
REGIMENTO
utilizava
acredita
JUS
##empre
anulado
formalismo
cozinha
vejam
levantadas
Assinala
contemplado
apontamento
RUBENS
afirmada
##dom
carreado
joelho
0382
percebimento
citam
unitário
Urbano
ÍNDOLE
CALL
SÉ
##852
categórico
VITAL
Afonso
Subsidiariamente
Lou
Agui
##sc
cober
##idad
moratória
cidades
##358
examino
Via
##BORA
ABSOLUTA
DON
cancelar
##ocação
Cargo
Classificação
PREJUDICADA
MARINHO
intenso
##875
expropri
invioláveis
acons
##971
Documentos
envergadura
compreendeu
dificultar
renovadas
rendas
pele
##837
obreiros
JE
Fís
Pré
0482
jovem
vere
##icasse
referia
PROCESSOS
##939
concausal
##872
consolidar
análogas
ALFREDO
##444
##dem
transformar
balança
recomendando
##carbone
versava
absurdo
##888
ATUAÇÃO
M54
1943
instada
##EGURA
mediação
ampliou
FABIANO
##maneira
mundial
##ÚL
##ASS
promitente
emergencial
exequentes
TRIN
taxativamente
recompor
VEDADO
Titular
CONTRATANTE
tanque
##GEN
Pad
##qüente
Curima
artificial
##846
0661
profira
absorvido
Integra
FRANÇA
repassa
Fábio
PASSOS
Agricultura
SP13
RECLAMADAS
MR
rios
##ÍDOS
Fixadas
QUAR
Desembargadores
##vial
impactos
IMPEDIMENTO
Feito
##máticos
verificam
Afastada
PARG
##remos
crítica
##tta
NEGATIVO
chance
atingem
livro
ORÇA
##nese
revistas
##tizado
Dia
##RECE
loca
Prequestion
Forne
quilos
##359
sublinhar
Inadimpl
desconhecido
##ENSE
ilicitamente
POSTERIORMENTE
##SCH
cancelada
ALINE
contemplados
Vicente
agravar
licenciado
MODIFICAÇÃO
metros
Cria
##VAT
REFERENTES
SAUDE
crível
##vares
percebendo
tecnologia
defensivas
acessório
Usina
pap
Temático
computadas
errô
sanciona
mau
Incent
ocupam
Corregedor
##veio
##660
deter
noticia
incentivada
PARGENDLER
onerosa
branquinha
DIVISOR
MAX
simulação
MÚ
Disponível
MESMOS
Proch
extensa
##tidae
ofendida
Schiz
judicando
##portheus
Triportheus
##ilodus
angulatus
Curimatidae
Prochilodus
Schizodon
devam
CONHECIDOS
litígios
posterio
##istemas
manejados
Adoto
##téc
Sete
##ECE
inaud
RECONSIDERAÇÃO
embala
infrutí
##695
##toconta
golpes
antecedeu
##668
SÓCIOS
retardo
presumidamente
##ESO
BIO
AQUIS
desna
ADIn
sei
abandono
##ell
defere
especificações
##PT
##DIBILIDADE
ultrapassada
SEPARAÇÃO
Afa
transversa
##oss
feriu
terceirizante
##873
10017
##829
crescimento
INTERVENÇÃO
##eneidade
DESSA
conferem
22012
tensão
DESCARACTERIZAÇÃO
##DIOS
levaria
Guara
Natural
##6155
Todo
0042
PIMENT
indenizatórias
##DUÇÃO
integrada
infectoconta
íntimo
SEPÚL
0146
comunicar
0039
PRISCI
restabelecida
GML
penhorado
Incumbe
Desempenho
##042
DUSI
##ÓGICO
##942
testemunho
adimplida
sobremaneira
suplementação
quaestio
Embargados
ESCLA
aulas
Início
facultada
##chada
postergação
##076
Provejo
fraudar
frustrada
##974
possuidor
viesse
acampados
precípuo
Transtorno
LEOPOL
Cf
linguagem
reparado
remonta
usa
restituído
SEPÚLVEDA
RORA
qualificadora
pacificar
##2014
encampada
##soró
minuciosa
##618
REINCIDÊNCIA
##nce
##vocos
0088
esposada
INSUFICIENTES
supramencionados
##828
indagação
antidemocr
repristina
##913
comodato
##ÍTULOS
dub
PIMENTEL
Disc
##270
Pinheiro
vivenciada
INTERLOC
ELIG
##ustriais
Acordam
ínte
##GAR
propostos
Espé
atribuí
viúva
Dada
1011
delitivas
lesividade
##MILTON
mensagem
Comprovada
##inhas
Mossoró
PROFERIDAS
ilustrada
Conselhos
reduzidos
programada
domingo
fotografias
vácuo
atrasos
##226
residências
NATURAL
sir
TRINDADE
incensurável
pul
Refere
##630
DEPO
eletivo
ASSIN
vazada
##its
##UCCI
INSTA
resguardo
acentuar
##612
instrumentalidade
##637
Liminar
testemunhais
Economia
atuado
##figura
Amorim
descentral
##ficá
protegida
julgara
##tivismo
##948
recomendar
##877
SINT
eletricista
femin
##fás
incorrido
desincumbido
Participações
##antes
cotidiana
constritiva
foragido
##giosas
##nei
##óx
Cardoso
Devido
utilizam
##itórios
associadas
Protocolo
ELIGENDO
condu
ESPECI
acometida
Bole
sanitária
Preserv
refutada
dezenas
Alegam
Falta
Moto
VEÍCULOS
##IND
competição
TETO
geraria
##REGAÇÃO
0201
##912
GIO
##far
invas
asseguram
beneficiam
particularmente
##riado
GMR
INFRACON
indulto
indisponível
Inscrição
bio
0032
Press
funcionar
coligidos
1002
pontual
agrícolas
##ILHA
obstando
##2100
decorrerão
##lasia
##ENDIDO
##corp
JOB
anulatória
Legalidade
liquida
resguardado
##UMA
observaram
terceirizações
observações
RESSALVA
aumentos
tecnicamente
devemos
psíquico
pautado
BRANCO
alternativo
sensível
COMISSION
proclamado
chave
Rora
##692
Necessária
##macê
repressão
##ulando
colid
DIRETO
extor
##estal
ocupava
Feita
VANTAGEM
GDA
##411
constrangimentos
Ambiental
##LIAÇÃO
Compare
depositada
diur
XIX
##COLA
##656
QUADRO
liberar
SOF
PLENA
arquivos
competi
CELEBRADO
APOSENTADOS
PAGA
destrancamento
clássica
ATRIBUIÇÃO
errada
GMRLP
inibit
##imentar
plenos
##278
LOURDES
crescente
consentâneo
PARADIGMAS
##doo
atentou
BALAZEIRO
OPOSTOS
intimacoes
eleitos
Apontou
traçado
POSSÍVEL
##donto
##ERVO
suscitante
##of
##erc
##546
presumindo
0502
chamar
posteriori
considerasse
##579
FUNDAMENTADO
oferecidos
GMABB
Sanches
inabil
##975
##286
apoia
##MENTAIS
suspende
Atividades
cassando
representando
lato
elastecimento
ADMINISTRA
Realizada
Aldir
##658
recesso
Penitenciária
CAIO
voltadas
Provas
alinhado
CONGRESSO
prequestionado
##ásticos
computa
COP
##937
elegendo
##FIP
discorrer
Roraima
ALESSANDRA
##andro
indubitável
Passarinho
Doutor
TRF4
##essado
divor
##cuple
INJUNÇÃO
empreendida
inevitavelmente
recalci
PC
MARGARE
JURÍDICOS
obrigando
anexas
Migu
nocivas
dirigentes
REAJUSTES
##ciente
fazenda
Caber
década
reabertura
RORAIMA
##343
Pecu
Regulamentadora
solteira
tentado
##ZEN
pesquisas
compartilhamento
are
roupa
EXTREMO
influencia
##950
viabilizador
Pelos
APRESENTA
espontaneamente
##966
##ATRO
SUBJETIVA
reputação
1026
reconhecem
##azimento
FISCAIS
TADEU
##ATURA
##CIDOS
memória
rasa
SUBMISSÃO
certificar
##638
Relações
marcha
FOLHA
##333
Formação
Firm
omb
##ery
0102
CONCEICAO
depa
FAMIL
delimitada
radiculopatia
desquali
##domést
chegaram
Matias
##RATA
ASSEGURA
decorreram
organizar
arrenda
asc
##ntada
Diária
##cionalidade
prescritos
Bress
reexaminada
PERF
BAND
Bez
adul
##timo
escolas
Permanente
DENEGADO
Falou
raro
ALTA
hospitalares
contabiliz
prestará
distinguir
contrariado
CONHECEU
prevenindo
narrada
PONTES
redistribuição
extraídas
CIÊNCIA
usualmente
declaratórias
abster
Emendas
emana
apropriado
locuple
087
intol
lida
claus
Pod
SALES
costumes
expan
##enove
essencialidade
correlata
ALBINO
inaptidão
APREENDIDA
CANCELADO
CORRENTE
atenuantes
Miguel
ouvir
SP31
##ÉTICA
Única
Ambientais
MARCON
DUT
9494
inaudita
##HARD
POSS
CÔ
##ôn
##8200
##endário
concretiza
Question
readequação
LRF
governamental
potenciais
costum
1270
read
votou
determinará
Vitória
##81200
PROMULG
PERCEPÇÃO
arguidas
desfru
DENT
RJ14
explicita
preconizados
assentadas
##crever
##ENHA
Barra
implementadas
fundamentam
##dB
##HUR
##878
MAJORA
0052
federado
inquis
REALIZADO
prédios
pedagógica
denominadas
identificam
##LIS
##resto
##rizados
Esco
Págs
##377
EMPREGADA
CAUSALIDADE
agenda
subsidiárias
##semos
INFRACONSTITUCIONAIS
Bresser
##cena
##ciono
GRI
Dever
Lira
Mari
silenciar
decisórias
esclarecida
FINANCEIRAS
Prazo
PRESUM
colacionar
norteiam
##uário
proferindo
Sar
SUPER
intervir
relativização
MOTORISTA
malferimento
condicionantes
Parlamento
temporários
##032425
júri
ANULA
Faculdade
desatende
autenticidade
estupro
TANTO
impreci
buscado
DESPROV
fiquei
MIT
AMBOS
##artamento
épocas
concordar
somados
##628
REQUERIDA
subitem
corrosão
RITA
velo
engenharia
INDEVIDOS
AFET
passados
idéia
FIC
gravação
Precatório
externas
suspeito
oferecem
ld
##616
INDÍCIOS
Alegações
##686
agu
##réstimo
JEFF
sacri
##998
denega
CONTRATA
SEGREGAÇÃO
PEDROS
##666
##836
1118
injustamente
relatos
carnaval
##698
Pesca
##rat
Produ
DEFINITIVA
arrepio
imensa
adimplir
ocasionando
forneceu
GMLBC
ROBERTA
ee
##ículo
transferida
##ECK
Constituições
MÁXIMO
##cd
##ISMO
solicitada
precisos
adu
Defensor
RS03
acrescendo
retoma
Consec
longos
##orias
##IADORA
Substituto
colisão
Clara
GMF
cegueira
##NTAMENTO
aposentou
##canti
imprevis
##LIAN
UNIP
emitidas
Decidiu
UT
Naturais
Mundial
IDEM
Construtora
classifica
CONTINUIDADE
saudos
PROTESTO
singula
##YS
##968
ACORD
remota
##IRMA
delituosas
VALDE
faute
inaceitável
insanável
Aguiar
##vedo
comprovasse
atingimento
CAETANO
Haverá
reconvenção
intervenções
##418
OPOSIÇÃO
##858
##amnese
arguido
Relatado
Distrital
agressivo
componente
vincular
ILICI
esc
DEFESO
resguarda
##0200
financeiramente
adjudicação
válidas
Bom
##ILHO
ARTHUR
MAY
Fato
##276
legislações
INADMISSÍVEL
##ob
EXTERNO
visual
quantitativamente
vultos
LESIVA
reclamo
habilitar
Noutras
ANTECEDENTES
##969
reexamin
##celino
CANDIDA
Trecho
THO
posso
nef
PROMULGAÇÃO
GOL
hidrocarbone
filantrópicas
SEMI
CONTINUADA
VALÉRIO
Bezerra
INSTITUIÇÕES
mantiv
presa
juro
##cidentes
##pons
##VEST
lícitas
CONSOLID
mili
PRESTADO
over
SUR
operadoras
##ÕE
Circunst
##ntana
##849
FR
abolição
GMFCF
novação
##345
AÉ
0038
Cob
Acent
prudência
##oni
desser
desprover
difere
tivemos
OGMO
proposições
VEIC
subscritor
##HN
anamnese
INTRO
##domésticos
extintos
excludentes
ferindo
##oná
Atendimento
coincide
boletim
PRETO
0121
##MER
crít
Leandro
irretocável
Objetiva
sustentava
boletos
MATTOS
compreendidas
MERCANTIL
endereços
opções
INFORMAÇÃO
inspi
impunidade
impenhoráveis
recordar
##ETH
##eixes
##749
refletem
inovar
Aí
atualizar
restabelecido
Inci
PAGO
pactuadas
TELEMARKETING
rara
INTERN
cima
Temp
sancion
elucidativa
Excelentíssimo
aero
BLO
ENDE
conduzido
##iológico
Aer
Acidente
ILMAR
Empregado
migração
##enn
apen
embut
Arbit
concomitantes
Ronal
##679
##079
substituiu
PATRIMONIAL
INTERCORRENTE
ct
conting
impressão
desenvolveu
sê
ajustada
Revo
NORMAT
Embargada
abordam
Consulta
condene
##ÚRG
sucumbencial
##oplasia
Pondera
durado
reduzindo
celebraram
##bol
LAN
TEX
JEFFERSON
taxativos
##ilhões
Boa
##EDOR
furtar
Militares
ultrapassam
exemplificativamente
##iriam
valia
permitia
GUERRA
##GS
0044
##909
vertido
ofertadas
##ilio
camp
Cavalcanti
##itida
englob
BANDEIRA
COS
##udou
##642
IMPLE
gratuito
contribuindo
incompleta
dezenove
detenha
esgotada
sintetizada
concursados
afecções
MURI
abon
44ª
falsos
##662
Criminais
INCENT
CONVÊNIO
reajustado
ADOLESCENTE
reputado
##659
sistemático
obscuridades
ofen
##trizes
reafirmação
##cionante
Esg
apresentem
encaminhar
saudoso
Can
suso
acad
##886
QUEBRA
##ESSOAL
arbitrariedade
inepta
POUPANÇA
PERMIT
homog
Agro
TERÇO
EDUCA
impediria
perfazendo
VAGAS
SP15
invocou
letras
decorrendo
temperatura
dila
Intervalo
estilo
ASSESSORIA
GROSS
##valdo
explanado
explicitados
DETERMINADO
##rul
NEGADO
ENTRADA
Adoles
corroborou
autêntica
arte
velocidade
##reas
Nery
##váveis
intelecção
ponderou
CONDOMIN
Prequestionamento
##amb
##URIS
Luz
Déb
comentários
identificou
antecipatória
Pass
plu
concorrer
##ilep
demonstrativos
##MULO
abordados
procrast
IRRETROATIVIDADE
continuação
MESES
SENA
Wil
moradores
nulos
AMÉ
enumerados
significativas
incorreta
contestou
##samente
embara
indigitada
8h
IRREGULAR
morta
##879
INTEGRANTE
RECEBIDA
notificado
Prevaleceu
CONCEITO
visem
arromb
##ÇAO
##992
constem
rechaçar
Fixo
BEB
mantêm
gerenciamento
DUTRA
retó
burla
homogeneidade
genitores
##juste
##lhimento
Considero
temerária
##alizam
audito
DIVERSO
encaminhando
possuíam
link
AVISO
preventivamente
INTERLOCUTÓRIA
ininterrupta
pesando
1308
##20134
RENAVAM
ENERG
SMP
Despa
MERECE
ombros
articuladas
##ceramento
creche
##itudes
##934
calam
##sal
equivaleria
preservando
##ÇADO
interpretadas
detração
mobilidade
incisiva
cad
departamento
assecu
##672
RECUPERACAO
ajudante
reservou
patrocinadora
édito
Argui
contenção
TRU
TRAT
sr
discuta
##tentes
perme
##IVALDO
alcançou
##itidos
anta
##9999
saliento
comunicando
sólidos
campesino
analista
##RISSA
esgota
norteadores
cho
esgotou
OPORT
espontâneo
##ok
mitigar
pista
PEQU
homologatória
escritórios
invalida
semestre
MOA
##brais
trintenário
##DULA
##777
deferindo
apontamentos
Face
BRUNA
##dier
##URAIS
embarcação
##953
englobando
generalidade
##NTARA
##chi
##êmico
##ERIORES
deslocamentos
Vida
vas
##chamento
prele
##ITÁRIO
0161
fragmentos
declinados
indene
manifest
Expedi
DOLO
fundiária
debatidos
milhão
apresentava
demitido
ultrapassem
POSTAL
trimestral
AME
COUTO
##borah
##âmbulo
Infra
REB
##MR
impositiva
típicos
presidencial
ESTUP
CONCOR
##ÂMET
##737
remição
AQUISIÇÃO
depositar
totum
manifestarem
extrapatrimoniais
hediondos
INTRAN
animus
SAM
Executado
produzirá
beneficiando
EMENTÁRIO
##cf
Massa
expendida
erg
você
Apresentada
transcorreu
CONSTITU
##FIM
demandando
vac
compelir
oste
PEJUS
Ru
SANDRO
aufere
SP23
rigorosa
periodicamente
Tocant
##ceamento
##árma
quanti
SH
PARÂMET
veicular
reforçado
Partindo
VENCIDO
##bouças
DELEG
eletrodomésticos
persistência
mult
sozinho
ABUSO
Apreensão
compensado
DEFERIDA
##ilepsia
cari
Particular
DESPROVEJO
MÃO
INVESTIMENTO
##lição
MARTIN
Guimar
declinar
##ke
estruturas
precarização
disponibilizada
Pesqu
AUXILIADORA
congela
decorridos
adicionado
condenará
aglom
utilize
Santana
##970
GMKA
567985
lotação
##SATO
sanitário
##quara
imiscuir
HAMILTON
ilustram
saiu
VÁL
afastamentos
equiparam
##esão
##ndest
EROS
voz
saldamento
Inclusão
1424
normatização
##Fed
0089
REFORMATIO
rescindido
Campina
##elham
##fes
questionou
amar
afer
biênio
FURTADO
liminares
##ALHA
VANDER
0800
educacional
AFERIÇÃO
Verificado
peixes
tende
subscreve
reintegra
##mbol
prospec
DEZENA
CONSTANTE
clandest
depor
##632
OMIS
##BERG
concessivo
ESTÁVEL
Movimentações
##jam
individualizar
UNIPESSOAL
injustificado
afirmativo
protetivo
##3200
compuseram
GODO
INVENTARIA
integrativo
Zona
BENEFIC
infracionais
INVENTARIANTE
CMN
ESTABIL
PROV
perigoso
TÉRMICA
estruturada
receptação
vertebral
Tol
agroindustriais
debeatur
PCA
Recai
CÉDULA
DUPLA
controvertidos
ACERVO
SÁ
nona
RESCINDEN
credito
farta
equiparar
ESSENCIAL
Natureza
fax
permanecia
mentais
intermunicipal
reforçada
citou
##646
eliminando
OPERAÇÕES
##rigação
tradição
reduziu
soberanamente
societário
DOMIC
burocr
Tavares
renovando
Guimarães
afrontar
retratado
detectada
ideológica
macular
48135
Tocantins
incerto
##cionalmente
##ÊNE
##876
##serção
solicitados
CONVERTIDA
agroindustrial
cadastra
indeferindo
próximos
imputações
00003
dedicava
hipertensão
assemelha
Criança
##QUITA
repercutir
##⁄2009
##iosas
SOLIDA
subse
condicionou
encarceramento
brasileiras
MAC
##util
CONSEQU
privilegia
##pendente
RAZOÁVEL
RC
##TEL
Resul
Naquele
insertas
Lit
##MIRO
docs
ESTRANGEIRA
MOACIR
Plena
##zevedo
incapacitam
Aparecida
impropriedade
##372
aposenta
placa
SEGURADA
Queiro
Mana
contribuí
##ndividamento
majoro
GDPST
obstrução
BN
inexpress
interven
anexadas
fracionários
incorporam
##648
LEÃO
racionalização
continha
ineficiência
atentando
HE
explos
14º
punho
ingressado
necessitam
MESQUITA
Econômicos
retroage
positivado
##eiramente
convite
preposta
Contagem
consubstanciando
acautela
INSALUBRE
interjornada
##555
harmônica
Expedientes
AZ
ficaria
recupera
SUBSTITUTO
lidera
CEEE
abstenção
ESTUPRO
##féri
CONVENÇÃO
gruposgr
hipoté
irreversibilidade
##669
AERO
parceiro
improv
##2013
##RITOS
##comunicação
DF05
IRRECORRIBILIDADE
0060
disponibilizados
AGROPEC
##ciante
determinei
armada
OBT
Condenar
prefa
irregulares
combustíveis
abandon
##MINATÓRIA
processualmente
conjugada
pront
AST
lê
##MINO
2oPara
##STECIMENTO
FORT
desocup
informados
INADMIT
provejo
##ésima
compostos
##IÇÕES
Parente
liberado
contribuído
coexistência
20087251
protestos
Forte
Fiscais
##ILDA
equilibrado
CORRESPOND
Duprat
CONFIGURADOS
ambientes
instrutória
Rebouças
Quem
oneroso
tamanho
RECLUSÃO
contraca
estorno
reconsid
IMPLANT
descrever
Ciência
penosas
FINAN
Uniform
salvaguardar
Ultrapassada
##iada
095
esto
concluíram
VIS
PREVIDENCIÁRIAS
##NTROV
imune
concorrencial
LÍCITA
##´s
##ficantes
aprendizagem
inquirição
seio
provi
CELETISTAS
DNA
EXTRADIÇÃO
inexequ
solteiro
resíd
Marinha
aplicaria
SUPLE
crucial
Autores
assumida
cristalina
REGULAMENTAR
Industrial
##irre
TERRA
Assiste
relax
Imperi
falecer
lº
##balho
compensadas
PRIVIL
contraprova
DIOGO
abrangem
sigil
SATIS
dotados
CRISTIANE
absorção
lotados
Evidentemente
usada
apoiou
responderão
##LTON
abstratamente
rate
excepcionar
fiquem
Licenciado
ilíqu
vasta
DOMICÍLIO
##NDI
##cipo
adentrou
Delegado
Entidade
solicita
1968
emolu
Determinar
infecção
Diferentemente
subsistindo
[...]
